{
  "version": "1.0",
  "truncation": null,
  "padding": null,
  "added_tokens": [
    {
      "id": 20000,
      "content": "<|endoftext|>",
      "single_word": false,
      "lstrip": false,
      "rstrip": false,
      "normalized": false,
      "special": true
    }
  ],
  "normalizer": null,
  "pre_tokenizer": {
    "type": "ByteLevel",
    "add_prefix_space": false,
    "trim_offsets": true,
    "use_regex": true
  },
  "post_processor": {
    "type": "TemplateProcessing",
    "single": [
      {
        "Sequence": {
          "id": "A",
          "type_id": 0
        }
      }
    ],
    "pair": [
      {
        "Sequence": {
          "id": "A",
          "type_id": 0
        }
      },
      {
        "Sequence": {
          "id": "B",
          "type_id": 1
        }
      }
    ],
    "special_tokens": {}
  },
  "decoder": {
    "type": "ByteLevel",
    "add_prefix_space": true,
    "trim_offsets": true,
    "use_regex": true
  },
  "model": {
    "type": "BPE",
    "dropout": null,
    "unk_token": null,
    "continuing_subword_prefix": "",
    "end_of_word_suffix": "",
    "fuse_unk": false,
    "byte_fallback": false,
    "ignore_merges": false,
    "vocab": {
      "<s>": 0,
      "<pad>": 1,
      "</s>": 2,
      "<unk>": 3,
      "<mask>": 4,
      "!": 5,
      "\"": 6,
      "#": 7,
      "$": 8,
      "%": 9,
      "&": 10,
      "'": 11,
      "(": 12,
      ")": 13,
      "*": 14,
      "+": 15,
      ",": 16,
      "-": 17,
      ".": 18,
      "/": 19,
      "0": 20,
      "1": 21,
      "2": 22,
      "3": 23,
      "4": 24,
      "5": 25,
      "6": 26,
      "7": 27,
      "8": 28,
      "9": 29,
      ":": 30,
      ";": 31,
      "<": 32,
      "=": 33,
      ">": 34,
      "?": 35,
      "@": 36,
      "A": 37,
      "B": 38,
      "C": 39,
      "D": 40,
      "E": 41,
      "F": 42,
      "G": 43,
      "H": 44,
      "I": 45,
      "J": 46,
      "K": 47,
      "L": 48,
      "M": 49,
      "N": 50,
      "O": 51,
      "P": 52,
      "Q": 53,
      "R": 54,
      "S": 55,
      "T": 56,
      "U": 57,
      "V": 58,
      "W": 59,
      "X": 60,
      "Y": 61,
      "Z": 62,
      "[": 63,
      "\\": 64,
      "]": 65,
      "^": 66,
      "_": 67,
      "`": 68,
      "a": 69,
      "b": 70,
      "c": 71,
      "d": 72,
      "e": 73,
      "f": 74,
      "g": 75,
      "h": 76,
      "i": 77,
      "j": 78,
      "k": 79,
      "l": 80,
      "m": 81,
      "n": 82,
      "o": 83,
      "p": 84,
      "q": 85,
      "r": 86,
      "s": 87,
      "t": 88,
      "u": 89,
      "v": 90,
      "w": 91,
      "x": 92,
      "y": 93,
      "z": 94,
      "{": 95,
      "|": 96,
      "}": 97,
      "~": 98,
      "¡": 99,
      "¢": 100,
      "£": 101,
      "¤": 102,
      "¥": 103,
      "¦": 104,
      "§": 105,
      "¨": 106,
      "©": 107,
      "ª": 108,
      "«": 109,
      "¬": 110,
      "®": 111,
      "¯": 112,
      "°": 113,
      "±": 114,
      "²": 115,
      "³": 116,
      "´": 117,
      "µ": 118,
      "¶": 119,
      "·": 120,
      "¸": 121,
      "¹": 122,
      "º": 123,
      "»": 124,
      "¼": 125,
      "½": 126,
      "¾": 127,
      "¿": 128,
      "À": 129,
      "Á": 130,
      "Â": 131,
      "Ã": 132,
      "Ä": 133,
      "Å": 134,
      "Æ": 135,
      "Ç": 136,
      "È": 137,
      "É": 138,
      "Ê": 139,
      "Ë": 140,
      "Ì": 141,
      "Í": 142,
      "Î": 143,
      "Ï": 144,
      "Ð": 145,
      "Ñ": 146,
      "Ò": 147,
      "Ó": 148,
      "Ô": 149,
      "Õ": 150,
      "Ö": 151,
      "×": 152,
      "Ø": 153,
      "Ù": 154,
      "Ú": 155,
      "Û": 156,
      "Ü": 157,
      "Ý": 158,
      "Þ": 159,
      "ß": 160,
      "à": 161,
      "á": 162,
      "â": 163,
      "ã": 164,
      "ä": 165,
      "å": 166,
      "æ": 167,
      "ç": 168,
      "è": 169,
      "é": 170,
      "ê": 171,
      "ë": 172,
      "ì": 173,
      "í": 174,
      "î": 175,
      "ï": 176,
      "ð": 177,
      "ñ": 178,
      "ò": 179,
      "ó": 180,
      "ô": 181,
      "õ": 182,
      "ö": 183,
      "÷": 184,
      "ø": 185,
      "ù": 186,
      "ú": 187,
      "û": 188,
      "ü": 189,
      "ý": 190,
      "þ": 191,
      "ÿ": 192,
      "Ā": 193,
      "ā": 194,
      "Ă": 195,
      "ă": 196,
      "Ą": 197,
      "ą": 198,
      "Ć": 199,
      "ć": 200,
      "Ĉ": 201,
      "ĉ": 202,
      "Ċ": 203,
      "ċ": 204,
      "Č": 205,
      "č": 206,
      "Ď": 207,
      "ď": 208,
      "Đ": 209,
      "đ": 210,
      "Ē": 211,
      "ē": 212,
      "Ĕ": 213,
      "ĕ": 214,
      "Ė": 215,
      "ė": 216,
      "Ę": 217,
      "ę": 218,
      "Ě": 219,
      "ě": 220,
      "Ĝ": 221,
      "ĝ": 222,
      "Ğ": 223,
      "ğ": 224,
      "Ġ": 225,
      "ġ": 226,
      "Ģ": 227,
      "ģ": 228,
      "Ĥ": 229,
      "ĥ": 230,
      "Ħ": 231,
      "ħ": 232,
      "Ĩ": 233,
      "ĩ": 234,
      "Ī": 235,
      "ī": 236,
      "Ĭ": 237,
      "ĭ": 238,
      "Į": 239,
      "į": 240,
      "İ": 241,
      "ı": 242,
      "Ĳ": 243,
      "ĳ": 244,
      "Ĵ": 245,
      "ĵ": 246,
      "Ķ": 247,
      "ķ": 248,
      "ĸ": 249,
      "Ĺ": 250,
      "ĺ": 251,
      "Ļ": 252,
      "ļ": 253,
      "Ľ": 254,
      "ľ": 255,
      "Ŀ": 256,
      "ŀ": 257,
      "Ł": 258,
      "ł": 259,
      "Ń": 260,
      "ï¼": 261,
      "ï¼Į": 262,
      "ä¸": 263,
      "ãĢ": 264,
      "çļ": 265,
      "çļĦ": 266,
      "åı": 267,
      "ãĢĤ": 268,
      "æľ": 269,
      "çĹ": 270,
      "å¤": 271,
      "çĶ": 272,
      "äº": 273,
      "ãĢģ": 274,
      "æĺ": 275,
      "èĤ": 276,
      "æĢ": 277,
      "åĲ": 278,
      "ç»": 279,
      "ä½": 280,
      "è¿": 281,
      "åĪ": 282,
      "ä»": 283,
      "åħ": 284,
      "çĸ": 285,
      "èĥ": 286,
      "å°": 287,
      "æĢ§": 288,
      "å®": 289,
      "æĺ¯": 290,
      "è¡": 291,
      "æľī": 292,
      "æĹ": 293,
      "çĹħ": 294,
      "ä¹": 295,
      "ä¸į": 296,
      "åĬ": 297,
      "èĢ": 298,
      "æĪ": 299,
      "ä¼": 300,
      "åı¯": 301,
      "ä¸Ģ": 302,
      "åĽ": 303,
      "åĩ": 304,
      "çĶŁ": 305,
      "æ²": 306,
      "åº": 307,
      "å¸": 308,
      "¦ģ": 309,
      "åŃ": 310,
      "ä»¥": 311,
      "å¼": 312,
      "è¦ģ": 313,
      "çİ": 314,
      "åıĳ": 315,
      "åľ": 316,
      "çī": 317,
      "éĩ": 318,
      "èħ": 319,
      "å¯": 320,
      "åĨ": 321,
      "åĴ": 322,
      "æĹ¶": 323,
      "æ³": 324,
      "èĦ": 325,
      "ç§": 326,
      "è§": 327,
      "éĢ": 328,
      "åĮ": 329,
      "æĦ": 330,
      "åį": 331,
      "åľ¨": 332,
      "èĥ½": 333,
      "çĹĩ": 334,
      "çĸĹ": 335,
      "å¹": 336,
      "æ²»": 337,
      "æī": 338,
      "è¯": 339,
      "å¦": 340,
      "çĤ": 341,
      "å¤ļ": 342,
      "è¡Ģ": 343,
      "åĴĮ": 344,
      "å¾": 345,
      "çĬ": 346,
      "å¸¸": 347,
      "çĶ¨": 348,
      "çĬ¶": 349,
      "çİ°": 350,
      "ä¸º": 351,
      "èĩ": 352,
      "éĥ": 353,
      "æĸ": 354,
      "åĩº": 355,
      "æŁ": 356,
      "èĢħ": 357,
      "æ¯": 358,
      "ä½ĵ": 359,
      "æ²»çĸĹ": 360,
      "åİ": 361,
      "æĪĸ": 362,
      "æ°": 363,
      "Ĥ£": 364,
      "æŃ": 365,
      "é£": 366,
      "ä¼ļ": 367,
      "åĲİ": 368,
      "åĽł": 369,
      "çī©": 370,
      "æŀ": 371,
      "ç´": 372,
      "çĤİ": 373,
      "å¿": 374,
      "äºİ": 375,
      "è¾": 376,
      "å½": 377,
      "å¤§": 378,
      "çŃ": 379,
      "éĺ": 380,
      "å¥": 381,
      "çĻ": 382,
      "çĽ": 383,
      "æķ": 384,
      "é£Ł": 385,
      "æĤ£": 386,
      "éĻ": 387,
      "çŃī": 388,
      "äºº": 389,
      "å¦Ĥ": 390,
      "ä¸Ń": 391,
      "æĬ": 392,
      "éģ": 393,
      "å·": 394,
      "é¢": 395,
      "åĪĨ": 396,
      "æĿ": 397,
      "éĿ": 398,
      "éĹ": 399,
      "èį": 400,
      "æľŁ": 401,
      "è¿ĩ": 402,
      "éĥ¨": 403,
      "æĥ": 404,
      "åıĬ": 405,
      "æ¶": 406,
      "èµ": 407,
      "åī": 408,
      "å¯¹": 409,
      "åĳ": 410,
      "åĨħ": 411,
      "æł": 412,
      "ç´ł": 413,
      "ç»ı": 414,
      "ä¸Ĭ": 415,
      "æ´": 416,
      "æİ": 417,
      "ä¸ĭ": 418,
      "ä¾": 419,
      "æĮ": 420,
      "æĦŁ": 421,
      "æµ": 422,
      "æĤ£èĢħ": 423,
      "ç²": 424,
      "æŀľ": 425,
      "åºĶ": 426,
      "éĩį": 427,
      "ç§į": 428,
      "èį¯": 429,
      "èµ·": 430,
      "åŃĲ": 431,
      "è¿Ļ": 432,
      "é«": 433,
      "æĪĲ": 434,
      "ä¹Ł": 435,
      "åı¯ä»¥": 436,
      "éħ": 437,
      "çĹĩçĬ¶": 438,
      "çĹĽ": 439,
      "çº": 440,
      "çļ®": 441,
      "è´": 442,
      "èĢĮ": 443,
      "ï¼ļ": 444,
      "åģ": 445,
      "è¿Ľ": 446,
      "èĨ": 447,
      "åĩºçİ°": 448,
      "åĮĸ": 449,
      "å°¿": 450,
      "çĲ": 451,
      "èĤ¿": 452,
      "ç³": 453,
      "å®«": 454,
      "é«ĺ": 455,
      "èħº": 456,
      "èĤĿ": 457,
      "çĺ": 458,
      "å¼ķ": 459,
      "åĪ°": 460,
      "æ¸": 461,
      "æ°´": 462,
      "å¿ĥ": 463,
      "å°±": 464,
      "æŁĵ": 465,
      "ç®": 466,
      "æĥħ": 467,
      "å¢": 468,
      "åĬ¨": 469,
      "éĩı": 470,
      "è¡Į": 471,
      "å¤ĸ": 472,
      "åĵ": 473,
      "éķ": 474,
      "èı": 475,
      "éļ": 476,
      "å±": 477,
      "äºĨ": 478,
      "åħ¶": 479,
      "æ£": 480,
      "çĥ": 481,
      "èĩ´": 482,
      "æĸ¹": 483,
      "ä¸ª": 484,
      "ç»Ĩ": 485,
      "æĶ": 486,
      "ä½ľ": 487,
      "ï¼Ł": 488,
      "èī": 489,
      "ç®¡": 490,
      "å°ı": 491,
      "ä¿": 492,
      "ç¼": 493,
      "è®": 494,
      "äºĽ": 495,
      "è½": 496,
      "æľ¯": 497,
      "èº": 498,
      "æģ": 499,
      "æ´»": 500,
      "æĦı": 501,
      "æ£Ģ": 502,
      "çĿ": 503,
      "çĲĨ": 504,
      "å¢ŀ": 505,
      "çĸ¾": 506,
      "å¼ķèµ·": 507,
      "å®ļ": 508,
      "å¥½": 509,
      "æ³¨": 510,
      "åĲĪ": 511,
      "åıĺ": 512,
      "æŁ¥": 513,
      "åīį": 514,
      "éģĵ": 515,
      "çľ": 516,
      "åİŁ": 517,
      "æį": 518,
      "è¾ĥ": 519,
      "çĸ¾çĹħ": 520,
      "æīĭ": 521,
      "æ¿": 522,
      "åº¦": 523,
      "æ¿Ģ": 524,
      "èĬ": 525,
      "éĹ´": 526,
      "è¡¨": 527,
      "éª": 528,
      "èº«": 529,
      "å°ĳ": 530,
      "çĻ½": 531,
      "å¯¼": 532,
      "éľ": 533,
      "ä¸»": 534,
      "éķ¿": 535,
      "å¾Ī": 536,
      "åĬł": 537,
      "åĬĽ": 538,
      "ç»ĵ": 539,
      "ä¹Ī": 540,
      "çĶ²": 541,
      "æĿ¥": 542,
      "èĨľ": 543,
      "æīĢ": 544,
      "è´¨": 545,
      "æ¯Ĵ": 546,
      "æ³ķ": 547,
      "åĮ»": 548,
      "åĲĮ": 549,
      "æĦŁæŁĵ": 550,
      "å¤į": 551,
      "è§ģ": 552,
      "å¹¶": 553,
      "é¥": 554,
      "éĺ´": 555,
      "åĿ": 556,
      "åŀ": 557,
      "äº§": 558,
      "ä½¿": 559,
      "æĭ": 560,
      "ç¥": 561,
      "å¦Ĥæŀľ": 562,
      "åı¯èĥ½": 563,
      "åħ³": 564,
      "ä¸İ": 565,
      "ç±": 566,
      "èĩª": 567,
      "è¿ĺ": 568,
      "æ£ĢæŁ¥": 569,
      "åĲĥ": 570,
      "éĿ¢": 571,
      "åıĳçĶŁ": 572,
      "ç¡": 573,
      "æ¶²": 574,
      "è¶": 575,
      "çĶ±": 576,
      "æ³¨æĦı": 577,
      "åĬŁ": 578,
      "çĻĮ": 579,
      "èħ¹": 580,
      "èıĮ": 581,
      "ç¥ŀ": 582,
      "åħį": 583,
      "éĢļ": 584,
      "è°": 585,
      "èĪ": 586,
      "åŃķ": 587,
      "çĺ¤": 588,
      "æŃ£": 589,
      "ç²¾": 590,
      "èĤł": 591,
      "å¯¼èĩ´": 592,
      "èĥŀ": 593,
      "æ·": 594,
      "éľĢ": 595,
      "ä½Ĩ": 596,
      "èĥĥ": 597,
      "ä¹ĭ": 598,
      "æĹł": 599,
      "è¿Ľè¡Į": 600,
      "æ¯Ķ": 601,
      "å¥³": 602,
      "ç»Ĩèĥŀ": 603,
      "ä½į": 604,
      "æľĢ": 605,
      "æ¬": 606,
      "ç¨": 607,
      "æĺİ": 608,
      "å¹´": 609,
      "éĥ½": 610,
      "åįµ": 611,
      "åĬŁèĥ½": 612,
      "èĦĳ": 613,
      "å½¢": 614,
      "é¥®": 615,
      "åĦ": 616,
      "åĦ¿": 617,
      "æīĭæľ¯": 618,
      "é¢Ī": 619,
      "é£Łçī©": 620,
      "åĨµ": 621,
      "åĩı": 622,
      "ä¸»è¦ģ": 623,
      "æµģ": 624,
      "å¤´": 625,
      "æĺĵ": 626,
      "æħ": 627,
      "ç±»": 628,
      "èį¯çī©": 629,
      "åŀĭ": 630,
      "éª¨": 631,
      "é»": 632,
      "èĻ": 633,
      "ä¼¤": 634,
      "æĬĹ": 635,
      "åıĹ": 636,
      "åİĭ": 637,
      "èĤ¤": 638,
      "åı£": 639,
      "å½ĵ": 640,
      "èĬĤ": 641,
      "è¡¨çİ°": 642,
      "æ¶Ī": 643,
      "å¹³": 644,
      "åĢ": 645,
      "æ¸ħ": 646,
      "å½±": 647,
      "éĴ": 648,
      "æĽ": 649,
      "èĪ¬": 650,
      "åĪ¶": 651,
      "èĤĮ": 652,
      "èĲ": 653,
      "åŃĲå®«": 654,
      "ä¸ĢèĪ¬": 655,
      "æŃ¤": 656,
      "æľĪ": 657,
      "èī²": 658,
      "ä¿Ŀ": 659,
      "ï¼Ľ": 660,
      "è¯Ĭ": 661,
      "æĥħåĨµ": 662,
      "æķĪ": 663,
      "å¼Ĥ": 664,
      "ä¾¿": 665,
      "è§£": 666,
      "ä½İ": 667,
      "åĸ": 668,
      "ä¸¥": 669,
      "çĶŁæ´»": 670,
      "ç«": 671,
      "ç¢": 672,
      "æħ¢": 673,
      "æİĴ": 674,
      "éĻ¤": 675,
      "çļ®èĤ¤": 676,
      "æĹ©": 677,
      "çĶ²çĬ¶": 678,
      "æĮģ": 679,
      "åºĬ": 680,
      "åħ¨": 681,
      "éħ¸": 682,
      "å¸¦": 683,
      "çĦ": 684,
      "å¤©": 685,
      "æįŁ": 686,
      "éľĢè¦ģ": 687,
      "æĻ": 688,
      "çĶ²çĬ¶èħº": 689,
      "çĽ¸": 690,
      "åĽĬ": 691,
      "åıį": 692,
      "æ°Ķ": 693,
      "åĪº": 694,
      "çī¹": 695,
      "çĸ¼": 696,
      "éĢĤ": 697,
      "å¥³æĢ§": 698,
      "æĸŃ": 699,
      "æł·": 700,
      "èħĶ": 701,
      "æĺ¾": 702,
      "æ¬¡": 703,
      "ä»¬": 704,
      "æ®": 705,
      "çķ": 706,
      "ä¼ł": 707,
      "ä¸¥éĩį": 708,
      "æķ°": 709,
      "åģļ": 710,
      "å¤±": 711,
      "ç³ĸ": 712,
      "çŁ": 713,
      "æ³Į": 714,
      "ç¥ŀç»ı": 715,
      "åĳ¨": 716,
      "ç»´": 717,
      "åİŁåĽł": 718,
      "éĺ²": 719,
      "è°ĥ": 720,
      "çĥŃ": 721,
      "åŁ": 722,
      "åĵį": 723,
      "ç³»": 724,
      "æĮĩ": 725,
      "ä¸ĢäºĽ": 726,
      "é¥®é£Ł": 727,
      "æĢ¥": 728,
      "æľ¬": 729,
      "å½±åĵį": 730,
      "æŃ£å¸¸": 731,
      "åħ¥": 732,
      "æ±": 733,
      "æĸ¹æ³ķ": 734,
      "çª": 735,
      "âĢ": 736,
      "çĸ¹": 737,
      "èĭ": 738,
      "èĦī": 739,
      "èĤ¾": 740,
      "ç»Ħ": 741,
      "æº": 742,
      "èĽ": 743,
      "èĤī": 744,
      "çĸ¼çĹĽ": 745,
      "ç¨ĭ": 746,
      "ä»Ģ": 747,
      "çĶ±äºİ": 748,
      "ä½ľçĶ¨": 749,
      "ä»Ģä¹Ī": 750,
      "éĢł": 751,
      "ä¸Ģç§į": 752,
      "é¡": 753,
      "ä¸´": 754,
      "åĩºè¡Ģ": 755,
      "å®¹": 756,
      "åħ»": 757,
      "åĮħ": 758,
      "èĩ³": 759,
      "èº«ä½ĵ": 760,
      "çĦ¶": 761,
      "ç§¯": 762,
      "çĹħæ¯Ĵ": 763,
      "è½»": 764,
      "ä¸Ķ": 765,
      "å¸¸è§ģ": 766,
      "éģ¿": 767,
      "åŃ¦": 768,
      "åĪ«": 769,
      "çº¢": 770,
      "æ»": 771,
      "æı": 772,
      "ä¸Ģå®ļ": 773,
      "ä¸´åºĬ": 774,
      "çĹħäºº": 775,
      "åĪĨæ³Į": 776,
      "æ¤": 777,
      "è¯¥": 778,
      "æľį": 779,
      "èĤ²": 780,
      "è±": 781,
      "å¾Ĺ": 782,
      "åĵģ": 783,
      "æİ¥": 784,
      "åĪºæ¿Ģ": 785,
      "èī¯": 786,
      "ä»ĸ": 787,
      "èĦĤ": 788,
      "å®«é¢Ī": 789,
      "èĽĭ": 790,
      "ç©": 791,
      "åĲ¸": 792,
      "æ²¡": 793,
      "æĹ¶éĹ´": 794,
      "å¦ĩ": 795,
      "çĽ´": 796,
      "æ¯Ķè¾ĥ": 797,
      "éĿŀ": 798,
      "æ¿Ģç´ł": 799,
      "æĪĳ": 800,
      "èĤ¿çĺ¤": 801,
      "ç¡®": 802,
      "è¯´": 803,
      "æĽ´": 804,
      "å»": 805,
      "ä¸ī": 806,
      "çİĩ": 807,
      "ï¼Ī": 808,
      "å®¶": 809,
      "å¤Ħ": 810,
      "å¼º": 811,
      "æīĢä»¥": 812,
      "ï¼ī": 813,
      "æħ¢æĢ§": 814,
      "éģ¿åħį": 815,
      "æŃ¢": 816,
      "éĶ": 817,
      "çģ": 818,
      "æĪĸèĢħ": 819,
      "åİ»": 820,
      "æł¹": 821,
      "éĻį": 822,
      "åĲ«": 823,
      "æ¯ı": 824,
      "åĪĻ": 825,
      "åĽłä¸º": 826,
      "åĪĩ": 827,
      "æ²¡æľī": 828,
      "æ¢": 829,
      "ç»ĩ": 830,
      "ä¸įè¦ģ": 831,
      "åŁº": 832,
      "èĥİ": 833,
      "å®³": 834,
      "é¢Ħ": 835,
      "ä»İ": 836,
      "éĢłæĪĲ": 837,
      "åĪĹ": 838,
      "ç»Ħç»ĩ": 839,
      "åľ°": 840,
      "æĺİæĺ¾": 841,
      "çĤİçĹĩ": 842,
      "çļĦçĹĩçĬ¶": 843,
      "æģ¯": 844,
      "å®¹æĺĵ": 845,
      "å®Ŀ": 846,
      "éĻ¢": 847,
      "ä¾§": 848,
      "èĦı": 849,
      "åĽłç´ł": 850,
      "çĤ¹": 851,
      "æ¹": 852,
      "éĢļè¿ĩ": 853,
      "åħĪ": 854,
      "ç§ĳ": 855,
      "ä¹³": 856,
      "çļĦæ²»çĸĹ": 857,
      "è½¬": 858,
      "è¯ĬæĸŃ": 859,
      "æĹ¥": 860,
      "è¿Ļç§į": 861,
      "çł": 862,
      "åıĬæĹ¶": 863,
      "ä¸įèĥ½": 864,
      "äºĮ": 865,
      "è£": 866,
      "è§Ħ": 867,
      "èĽĭçĻ½": 868,
      "åĢĻ": 869,
      "æ¹¿": 870,
      "çĿ¾": 871,
      "åıĳçĹħ": 872,
      "ä¸įåĲĮ": 873,
      "è¢": 874,
      "çĸ«": 875,
      "åĻ": 876,
      "æĶ¹": 877,
      "é»Ħ": 878,
      "èĮ": 879,
      "ä¸¤": 880,
      "æľº": 881,
      "ä¸Ģä¸ª": 882,
      "å°±æĺ¯": 883,
      "çĿĢ": 884,
      "å¹²": 885,
      "ä¼´": 886,
      "æĢ¥æĢ§": 887,
      "å£": 888,
      "çİ¯": 889,
      "éĺ´éģĵ": 890,
      "å¼Ģ": 891,
      "åħ·": 892,
      "æģ¶": 893,
      "å®ĥ": 894,
      "å®ŀ": 895,
      "èĤĽ": 896,
      "çļĦé£Łçī©": 897,
      "å¯¹äºİ": 898,
      "æķı": 899,
      "åģ¥": 900,
      "åº·": 901,
      "éļľ": 902,
      "æĶ¾": 903,
      "æĹ¶åĢĻ": 904,
      "ç»Ł": 905,
      "å¾ģ": 906,
      "åºĶè¯¥": 907,
      "æıĲ": 908,
      "èĤº": 909,
      "çĶ·": 910,
      "è¿Ĳ": 911,
      "ä»¥åıĬ": 912,
      "åĮ»éĻ¢": 913,
      "è·": 914,
      "ç¼º": 915,
      "è¡Ģç®¡": 916,
      "çľ¼": 917,
      "éĤ£": 918,
      "ç§°": 919,
      "ä½¿çĶ¨": 920,
      "æľĪç»ı": 921,
      "æį®": 922,
      "ç¢į": 923,
      "åį³": 924,
      "å°Ħ": 925,
      "æĪĳä»¬": 926,
      "ç¬": 927,
      "å±Ģ": 928,
      "å¼ķèµ·çļĦ": 929,
      "åĻ¨": 930,
      "éļ¾": 931,
      "å¼ł": 932,
      "å¾Īå¤ļ": 933,
      "åīĤ": 934,
      "ç¼©": 935,
      "èĦ±": 936,
      "ç¾": 937,
      "è¾ĵ": 938,
      "è§ī": 939,
      "éĢī": 940,
      "éĹ¨": 941,
      "ç»Ļ": 942,
      "å½¢æĪĲ": 943,
      "ç¼ĵ": 944,
      "èıľ": 945,
      "å¼Ĥå¸¸": 946,
      "åĲĦ": 947,
      "é¾": 948,
      "é¦": 949,
      "åĲĮæĹ¶": 950,
      "åħįçĸ«": 951,
      "è¢«": 952,
      "åŃĺ": 953,
      "åıĳçİ°": 954,
      "çĹħæĥħ": 955,
      "å¢ŀåĬł": 956,
      "éļľç¢į": 957,
      "åıª": 958,
      "ï½": 959,
      "æ·ĭ": 960,
      "å·±": 961,
      "åħ¶ä»ĸ": 962,
      "åĬ©": 963,
      "åīįåĪĹ": 964,
      "éº": 965,
      "çĶŁç´ł": 966,
      "éĿĻ": 967,
      "åħħ": 968,
      "ä»£": 969,
      "ï½ŀ": 970,
      "å¿ħ": 971,
      "å·¢": 972,
      "éĽ": 973,
      "æŀģ": 974,
      "è§Ĩ": 975,
      "æĢģ": 976,
      "èĩªå·±": 977,
      "è¶³": 978,
      "åīįåĪĹèħº": 979,
      "åŃ©": 980,
      "éħĴ": 981,
      "åįµå·¢": 982,
      "æĳ": 983,
      "åĩıå°ĳ": 984,
      "å¨": 985,
      "ç½": 986,
      "è±¡": 987,
      "å¾Ģ": 988,
      "æ´Ĺ": 989,
      "çĹħåıĺ": 990,
      "çĿ¡": 991,
      "æŃ»": 992,
      "åħ³èĬĤ": 993,
      "ä¸¸": 994,
      "çĽ®": 995,
      "åįķ": 996,
      "è¶ħ": 997,
      "ç¡¬": 998,
      "åĨį": 999,
      "äº§çĶŁ": 1000,
      "æĺ¯ä»Ģä¹Ī": 1001,
      "åıĸ": 1002,
      "æĸ°": 1003,
      "é¢Ħéĺ²": 1004,
      "ä¿ĥ": 1005,
      "æĬĳ": 1006,
      "éļı": 1007,
      "æĢ§çļĦ": 1008,
      "çľĭ": 1009,
      "å°Ĩ": 1010,
      "æĦĪ": 1011,
      "çªģ": 1012,
      "ç³»ç»Ł": 1013,
      "å°½": 1014,
      "éĥ¨ä½į": 1015,
      "éĺ³": 1016,
      "è¿ĲåĬ¨": 1017,
      "èħ°": 1018,
      "ä¹Ļ": 1019,
      "éĥ¨åĪĨ": 1020,
      "äºĭ": 1021,
      "ç¬¬": 1022,
      "å¥½çļĦ": 1023,
      "éĹ®": 1024,
      "åĳĪ": 1025,
      "æĹ©æľŁ": 1026,
      "æĬ¤": 1027,
      "è¡¥": 1028,
      "æįŁä¼¤": 1029,
      "ç²ĺ": 1030,
      "åĲĳ": 1031,
      "åĽłæŃ¤": 1032,
      "å¿«": 1033,
      "æ¯Ľ": 1034,
      "ä½Ĩæĺ¯": 1035,
      "èĥĢ": 1036,
      "é£İ": 1037,
      "èĲ¥": 1038,
      "æĭ¬": 1039,
      "æĢĢ": 1040,
      "å·´": 1041,
      "¢å¤į": 1042,
      "é¼": 1043,
      "æģ¢å¤į": 1044,
      "10": 1045,
      "åıįåºĶ": 1046,
      "æ¤İ": 1047,
      "çĽĨ": 1048,
      "å¸¸è§ģçļĦ": 1049,
      "èĦĵ": 1050,
      "å¤Ł": 1051,
      "çĶļ": 1052,
      "éĩĩ": 1053,
      "ä¼ļåĩºçİ°": 1054,
      "ä¿ĿæĮģ": 1055,
      "åĪ©": 1056,
      "èĲ¥åħ»": 1057,
      "å·¥": 1058,
      "å±Ģéĥ¨": 1059,
      "çĿ¾ä¸¸": 1060,
      "æļ": 1061,
      "æł¸": 1062,
      "å¾®": 1063,
      "åģ¥åº·": 1064,
      "åĿĩ": 1065,
      "éº»": 1066,
      "åį±": 1067,
      "çĹĴ": 1068,
      "ç»Ń": 1069,
      "æ¶ĪåĮĸ": 1070,
      "æĢİ": 1071,
      "ç¤": 1072,
      "æĶ¶": 1073,
      "æ²¹": 1074,
      "å§": 1075,
      "ç²¾ç¥ŀ": 1076,
      "å®Į": 1077,
      "åĽ´": 1078,
      "å±ķ": 1079,
      "ç§»": 1080,
      "åĮº": 1081,
      "å»º": 1082,
      "éĿŀå¸¸": 1083,
      "çľł": 1084,
      "èĥĨ": 1085,
      "çļĦæĹ¶åĢĻ": 1086,
      "åħĭ": 1087,
      "è¡¨çİ°ä¸º": 1088,
      "åĮħæĭ¬": 1089,
      "è¾¾": 1090,
      "éĩįè¦ģ": 1091,
      "æł¹æį®": 1092,
      "ä¸Ģå®ļè¦ģ": 1093,
      "è¿ĻäºĽ": 1094,
      "è£Ĥ": 1095,
      "å¹³æĹ¶": 1096,
      "æīį": 1097,
      "èĻĳ": 1098,
      "éģĹ": 1099,
      "ä¸įèī¯": 1100,
      "æ¸©": 1101,
      "çĶļèĩ³": 1102,
      "ä¼ĳ": 1103,
      "è¯Ŀ": 1104,
      "éĤ£ä¹Ī": 1105,
      "æĢĢåŃķ": 1106,
      "éĨ": 1107,
      "åŃ©åŃĲ": 1108,
      "å¡": 1109,
      "æĸĳ": 1110,
      "éķ¿æľŁ": 1111,
      "çļĦæĥħåĨµ": 1112,
      "é¢ĺ": 1113,
      "æĢİä¹Ī": 1114,
      "æµĭ": 1115,
      "éĺ»": 1116,
      "è¿ĩæķı": 1117,
      "éĿĻèĦī": 1118,
      "æĭ©": 1119,
      "ä¹ł": 1120,
      "åĨħèĨľ": 1121,
      "ç»ĨèıĮ": 1122,
      "ç»¼": 1123,
      "åĩł": 1124,
      "æ´»åĬ¨": 1125,
      "ä¾ĭ": 1126,
      "éĢīæĭ©": 1127,
      "æİ§": 1128,
      "çīĩ": 1129,
      "æ¡": 1130,
      "åį«": 1131,
      "çº¤": 1132,
      "æ®ĸ": 1133,
      "çĲĥ": 1134,
      "çĶ·æĢ§": 1135,
      "ä¹Łæĺ¯": 1136,
      "è§¦": 1137,
      "å±ŀ": 1138,
      "éĹ®é¢ĺ": 1139,
      "åĽĬèĤ¿": 1140,
      "åıĳèĤ²": 1141,
      "å²": 1142,
      "éĢĢ": 1143,
      "å·¦": 1144,
      "åį«çĶŁ": 1145,
      "èĤª": 1146,
      "âĢľ": 1147,
      "å·²": 1148,
      "èĦĤèĤª": 1149,
      "è®®": 1150,
      "âĢĿ": 1151,
      "æĤ£èĢħçļĦ": 1152,
      "è¿ŀ": 1153,
      "çĹħåĽł": 1154,
      "ç»´çĶŁç´ł": 1155,
      "æ·ĭå·´": 1156,
      "çİ°è±¡": 1157,
      "æĺ¯ä¸Ģç§į": 1158,
      "è®¤": 1159,
      "çł´": 1160,
      "åĬ¨èĦī": 1161,
      "åı³": 1162,
      "æĻļ": 1163,
      "å¼ı": 1164,
      "å¤§çļĦ": 1165,
      "è¿Ļæł·": 1166,
      "è¾£": 1167,
      "å¤ļåĲĥ": 1168,
      "åıĳä½ľ": 1169,
      "æķĪæŀľ": 1170,
      "éªĮ": 1171,
      "ç¦": 1172,
      "åıĪ": 1173,
      "è§Ĥ": 1174,
      "èĥ¸": 1175,
      "å¡ŀ": 1176,
      "çļĦæĤ£èĢħ": 1177,
      "çĸ®": 1178,
      "èĢĮä¸Ķ": 1179,
      "å°¿éģĵ": 1180,
      "ä»¥ä¸Ĭ": 1181,
      "çļĦåİŁåĽł": 1182,
      "ä¼´æľī": 1183,
      "åĲ¦": 1184,
      "éĵ": 1185,
      "çº¤ç»´": 1186,
      "åįģ": 1187,
      "èĤĿçĤİ": 1188,
      "åĽĽ": 1189,
      "åĸĿ": 1190,
      "å»ºè®®": 1191,
      "åįĩ": 1192,
      "åĬ³": 1193,
      "åĮ»çĶŁ": 1194,
      "æ®µ": 1195,
      "ç¨ĭåº¦": 1196,
      "æľīæķĪ": 1197,
      "æİ§åĪ¶": 1198,
      "èĢģ": 1199,
      "æľīåħ³": 1200,
      "éĢļå¸¸": 1201,
      "è¡Ģæ¶²": 1202,
      "åħī": 1203,
      "è¥": 1204,
      "åĳ¼": 1205,
      "èĶ": 1206,
      "åįµç®¡": 1207,
      "æºĥ": 1208,
      "æĴ": 1209,
      "è¾ĵåįµç®¡": 1210,
      "æµģäº§": 1211,
      "éĢŁ": 1212,
      "éŁ": 1213,
      "åıĳæĢ§": 1214,
      "æĲ": 1215,
      "ä¼łæŁĵ": 1216,
      "çº¦": 1217,
      "ç»¼åĲĪ": 1218,
      "åħ·æľī": 1219,
      "åĬłéĩį": 1220,
      "èĤ¥": 1221,
      "å°±ä¼ļ": 1222,
      "èĤ¢": 1223,
      "äº¤": 1224,
      "æĸ¹éĿ¢": 1225,
      "é¼»": 1226,
      "è¶Ĭ": 1227,
      "çĽĨèħĶ": 1228,
      "åı¦": 1229,
      "æĶ¯": 1230,
      "è¿ĳ": 1231,
      "çº¿": 1232,
      "èĬ±": 1233,
      "åŃĲå®«åĨħèĨľ": 1234,
      "é¢ĳ": 1235,
      "çī¹åĪ«": 1236,
      "èĥ½å¤Ł": 1237,
      "ä¹ı": 1238,
      "çĸ±": 1239,
      "çļĦè¯Ŀ": 1240,
      "å¼±": 1241,
      "çĻ½å¸¦": 1242,
      "èģ": 1243,
      "å¦Ĭ": 1244,
      "è¯ģ": 1245,
      "è®©": 1246,
      "éĴĪ": 1247,
      "çħ": 1248,
      "è¥¿": 1249,
      "å¨ł": 1250,
      "ä»ħ": 1251,
      "å®Ŀå®Ŀ": 1252,
      "ä¹ĭåĲİ": 1253,
      "å¦Ĭå¨ł": 1254,
      "æĶ¹åıĺ": 1255,
      "é¦ĸ": 1256,
      "èĢĥ": 1257,
      "è¿Ļä¸ª": 1258,
      "èĳ": 1259,
      "20": 1260,
      "äººä½ĵ": 1261,
      "çĭ": 1262,
      "å¢ŀçĶŁ": 1263,
      "è¦ģæ³¨æĦı": 1264,
      "è¿ĺæľī": 1265,
      "ç¼ĵè§£": 1266,
      "æĿ¾": 1267,
      "åĳ¼åĲ¸": 1268,
      "å¤ļæķ°": 1269,
      "ä¹ħ": 1270,
      "éħ¶": 1271,
      "è¾Ľ": 1272,
      "ä¼ļæľī": 1273,
      "é¡»": 1274,
      "åįĬ": 1275,
      "åŃĺåľ¨": 1276,
      "ç³ĸå°¿": 1277,
      "é»ı": 1278,
      "æĥ¯": 1279,
      "ç±³": 1280,
      "ç¦»": 1281,
      "ä¹łæĥ¯": 1282,
      "æ°´æŀľ": 1283,
      "ä¹ĻèĤĿ": 1284,
      "åħ¨èº«": 1285,
      "åĨ·": 1286,
      "è½¯": 1287,
      "èĥ±": 1288,
      "å©": 1289,
      "æĪ¿": 1290,
      "æŃ¥": 1291,
      "çĹĺ": 1292,
      "çŁŃ": 1293,
      "ç´§": 1294,
      "çŁ¥": 1295,
      "ä¼ĳæģ¯": 1296,
      "åĽ½": 1297,
      "åĿı": 1298,
      "è§Ĵ": 1299,
      "å¤ª": 1300,
      "åĽ°": 1301,
      "åĿĹ": 1302,
      "èĨĢ": 1303,
      "åĹ": 1304,
      "è¿ĩç¨ĭ": 1305,
      "çĹĶ": 1306,
      "å»¶": 1307,
      "çĹħçļĦ": 1308,
      "æĥ³": 1309,
      "åģľ": 1310,
      "çĶµ": 1311,
      "æ¸Ĳ": 1312,
      "å°¤": 1313,
      "ç»§": 1314,
      "ä½ł": 1315,
      "æĮī": 1316,
      "åºķ": 1317,
      "çķĻ": 1318,
      "çĸ¡": 1319,
      "åĲĦç§į": 1320,
      "åĳ³": 1321,
      "åĲĲ": 1322,
      "æ½": 1323,
      "å®ľ": 1324,
      "å®¤": 1325,
      "èĨĢèĥ±": 1326,
      "æķ´": 1327,
      "å¢ĥ": 1328,
      "ç»ıå¸¸": 1329,
      "è¡°": 1330,
      "åĽº": 1331,
      "æī©": 1332,
      "åıĮ": 1333,
      "å¿ĥçĲĨ": 1334,
      "èĦĬ": 1335,
      "æºĥçĸ¡": 1336,
      "å®ī": 1337,
      "ç¤º": 1338,
      "ç¦ģ": 1339,
      "éĹŃ": 1340,
      "éĿĴ": 1341,
      "é²": 1342,
      "éĥ½æĺ¯": 1343,
      "æ°§": 1344,
      "åŃķå¦ĩ": 1345,
      "ä½ķ": 1346,
      "è¡Ģåİĭ": 1347,
      "åĸĦ": 1348,
      "æ·¡": 1349,
      "ä¸»è¦ģæĺ¯": 1350,
      "å¢ŀå¤ļ": 1351,
      "éķľ": 1352,
      "éĻĦ": 1353,
      "éĴĻ": 1354,
      "éĢĤå½ĵ": 1355,
      "éĻįä½İ": 1356,
      "çĶŁæ®ĸ": 1357,
      "é¡¹": 1358,
      "ãĢĤ(": 1359,
      "åŀĤ": 1360,
      "åıĳå±ķ": 1361,
      "åĪĩéĻ¤": 1362,
      "è¾Ľè¾£": 1363,
      "ç«¥": 1364,
      "èĻ«": 1365,
      "éĢĲ": 1366,
      "æľįçĶ¨": 1367,
      "ä¸ĭéĻį": 1368,
      "èĤĽéĹ¨": 1369,
      "æľª": 1370,
      "åĲĹ": 1371,
      "çĺĻ": 1372,
      "åĴ½": 1373,
      "çĺĻçĹĴ": 1374,
      "å¯Į": 1375,
      "å·®": 1376,
      "çĵ": 1377,
      "èĶ¬": 1378,
      "è±Ĩ": 1379,
      "æĮģç»Ń": 1380,
      "ä¼ļå¯¼èĩ´": 1381,
      "çĨ": 1382,
      "ç«ĭ": 1383,
      "ä¸įéĢĤ": 1384,
      "å²ģ": 1385,
      "ä½ĵåĨħ": 1386,
      "ç§¯æŀģ": 1387,
      "å·¥ä½ľ": 1388,
      "è¿°": 1389,
      "ç³ĸå°¿çĹħ": 1390,
      "æ¯Ķå¦Ĥ": 1391,
      "çļĦäºº": 1392,
      "æłĩ": 1393,
      "åĽŀ": 1394,
      "æ´ģ": 1395,
      "è¯ķ": 1396,
      "éģĹä¼ł": 1397,
      "åĦ¿ç«¥": 1398,
      "è°¢": 1399,
      "ä¸ªæľĪ": 1400,
      "éĩĮ": 1401,
      "å¾ĭ": 1402,
      "äºĨè§£": 1403,
      "èĥİåĦ¿": 1404,
      "çĶŁéķ¿": 1405,
      "é«ĵ": 1406,
      "çĶŁæ´»ä¸Ń": 1407,
      "ä»£è°¢": 1408,
      "åĪĨä¸º": 1409,
      "éĻĲ": 1410,
      "é¾Ħ": 1411,
      "å¹¶åıĳ": 1412,
      "éĥģ": 1413,
      "ä»İèĢĮ": 1414,
      "ä¸įæĺ¯": 1415,
      "èĭ¥": 1416,
      "å±Ĥ": 1417,
      "æĦŁè§ī": 1418,
      "ç´¯": 1419,
      "ä¸¥éĩįçļĦ": 1420,
      "èĶ¬èıľ": 1421,
      "çĤİçļĦ": 1422,
      "ä¿ĥè¿Ľ": 1423,
      "ä»¥åĲİ": 1424,
      "æİ¥è§¦": 1425,
      "åıĤ": 1426,
      "å¿Į": 1427,
      "å¤§å®¶": 1428,
      "çĥŁ": 1429,
      "æ³»": 1430,
      "åĳ¨åĽ´": 1431,
      "éħį": 1432,
      "æľĢå¥½": 1433,
      "åı¯èĥ½æĺ¯": 1434,
      "æľ¯åĲİ": 1435,
      "å¹¶ä¸Ķ": 1436,
      "åı¶": 1437,
      "ç¡¬åĮĸ": 1438,
      "æģ¶æĢ§": 1439,
      "çĹħçĲĨ": 1440,
      "å¤ĸéĺ´": 1441,
      "æ³¡": 1442,
      "å°¤åħ¶": 1443,
      "é¸": 1444,
      "ç»ª": 1445,
      "æ¯į": 1446,
      "æĿ¥è¯´": 1447,
      "æķ£": 1448,
      "çĽ´èĤł": 1449,
      "çĸ¾çĹħçļĦ": 1450,
      "åĳķ": 1451,
      "å§ĭ": 1452,
      "æĹ¥å¸¸": 1453,
      "å¸®": 1454,
      "åĥ": 1455,
      "ç©¿": 1456,
      "æĥħç»ª": 1457,
      "è½¬ç§»": 1458,
      "æĺ¯åĲ¦": 1459,
      "çİ¯å¢ĥ": 1460,
      "æĴŃ": 1461,
      "è¿ĩåº¦": 1462,
      "é²ľ": 1463,
      "åĩĨ": 1464,
      "æŀĦ": 1465,
      "æľŁéĹ´": 1466,
      "å®ĺ": 1467,
      "çĥĤ": 1468,
      "è¿«": 1469,
      "æĶ¹åĸĦ": 1470,
      "æĬĳåĪ¶": 1471,
      "åıĺåĮĸ": 1472,
      "ç²¾åŃĲ": 1473,
      "çŁ³": 1474,
      "æ¢Ĺ": 1475,
      "åĨħåĪĨæ³Į": 1476,
      "èĤĮèĤī": 1477,
      "å¤§éĩı": 1478,
      "åĽ°éļ¾": 1479,
      "æ°´å¹³": 1480,
      "éĺ²æŃ¢": 1481,
      "å©´": 1482,
      "æįŁå®³": 1483,
      "çī©è´¨": 1484,
      "æĸ¹å¼ı": 1485,
      "ä¹±": 1486,
      "çĿ¡çľł": 1487,
      "å¸®åĬ©": 1488,
      "å£°": 1489,
      "é±": 1490,
      "èħ¹éĥ¨": 1491,
      "å¯Ĩ": 1492,
      "è¿ĺæĺ¯": 1493,
      "åıįå¤į": 1494,
      "å®Įåħ¨": 1495,
      "ä¹Łæľī": 1496,
      "æºĲ": 1497,
      "èŀ": 1498,
      "èĤĿèĦı": 1499,
      "é±¼": 1500,
      "å£ģ": 1501,
      "ä¸ŃçļĦ": 1502,
      "æ±Ĺ": 1503,
      "çľŁ": 1504,
      "éĢĲæ¸Ĳ": 1505,
      "å¤įåıĳ": 1506,
      "æīĭæľ¯æ²»çĸĹ": 1507,
      "å¦ĩç§ĳ": 1508,
      "50": 1509,
      "ä¸įä¼ļ": 1510,
      "æ°´èĤ¿": 1511,
      "èĻļ": 1512,
      "çĬ¶æĢģ": 1513,
      "è¯±": 1514,
      "æĸ½": 1515,
      "çĽ¸åħ³": 1516,
      "çĽ®åīį": 1517,
      "æĬĹä½ĵ": 1518,
      "ç§°ä¸º": 1519,
      "åĶ": 1520,
      "éĩĩçĶ¨": 1521,
      "æģ¯èĤī": 1522,
      "æ°¨": 1523,
      "æ¤į": 1524,
      "åıĭ": 1525,
      "æĢ§çĶŁæ´»": 1526,
      "çĶŁçĲĨ": 1527,
      "ç£": 1528,
      "é»ĳ": 1529,
      "èĢĥèĻĳ": 1530,
      "åı¦å¤ĸ": 1531,
      "äº¢": 1532,
      "çīĻ": 1533,
      "æµ·": 1534,
      "åĳķåĲĲ": 1535,
      "å°½éĩı": 1536,
      "èĩªå·±çļĦ": 1537,
      "æŁĲ": 1538,
      "æ¢ħ": 1539,
      "çĤ¼": 1540,
      "æĢ»": 1541,
      "ä¾Ľ": 1542,
      "æıĲé«ĺ": 1543,
      "å¿ħé¡»": 1544,
      "çłĶ": 1545,
      "æĪĸèĢħæĺ¯": 1546,
      "è¡Ģç³ĸ": 1547,
      "ç½®": 1548,
      "åĻ¨å®ĺ": 1549,
      "èĲİ": 1550,
      "è¡¨éĿ¢": 1551,
      "èĢ³": 1552,
      "å¯Ĵ": 1553,
      "è·¯": 1554,
      "ä»¥ä¸ĭ": 1555,
      "éĶ»": 1556,
      "åģı": 1557,
      "ç»ĵèĬĤ": 1558,
      "åī§": 1559,
      "è®¤ä¸º": 1560,
      "ç§ĺ": 1561,
      "çĽĲ": 1562,
      "ä¾µ": 1563,
      "éĶ»çĤ¼": 1564,
      "èĮİ": 1565,
      "çĩ": 1566,
      "æĻļæľŁ": 1567,
      "å¦Ī": 1568,
      "åĿĲ": 1569,
      "æĵ": 1570,
      "è¿Ľè¡Įæ²»çĸĹ": 1571,
      "åĪĿ": 1572,
      "é¦ĸåħĪ": 1573,
      "æ¹¿çĸ¹": 1574,
      "æ·±": 1575,
      "ä»ĭ": 1576,
      "ç©¶": 1577,
      "æĽ²": 1578,
      "æł¼": 1579,
      "åıĹåĪ°": 1580,
      "çĪ": 1581,
      "åºĶçĶ¨": 1582,
      "ä»¶": 1583,
      "èĥ½åĬĽ": 1584,
      "éī": 1585,
      "éī´": 1586,
      "æĬĺ": 1587,
      "æĳĦ": 1588,
      "ç©º": 1589,
      "çĶ¨èį¯": 1590,
      "å¯Ł": 1591,
      "èį¯çī©æ²»çĸĹ": 1592,
      "èĩªèº«": 1593,
      "ç³ľ": 1594,
      "ç»ĵåĲĪ": 1595,
      "å°ıæĹ¶": 1596,
      "æľĭ": 1597,
      "ä¼łæĴŃ": 1598,
      "åİĭåĬĽ": 1599,
      "ç«¯": 1600,
      "è¡¥åħħ": 1601,
      "åı²": 1602,
      "ä¸ºä¸»": 1603,
      "è¯Ĩ": 1604,
      "çĽ´æİ¥": 1605,
      "é»ıèĨľ": 1606,
      "ä»»": 1607,
      "å·¦åı³": 1608,
      "æľĭåıĭ": 1609,
      "ä¾¿ç§ĺ": 1610,
      "å¥¶": 1611,
      "ä¹Łåı¯": 1612,
      "å¹´é¾Ħ": 1613,
      "åĬŀ": 1614,
      "¤Ĳ": 1615,
      "åįĩé«ĺ": 1616,
      "éĻ©": 1617,
      "ç»¼åĲĪå¾ģ": 1618,
      "ç¾¤": 1619,
      "30": 1620,
      "æĿ¡": 1621,
      "åĲ«æľī": 1622,
      "åĥı": 1623,
      "èĦ¾": 1624,
      "å¾Ģå¾Ģ": 1625,
      "è¿ĩå¤ļ": 1626,
      "åı£æľį": 1627,
      "æĤ£æľī": 1628,
      "å¾ª": 1629,
      "ä¹Łä¼ļ": 1630,
      "çĹĩçļĦ": 1631,
      "èħ¹çĹĽ": 1632,
      "èĽĭçĻ½è´¨": 1633,
      "æ¼": 1634,
      "ç³ľçĥĤ": 1635,
      "åĪĨæ³Įçī©": 1636,
      "èħ¹æ³»": 1637,
      "æĿĨ": 1638,
      "åĭ": 1639,
      "æľīäºĽ": 1640,
      "éĺ³æĢ§": 1641,
      "æ²»æĦĪ": 1642,
      "æĺ¯æĮĩ": 1643,
      "ç²ī": 1644,
      "æīĢèĩ´": 1645,
      "æĬ½": 1646,
      "çļĦä½ľçĶ¨": 1647,
      "æİĴåįµ": 1648,
      "æľīæĹ¶": 1649,
      "æ¢ħæ¯Ĵ": 1650,
      "æĬĳéĥģ": 1651,
      "èĲİç¼©": 1652,
      "è®¸": 1653,
      "èĤłéģĵ": 1654,
      "å¤ļè§ģ": 1655,
      "èĥ°": 1656,
      "çĽĺ": 1657,
      "ä¹Łåı¯ä»¥": 1658,
      "æ¬²": 1659,
      "èĢģå¹´": 1660,
      "å¼Ģå§ĭ": 1661,
      "æĤ": 1662,
      "è§Ĥå¯Ł": 1663,
      "ä¿¡": 1664,
      "çļĦæĸ¹æ³ķ": 1665,
      "æĿĨèıĮ": 1666,
      "æ³¨å°Ħ": 1667,
      "çķ¸": 1668,
      "å±ŀäºİ": 1669,
      "ä¸Ģä¸ĭ": 1670,
      "ç¼ºä¹ı": 1671,
      "åĳ¢": 1672,
      "èĸ": 1673,
      "åİļ": 1674,
      "ä¹ĭä¸Ģ": 1675,
      "åĩıè½»": 1676,
      "å¤±è°ĥ": 1677,
      "çłĶç©¶": 1678,
      "çĥ§": 1679,
      "åı¯èĥ½ä¼ļ": 1680,
      "ç§¯æ¶²": 1681,
      "æ¸ħæ´ģ": 1682,
      "ç²Ĵ": 1683,
      "ç»Ŀ": 1684,
      "åĪĽ": 1685,
      "çĥĪ": 1686,
      "çĶ²çĬ¶èħºæ¿Ģç´ł": 1687,
      "çĦ¶åĲİ": 1688,
      "éĢı": 1689,
      "å¸ĥ": 1690,
      "åį±å®³": 1691,
      "åĢ¼": 1692,
      "çĩ¥": 1693,
      "çĻĮçļĦ": 1694,
      "æ¯ıå¤©": 1695,
      "èįī": 1696,
      "æĬ¤çĲĨ": 1697,
      "å¤§ä¾¿": 1698,
      "äººçļĦ": 1699,
      "éļĲ": 1700,
      "éī´åĪ«": 1701,
      "çĮ": 1702,
      "å¤´çĹĽ": 1703,
      "ç²ĺè¿ŀ": 1704,
      "åĲ¸æĶ¶": 1705,
      "æľīçļĦ": 1706,
      "å¢ŀå¼º": 1707,
      "å°¿é¢ĳ": 1708,
      "åıĳçĥŃ": 1709,
      "çīĽ": 1710,
      "å¤ĦçĲĨ": 1711,
      "æ»ĳ": 1712,
      "é£ŁçĶ¨": 1713,
      "¡èĲ": 1714,
      "èİ": 1715,
      "åĳ½": 1716,
      "äºĶ": 1717,
      "ä¸įåŃķ": 1718,
      "çĸ±çĸ¹": 1719,
      "ä¸´åºĬä¸Ĭ": 1720,
      "åĪºæ¿ĢæĢ§": 1721,
      "å¤ľ": 1722,
      "å¤ļç§į": 1723,
      "å°¤åħ¶æĺ¯": 1724,
      "ä¸Ģæ¬¡": 1725,
      "å¤§å°ı": 1726,
      "çĸĹæ³ķ": 1727,
      "åı¯è§ģ": 1728,
      "åħ±": 1729,
      "æĿ¿": 1730,
      "çĦ¦": 1731,
      "éļıçĿĢ": 1732,
      "åħ³ç³»": 1733,
      "æŃ£å¸¸çļĦ": 1734,
      "æ¶¦": 1735,
      "ç´§å¼ł": 1736,
      "å¾Ħ": 1737,
      "ä¸´åºĬè¡¨çİ°": 1738,
      "çķĮ": 1739,
      "³å®ļ": 1740,
      "ä¼¼": 1741,
      "å¾ªçİ¯": 1742,
      "æīĵ": 1743,
      "ä¸įåĲĮçļĦ": 1744,
      "èľ": 1745,
      "å¿ħè¦ģ": 1746,
      "åĵª": 1747,
      "ä¸Ģå®ļçļĦ": 1748,
      "åĩıéĢĢ": 1749,
      "æĺİç¡®": 1750,
      "æłĵ": 1751,
      "èĴ": 1752,
      "ä¸ĺ": 1753,
      "å¹¶åıĳçĹĩ": 1754,
      "ä¸ĵ": 1755,
      "çĶ¨äºİ": 1756,
      "æµĵ": 1757,
      "è¾¾åĪ°": 1758,
      "æĿĤ": 1759,
      "in": 1760,
      "ç»ĵæŀľ": 1761,
      "æİĴåĩº": 1762,
      "åķ": 1763,
      "æķħ": 1764,
      "ç´Ĭ": 1765,
      "è¡£": 1766,
      "é¦Ļ": 1767,
      "çŃīçĹĩçĬ¶": 1768,
      "èĥĮ": 1769,
      "è½»åº¦": 1770,
      "ç´Ĭä¹±": 1771,
      "äº¦": 1772,
      "èĮĥ": 1773,
      "æ²»çĸĹçļĦ": 1774,
      "éĩĩåıĸ": 1775,
      "æĹ¦": 1776,
      "è°ĥèĬĤ": 1777,
      "éĨĩ": 1778,
      "æĢ§çĸ¾çĹħ": 1779,
      "éª¨æĬĺ": 1780,
      "å¤§å¤ļæķ°": 1781,
      "«çĹ": 1782,
      "æĺ¯çĶ±äºİ": 1783,
      "æº¶": 1784,
      "æİª": 1785,
      "è¡¡": 1786,
      "æ¶Īå¤±": 1787,
      "è¿Ľåħ¥": 1788,
      "ä¸ĢæĹ¦": 1789,
      "éŀ": 1790,
      "ä¸Ļ": 1791,
      "å¯¼èĩ´çļĦ": 1792,
      "æİĴå°¿": 1793,
      "ç±»åŀĭ": 1794,
      "ä¸ŃåĮ»": 1795,
      "çķ¸å½¢": 1796,
      "çļĦæĺ¯": 1797,
      "å¿ĥèĦı": 1798,
      "å©´åĦ¿": 1799,
      "è¾¹": 1800,
      "åħĥ": 1801,
      "åĴ³": 1802,
      "ç»ĵæł¸": 1803,
      "é£Łåĵģ": 1804,
      "é¾Ł": 1805,
      "ä¾Ŀ": 1806,
      "åĿļ": 1807,
      "è¯·": 1808,
      "ç¢±": 1809,
      "ä»¥åħį": 1810,
      "è¶ħè¿ĩ": 1811,
      "åŁºåĽł": 1812,
      "çĶŁçī©": 1813,
      "åĽ¾": 1814,
      "æį¢": 1815,
      "å¢ŀé«ĺ": 1816,
      "åħ¶ä¸Ń": 1817,
      "æİªæĸ½": 1818,
      "æģ¶å¿ĥ": 1819,
      "æľ¬åĵģ": 1820,
      "ç²ĺèĨľ": 1821,
      "äºĪ": 1822,
      "éŁ³": 1823,
      "ç»Ī": 1824,
      "æĭħ": 1825,
      "éĽĮ": 1826,
      "åįĥ": 1827,
      "æīįèĥ½": 1828,
      "å¹¿": 1829,
      "è§Ħå¾ĭ": 1830,
      "ç¡®å®ļ": 1831,
      "åĮħçļ®": 1832,
      "ä¸įè¶³": 1833,
      "æ³¢": 1834,
      "èĤ¿å¤§": 1835,
      "è°ĥçĲĨ": 1836,
      "ä»»ä½ķ": 1837,
      "èĤĿç¡¬åĮĸ": 1838,
      "éľī": 1839,
      "æĸĻ": 1840,
      "äº¡": 1841,
      "éĺ´èĮİ": 1842,
      "æĻ®": 1843,
      "åį§": 1844,
      "èĲ½": 1845,
      "æ±Ĥ": 1846,
      "æ£Ģæµĭ": 1847,
      "åİĭè¿«": 1848,
      "èĻ½": 1849,
      "é¸¡": 1850,
      "æĬĬ": 1851,
      "æĳ©": 1852,
      "çĸ£": 1853,
      "åł": 1854,
      "æļ´": 1855,
      "å·²ç»ı": 1856,
      "é¾Łå¤´": 1857,
      "çī¹åĪ«æĺ¯": 1858,
      "æĥħåĨµä¸ĭ": 1859,
      "æ¸ħæ·¡": 1860,
      "åħ·ä½ĵ": 1861,
      "ä¸ļ": 1862,
      "ä¸Ĭçļ®": 1863,
      "ä¸Ńæ¯Ĵ": 1864,
      "é¢ħ": 1865,
      "çķħ": 1866,
      "åŃĶ": 1867,
      "èĭ¦": 1868,
      "åı¯æľī": 1869,
      "æ»´": 1870,
      "å°ıåĦ¿": 1871,
      "æĻķ": 1872,
      "æ¥": 1873,
      "æĶ¶ç¼©": 1874,
      "¸åŀĭ": 1875,
      "èī¯å¥½çļĦ": 1876,
      "çĶ²çĬ¶èħºåĬŁèĥ½": 1877,
      "äº§åĲİ": 1878,
      "çªĦ": 1879,
      "èĨľçĤİ": 1880,
      "mg": 1881,
      "èĥĥçĤİ": 1882,
      "è¯±åıĳ": 1883,
      "æľºä½ĵ": 1884,
      "è´Ł": 1885,
      "èĦļ": 1886,
      "ç»ĵèĤł": 1887,
      "åİ»åĮ»éĻ¢": 1888,
      "ç¢ĺ": 1889,
      "è¡Įä¸º": 1890,
      "èĤĮçĺ¤": 1891,
      "ç»į": 1892,
      "é³": 1893,
      "éĽĨ": 1894,
      "æ·ĭå·´ç»ĵ": 1895,
      "çĦ¦èĻĳ": 1896,
      "é¤Ĳ": 1897,
      "è¿Ļæĺ¯": 1898,
      "ä»ĭç»į": 1899,
      "æľ¬çĹħ": 1900,
      "æĺİæĺ¾çļĦ": 1901,
      ")ï¼Į": 1902,
      "åħĪå¤©": 1903,
      "è´¹": 1904,
      "å¦Ĥæŀľæĺ¯": 1905,
      "ä¹³å¤´": 1906,
      "å¹²çĩ¥": 1907,
      "åı£èħĶ": 1908,
      "æ½®": 1909,
      "é©": 1910,
      "åĸī": 1911,
      "ä¸Ńèį¯": 1912,
      "åĩºçİ°äºĨ": 1913,
      "åīĤéĩı": 1914,
      "æĬµ": 1915,
      "?ï¼Ł": 1916,
      "çħ§": 1917,
      "çĸ²": 1918,
      "ç²Ĺ": 1919,
      "ä¸°": 1920,
      "æŃ»äº¡": 1921,
      "åı¯å¼ķèµ·": 1922,
      "å°ĸ": 1923,
      "éĴŁ": 1924,
      "è¯¯": 1925,
      "æ¸Ĺ": 1926,
      "æĭī": 1927,
      "å¼ķåıĳ": 1928,
      "åįł": 1929,
      "å¤±çľł": 1930,
      "ç»ĵæŀĦ": 1931,
      "èĥº": 1932,
      "åĩĢ": 1933,
      "è´«": 1934,
      "è®¡": 1935,
      "ä»į": 1936,
      "çģ¶": 1937,
      "éļĶ": 1938,
      "æµĨ": 1939,
      "èħ¿": 1940,
      "ç¾İ": 1941,
      "è¿ľ": 1942,
      "ç½ĳ": 1943,
      "æ²Ł": 1944,
      "æ°Ķç®¡": 1945,
      "çģ«": 1946,
      "çº¯": 1947,
      "çļĦä¸Ģç§į": 1948,
      "åı¯åĩºçİ°": 1949,
      "èħ»": 1950,
      "èĪĴ": 1951,
      "è¡Ģæ¸ħ": 1952,
      "çī¹å¾ģ": 1953,
      "çªģåĩº": 1954,
      "æİĴä¾¿": 1955,
      "å®ļæľŁ": 1956,
      "èĥ¶": 1957,
      "15": 1958,
      "æ±¤": 1959,
      "ç¼ĺ": 1960,
      "æ¦": 1961,
      "éĺ´åĽĬ": 1962,
      "æŃ¤å¤ĸ": 1963,
      "èģĶ": 1964,
      "éħ®": 1965,
      "æ²ī": 1966,
      "æľ¨": 1967,
      "åıĳçĶŁåľ¨": 1968,
      "èµ°": 1969,
      "èĦ¸": 1970,
      "åĩĿ": 1971,
      "æ¨": 1972,
      "ä¸ĢæŃ¥": 1973,
      "åģļå¥½": 1974,
      "ä¿ĿæĬ¤": 1975,
      "åħ¸åŀĭ": 1976,
      "è¯ķéªĮ": 1977,
      "è´«è¡Ģ": 1978,
      "åĪ°åĮ»éĻ¢": 1979,
      "èī²ç´ł": 1980,
      "æ»ĭ": 1981,
      "å°ļ": 1982,
      "è¿ĩç¨ĭä¸Ń": 1983,
      "èŀº": 1984,
      "çļĦçĸ¾çĹħ": 1985,
      "00": 1986,
      "åīįåĪĹèħºçĤİ": 1987,
      "åĬłå¼º": 1988,
      "çĵľ": 1989,
      "çĻ£": 1990,
      "åĲĪå¹¶": 1991,
      "åİŁä½ĵ": 1992,
      "çĨŁ": 1993,
      "èĳ¡èĲ": 1994,
      "èĳ¡èĲĦ": 1995,
      "çļĦåıĳçĶŁ": 1996,
      "æ±ģ": 1997,
      "èĸĦ": 1998,
      "åĪ©äºİ": 1999,
      "è¿Ľé£Ł": 2000,
      "æ··": 2001,
      "å°ĳæķ°": 2002,
      "åī¯": 2003,
      "æĬĹçĶŁç´ł": 2004,
      "é«ĺè¡Ģåİĭ": 2005,
      "æŁĲäºĽ": 2006,
      "åħ¶å®ŀ": 2007,
      "åĺ": 2008,
      "çĬ¶åĨµ": 2009,
      "å°ĳåĲĥ": 2010,
      "çļĦèį¯çī©": 2011,
      "åĲĪçĲĨ": 2012,
      "çī¹çĤ¹": 2013,
      "æĳĦåħ¥": 2014,
      "æĺ¯çĶ±": 2015,
      "è®º": 2016,
      "ä¸°å¯Į": 2017,
      "åıĳçĹħçİĩ": 2018,
      "çĭŃ": 2019,
      "åľĨ": 2020,
      "è®¸å¤ļ": 2021,
      "ç´«": 2022,
      "æ²»çĸĹæĸ¹æ³ķ": 2023,
      "å¾Īå®¹æĺĵ": 2024,
      "ç¡®è¯Ĭ": 2025,
      "æĪĲåĪĨ": 2026,
      "äºļ": 2027,
      "åĮ»åŃ¦": 2028,
      "åĩī": 2029,
      "éº»çĸ¹": 2030,
      "èĤ¡": 2031,
      "éĴĪå¯¹": 2032,
      "åĿıæŃ»": 2033,
      "éĩĳ": 2034,
      "å¦ĩå¥³": 2035,
      "ç»ĵçŁ³": 2036,
      "ä¹ĭéĹ´": 2037,
      "ç¤¾": 2038,
      "èĩŃ": 2039,
      "è®°": 2040,
      "å¸¸è§Ħ": 2041,
      "èĦĵèĤ¿": 2042,
      "æµ¸": 2043,
      "çĹĶçĸ®": 2044,
      "èĮ¶": 2045,
      "ä¸ªäºº": 2046,
      "ä¸ľ": 2047,
      "çĻ½èī²": 2048,
      "çļ®çĤİ": 2049,
      "12": 2050,
      "ä¸Ģæł·": 2051,
      "åģĩ": 2052,
      "çĶŁèĤ²": 2053,
      "è¨": 2054,
      "çĶ²äº¢": 2055,
      "è¨Ģ": 2056,
      "çļĦçİ°è±¡": 2057,
      "æī©å¼ł": 2058,
      "ä½³": 2059,
      "ä¸įä»ħ": 2060,
      "çº¢èī²": 2061,
      "å°±åı¯ä»¥": 2062,
      "åĲį": 2063,
      "éķ¿æĹ¶éĹ´": 2064,
      "æŃ£è§Ħ": 2065,
      "æİ¨": 2066,
      "å¤ĩ": 2067,
      "æĬµæĬĹ": 2068,
      "éĩıçļĦ": 2069,
      "åŀĭèĤĿçĤİ": 2070,
      "åĳ¨æľŁ": 2071,
      "å±ĳ": 2072,
      "å¾ĹåĪ°": 2073,
      "ä½ĵéĩį": 2074,
      "æ»ŀ": 2075,
      "çĽ¸å¯¹": 2076,
      "éĥ½æľī": 2077,
      "éĥ½ä¼ļ": 2078,
      "é£Łæ¬²": 2079,
      "çŁ¥éģĵ": 2080,
      "åĪ¤": 2081,
      "äººä»¬": 2082,
      "é³ŀ": 2083,
      "åħ´": 2084,
      "é¢Īæ¤İ": 2085,
      "åĲĪæĪĲ": 2086,
      "æĸ°é²ľ": 2087,
      "æĢĿ": 2088,
      "æīĭæľ¯åĲİ": 2089,
      "é½": 2090,
      "èħ¹èħĶ": 2091,
      "åŃ£": 2092,
      "è¿Ľä¸ĢæŃ¥": 2093,
      "éħįåĲĪ": 2094,
      "æ®Ĭ": 2095,
      "æĬĢ": 2096,
      "æ¯ĽåĽĬ": 2097,
      "åĪĨéĴŁ": 2098,
      "è¡ĢçĹĩ": 2099,
      "éĻ·": 2100,
      "åī§çĥĪ": 2101,
      "è¿Ł": 2102,
      "ä½ĵè´¨": 2103,
      "èĥļ": 2104,
      "æĸ°çĶŁ": 2105,
      "ç«Ń": 2106,
      "æģ¶æĢ§èĤ¿çĺ¤": 2107,
      "çļĦä¸»è¦ģ": 2108,
      "ç¹": 2109,
      "èĦĬé«ĵ": 2110,
      "ç¹ģ": 2111,
      "æĹĭ": 2112,
      "ä¹³èħº": 2113,
      "æĢİä¹ĪåĬŀ": 2114,
      "å¸¦æĿ¥": 2115,
      "èµ·æĿ¥": 2116,
      "å°¿è·¯": 2117,
      "çĭŃçªĦ": 2118,
      "æĵ¦": 2119,
      "æķıæĦŁ": 2120,
      "er": 2121,
      "æĹłæ³ķ": 2122,
      "ç®Ģ": 2123,
      "èħ°æ¤İ": 2124,
      "è¾ħ": 2125,
      "æľĢå¸¸è§ģçļĦ": 2126,
      "æī¾": 2127,
      "çŃīçŃī": 2128,
      "çİ°åľ¨": 2129,
      "èĩªçĦ¶": 2130,
      "åĵªäºĽ": 2131,
      "éŁ§": 2132,
      "ç´¢": 2133,
      "çī¹æ®Ĭ": 2134,
      "é£Łç®¡": 2135,
      ")ãĢĤ": 2136,
      "çľŁèıĮ": 2137,
      "åĮĸçĸĹ": 2138,
      "çı": 2139,
      "éĩįè¦ģçļĦ": 2140,
      "å¢ŀå¤§": 2141,
      "åĬ¨çī©": 2142,
      "æĶ¾å°Ħ": 2143,
      "éĩĬ": 2144,
      "ä¸įåı¯": 2145,
      "éĩįè§Ĩ": 2146,
      "èį¨": 2147,
      "çĹħä¾ĭ": 2148,
      "éĽĮæ¿Ģç´ł": 2149,
      "çªģçĦ¶": 2150,
      "æĮĽ": 2151,
      "çĽĬ": 2152,
      "æĬ¥": 2153,
      "ä¸¤ç§į": 2154,
      "èĻ½çĦ¶": 2155,
      "ç»ıè¿ĩ": 2156,
      "çļĦæ²»çĸĹæĸ¹æ³ķ": 2157,
      "çļ®è´¨": 2158,
      "ç»ĻäºĪ": 2159,
      "è¡°ç«Ń": 2160,
      "ä¿®": 2161,
      "èį¨éº»çĸ¹": 2162,
      "å¤ļçļĦ": 2163,
      "çļ®çĸ¹": 2164,
      "åŁ¹": 2165,
      "åĨ²": 2166,
      "åĲ¬": 2167,
      "ä¿Ŀè¯ģ": 2168,
      "æŁ±": 2169,
      "40": 2170,
      "é¥Ń": 2171,
      "çĹ°": 2172,
      "çł´åĿı": 2173,
      "ä¸ĭéĿ¢": 2174,
      "èĮĥåĽ´": 2175,
      "çĲĥèıĮ": 2176,
      "ä¸įè¦ģåĲĥ": 2177,
      "ä¼¤å®³": 2178,
      "æĺ¥": 2179,
      "ç¬¬äºĮ": 2180,
      "æ²¹èħ»": 2181,
      "ä¸ĬçļĦ": 2182,
      "éĻ¤äºĨ": 2183,
      "èĪĮ": 2184,
      "èĤ¿èĥĢ": 2185,
      "æŁĵèī²": 2186,
      "å¿ĥæĥħ": 2187,
      "åħ¬": 2188,
      "è¯Ń": 2189,
      "ä»·": 2190,
      "åħįçĸ«åĬĽ": 2191,
      "ç¾Ĭ": 2192,
      "æľīå¾Īå¤ļ": 2193,
      "çĶŁåĳ½": 2194,
      "åŁºæľ¬": 2195,
      "ç¨³å®ļ": 2196,
      "åĮĸåŃ¦": 2197,
      "é¢ĦåĲİ": 2198,
      "éĥ¨çļĦ": 2199,
      "å¯¹çĹĩ": 2200,
      "æĸĩ": 2201,
      "èĨĿ": 2202,
      "è°ĥæķ´": 2203,
      "åıªæľī": 2204,
      "çĺ¦": 2205,
      "ãĢĢ": 2206,
      "æ¡ĥ": 2207,
      "åĨħçļĦ": 2208,
      "ä¸įåħ¨": 2209,
      "è£¤": 2210,
      "ä¸ĩ": 2211,
      "è¿Ļç§įæĥħåĨµ": 2212,
      "ç£·": 2213,
      "æİ¥åıĹ": 2214,
      "æ³Ľ": 2215,
      "èĢĲ": 2216,
      "éĢłæĪĲçļĦ": 2217,
      "åº·å¤į": 2218,
      "çī¹å¼Ĥ": 2219,
      "çł´è£Ĥ": 2220,
      "åĨ³": 2221,
      "çļĦæĹ¶éĹ´": 2222,
      "æ¡Ī": 2223,
      "æĻº": 2224,
      "æıı": 2225,
      "çĹķ": 2226,
      "èĨı": 2227,
      "æ³Įå°¿": 2228,
      "äºĭé¡¹": 2229,
      "ä½įç½®": 2230,
      "åįķçº¯": 2231,
      "è¿ĺä¼ļ": 2232,
      "å¹¼": 2233,
      "ä½ı": 2234,
      "åıªè¦ģ": 2235,
      "å±±": 2236,
      "èĹ": 2237,
      "éª¨è´¨": 2238,
      "æ°ı": 2239,
      "çļĦæ£ĢæŁ¥": 2240,
      "ä¹ī": 2241,
      "åĬŁèĥ½éļľç¢į": 2242,
      "NA": 2243,
      "èĦĤèĤªèĤĿ": 2244,
      "çĸı": 2245,
      "å¨©": 2246,
      "åį±éĻ©": 2247,
      "æ¸ħæ´Ĺ": 2248,
      "ä¸įå®ľ": 2249,
      "çĸĹæķĪ": 2250,
      "æľºåĪ¶": 2251,
      "éŀĺ": 2252,
      "èĤ©": 2253,
      "æµħ": 2254,
      "èº«ä½ĵçļĦ": 2255,
      "åĪ¤æĸŃ": 2256,
      "æ¢Ĺéĺ»": 2257,
      "åħħè¡Ģ": 2258,
      "æĺ¾ç¤º": 2259,
      "çº§": 2260,
      "ç»¿": 2261,
      "çĶĺ": 2262,
      "éĢłå½±": 2263,
      "æľīåı¯èĥ½": 2264,
      "%ï¼Į": 2265,
      "çª¦": 2266,
      "æ¤įçī©": 2267,
      "é»Ħçĸ": 2268,
      "èį¯åĵģ": 2269,
      "éĢĶ": 2270,
      "åĬ¿": 2271,
      "æ¥ļ": 2272,
      "æļĤ": 2273,
      "æ¯ıæĹ¥": 2274,
      "çĻ«çĹ": 2275,
      "æµĵåº¦": 2276,
      "æĤ£åĦ¿": 2277,
      "çĻ«çĹ«": 2278,
      "åģ¶": 2279,
      "éĻĦçĿ¾": 2280,
      "æĮĩå¯¼": 2281,
      "éĢĤå½ĵçļĦ": 2282,
      "ç»´æĮģ": 2283,
      "ãĢĤï¼Ī": 2284,
      "ä¸ĺçĸ¹": 2285,
      "ä¸Ŀ": 2286,
      "å¿ĥèĤĮ": 2287,
      "è¯´æĺİ": 2288,
      "éħĴç²¾": 2289,
      "åĪĨå¸ĥ": 2290,
      "æ¶Ĥ": 2291,
      "å®«èħĶ": 2292,
      "ç¥ŀç»ıç³»ç»Ł": 2293,
      "çĹħç¨ĭ": 2294,
      "åį³åı¯": 2295,
      "æµ´": 2296,
      "åĨĴ": 2297,
      "ä¸ºäºĨ": 2298,
      "æĸ°çĶŁåĦ¿": 2299,
      "å»¶éķ¿": 2300,
      "å¯ĮåĲ«": 2301,
      "éĺ¶": 2302,
      "çĹħçĹĩ": 2303,
      "ç²ª": 2304,
      "æľĽ": 2305,
      "æ¸ħæ¥ļ": 2306,
      "å¥³æĢ§çļĦ": 2307,
      "éŁ§å¸¦": 2308,
      "ä»ĸä»¬": 2309,
      "éĹ´çĽĺ": 2310,
      "ä¾ĭå¦Ĥ": 2311,
      "åĹ½": 2312,
      "çļĦé¥®é£Ł": 2313,
      "ä¼¤åı£": 2314,
      "æĹı": 2315,
      "å¹¶ä¸į": 2316,
      "åĬ©äºİ": 2317,
      "èĥĸ": 2318,
      "é½¿": 2319,
      "ä¼¸": 2320,
      "çĶŁæ®ĸåĻ¨": 2321,
      "ç¿": 2322,
      "å¤ĸä¼¤": 2323,
      "ä½ľä¸º": 2324,
      "çĽ¸åºĶ": 2325,
      "åĴ³åĹ½": 2326,
      "æĬĢæľ¯": 2327,
      "æĤ£èĢħåľ¨": 2328,
      "éľ²": 2329,
      "å¼Ĥä½į": 2330,
      "èĤ¿åĿĹ": 2331,
      "èĥĥèĤł": 2332,
      "çĹī": 2333,
      "çļĦå½±åĵį": 2334,
      "æŃ£ç¡®": 2335,
      "åīĸ": 2336,
      "æ¶ĪåĮĸéģĵ": 2337,
      "ç¤¾ä¼ļ": 2338,
      "åĲ«éĩı": 2339,
      "æľ«": 2340,
      "åĪĨå¨©": 2341,
      "å°¿æĢ¥": 2342,
      "åħĪå¤©æĢ§": 2343,
      "æ®ĭ": 2344,
      "äº²": 2345,
      "æĬĹåİŁ": 2346,
      "è¿Ļç§įçĸ¾çĹħ": 2347,
      "æĤ£ä¸Ĭ": 2348,
      "åĲĥä»Ģä¹Ī": 2349,
      "çģ°": 2350,
      "on": 2351,
      "éĿ¢éĥ¨": 2352,
      "æĿĢ": 2353,
      "ä½İä¸ĭ": 2354,
      "åŁºç¡": 2355,
      "åĬ³ç´¯": 2356,
      "æķ·": 2357,
      "æŀĲ": 2358,
      "èĥļèĥİ": 2359,
      "é¢ľ": 2360,
      "äººæµģ": 2361,
      "æĿ¡ä»¶": 2362,
      "åĿļæĮģ": 2363,
      "å°±è¯Ĭ": 2364,
      "éĶĻ": 2365,
      "éĺ´éģĵçĤİ": 2366,
      "å½»": 2367,
      "é¢Īéĥ¨": 2368,
      "¤çĸ®": 2369,
      "åŁºç¡Ģ": 2370,
      "å¤§èĦĳ": 2371,
      "æ³Ħ": 2372,
      "ä½įäºİ": 2373,
      "å¹½": 2374,
      "æ»¡": 2375,
      "è½»å¾®": 2376,
      "è·Ł": 2377,
      "æº¢": 2378,
      "å¤ļåĸĿ": 2379,
      "çĹħæ¯ĴæĦŁæŁĵ": 2380,
      "çĻ¾": 2381,
      "å®īåħ¨": 2382,
      "å¤įæĿĤ": 2383,
      "CT": 2384,
      "æĦŁåĨĴ": 2385,
      "ä¸ľè¥¿": 2386,
      "çĺĺ": 2387,
      "æĬµæĬĹåĬĽ": 2388,
      "çĹ¤çĸ®": 2389,
      "åİŁåıĳæĢ§": 2390,
      "éĺ¶æ®µ": 2391,
      "è¿ĺåı¯ä»¥": 2392,
      "å¹³è¡¡": 2393,
      "èĤĿåĬŁèĥ½": 2394,
      "è´¨éĩı": 2395,
      "å®«é¢Īç³ľçĥĤ": 2396,
      "åĨł": 2397,
      "éĻħ": 2398,
      "è¯¢": 2399,
      "çĹĺçĹĺ": 2400,
      "æĮīæĳ©": 2401,
      "çĥ¦": 2402,
      "é©¬": 2403,
      "æĦĪåĲĪ": 2404,
      "çļĦå¥³æĢ§": 2405,
      "äººå·¥": 2406,
      "æ¶ĪéĻ¤": 2407,
      "èħ¹æ°´": 2408,
      "æľ¬èº«": 2409,
      "çĸĳ": 2410,
      "ä¸Ĭè¿°": 2411,
      "çĶ¨éĩı": 2412,
      "å¾Īå¤§çļĦ": 2413,
      "å¤§éĥ¨åĪĨ": 2414,
      "èģļ": 2415,
      "æİĴéĻ¤": 2416,
      "åĹľ": 2417,
      "çĵ£": 2418,
      "åºŃ": 2419,
      "éĴł": 2420,
      "å¿µ": 2421,
      "å½»åºķ": 2422,
      "é¡º": 2423,
      "âĢĶ": 2424,
      "åī¯ä½ľçĶ¨": 2425,
      "æ¦Ĥ": 2426,
      "19": 2427,
      "åİĮ": 2428,
      "éĹŃç»ı": 2429,
      "å¹½éĹ¨": 2430,
      "èºģ": 2431,
      "è´¹çĶ¨": 2432,
      "ä¸´åºĬçĹĩçĬ¶": 2433,
      "ç²¥": 2434,
      "è¶ħå£°": 2435,
      "ä¹ıåĬĽ": 2436,
      "æ¸¸": 2437,
      "å¦Ĥä½ķ": 2438,
      "æģĲ": 2439,
      "ç»ĨèĥŀçļĦ": 2440,
      "ä½ĵå¾ģ": 2441,
      "çº¢æĸĳ": 2442,
      "èĦ±åŀĤ": 2443,
      "åŃĲå®«èĤĮçĺ¤": 2444,
      "éĵģ": 2445,
      "æĮ¯": 2446,
      "åģľæŃ¢": 2447,
      "ãĢĭ": 2448,
      "å¤Ħäºİ": 2449,
      "HP": 2450,
      "ãĢĬ": 2451,
      "æĢ§çļ®çĤİ": 2452,
      "éĤ": 2453,
      "æĺ¯åľ¨": 2454,
      "--": 2455,
      "çĸ²åĬ³": 2456,
      "åłµ": 2457,
      "çĹīæĮĽ": 2458,
      "åıĬæĹ¶æ²»çĸĹ": 2459,
      "èī¯æĢ§": 2460,
      "en": 2461,
      "æ¯«": 2462,
      "å°Ķ": 2463,
      "çĽĳ": 2464,
      "æĪĴ": 2465,
      "æĹ¥å¸¸çĶŁæ´»ä¸Ń": 2466,
      "çļĦåı¯èĥ½": 2467,
      "çļĦè¯ĬæĸŃ": 2468,
      "èļ": 2469,
      "æ±¡": 2470,
      "å¦Īå¦Ī": 2471,
      "å°¿æ¶²": 2472,
      "%ãĢĤ": 2473,
      "çļĦçĹħäºº": 2474,
      "èĤ¾èĦı": 2475,
      "æŀ¢": 2476,
      "æ½ľ": 2477,
      "èĩ´çĹħ": 2478,
      "æĬĵ": 2479,
      "è¿ħ": 2480,
      "èĭĹ": 2481,
      "èħ¹èĥĢ": 2482,
      "èĢģå¹´äºº": 2483,
      "å¾ħ": 2484,
      "å¯ĨåĪĩ": 2485,
      "èĥĥéħ¸": 2486,
      "ä¸įå¥½": 2487,
      "çļĦéĹ®é¢ĺ": 2488,
      "æī°": 2489,
      "ä¼ĺ": 2490,
      "ç»§åıĳ": 2491,
      "å¸¸å¸¸": 2492,
      "å¤įæŁ¥": 2493,
      "åĽºéĨĩ": 2494,
      "å¥ĭ": 2495,
      "çĶŁæ´»ä¹łæĥ¯": 2496,
      "ä¸īéĺ³": 2497,
      "åı«": 2498,
      "éĺ»å¡ŀ": 2499,
      "çļĦè¡¨çİ°": 2500,
      "å¤ļè§ģäºİ": 2501,
      "æĺ¯ä¸į": 2502,
      "æĢķ": 2503,
      "ä¼ļå¼ķèµ·": 2504,
      "é»Ħçĸ¸": 2505,
      "è¿ħéĢŁ": 2506,
      "æľīæķĪçļĦ": 2507,
      "äºĴ": 2508,
      "æŃ¤æĹ¶": 2509,
      "çīĽå¥¶": 2510,
      "å¸Ī": 2511,
      "èĳĹ": 2512,
      "æİĮ": 2513,
      "ï¼īï¼Į": 2514,
      "an": 2515,
      "éĢĶå¾Ħ": 2516,
      "åħ»æĪĲ": 2517,
      "æµ¸æ¶¦": 2518,
      "çĨ¬": 2519,
      "ä¹Łä¸į": 2520,
      "åıĳçĶŁäºİ": 2521,
      "æĽ¿": 2522,
      "å°ĳéĩı": 2523,
      "æĮĩçĶ²": 2524,
      "è¯¦": 2525,
      "é¥®éħĴ": 2526,
      "ä¹Ĳ": 2527,
      "èĦĵæĢ§": 2528,
      "å¤ļä¸º": 2529,
      "æľīåĬ©äºİ": 2530,
      "å¸Į": 2531,
      "åŀĤä½ĵ": 2532,
      "çģ¼": 2533,
      "æľīåĵªäºĽ": 2534,
      "çī¹å¼ĤæĢ§": 2535,
      "å®½": 2536,
      "åĲŀ": 2537,
      "ä¸įèĤ²": 2538,
      "æĺ¯åı¯ä»¥": 2539,
      "æĶ¯æ°Ķç®¡": 2540,
      "æĺı": 2541,
      "çĻĮçĹĩ": 2542,
      "ç¨Ģ": 2543,
      "çľ¼çĿ": 2544,
      "åħĨ": 2545,
      "åĩºæĿ¥": 2546,
      "å®«å¤ĸ": 2547,
      "åĽºå®ļ": 2548,
      "çĽĨèħĶçĤİ": 2549,
      "çĹħæ¯ĴæĢ§": 2550,
      "æĢ§äº¤": 2551,
      "ç»ıæľŁ": 2552,
      "å¾Īå¤§": 2553,
      "åŁ¹åħ»": 2554,
      "ç¼ĵæħ¢": 2555,
      "ä¸ĭèĤ¢": 2556,
      "å°¿éģĵçĤİ": 2557,
      "éĴĻåĮĸ": 2558,
      "è¾ħåĬ©": 2559,
      "å®«å¤ĸåŃķ": 2560,
      "æ°§åĮĸ": 2561,
      "çĻ½ç»Ĩèĥŀ": 2562,
      "ä¸Ńæŀ¢": 2563,
      "èµ·åĪ°": 2564,
      "æĭħå¿ĥ": 2565,
      "Bè¶ħ": 2566,
      "60": 2567,
      "mm": 2568,
      "æ¯ıæ¬¡": 2569,
      "æĺ¯éĿŀå¸¸": 2570,
      "åıĬæĹ¶çļĦ": 2571,
      "åĽŀäºĭ": 2572,
      "åħ´å¥ĭ": 2573,
      "æłĩåĩĨ": 2574,
      "æŁĵèī²ä½ĵ": 2575,
      "cm": 2576,
      "è¿ĺè¦ģ": 2577,
      "å²Ľ": 2578,
      "çĶ¨æ³ķ": 2579,
      "è¿ĩäºİ": 2580,
      "å¦Ĥæŀľä¸į": 2581,
      "æ¾": 2582,
      "éĢĨ": 2583,
      "èĤļ": 2584,
      "ï¼ħ": 2585,
      "çĹĽèĭ¦": 2586,
      "åºĶæ³¨æĦı": 2587,
      "è¡Ģæłĵ": 2588,
      "æĸ¹æ¡Ī": 2589,
      "HPV": 2590,
      "çĹħäººçļĦ": 2591,
      "éĺ¿": 2592,
      "åĳĺ": 2593,
      "åłµå¡ŀ": 2594,
      "éĨĴ": 2595,
      "æľīæĹł": 2596,
      "èİ·": 2597,
      "åİĭçĹĽ": 2598,
      "åĨ¬": 2599,
      "å·¨": 2600,
      "çĶ²åĩı": 2601,
      "èĤ¥èĥĸ": 2602,
      "å®«é¢ĪçĻĮ": 2603,
      "å¹¿æ³Ľ": 2604,
      "ä¹Łè¦ģ": 2605,
      "æĹłåĬĽ": 2606,
      "èĤ¢ä½ĵ": 2607,
      "é»Ħèī²": 2608,
      "åĨħè£¤": 2609,
      "æĪĲäºº": 2610,
      "åĲ¸çĥŁ": 2611,
      "al": 2612,
      "å®ŀéªĮ": 2613,
      "åıįå¤įåıĳä½ľ": 2614,
      "åı¯ä»¥éĢļè¿ĩ": 2615,
      "åŃĲå®«é¢Ī": 2616,
      "çĶŁåŃĺ": 2617,
      "çļ®èĦĤ": 2618,
      "èĤ¥å¤§": 2619,
      "åĳ¼åĲ¸éģĵ": 2620,
      "å¹²åĩĢ": 2621,
      "çĺĢ": 2622,
      "æĺ¾èĳĹ": 2623,
      "åįģäºĮ": 2624,
      "åĮ»çĸĹ": 2625,
      "ç»ĥ": 2626,
      "ç¬¬ä¸Ģ": 2627,
      "ï¼į": 2628,
      "ml": 2629,
      "å¤´æĻķ": 2630,
      "æľĢåĲİ": 2631,
      "åįģåĪĨ": 2632,
      "å°±è¦ģ": 2633,
      "äº¢è¿Ľ": 2634,
      "éļ¾ä»¥": 2635,
      "çĽ®çļĦ": 2636,
      "çļĦæĥħåĨµä¸ĭ": 2637,
      "åıĹä½ĵ": 2638,
      "æĪĲä¸º": 2639,
      "è¾ĥå¤§": 2640,
      "ç¨į": 2641,
      "æľĪç»ıä¸į": 2642,
      "çļ®æįŁ": 2643,
      "çī©çĲĨ": 2644,
      "æıĲç¤º": 2645,
      "ä¹ĭåīį": 2646,
      ")ãĢģ": 2647,
      "æııè¿°": 2648,
      "å½±åĵįåĪ°": 2649,
      "æīģ": 2650,
      "åĪĿæľŁ": 2651,
      "èĤ¾åĬŁèĥ½": 2652,
      "ä¼ı": 2653,
      "èĥ°èħº": 2654,
      "Xçº¿": 2655,
      "æĽ²å¼ł": 2656,
      "æĤ£çĹħ": 2657,
      "ti": 2658,
      "èĦ±èĲ½": 2659,
      "å°¾": 2660,
      "æĢİä¹ĪåĽŀäºĭ": 2661,
      "åĢį": 2662,
      "èī¾": 2663,
      "æľīåĪ©äºİ": 2664,
      "çĹħåı²": 2665,
      "å¸¸çĶ¨": 2666,
      "è§ĦåĪĻ": 2667,
      "åı¯ä½¿": 2668,
      "è¯¦ç»Ĩ": 2669,
      "åıĹæįŁ": 2670,
      "çħ®": 2671,
      "ï¼İ": 2672,
      "èĩªè¡Į": 2673,
      "åĪºæ¿ĢæĢ§é£Łçī©": 2674,
      "æĦŁåĪ°": 2675,
      "çĬ¯": 2676,
      "åįĹ": 2677,
      "æĦıè¯Ĩ": 2678,
      "å¾Īå¤ļäºº": 2679,
      "éľīç´ł": 2680,
      "é£İéĻ©": 2681,
      "ol": 2682,
      "çļ®èĤ¤çĹħ": 2683,
      "å¹´æľŁ": 2684,
      "å¥³æĢ§æľĭåıĭ": 2685,
      "å¤ļä¹ħ": 2686,
      "è¶ĬæĿ¥": 2687,
      "ä¼ĳåħĭ": 2688,
      "æĲĲ": 2689,
      "æ´»æĢ§": 2690,
      "ç¼ºè¡Ģ": 2691,
      "åį§åºĬ": 2692,
      "æĽ´åĬł": 2693,
      "å½¢æĢģ": 2694,
      "çĽĸ": 2695,
      "å½ĵä¸Ń": 2696,
      "é¢ľèī²": 2697,
      "å¿Ĺ": 2698,
      "ãĢĳ": 2699,
      "ä¸Ģä¾§": 2700,
      "æ¸ħéĻ¤": 2701,
      "æħİ": 2702,
      "è¶ĬæĿ¥è¶Ĭ": 2703,
      "å±Ī": 2704,
      "åĽłåŃĲ": 2705,
      "éĵ¶": 2706,
      "éĿĴæĺ¥": 2707,
      "çĪ±": 2708,
      "èĤĿçĹħ": 2709,
      "æĵį": 2710,
      "åĬŁæķĪ": 2711,
      "å®Ī": 2712,
      "ä¿®å¤į": 2713,
      "åĿł": 2714,
      "æ°¨éħ¸": 2715,
      "åĬ¨ä½ľ": 2716,
      "25": 2717,
      "ä¸ĢçĤ¹": 2718,
      "é«ĺçļĦ": 2719,
      "åİŁåĪĻ": 2720,
      "æĦŁæŁĵçļĦ": 2721,
      "éĶ®": 2722,
      "éĴ¾": 2723,
      "åĪĨæŀĲ": 2724,
      "æļĸ": 2725,
      "å°ĳè§ģ": 2726,
      "åĽĽèĤ¢": 2727,
      "éģ¿åŃķ": 2728,
      "æĬĳéĥģçĹĩ": 2729,
      "éī´åĪ«è¯ĬæĸŃ": 2730,
      "çĹħçģ¶": 2731,
      "å½©": 2732,
      "èħ±": 2733,
      "ä¸ĢèĪ¬æĿ¥è¯´": 2734,
      "ç»§ç»Ń": 2735,
      "æ¤Ĵ": 2736,
      "æľīæīĢ": 2737,
      "åĶĩ": 2738,
      "åĳĪçİ°": 2739,
      "æĬ½æĲĲ": 2740,
      "ç»§åıĳæĢ§": 2741,
      "åľĨå½¢": 2742,
      "è¿·": 2743,
      "æ¶Īæ¯Ĵ": 2744,
      "å¤ļåĲĥä¸ĢäºĽ": 2745,
      "åıĪç§°": 2746,
      "çĨ¬å¤ľ": 2747,
      "éĵ¾": 2748,
      "å°¿çĹĽ": 2749,
      "ä¿ĥçĶ²çĬ¶èħºæ¿Ģç´ł": 2750,
      "çĻ½æĸĳ": 2751,
      "è¾ĥå¤ļ": 2752,
      "å¹½éĹ¨èŀº": 2753,
      "ä¸Ģå®ļè¦ģæ³¨æĦı": 2754,
      "å¤«": 2755,
      "ä¸¥éĩįèĢħ": 2756,
      "åħ³èĬĤçĤİ": 2757,
      "æĿŁ": 2758,
      "èĦĬæŁ±": 2759,
      "åı¯çĶ¨": 2760,
      "åĪĽä¼¤": 2761,
      "åĩºçĶŁ": 2762,
      "å¤ĸç§ĳ": 2763,
      "ç²¾æ¶²": 2764,
      "çĺ«": 2765,
      "èĤ¾ä¸Ĭ": 2766,
      "èĥ°å²Ľ": 2767,
      "å¼¯": 2768,
      "èĬ½": 2769,
      "åıªæĺ¯": 2770,
      "è¡Ģæµģ": 2771,
      "åľ°æĸ¹": 2772,
      "åı¯åĪĨä¸º": 2773,
      "é¥±": 2774,
      "åĲİçļĦ": 2775,
      "æĹ¶æľŁ": 2776,
      "åľ¨æ²»çĸĹ": 2777,
      "çıł": 2778,
      "ä¹³æĪ¿": 2779,
      "èķ": 2780,
      "èĤ¾ä¸Ĭèħº": 2781,
      "åħŃ": 2782,
      "éĿł": 2783,
      "æ±¡æŁĵ": 2784,
      "åıĳäºİ": 2785,
      "åı·": 2786,
      "å¾Īå¥½çļĦ": 2787,
      "å¸ĮæľĽ": 2788,
      "åĨħå®¹": 2789,
      "è¡¨æĺİ": 2790,
      "åħ¶æ¬¡": 2791,
      "æĪĸæĺ¯": 2792,
      "åĲİéģĹ": 2793,
      "é«ĺçĥŃ": 2794,
      "ä½ĵæ¸©": 2795,
      "èħĲ": 2796,
      "ç¢³": 2797,
      "ãĢĲ": 2798,
      "æİī": 2799,
      "å®¶éķ¿": 2800,
      "è¡Ģæ¶²å¾ªçİ¯": 2801,
      "åĸľ": 2802,
      "ç¨ĭåº¦çļĦ": 2803,
      "è¦ģæ±Ĥ": 2804,
      "å¼¥": 2805,
      "èĥĥèĤłéģĵ": 2806,
      "æ¶ĪçĤİ": 2807,
      "çĭ¬": 2808,
      "äººç¾¤": 2809,
      "çĹ¹": 2810,
      "æ··åĲĪ": 2811,
      "å®«é¢ĪçĤİ": 2812,
      "å°½å¿«": 2813,
      "åĮ»çĶŁçļĦ": 2814,
      "åıĺå¾Ĺ": 2815,
      "æĽ´å¹´æľŁ": 2816,
      "çļĦçĹħåĽł": 2817,
      "åį´": 2818,
      "åĪ¶åĵģ": 2819,
      "åĩłçİĩ": 2820,
      "åı¯å¯¼èĩ´": 2821,
      "æ¶²ä½ĵ": 2822,
      "æ³¨æĦıäºĭé¡¹": 2823,
      "å¾ĹäºĨ": 2824,
      "å¸¸æľī": 2825,
      "100": 2826,
      "æĮĩèĤł": 2827,
      "æĪĲçĨŁ": 2828,
      "åįµå·¢åĽĬèĤ¿": 2829,
      "æļĹ": 2830,
      "é¢ħåĨħ": 2831,
      "æµģè¡Į": 2832,
      "å°ıæĿ¿": 2833,
      "èĤłèĥĥ": 2834,
      "åŁŁ": 2835,
      "æ¬¡æķ°": 2836,
      "æ¾¡": 2837,
      "å¤§å¤ļ": 2838,
      "æĻºåĬĽ": 2839,
      "ä¼łæŁĵæĢ§": 2840,
      "åįģäºĮæĮĩèĤł": 2841,
      "æĹłçĹĽ": 2842,
      "è¡Ģå°ıæĿ¿": 2843,
      "æĤ¨": 2844,
      "åķ¡": 2845,
      "åħ¶å®ĥ": 2846,
      "åĭ¤": 2847,
      "å¿ħè¦ģæĹ¶": 2848,
      "å®¶æĹı": 2849,
      "è¾ĥä¸º": 2850,
      "ä¸įæĸŃ": 2851,
      "çļĦéĩįè¦ģ": 2852,
      "ç®Ģåįķ": 2853,
      "æĺ¯åĽłä¸º": 2854,
      "æĢ§èĦĳ": 2855,
      "ï¼ł": 2856,
      "ä¹ĻèĤĿçĹħæ¯Ĵ": 2857,
      "è®²": 2858,
      "æĺ¯æľī": 2859,
      "æ©": 2860,
      "æľĪç»ıä¸įè°ĥ": 2861,
      "åĢ¾": 2862,
      "å±ĢéĻĲ": 2863,
      "æ¸Ĺåĩº": 2864,
      "ç¼ºéĻ·": 2865,
      "åıĮä¾§": 2866,
      "åħ³éĶ®": 2867,
      "å¿½": 2868,
      "æĪĳä»¬çļĦ": 2869,
      "éķĩ": 2870,
      "åĳĬ": 2871,
      "è¡Ģå°¿": 2872,
      "èī¯å¥½": 2873,
      "éĿĻèĦīæĽ²å¼ł": 2874,
      "å¯¹çĹĩæ²»çĸĹ": 2875,
      "æĺ¯æ¯Ķè¾ĥ": 2876,
      "éĶĲ": 2877,
      "å°ıåŃ©": 2878,
      "è¯Ħ": 2879,
      "éĢļçķħ": 2880,
      "âĢĿï¼Į": 2881,
      "80": 2882,
      "ä¹Łå°±æĺ¯": 2883,
      "å®¶åºŃ": 2884,
      "æ°¯": 2885,
      "æĥ§": 2886,
      "éĺ´æĢ§": 2887,
      "å¿ĥæĢģ": 2888,
      "éĽĦ": 2889,
      "å¤ı": 2890,
      "æĶ¾æĿ¾": 2891,
      "ä¸įæĺĵ": 2892,
      "ç²¾ç´¢": 2893,
      "çīµ": 2894,
      "ä¸įè¿ĩ": 2895,
      "%ï½ŀ": 2896,
      "ç²ªä¾¿": 2897,
      "æ¨¡": 2898,
      "ç±»ä¼¼": 2899,
      "çĹħåİŁä½ĵ": 2900,
      "å¼Ľ": 2901,
      "åĪĨåŃĲ": 2902,
      "æŀĹ": 2903,
      "å½ĵçĦ¶": 2904,
      "èĤĿçĻĮ": 2905,
      "æĹ¢": 2906,
      "ä¼ļéĺ´": 2907,
      "çŃĽ": 2908,
      "çĮª": 2909,
      "çº¢ç»Ĩèĥŀ": 2910,
      "åįľ": 2911,
      "éľĢè¦ģæ³¨æĦı": 2912,
      "éĩįåº¦": 2913,
      "å¿«éĢŁ": 2914,
      "æľĢä½³": 2915,
      "èĤºçĤİ": 2916,
      "æ¼«": 2917,
      "éĥ¨ä½įçļĦ": 2918,
      "éĢĤåĲĪ": 2919,
      "åħĥç´ł": 2920,
      "éĢĤéĩı": 2921,
      "ar": 2922,
      "åĲĮæĪ¿": 2923,
      "DNA": 2924,
      "äº§å¦ĩ": 2925,
      "éĢīçĶ¨": 2926,
      "é¥®é£Łä¸Ĭ": 2927,
      "ç«ĭåį³": 2928,
      "å·§": 2929,
      "çªĿ": 2930,
      "èº¯": 2931,
      "çº¢èĤ¿": 2932,
      "æĮĩå¯¼ä¸ĭ": 2933,
      "ä¸»è¦ģè¡¨çİ°ä¸º": 2934,
      "ä¸įèī¯åıįåºĶ": 2935,
      "éĩĬæĶ¾": 2936,
      "æ·ĭçĹħ": 2937,
      "åĲ¦åĪĻ": 2938,
      "çķ¥": 2939,
      "åĨħåĪĨæ³Įå¤±è°ĥ": 2940,
      "ä»¥ä¸ĭåĩł": 2941,
      "ä¿Ŀå®Ī": 2942,
      "æĥĬ": 2943,
      "èĩªæĪĳ": 2944,
      "é¢¤": 2945,
      "ä¸ĸ": 2946,
      "èĥĨåĽºéĨĩ": 2947,
      "åıįå°Ħ": 2948,
      "ç©´": 2949,
      "æ°¨åŁº": 2950,
      "çħİ": 2951,
      "Ŀåįľ": 2952,
      "ä¸įè§ĦåĪĻ": 2953,
      "çļĦéĥ¨ä½į": 2954,
      "ç½ĳèĨľ": 2955,
      "ç»ĨèıĮæĦŁæŁĵ": 2956,
      "24": 2957,
      "åİĺ": 2958,
      "å°¿è·¯æĦŁæŁĵ": 2959,
      "å§¿": 2960,
      "æ¹¿çĸ£": 2961,
      "æĹģ": 2962,
      "åĬŀæ³ķ": 2963,
      "çĤİæĢ§": 2964,
      "é«ĺåº¦": 2965,
      "ç¦ģæŃ¢": 2966,
      "è¿Ļä¸Ģ": 2967,
      "éĨī": 2968,
      "åĴĸ": 2969,
      "å¸¦çĬ¶": 2970,
      "åĲĥä¸ĢäºĽ": 2971,
      "èº«ä½ĵåģ¥åº·": 2972,
      "èĥ°å²Ľç´ł": 2973,
      "åĤ": 2974,
      "å¯»": 2975,
      "ä¸ĵä¸ļ": 2976,
      "èĤĽåĳ¨": 2977,
      "åį³ä½¿": 2978,
      "ç§ĳåŃ¦": 2979,
      "çļĦä¸Ģ": 2980,
      "åĪĨç¦»": 2981,
      "åİĺç±³": 2982,
      "èĤ¾å°ı": 2983,
      "è¿Ľå±ķ": 2984,
      "ç¿»": 2985,
      "ä¸¤ä¸ª": 2986,
      "æ¯Ĵç´ł": 2987,
      "è£ħ": 2988,
      "ä¾µçĬ¯": 2989,
      "æģĲæĥ§": 2990,
      "å¤ļåĸĿæ°´": 2991,
      "ç¦ģå¿Į": 2992,
      "èĥİçĽĺ": 2993,
      "èĭ¯": 2994,
      "èĤļåŃĲ": 2995,
      "æĮĩæłĩ": 2996,
      "çŃĭ": 2997,
      "æħ¢æħ¢": 2998,
      "ç®Ĺ": 2999,
      "åŃķæľŁ": 3000,
      "æµĭå®ļ": 3001,
      "åħħè¶³": 3002,
      "æ²Ļ": 3003,
      "ç¬¬ä¸ī": 3004,
      "å¢ŀåİļ": 3005,
      "åĸĺ": 3006,
      "ç«Ļ": 3007,
      "å¹¼åĦ¿": 3008,
      "èĦĳæ¢Ĺ": 3009,
      "åĪ®": 3010,
      "ä¹¦": 3011,
      "é¢Ĺ": 3012,
      "çº¤ç»´åĮĸ": 3013,
      "åĨįæ¬¡": 3014,
      "éĢĤåºĶ": 3015,
      "âĳ": 3016,
      "éĩĮéĿ¢": 3017,
      "ç»ľ": 3018,
      "æĦıä¹ī": 3019,
      "èĩªèº«åħįçĸ«": 3020,
      "åĬ¡": 3021,
      "ä¸Ńé£İ": 3022,
      "æīŃ": 3023,
      "éĹ´çĽĺçªģåĩº": 3024,
      "éº»çĹ¹": 3025,
      "æ°´åĪĨ": 3026,
      "èł": 3027,
      "æ¶ĪéĢĢ": 3028,
      "åıĳçĥ§": 3029,
      "èĤºçĻĮ": 3030,
      "çĳ": 3031,
      "çļĦä¸Ģä¸ª": 3032,
      "ä¸įåĪ°": 3033,
      "åĢĴ": 3034,
      "éļĨ": 3035,
      "åĸĿéħĴ": 3036,
      "åĮºåĪ«": 3037,
      "æĶ¯æĮģ": 3038,
      "çĸ«èĭĹ": 3039,
      "éĻĪ": 3040,
      "åĴĮæ²»çĸĹ": 3041,
      "è½¯éª¨": 3042,
      "æĮ¤": 3043,
      "éļĻ": 3044,
      "éº¦": 3045,
      "çĸĹç¨ĭ": 3046,
      "å±ħ": 3047,
      "çº¹": 3048,
      "æıĲä¾Ľ": 3049,
      "éĢŁåº¦": 3050,
      "å¤ļå°ĳ": 3051,
      "æ½®æ¹¿": 3052,
      "åĴĸåķ¡": 3053,
      "å¼¹": 3054,
      "ä¾¿è¡Ģ": 3055,
      "èĨĢèĥ±çĤİ": 3056,
      "ä½ĵèĤ²": 3057,
      "åıĬåħ¶": 3058,
      "éª¨éª": 3059,
      "å·®å¼Ĥ": 3060,
      "æºĲæĢ§": 3061,
      "è¶³å¤Ł": 3062,
      "éĻĲåĪ¶": 3063,
      "çļĦåĬŁèĥ½": 3064,
      "éķľæ£ĢæŁ¥": 3065,
      "èłķ": 3066,
      "èİ·å¾Ĺ": 3067,
      "å¹´è½»": 3068,
      "äººç±»": 3069,
      "ç³»åĪĹ": 3070,
      "è¾Ľè¾£åĪºæ¿Ģ": 3071,
      "æī©æķ£": 3072,
      "æķĻ": 3073,
      "åŃ©åŃĲçļĦ": 3074,
      "è°·": 3075,
      "æĸľ": 3076,
      "åıĤèĢĥ": 3077,
      "ç©¿åĪº": 3078,
      "çº³": 3079,
      "çĿ¡è§ī": 3080,
      "èıĮæĢ§": 3081,
      "çľĭçľĭ": 3082,
      "åĩºæ±Ĺ": 3083,
      "æĺ¯ä»Ģä¹ĪåİŁåĽł": 3084,
      "æĪĳåĽ½": 3085,
      "éħ°": 3086,
      "æ¸©åº¦": 3087,
      "ä¸ĻèĤĿ": 3088,
      "èĤ¾çĤİ": 3089,
      "çļĦæĦŁæŁĵ": 3090,
      "ä¸°å¯ĮçļĦ": 3091,
      "å°ĸéĶĲ": 3092,
      "çĶŁåĨ·": 3093,
      "èµ·çĹħ": 3094,
      "æµģè¡Ģ": 3095,
      "ä¸įå½ĵ": 3096,
      "ä½Ļ": 3097,
      "æł¹æ²»": 3098,
      "ä¸§": 3099,
      "éĹ·": 3100,
      "æĻĴ": 3101,
      "ç§¯æ°´": 3102,
      "è®Ń": 3103,
      "åľ¨æĢĢåŃķ": 3104,
      "åı£èĩŃ": 3105,
      "é£İæ¹¿": 3106,
      "å¦Ĥæŀľæľī": 3107,
      "è¿Ļç±»": 3108,
      "åľŁ": 3109,
      "90": 3110,
      "ä¸ĭåŀĤ": 3111,
      "åİ¥": 3112,
      "èħ°éĥ¨": 3113,
      "ç´¯åıĬ": 3114,
      "ä¹ĭå¤ĸ": 3115,
      "çº¢ç´ł": 3116,
      "æīĭæĮĩ": 3117,
      "éĶģ": 3118,
      "é¥®æ°´": 3119,
      "è§£åĨ³": 3120,
      "çĽ²": 3121,
      "æµİ": 3122,
      "çºµ": 3123,
      "åı¯åľ¨": 3124,
      "or": 3125,
      "å¯Ħ": 3126,
      "åĨ³å®ļ": 3127,
      "åºı": 3128,
      "æĻ®éĢļ": 3129,
      "å¼Ĥçī©": 3130,
      "æĿ¾å¼Ľ": 3131,
      "âĢĿãĢĤ": 3132,
      "èĵ": 3133,
      "æĿĲ": 3134,
      "åĲİéģĹçĹĩ": 3135,
      "ä¸Ģèµ·": 3136,
      "æ³¨æĦıä¼ĳæģ¯": 3137,
      "çĿ¾ä¸¸çĤİ": 3138,
      "å¤ĸçĶ¨": 3139,
      "éª¶": 3140,
      "å¤§éĩıçļĦ": 3141,
      "éĺ²æ²»": 3142,
      "ä½ĵå¤ĸ": 3143,
      "è¯·æııè¿°": 3144,
      "ç¡«": 3145,
      "æĬ¥éģĵ": 3146,
      "èĲ¥åħ»ä¸įèī¯": 3147,
      "æĲı": 3148,
      "ç»ĦæĪĲ": 3149,
      "å°½æĹ©": 3150,
      "èłķåĬ¨": 3151,
      "æŁĶ": 3152,
      "èĢĹ": 3153,
      "éº»éĨī": 3154,
      "åºĶå½ĵ": 3155,
      "ä¹Łåı¯èĥ½": 3156,
      "æ½ľä¼ı": 3157,
      "èŀį": 3158,
      "åį¡": 3159,
      "ä¸»è¦ģæľī": 3160,
      "å®ŀéĻħ": 3161,
      "æĢ§è´¨": 3162,
      "æĢİä¹Īæ²»çĸĹ": 3163,
      "åı¯ä»¥çĶ¨": 3164,
      "å§ľ": 3165,
      "è´¥": 3166,
      "çļĦçļ®èĤ¤": 3167,
      "è§ģäºİ": 3168,
      "æľĢç»Ī": 3169,
      "é¸¡èĽĭ": 3170,
      "èģĶåĲĪ": 3171,
      "æ®µæĹ¶éĹ´": 3172,
      "è¤": 3173,
      "è¡ĢæµĨ": 3174,
      "11": 3175,
      "æľįèį¯": 3176,
      "å°ıçļĦ": 3177,
      "å¤´éĥ¨": 3178,
      "åĩ»": 3179,
      "çĻ½å¸¦å¢ŀå¤ļ": 3180,
      "çĶľ": 3181,
      "çĻľ": 3182,
      "åĲİæľŁ": 3183,
      "çļ®ä¸ĭ": 3184,
      "è¿ĩéķ¿": 3185,
      "å¼ķæµģ": 3186,
      "éģĩ": 3187,
      "æ·¤": 3188,
      "éª¨é«ĵ": 3189,
      "ä¸ªäººåį«çĶŁ": 3190,
      "è¾¹ç¼ĺ": 3191,
      "åįı": 3192,
      "çĹĩçĬ¶çļĦ": 3193,
      "åŃ¦æ£ĢæŁ¥": 3194,
      "å¼¥æ¼«": 3195,
      "çļ®èĤ¤çļĦ": 3196,
      "å¸¦çĬ¶çĸ±çĸ¹": 3197,
      "kg": 3198,
      "ä¿Ŀåģ¥": 3199,
      "ä¸¤ä¾§": 3200,
      "è¾ĥé«ĺ": 3201,
      "è®¾": 3202,
      "çĽ¸ä¼¼": 3203,
      "çĹħæĥħçļĦ": 3204,
      "çĶ²çĬ¶èħºçĤİ": 3205,
      "ä¸ģ": 3206,
      "éĺµ": 3207,
      "åĲŀåĴ½": 3208,
      "æ¯ĴæĢ§": 3209,
      "æĵįä½ľ": 3210,
      "æ´Ĺæ¾¡": 3211,
      "é¼ł": 3212,
      "åħĭåĬĽ": 3213,
      "å·§åħĭåĬĽ": 3214,
      "æ¢¦": 3215,
      "çĪ¶": 3216,
      "åıĹç´¯": 3217,
      "èľĤ": 3218,
      "èĦĳåĩºè¡Ģ": 3219,
      "æľīä¸Ģå®ļçļĦ": 3220,
      "åıĬæĹ©": 3221,
      "çľ¼çĿĽ": 3222,
      "çļĦæĦŁè§ī": 3223,
      "ä¸įæĮ¯": 3224,
      "æĺ¯å¾Ī": 3225,
      "ä¹İ": 3226,
      "åŃĲå®«èĦ±åŀĤ": 3227,
      "ç©ºæ°Ķ": 3228,
      "ç§¯æŀģæ²»çĸĹ": 3229,
      "ä¾µåħ¥": 3230,
      "èī¾æ»ĭ": 3231,
      "ä»Ĭ": 3232,
      "çĶ²çĬ¶èħºç´ł": 3233,
      "çĽ¸åĲĮ": 3234,
      "ro": 3235,
      "åĸĤ": 3236,
      "çĺ«çĹ": 3237,
      "åĲĪçī©": 3238,
      "èį¯æµģ": 3239,
      "åĪ°äºĨ": 3240,
      "14": 3241,
      "éª¨éª¼": 3242,
      "æ¿Ģåħī": 3243,
      "çĺ«çĹª": 3244,
      "åıī": 3245,
      "èĤĿç»Ĩèĥŀ": 3246,
      "èĳ¡èĲĦç³ĸ": 3247,
      "ç»Ŀç»ı": 3248,
      "å·¾": 3249,
      "æļĤæĹ¶": 3250,
      "å¿Ĩ": 3251,
      "ä¹ĻåŀĭèĤĿçĤİ": 3252,
      "çĸ¤": 3253,
      "è¿Ļä¸ªæĹ¶åĢĻ": 3254,
      "åħħåĪĨ": 3255,
      "æĶ¾çĸĹ": 3256,
      "æģ¶åĮĸ": 3257,
      "ä¸Ńåº¦": 3258,
      "åĮ»å¸Ī": 3259,
      "å¤´çļ®": 3260,
      "èĭ¹": 3261,
      "çºł": 3262,
      "çĶŁæĪĲ": 3263,
      "èħºä½ĵ": 3264,
      "çĹĤ": 3265,
      "åİ»éĻ¤": 3266,
      "èĭ¹æŀľ": 3267,
      "æĺŁ": 3268,
      "æīĢæľī": 3269,
      "èį·": 3270,
      "å¹¶ä¸įæĺ¯": 3271,
      "åľ°åĮº": 3272,
      "ä¸įåĲĮç¨ĭåº¦çļĦ": 3273,
      "ä¸ĥ": 3274,
      "è¡¨çļ®": 3275,
      "å½©è¶ħ": 3276,
      "æķ´ä¸ª": 3277,
      "åħĪåħĨ": 3278,
      "é¢ĳç¹ģ": 3279,
      "åĳĨ": 3280,
      "åĨ°": 3281,
      "è´Łæĭħ": 3282,
      "ç¼Ŀ": 3283,
      "ä¸įéľĢè¦ģ": 3284,
      "æ´»æ£Ģ": 3285,
      "å°¿ç®¡": 3286,
      "åģļåĪ°": 3287,
      "å¤§èĤł": 3288,
      "ä¸įçĶ¨": 3289,
      "åı¯ä»¥åľ¨": 3290,
      "æ¸ħçĥŃ": 3291,
      "åĪ©çĶ¨": 3292,
      "æĺ¯ä¸Ģä¸ª": 3293,
      "çĤ¸": 3294,
      "å¥½è½¬": 3295,
      "æŃ¢çĹĽ": 3296,
      "è®Ńç»ĥ": 3297,
      "è¤Ĳ": 3298,
      "æ¯ĽåĽĬçĤİ": 3299,
      "åĪĢ": 3300,
      "è¸": 3301,
      "å¹½éĹ¨èŀºæĿĨèıĮ": 3302,
      "èĥĥçĻĮ": 3303,
      "æ¨ª": 3304,
      "å®ĥä»¬": 3305,
      "ä¸įåĲĥ": 3306,
      "æ£ī": 3307,
      "çļĦçĤİçĹĩ": 3308,
      "æ¢°": 3309,
      "æŀ£": 3310,
      "å¦ĩç§ĳçĸ¾çĹħ": 3311,
      "é»Ħä½ĵ": 3312,
      "å¯ĦçĶŁ": 3313,
      "å°ĸéĶĲæ¹¿çĸ£": 3314,
      "çĻĮåıĺ": 3315,
      "äºĭæĥħ": 3316,
      "åĵº": 3317,
      "é¢Ĺç²Ĵ": 3318,
      "è¡ĢèĦĤ": 3319,
      "ä½ĵåĬĽ": 3320,
      "çĽĳæµĭ": 3321,
      "ä¼ļä½¿": 3322,
      "æĢ¥æĢ§æľŁ": 3323,
      "éħ¸æĢ§": 3324,
      "ä¸§å¤±": 3325,
      "ä¾Ŀæį®": 3326,
      "åĩĿè¡Ģ": 3327,
      "ï¼īãĢĤ": 3328,
      "èĥĨçº¢ç´ł": 3329,
      "æŀĿ": 3330,
      "åįµæ³¡": 3331,
      "èĥĨæ±ģ": 3332,
      "éĢĤçĶ¨äºİ": 3333,
      "åĿĩåı¯": 3334,
      "çļĦçĶŁæ´»": 3335,
      "åľº": 3336,
      "èĦĳè¡Ģç®¡": 3337,
      "70": 3338,
      "åĪļ": 3339,
      "åĽ¢": 3340,
      "äººä½ĵçļĦ": 3341,
      "æľºä¼ļ": 3342,
      "å¾Īå°ĳ": 3343,
      "18": 3344,
      "èŃ": 3345,
      "ä¹³èħºçĻĮ": 3346,
      "èĨĿåħ³èĬĤ": 3347,
      "æĹłæĺİæĺ¾": 3348,
      "ä¸ŃåĽ½": 3349,
      "è¿ŀç»Ń": 3350,
      "æŃ¢è¡Ģ": 3351,
      "æĺıè¿·": 3352,
      "è´¨æĢ§": 3353,
      "è¿Ľè¡Įæ£ĢæŁ¥": 3354,
      "çļĦæķĪæŀľ": 3355,
      "çĽ´å¾Ħ": 3356,
      "è¹": 3357,
      "åıĳçĤİ": 3358,
      "åĭĥ": 3359,
      "ä¸ĬæīĢ": 3360,
      "çģ¸": 3361,
      "é¡¶": 3362,
      "èĤłçĤİ": 3363,
      "ä¼ļå½±åĵį": 3364,
      "åıĳçĶŁçļĦ": 3365,
      "èµĦ": 3366,
      "ä»ģ": 3367,
      "æĻļä¸Ĭ": 3368,
      "æī©å¤§": 3369,
      "éĥ½åı¯ä»¥": 3370,
      "çĶ²çĬ¶èħºèĤ¿": 3371,
      "æĸ¹éĿ¢çļĦ": 3372,
      "åĽłèĢĮ": 3373,
      "æĢ§åĴĮ": 3374,
      "å¿ĥå®¤": 3375,
      "è§ĨåĬĽ": 3376,
      "æ°´çĸ±": 3377,
      "èĩĤ": 3378,
      "åĩºçİ°çļĦ": 3379,
      "äº§çĶŁçļĦ": 3380,
      "æ¶ĪåĮĸä¸įèī¯": 3381,
      "èµĸ": 3382,
      "æĲº": 3383,
      "ä¼°": 3384,
      "èĤ¿çĺ¤çļĦ": 3385,
      "å½¢æĪĲçļĦ": 3386,
      "ä¸ªä½ĵ": 3387,
      "å½Ĵ": 3388,
      "èľľ": 3389,
      "åĬ³åĬ¨": 3390,
      "çģĮ": 3391,
      "æ¬¢": 3392,
      "å®«é¢Īæģ¯èĤī": 3393,
      "çĽ¸äºĴ": 3394,
      "ä¸Ģä¸ªæľĪ": 3395,
      "æľĪç»ıåĳ¨æľŁ": 3396,
      "å³": 3397,
      "çĥŃæ°´": 3398,
      "ic": 3399,
      "é¾Łå¤´çĤİ": 3400,
      "åĵºä¹³": 3401,
      "çļĦæĸ¹å¼ı": 3402,
      "å¼ºè¿«": 3403,
      "å¢ŀéķ¿": 3404,
      "èĤĽè£Ĥ": 3405,
      "éĿĴæĺ¥æľŁ": 3406,
      "ç¥Ľ": 3407,
      "å°ıä¾¿": 3408,
      "å©ļ": 3409,
      "13": 3410,
      "åŃ¦ä¹ł": 3411,
      "è¡ĢæĢ§": 3412,
      "çļ®è´¨æ¿Ģç´ł": 3413,
      "åıªèĥ½": 3414,
      "å®ĥçļĦ": 3415,
      "éĺ»æ»ŀ": 3416,
      "åŃĲå®«åĨħèĨľå¼Ĥä½į": 3417,
      "æľĢä¸º": 3418,
      "æ¯Ľç»Ĩ": 3419,
      "éĴ±": 3420,
      "ä¹³å¤´çĺ¤": 3421,
      "è¶¾": 3422,
      "åĩĨç¡®": 3423,
      "èĨ³": 3424,
      "çļĤ": 3425,
      "æĳ©æĵ¦": 3426,
      "æīĭæ®µ": 3427,
      "å¼łåĬĽ": 3428,
      "ä¸»åĬ¨èĦī": 3429,
      "éĶĮ": 3430,
      "åį§åºĬä¼ĳæģ¯": 3431,
      "ç§¯æŀģçļĦ": 3432,
      "ä¸¥æł¼": 3433,
      "æīĭæľ¯åĪĩéĻ¤": 3434,
      "è¿ĩæķıæĢ§": 3435,
      "é¼ĵ": 3436,
      "ï¼Ľï¼ł": 3437,
      "åİĨ": 3438,
      "éķľä¸ĭ": 3439,
      "éĻĦä»¶": 3440,
      "æĺ¯åĲ¦æľī": 3441,
      "ä¸Ģç³»åĪĹ": 3442,
      "æīİ": 3443,
      "æĲºå¸¦": 3444,
      "å°±åĮ»": 3445,
      "éĴĿ": 3446,
      "é¢Īæ¤İçĹħ": 3447,
      "åĨħèĦı": 3448,
      "èĦ±åĩº": 3449,
      "è®°å¿Ĩ": 3450,
      "ç¹ģæ®ĸ": 3451,
      "æ²¿": 3452,
      "éĻĦçĿ¾çĤİ": 3453,
      "å¤±å¸¸": 3454,
      "æ¶Īçĺ¦": 3455,
      "åĳ¼åĲ¸åĽ°éļ¾": 3456,
      "åĨłçĬ¶": 3457,
      "å¹´æĿ¥": 3458,
      "åĲ§": 3459,
      "æķ°éĩı": 3460,
      "èĢĮå¼ķèµ·": 3461,
      "æŀķ": 3462,
      "çļĦåĪºæ¿Ģ": 3463,
      "åĮºåŁŁ": 3464,
      "èŀºæĹĭ": 3465,
      "åľ¨æĹ¥å¸¸çĶŁæ´»ä¸Ń": 3466,
      "åľ¨çĶŁæ´»ä¸Ń": 3467,
      "è¥¿åĮ»": 3468,
      "ä½ĵåĨħçļĦ": 3469,
      "æĢ§èĥĥçĤİ": 3470,
      "æ·ĭå·´ç»Ĩèĥŀ": 3471,
      "åĩıå¼±": 3472,
      "åĩ¹": 3473,
      "èĻ¾": 3474,
      "åħ³äºİ": 3475,
      "æĬĹèıĮ": 3476,
      "æĹłè®º": 3477,
      "èĥĢæ°Ķ": 3478,
      "æĪĲåĬŁ": 3479,
      "is": 3480,
      "ç»¼ä¸ĬæīĢ": 3481,
      "çĶµåĽ¾": 3482,
      "çĸĿ": 3483,
      "åĨħçĹĶ": 3484,
      "å¦»": 3485,
      "èŃ¦": 3486,
      "ä¿Ŀå®Īæ²»çĸĹ": 3487,
      "æĹ©æľŁçĹĩçĬ¶": 3488,
      "ä¸ĺèĦĳ": 3489,
      "æķĳ": 3490,
      "ç§»æ¤į": 3491,
      "åįĥä¸ĩ": 3492,
      "æ¡¥": 3493,
      "å¸¸è§ģäºİ": 3494,
      "æĥ³è¦ģ": 3495,
      "èĥĥæºĥçĸ¡": 3496,
      "åľ¨å¹³æĹ¶": 3497,
      "çºłæŃ£": 3498,
      "æłĳ": 3499,
      "çĽĽ": 3500,
      "ä»¥ä¸ĬçļĦ": 3501,
      "æľºèĥ½": 3502,
      "å¤§çº¦": 3503,
      "200": 3504,
      "å¿ĥå¾ĭ": 3505,
      "è®¤è¯Ĩ": 3506,
      "ä¸įå®ī": 3507,
      "å¥Ĺ": 3508,
      "èĤ¡æ²Ł": 3509,
      "è¯¢éĹ®": 3510,
      "16": 3511,
      "æ°¢": 3512,
      "æ·Ģ": 3513,
      "æ»¤": 3514,
      "åıĹç²¾": 3515,
      "éĤ»": 3516,
      "æĦī": 3517,
      "çĪ¶æ¯į": 3518,
      "æ¯ıä¸ª": 3519,
      "es": 3520,
      "ç»¼ä¸ĬæīĢè¿°": 3521,
      "çĶŁäº§": 3522,
      "äººå·¥æµģäº§": 3523,
      "åĨ»": 3524,
      "æ°ĳ": 3525,
      "çĽ¸ä¿¡": 3526,
      "èĻļå¼±": 3527,
      "ç²ĺæ¶²": 3528,
      "èħ¹èĤ¡æ²Ł": 3529,
      "å¯¼ç®¡": 3530,
      "æİĴæ³Ħ": 3531,
      "åĭĥèµ·": 3532,
      "è·³": 3533,
      "æīĺ": 3534,
      "åĢ¾åĲĳ": 3535,
      "ç²¾ç®¡": 3536,
      "çĸıæĿ¾": 3537,
      "åħ¨éĿ¢": 3538,
      "çŁ¥è¯Ĩ": 3539,
      "ç²Ĵç»Ĩèĥŀ": 3540,
      "åŁºåºķ": 3541,
      "èĩªè§ī": 3542,
      "å¼ķäº§": 3543,
      "èĳ±": 3544,
      "ä¸ĢèĪ¬æĺ¯": 3545,
      "ä¸ĢèĪ¬åľ¨": 3546,
      "å¿µçıł": 3547,
      "å°±éľĢè¦ģ": 3548,
      "å§¿åĬ¿": 3549,
      "ç»´çĶŁç´łC": 3550,
      "äº§åĵģ": 3551,
      "å¾Īéļ¾": 3552,
      "æģ¢å¤įæŃ£å¸¸": 3553,
      "æľīä»Ģä¹Ī": 3554,
      "èĥĨåĽĬ": 3555,
      "ï¼īãĢģ": 3556,
      "åİĮé£Ł": 3557,
      "éľĩ": 3558,
      "çĽ¸å½ĵ": 3559,
      "ç»Ħç»ĩçļĦ": 3560,
      "é¢Į": 3561,
      "æ¯Ķå¦Ĥè¯´": 3562,
      "SH": 3563,
      "åºĶè¯¥æ³¨æĦı": 3564,
      "çľ¼çĲĥ": 3565,
      "é¢Ŀ": 3566,
      "éĢģ": 3567,
      "æĸ°é²ľçļĦ": 3568,
      "æĪĲå¹´": 3569,
      "èĩ³å°ĳ": 3570,
      "éº»æľ¨": 3571,
      "éĺ´éģĵåĩºè¡Ģ": 3572,
      "é¸£": 3573,
      "ç²¾åĽĬ": 3574,
      "ç³Ĭ": 3575,
      "æŃ£è§ĦåĮ»éĻ¢": 3576,
      "åıĺæĢ§": 3577,
      "èĨ³é£Ł": 3578,
      "as": 3579,
      "ä¼ļéĢłæĪĲ": 3580,
      "æĲĶ": 3581,
      "é¾Ļ": 3582,
      "æı¡": 3583,
      "çĶ¨åĬĽ": 3584,
      "æ¯Ľç»Ĩè¡Ģç®¡": 3585,
      "èĨ¨": 3586,
      "é£Łæ¬²ä¸įæĮ¯": 3587,
      "ç¢İ": 3588,
      "æĽ¾": 3589,
      "ä½ĵæ£Ģ": 3590,
      "åĪĩå¼Ģ": 3591,
      "èĴľ": 3592,
      "èĦĳçĤİ": 3593,
      "åı¯èĥ½ä¸İ": 3594,
      "ä¸Ńå¿ĥ": 3595,
      "ä¿Ŀæļĸ": 3596,
      "èħ°çĹĽ": 3597,
      "è½¦": 3598,
      "at": 3599,
      "å°ıä¸īéĺ³": 3600,
      "éļĲçĿ¾": 3601,
      "å°¼": 3602,
      "ä¸ĬéĿ¢": 3603,
      "èĢĮå¯¼èĩ´": 3604,
      "çģŃ": 3605,
      "æĬĹçĹħæ¯Ĵ": 3606,
      "éĥ¨åĪĨæĤ£èĢħ": 3607,
      "ä¸ĵå®¶": 3608,
      "é«ĺåį±": 3609,
      "è¦ģåıĬæĹ¶": 3610,
      "ç±»èį¯çī©": 3611,
      "èĤĭ": 3612,
      "åĪĩéĻ¤æľ¯": 3613,
      "åļ": 3614,
      "æĨ": 3615,
      "æħ¢æĢ§çĤİçĹĩ": 3616,
      "ä»½": 3617,
      "ç»ŀ": 3618,
      "ä»·åĢ¼": 3619,
      "èĦĤæº¢": 3620,
      "å¼Ĥåĳ³": 3621,
      "éª¨è´¨å¢ŀçĶŁ": 3622,
      "ç»ĨèıĮæĢ§": 3623,
      "ä¸¥éĩįæĹ¶": 3624,
      "çļĦåĮ»éĻ¢": 3625,
      "åĲİæŀľ": 3626,
      "å¼Ģæ°´": 3627,
      "èĭĶ": 3628,
      "ä¸Ĭåįĩ": 3629,
      "ç£·éħ¸": 3630,
      "åĪĴ": 3631,
      "åĪĨè£Ĥ": 3632,
      "é¥®é£Łä¹łæĥ¯": 3633,
      "åĪĨåĮĸ": 3634,
      "ç±»çļĦ": 3635,
      "çĹĬ": 3636,
      "æ°Ķè¡Ģ": 3637,
      "å¤ĸçķĮ": 3638,
      "ä¸ĭèħ¹": 3639,
      "éģĹä¼łåĽłç´ł": 3640,
      "åĮħåĿĹ": 3641,
      "åı¯ä»¥éĢīæĭ©": 3642,
      "ä½¿å¾Ĺ": 3643,
      "åıĳçĹħåİŁåĽł": 3644,
      "æ´»è¡Ģ": 3645,
      "æĻ¨": 3646,
      "å®Ŀå®ĿçļĦ": 3647,
      "æİĴåįµæľŁ": 3648,
      "åĴ¨": 3649,
      "èħ¹èĨľ": 3650,
      "åħ»æĪĲèī¯å¥½çļĦ": 3651,
      "åĺ±": 3652,
      "èĤºéĥ¨": 3653,
      "é¼»åĴ½": 3654,
      "å¤±åİ»": 3655,
      "è´´": 3656,
      "èĥĢçĹĽ": 3657,
      "ç¼Ķ": 3658,
      "åı¯åıĳçĶŁ": 3659,
      "åĩĨå¤ĩ": 3660,
      "åĴ¨è¯¢": 3661,
      "éŀĺèĨľ": 3662,
      "æĢ§æ¿Ģç´ł": 3663,
      "çĹĬæĦĪ": 3664,
      "å¼¥æ¼«æĢ§": 3665,
      "æĮ¥": 3666,
      "è§£æ¯Ĵ": 3667,
      "çľĭåĪ°": 3668,
      "ä½ĵèĤ²éĶ»çĤ¼": 3669,
      "èĥĮéĥ¨": 3670,
      "å°ĳå¹´": 3671,
      "ac": 3672,
      "åħ³æ³¨": 3673,
      "ç¼ºæ°§": 3674,
      "åħ°": 3675,
      "çļĦåı¯èĥ½æĢ§": 3676,
      "æĪĸæľī": 3677,
      "æ¼ı": 3678,
      "åıĳçĹħæľºåĪ¶": 3679,
      "ç»ĵç¼Ķ": 3680,
      "åģľèį¯": 3681,
      "çĹħæ¯ĴæĢ§èĤĿçĤİ": 3682,
      "çĹĽç»ı": 3683,
      "åŃ¢": 3684,
      "åģ¥åº·çļĦ": 3685,
      "æĺ¯æľĢ": 3686,
      "å¤ļåĽĬ": 3687,
      "å¾Īå¿«": 3688,
      "è¦ģå¤ļ": 3689,
      "è·Ŀ": 3690,
      "åĶĳ": 3691,
      "çļ®èĦĤèħº": 3692,
      "ç¨ł": 3693,
      "å¹³åĿĩ": 3694,
      "çŃĽæŁ¥": 3695,
      "åĮĢ": 3696,
      "éģį": 3697,
      "çĲĥèĽĭçĻ½": 3698,
      "ä¸įå°ĳ": 3699,
      "èĦĲ": 3700,
      "è§ĴåĮĸ": 3701,
      "åħ«": 3702,
      "åŃĺæ´»": 3703,
      "é«ĺèĽĭçĻ½": 3704,
      "åľ¨ä¸´åºĬä¸Ĭ": 3705,
      "çĶµè§£": 3706,
      "åĪ©å°¿": 3707,
      "ä¿¡åı·": 3708,
      "è¦": 3709,
      "è¿Ľè¡ĮæĢ§": 3710,
      "çļĦåıĺåĮĸ": 3711,
      "ä½łçļĦ": 3712,
      "é»ĳèī²ç´ł": 3713,
      "ä¸ĢçĽ´": 3714,
      "åĲĪéĢĤ": 3715,
      "å¹³å¸¸": 3716,
      "å¿ĥåĬ¨": 3717,
      "åĬłä¸Ĭ": 3718,
      "å½ķ": 3719,
      "å¯Ĩåº¦": 3720,
      "ä¸ĢèĪ¬æĥħåĨµä¸ĭ": 3721,
      "å¿ĥè¡Ģç®¡": 3722,
      "èĦĳèĨľçĤİ": 3723,
      "é«ĺè¡Ģç³ĸ": 3724,
      "ç»ĵèĤłçĤİ": 3725,
      "éĵ¶å±ĳ": 3726,
      "æ²»å¥½": 3727,
      "èĤĽçĺĺ": 3728,
      "é¦ĸåħĪè¦ģ": 3729,
      "æĺĵæ¶ĪåĮĸ": 3730,
      "Â·": 3731,
      "çĽĨèħĶç§¯æ¶²": 3732,
      "è¤Ĳèī²": 3733,
      "æľīåı¯èĥ½æĺ¯": 3734,
      "çĶ·æĢ§çļĦ": 3735,
      "è¦Ĩ": 3736,
      "èº«ä¸Ĭ": 3737,
      "è¾£æ¤Ĵ": 3738,
      "çĶ¨æ³ķçĶ¨éĩı": 3739,
      "åģ¿": 3740,
      "çĶµè§£è´¨": 3741,
      "æ¸©æ°´": 3742,
      "ä¸Ģæ®µæĹ¶éĹ´": 3743,
      "ç³Ļ": 3744,
      "å¤´åıĳ": 3745,
      "èį¯çī©æµģäº§": 3746,
      "èĭį": 3747,
      "äºĨè§£ä¸Ģä¸ĭ": 3748,
      "ä¸ºä¸»è¦ģ": 3749,
      "ç»ĵç¼Ķç»Ħç»ĩ": 3750,
      "èĥİåĦ¿çļĦ": 3751,
      "è¾ĵå°¿ç®¡": 3752,
      "ä¼łç»Ł": 3753,
      "çĻ½è¡Ģ": 3754,
      "æ¿ĢåĬ¨": 3755,
      "åĪĨåĪ«": 3756,
      "åŃ£èĬĤ": 3757,
      "æĢ§èħº": 3758,
      "åĪĨç±»": 3759,
      "åĪ»": 3760,
      "å¾®éĩı": 3761,
      "pv": 3762,
      "èī¾æ»ĭçĹħ": 3763,
      "å¤§äºİ": 3764,
      "ç²¾çĹĩ": 3765,
      "çļĦæĳĦåħ¥": 3766,
      "èĩªèº«çļĦ": 3767,
      "é»ıæ¶²": 3768,
      "è¿ĺåı¯": 3769,
      "åĬŁèĥ½çļĦ": 3770,
      "æīĢèĩ´çļĦ": 3771,
      "å¦Ĥä¸ĭ": 3772,
      "å¸Ĥ": 3773,
      "æ²»çĸĹæķĪæŀľ": 3774,
      "æĺ¯æĢİä¹ĪåĽŀäºĭ": 3775,
      "è¾¨": 3776,
      "èĥ¡": 3777,
      "çŃīåĽłç´ł": 3778,
      "èħĭ": 3779,
      "å¿§": 3780,
      "åºĶåıĬæĹ¶": 3781,
      "çģµ": 3782,
      "ä¸įçŃī": 3783,
      "è¶ĭ": 3784,
      "åĸľæ¬¢": 3785,
      "æĬ¹": 3786,
      "çĽ´èĤłçĻĮ": 3787,
      "çļĦéī´åĪ«è¯ĬæĸŃ": 3788,
      "åıįæµģ": 3789,
      "åĮĸèĦĵæĢ§": 3790,
      "ä¼łå¯¼": 3791,
      "èĶ¬èıľåĴĮ": 3792,
      "çĶ¨æīĭ": 3793,
      "èĤ¯": 3794,
      "ç¨³": 3795,
      "åīįåĪĹèħºå¢ŀçĶŁ": 3796,
      "éĩįå¤į": 3797,
      "ä½ĵç§¯": 3798,
      "åı¯ä»¥åĲĥ": 3799,
      "å¥½åıĳäºİ": 3800,
      "åĪĩåı£": 3801,
      "åĬłåī§": 3802,
      "åĸ·": 3803,
      "æī«": 3804,
      "ä¸ĭæĿ¥": 3805,
      "ä¸Ńæľī": 3806,
      "å¢ŀæ®ĸ": 3807,
      "é£Łéģĵ": 3808,
      "åĪºçĹĽ": 3809,
      "å¯¹èº«ä½ĵ": 3810,
      "èģĮ": 3811,
      "å¤ĸä¾§": 3812,
      "å°ıèĦĳ": 3813,
      "æ¸£": 3814,
      "èĩªæĦĪ": 3815,
      "åıĳçĶŁçİĩ": 3816,
      "HC": 3817,
      "çĹħåİŁ": 3818,
      "æłĵå¡ŀ": 3819,
      "ä¸ĢèĪ¬ä¸į": 3820,
      "èĦ±æ°´": 3821,
      "æĹ¥å¸¸çĶŁæ´»": 3822,
      "è§īå¾Ĺ": 3823,
      "æĿ¥æºĲ": 3824,
      "åĿĩè¡¡": 3825,
      "hpv": 3826,
      "çĶ²çĬ¶èħºç»ĵèĬĤ": 3827,
      "çīĻé½¿": 3828,
      "åĪºæ¿ĢæĢ§çļĦé£Łçī©": 3829,
      "æ¸¸ç¦»": 3830,
      "åĬłå¿«": 3831,
      "å½±åĥı": 3832,
      "è¯Ńè¨Ģ": 3833,
      "ä¸įèĥ½åĲĥ": 3834,
      "ä½ľæģ¯": 3835,
      "åİŁåıĳ": 3836,
      "å¹²æī°": 3837,
      "åĲĮæł·": 3838,
      "å¿ĥèĦıçĹħ": 3839,
      "åīįåĲİ": 3840,
      "åĵ®": 3841,
      "èĦıåĻ¨": 3842,
      "æĭĶ": 3843,
      "ç»´çĶŁç´łB": 3844,
      "ä¸Ģåĳ¨": 3845,
      "éĢıæĺİ": 3846,
      "èķī": 3847,
      "å¨ģ": 3848,
      "çĽ¸åºĶçļĦ": 3849,
      "çĺ¢": 3850,
      "ä¼´éļı": 3851,
      "è¶³å¤ŁçļĦ": 3852,
      "çĸ¤çĹķ": 3853,
      "çĦ¶èĢĮ": 3854,
      "è§Ĩç½ĳèĨľ": 3855,
      "èĤ¾çĹħ": 3856,
      "èį¯çī©çļĦ": 3857,
      "åŃĹ": 3858,
      "æīĭæľ¯çļĦ": 3859,
      "Ig": 3860,
      "ä¾Ŀèµĸ": 3861,
      "å¤ľéĹ´": 3862,
      "æĪĴçĥŁ": 3863,
      "è¯¥çĹħ": 3864,
      "å¤Ħæĸ¹": 3865,
      "å¥½å¤Ħ": 3866,
      "å·§åħĭåĬĽåĽĬèĤ¿": 3867,
      "æĺ¯ä¸Ģ": 3868,
      "åĲ¸åħ¥": 3869,
      "Ġ2": 3870,
      "æĪĬ": 3871,
      "æĹłæķĪ": 3872,
      "çĽ¸åħ³çļĦ": 3873,
      "åĲİèĢħ": 3874,
      "èĿ": 3875,
      "èĥ¡èĲ": 3876,
      "æ¯Ķä¾ĭ": 3877,
      "å¯¹ç§°": 3878,
      "èĤ¾çĽ": 3879,
      "ä¸įæ´ģ": 3880,
      "å¤«å¦»": 3881,
      "ç¢±æĢ§": 3882,
      "ç¡Ŀ": 3883,
      "éģµ": 3884,
      "å¼ºçļĦ": 3885,
      "åī¥": 3886,
      "åŀ«": 3887,
      "æĤ£å¤Ħ": 3888,
      "å°Ħç²¾": 3889,
      "è§ĴèĨľ": 3890,
      "èĥ¡èĲĿåįľ": 3891,
      "å¦Ħ": 3892,
      "åıĺæĪĲ": 3893,
      "åĮĸéªĮ": 3894,
      "æľīä¸Ģå®ļ": 3895,
      "è¿ĺä¼ļåĩºçİ°": 3896,
      "ç©¿åŃĶ": 3897,
      "æİ¢": 3898,
      "æĹłçĹĩçĬ¶": 3899,
      "é¦Ļèķī": 3900,
      "å°±ä¼ļåĩºçİ°": 3901,
      "æľĢå¸¸è§ģ": 3902,
      "èħĶåĨħ": 3903,
      "éĿĴå°ĳå¹´": 3904,
      "æ²»çĸĹåĲİ": 3905,
      "å¤§ä¸īéĺ³": 3906,
      "æľĢå¥½æĺ¯": 3907,
      "åĪĨè§£": 3908,
      "è¿ĺéľĢè¦ģ": 3909,
      "è¯±åĽł": 3910,
      "çļĦçĸ¼çĹĽ": 3911,
      "èĢĮè¨Ģ": 3912,
      "å¥ĩ": 3913,
      "åħ¨éĥ¨": 3914,
      "åĩłä¹İ": 3915,
      "è°ĵ": 3916,
      "æ¯įäº²": 3917,
      "ä¸įæĺİæĺ¾": 3918,
      "èĤĮèĤ¤": 3919,
      "åıĹåŃķ": 3920,
      "å¥³æĢ§åľ¨": 3921,
      "å½¢å¼ı": 3922,
      "çĺ¢çĹķ": 3923,
      "èĥĥéĥ¨": 3924,
      "å¸¸ä¼´æľī": 3925,
      "çļĦåľ°æĸ¹": 3926,
      "åı¦ä¸Ģ": 3927,
      "è§Ĵè´¨": 3928,
      "è¡°å¼±": 3929,
      "åįµåŃĲ": 3930,
      "æĳ¸": 3931,
      "åĬŁèĥ½ç´Ĭä¹±": 3932,
      "è¾ĵç²¾ç®¡": 3933,
      "éĨĭ": 3934,
      "é³ŀå±ĳ": 3935,
      "çļĦä»ĭç»į": 3936,
      "å¤ļåıĳæĢ§": 3937,
      "è¤¥": 3938,
      "çĥ¦èºģ": 3939,
      "çĹ£": 3940,
      "çĻ¾åĪĨ": 3941,
      "åħħè¶³çļĦ": 3942,
      "å¿Įé£Ł": 3943,
      "æ³Įå°¿ç³»ç»Ł": 3944,
      "åħīæ»ĳ": 3945,
      "ä¿ĥä½¿": 3946,
      "æ½ľä¼ıæľŁ": 3947,
      "äººåĳĺ": 3948,
      "ä¸ŃåĲ«æľī": 3949,
      "æľīä¸Ģ": 3950,
      "çĹħçĲĨæĢ§": 3951,
      "å®ļæĹ¶": 3952,
      "ä½ĵçļĦ": 3953,
      "ä¸įä¸Ģ": 3954,
      "å¿½è§Ĩ": 3955,
      "å¤ļæ¬¡": 3956,
      "æŃĩ": 3957,
      "è½´": 3958,
      "çĥ«": 3959,
      "ç²¾ç´¢éĿĻèĦīæĽ²å¼ł": 3960,
      "ä¸įæĺİ": 3961,
      "å°ļæľª": 3962,
      "å®ŀéªĮå®¤": 3963,
      "åĬłéĢŁ": 3964,
      "å¤ļä¸ª": 3965,
      "ç®¡çĲĨ": 3966,
      "åįĬæľĪ": 3967,
      "åĩºè¡Ģéĩı": 3968,
      "ç»¼åĲĪçĹĩ": 3969,
      "åīĸèħ¹": 3970,
      "è¿ĺèĥ½": 3971,
      "æľīä¸ĢäºĽ": 3972,
      "åı¯èĥ½ä¼ļåĩºçİ°": 3973,
      "äº¤æĦŁ": 3974,
      "åħ¨èº«çĹĩçĬ¶": 3975,
      "äº¦åı¯": 3976,
      "åıĤåĬł": 3977,
      "æĢ§ä¼łæĴŃ": 3978,
      "éª¨è´¨çĸıæĿ¾": 3979,
      "åģıé«ĺ": 3980,
      "çŀ": 3981,
      "ä½İäºİ": 3982,
      "çĹ´": 3983,
      "åĨħä¾§": 3984,
      "ä¸ĭèħ¹éĥ¨": 3985,
      "èĥ¸éĥ¨": 3986,
      "ç©ºèħ¹": 3987,
      "ä¸įçķħ": 3988,
      "æ·ĭå·´çĺ¤": 3989,
      "å¦Ĭå¨łæľŁ": 3990,
      "è¿ĩéĩı": 3991,
      "åĪ¶åīĤ": 3992,
      "è¿ĳå¹´æĿ¥": 3993,
      "èĢĲåıĹ": 3994,
      "å¤ĸçĹĶ": 3995,
      "å¤ļåľ¨": 3996,
      "æ³¢åĬ¨": 3997,
      "å¼ºçĥĪ": 3998,
      "æ½´": 3999,
      "å¤ļé£Ł": 4000,
      "èĦĳèĨľ": 4001,
      "éħ¯": 4002,
      "æ»´èĻ«": 4003,
      "æĮģç»ŃæĢ§": 4004,
      "èĥģ": 4005,
      "èĶĵ": 4006,
      "èĩĢ": 4007,
      "æŃ»äº¡çİĩ": 4008,
      "æĤ£èĢħæľī": 4009,
      "æ³¨æĦıé¥®é£Ł": 4010,
      "çĶŁæ®ĸç³»ç»Ł": 4011,
      "å£®": 4012,
      "ç£¨": 4013,
      "éĹ´éļĻ": 4014,
      "çļĦç¨ĭåº¦": 4015,
      "å¦Ĥæŀľåĩºçİ°": 4016,
      "åĵ®åĸĺ": 4017,
      "ä¿Ĺ": 4018,
      "å¦Ĩ": 4019,
      "èĦ¸ä¸Ĭ": 4020,
      "æī¾åĪ°": 4021,
      "çº¸": 4022,
      "ç»ĪæŃ¢": 4023,
      "ä½ıéĻ¢": 4024,
      "èį¯çĲĨ": 4025,
      "é¡¾": 4026,
      "æµĬ": 4027,
      "èĤ¯å®ļ": 4028,
      "çļĦåĽłç´ł": 4029,
      "ä¸įæ¸ħ": 4030,
      "æµ·é²ľ": 4031,
      "èĤ¾å°ıçĲĥ": 4032,
      "ä¸ĭä¸ĺèĦĳ": 4033,
      "ä¹ĭéĹ´çļĦ": 4034,
      "é«ĺäºİ": 4035,
      "çļ®èĤ¤çĺĻçĹĴ": 4036,
      "çļĦåį±å®³": 4037,
      "å¦Ĥæŀľæ²¡æľī": 4038,
      "æµ®": 4039,
      "è¡Įèµ°": 4040,
      "åı¸": 4041,
      "å®«åĨħ": 4042,
      "é¥®æĸĻ": 4043,
      "çĥŃéĩı": 4044,
      "å¤ļæł·": 4045,
      "çĶŁéķ¿åıĳèĤ²": 4046,
      "å®¹æĺĵå¼ķèµ·": 4047,
      "åĮĹ": 4048,
      "æŀĦæĪĲ": 4049,
      "æ½´çķĻ": 4050,
      "ç»¿èī²": 4051,
      "æº¶æ¶²": 4052,
      "åħ¸åŀĭçļĦ": 4053,
      "æ³¨æĦıåĬĽ": 4054,
      "æ°¨åŁºéħ¸": 4055,
      "ç»ŀçĹĽ": 4056,
      "çļĦæŃ£å¸¸": 4057,
      "æĢĴ": 4058,
      "ç«ł": 4059,
      "æ¢¨": 4060,
      "åĨ²æ´Ĺ": 4061,
      "ä¸ĸçķĮ": 4062,
      "å®¹æĺĵåĩºçİ°": 4063,
      "èĥĨç®¡": 4064,
      "å¤ļåıĳ": 4065,
      "æıĴ": 4066,
      "è¡£æľį": 4067,
      "ä¼łæŁĵçĹħ": 4068,
      "å¿ħè¦ģçļĦ": 4069,
      "åħĪåħĨæµģäº§": 4070,
      "è¿ĻæĹ¶": 4071,
      "è¡¨è¾¾": 4072,
      "ä¸ŃæľŁ": 4073,
      "ä¹ħåĿĲ": 4074,
      "é¹": 4075,
      "çļĦè¿ĲåĬ¨": 4076,
      "æ²¹çĤ¸": 4077,
      "åıĳèĤ²ä¸įèī¯": 4078,
      "æħİçĶ¨": 4079,
      "çŃĶ": 4080,
      "ç¥ŀç»ıçĹĽ": 4081,
      "ï¼»": 4082,
      "éĿ¢ç§¯": 4083,
      "çªģåıĺ": 4084,
      "åĩ¸": 4085,
      "å®ĮæĪĲ": 4086,
      "å°½éĩıéģ¿åħį": 4087,
      "è¿ĩå¤§": 4088,
      "åĮĸåĲĪçī©": 4089,
      "åĽ½å®¶": 4090,
      "éĩİ": 4091,
      "æĤ¸": 4092,
      "ä¹³å¤´çĬ¶": 4093,
      "el": 4094,
      "æĹ©è¡°": 4095,
      "çĻĮç»Ĩèĥŀ": 4096,
      "çļĦåĩºçİ°": 4097,
      "èľĤèľľ": 4098,
      "ä¼ļå¯¹": 4099,
      "èĪĴæľį": 4100,
      "æŃ¤çĹħ": 4101,
      "å¹³æ»ĳ": 4102,
      "çĻ½çĻľ": 4103,
      "å¾®çĶŁçī©": 4104,
      "æľīä¸įåĲĮçļĦ": 4105,
      "éĹ´æİ¥": 4106,
      "ä¸įç®¡": 4107,
      "æĺİç¡®è¯ĬæĸŃ": 4108,
      "åį°": 4109,
      "è¡¨ç¤º": 4110,
      "æĪĺ": 4111,
      "ç²¾ç¥ŀçĹħ": 4112,
      "ä¸Ģèµ·æĿ¥": 4113,
      "è§£åīĸ": 4114,
      "æĹº": 4115,
      "åĬ¨åĬĽ": 4116,
      "åĴ½åĸī": 4117,
      "çĻ½çĻľé£İ": 4118,
      "éĤª": 4119,
      "å¾®éĩıåħĥç´ł": 4120,
      "os": 4121,
      "è¾ĥéķ¿": 4122,
      "ç²Ĺç³Ļ": 4123,
      "ç¦»åŃĲ": 4124,
      "æľīäºº": 4125,
      "æ°®": 4126,
      "æ¯Ķè¾ĥå¸¸è§ģçļĦ": 4127,
      "èĥ½éĩı": 4128,
      "åı¯èĥ½å¯¼èĩ´": 4129,
      "ä»¥å¤ĸ": 4130,
      "åĩıèĤ¥": 4131,
      "æ¹¿çĥŃ": 4132,
      "èĶ¬èıľåĴĮæ°´æŀľ": 4133,
      "èĤ¾çĽĤ": 4134,
      "æ®ĭçķĻ": 4135,
      "çĶŁæ®ĸåĻ¨å®ĺ": 4136,
      "åĥµ": 4137,
      "çĿ¡åīį": 4138,
      "å¤§å®¶ä»ĭç»į": 4139,
      "è´£": 4140,
      "æĬ¥åĳĬ": 4141,
      "å©´å¹¼åĦ¿": 4142,
      "500": 4143,
      "éĽĨä¸Ń": 4144,
      "ä¸īä¸ªæľĪ": 4145,
      "æ¶ĪèĢĹ": 4146,
      "è½¬åĮĸ": 4147,
      "èĥĥé»ıèĨľ": 4148,
      "åħįçĸ«åĬŁèĥ½": 4149,
      "çĹ´åĳĨ": 4150,
      "æ²īç§¯": 4151,
      "éĵ¶å±ĳçĹħ": 4152,
      "çļĦå°ı": 4153,
      "æ²īçĿĢ": 4154,
      "ç½Ĺ": 4155,
      "ä¸ĢæĹ¥": 4156,
      "æĥķ": 4157,
      "æ·ĭå·´ç»ĵèĤ¿å¤§": 4158,
      "åĺ´": 4159,
      "éĹ´æŃĩ": 4160,
      "å¾Īå¥½": 4161,
      "ç¼ºæįŁ": 4162,
      "æ£ĺ": 4163,
      "è¾ĥè½»": 4164,
      "çļĦä¸ľè¥¿": 4165,
      "å°¿éģĵåı£": 4166,
      "åĽ°æī°": 4167,
      "çļĦç»ĵæŀľ": 4168,
      "æĻ¶": 4169,
      "çļ±": 4170,
      "åĴĮåħ¶ä»ĸ": 4171,
      "çļĦä¸ĢäºĽ": 4172,
      "èĩªä¸»": 4173,
      "èĹı": 4174,
      "åıĹåİĭ": 4175,
      "èŃ¦æĥķ": 4176,
      "çļĦåĪĨæ³Į": 4177,
      "ä¸įåĪ©": 4178,
      "æľ¬çĹħçļĦ": 4179,
      "éĺ´éģĵåĪĨæ³Įçī©": 4180,
      "ä¸įæ³¨æĦı": 4181,
      "å¿ĥæĤ¸": 4182,
      "éª¤": 4183,
      "å¤ªå¤ļ": 4184,
      "ï¼Ł(": 4185,
      "éĴĪçģ¸": 4186,
      "é¥®é£Łæĸ¹éĿ¢": 4187,
      "å®¹æĺĵå¯¼èĩ´": 4188,
      "æĿ¥æ²»çĸĹ": 4189,
      "äºī": 4190,
      "èħķ": 4191,
      "æľ¯åīį": 4192,
      "æħĮ": 4193,
      "åĿĲéª¨": 4194,
      "æĪĸåħ¶ä»ĸ": 4195,
      "é¥®çĶ¨": 4196,
      "ç»Ļèį¯": 4197,
      "ä¸įä¸Ģæł·": 4198,
      "é±¼é³ŀ": 4199,
      "åºĶåľ¨": 4200,
      "éª¨çĽĨ": 4201,
      "èĦ¾èĥĥ": 4202,
      "éĹ´éļĶ": 4203,
      "è´¨åľ°": 4204,
      "åħ±åĲĮ": 4205,
      "èħºçĺ¤": 4206,
      "id": 4207,
      "å¦ĩç§ĳçĤİçĹĩ": 4208,
      "çĺ¦èĤī": 4209,
      "å®«é¢Īç®¡": 4210,
      "çº¤ç»´ç´ł": 4211,
      "çĶ²èĤĿ": 4212,
      "èĶ¬èıľæ°´æŀľ": 4213,
      "èĦĨ": 4214,
      "é¡¿": 4215,
      "æľĢå¤§": 4216,
      "èŀºæĹĭä½ĵ": 4217,
      "çļ®èĤ¤è¿ĩæķı": 4218,
      "åľ¨äºİ": 4219,
      "å°½åı¯èĥ½": 4220,
      "å¿ĥçİĩ": 4221,
      "TSH": 4222,
      "æī¿": 4223,
      "åĿłèĥĢ": 4224,
      "éĻĪä»£è°¢": 4225,
      "åĬ³æįŁ": 4226,
      "çº¦èĤĮ": 4227,
      "æ¶ĤæĬ¹": 4228,
      "åŃĲå®«åĨħèĨľçĤİ": 4229,
      "èĴ¸": 4230,
      "çĶŁçĲĨæĢ§": 4231,
      "æĸ°éĻĪä»£è°¢": 4232,
      "éĶ¥": 4233,
      "éħ¸çĹĽ": 4234,
      "çļĦçİ¯å¢ĥ": 4235,
      "æĽ´ä¸º": 4236,
      "å¦ĩç§ĳæ£ĢæŁ¥": 4237,
      "èĤĺ": 4238,
      "å°ıäºİ": 4239,
      "åıĤä¸İ": 4240,
      "å¿į": 4241,
      "th": 4242,
      "å¼ĵ": 4243,
      "ç¦ģçĶ¨": 4244,
      "æĤ£èĢħåĩºçİ°": 4245,
      "æĬĹçĤİ": 4246,
      "æīĢå¼ķèµ·çļĦ": 4247,
      "çļĦè¯ĬæĸŃæĺ¯ä»Ģä¹Ī": 4248,
      "ä»£åģ¿": 4249,
      "èĢħåı¯": 4250,
      "åĨħæľī": 4251,
      "å¿µçıłèıĮ": 4252,
      "æĳĦåıĸ": 4253,
      "æĭ¬çº¦èĤĮ": 4254,
      "å¤±ç¦ģ": 4255,
      "ä¸¥éĩįç¨ĭåº¦": 4256,
      "æİ¥ç§į": 4257,
      "MR": 4258,
      "æĽ´å¥½": 4259,
      "èĤĽç®¡": 4260,
      "æ·Ģç²ī": 4261,
      "æľīåħ³ç³»": 4262,
      "å¦Ĥæľī": 4263,
      "æ´ĭ": 4264,
      "è¯ģå®ŀ": 4265,
      "ç²īåĪº": 4266,
      "å¤ļåĽĬåįµå·¢": 4267,
      "ä¼ļåľ¨": 4268,
      "åĩ¡": 4269,
      "åĴ¬": 4270,
      "å¿ĥåĬ¨è¿ĩ": 4271,
      "ä¸Ľ": 4272,
      "ä»¤": 4273,
      "ä»¥åīį": 4274,
      "çĶ²çĬ¶èħºåĬŁèĥ½åĩıéĢĢ": 4275,
      "çĶ²çĬ¶èħºåĬŁèĥ½äº¢è¿Ľ": 4276,
      "è¦ģä¿ĿæĮģ": 4277,
      "æľĪç»ıéĩı": 4278,
      "å°ģ": 4279,
      "æĲĶæĬĵ": 4280,
      "æł¹æľ¬": 4281,
      "å¾®åĪĽ": 4282,
      "åı¯éĢļè¿ĩ": 4283,
      "çİ°ä»£": 4284,
      "èĩ´ä½¿": 4285,
      "ä¾ĽåıĤèĢĥ": 4286,
      "æļ´éľ²": 4287,
      "æĸ¹åĲĳ": 4288,
      "åĭ¤æį¢": 4289,
      "åı¯ä»¥å¸®åĬ©": 4290,
      "çŁ¿": 4291,
      "çŃīæĥħåĨµ": 4292,
      "æĢ§æ¬²": 4293,
      "æ¢ĹæŃ»": 4294,
      "ç³ł": 4295,
      "å¸¦çļĦ": 4296,
      "åıĳå±ķä¸º": 4297,
      "æŁĲç§į": 4298,
      "çħ§å°Ħ": 4299,
      "æĦŁæŁĵæĢ§": 4300,
      "çľ©": 4301,
      "èĴĤ": 4302,
      "âħ": 4303,
      "æīŃè½¬": 4304,
      "è¾ĥå¥½": 4305,
      "æīĢè°ĵ": 4306,
      "åĻ¬": 4307,
      "éĢ¸": 4308,
      "ç§ĭ": 4309,
      "çĻ½è¡ĢçĹħ": 4310,
      "çļĦæĶ¹åıĺ": 4311,
      "èıł": 4312,
      "ä¸Ĭçļ®ç»Ĩèĥŀ": 4313,
      "åĲ»": 4314,
      "éĹ´è´¨": 4315,
      "æĺ¯ä¸įæĺ¯": 4316,
      "æĶ¯åİŁä½ĵ": 4317,
      "èŀįåĲĪ": 4318,
      "æ¸´": 4319,
      "çŃīçĸ¾çĹħ": 4320,
      "ç»µ": 4321,
      "å¿ĥåĬĽ": 4322,
      "èĳ¡èĲĦçĲĥèıĮ": 4323,
      "æĶ¾åľ¨": 4324,
      "èº¯ä½ĵ": 4325,
      "æĦīå¿«": 4326,
      "æĴķ": 4327,
      "è¾ĥå°ĳ": 4328,
      "çļĦåĲĮæĹ¶": 4329,
      "æĮīçħ§": 4330,
      "æľīå®³": 4331,
      "æŃ¤ç±»": 4332,
      "å¥³äºº": 4333,
      "é¾Ī": 4334,
      "çĽĲæ°´": 4335,
      "ï¼½": 4336,
      "æīĭè¶³": 4337,
      "åµ": 4338,
      "ä»¥éĺ²": 4339,
      "ä¸¤èĢħ": 4340,
      "æĿ¥èĩª": 4341,
      "èĩ´çĹħèıĮ": 4342,
      "æµ·å¸¦": 4343,
      "å¸ķ": 4344,
      "HB": 4345,
      "æĬ¬": 4346,
      "æĭ¿": 4347,
      "æĦıå¤ĸ": 4348,
      "åĲĥé¥Ń": 4349,
      "çĹħæ¯ĴçļĦ": 4350,
      "åĮħè£ħ": 4351,
      "èĦĵçĸ±": 4352,
      "è¿ĩå¤ļçļĦ": 4353,
      "æľ¬æĸĩ": 4354,
      "ç¾ĬèĤī": 4355,
      "æĮ¤åİĭ": 4356,
      "åı¯ä»¥ä½¿çĶ¨": 4357,
      "åĬłåħ¥": 4358,
      "æľīäºĽäºº": 4359,
      "ä¸Ĭèħ¹éĥ¨": 4360,
      "çĭĤ": 4361,
      "ä»İèĢĮå¯¼èĩ´": 4362,
      "å»ºç«ĭ": 4363,
      "èĶĵå»¶": 4364,
      "åı¯èĥ½æľī": 4365,
      "åĲĮç§į": 4366,
      "äº¤åıī": 4367,
      "è¢Ń": 4368,
      "å¿ĥåĬĽè¡°ç«Ń": 4369,
      "æĪĸåĲĳ": 4370,
      "åįķä¾§": 4371,
      "è¿ĩé«ĺ": 4372,
      "éĩįçĹĩ": 4373,
      "ä¸Ģå¤©": 4374,
      "å³°": 4375,
      "èĥ¶åĽĬ": 4376,
      "èıĩ": 4377,
      "çļĦåİŁåĽłæĺ¯ä»Ģä¹Ī": 4378,
      "èħ®": 4379,
      "ä¸»è¦ģæĺ¯çĶ±äºİ": 4380,
      "éľĩé¢¤": 4381,
      "é«ĺåİĭ": 4382,
      "æ³¨æĦıçļĦ": 4383,
      "è¯ī": 4384,
      "è¯ģæĺİ": 4385,
      "æĢĢçĸĳ": 4386,
      "åŃķæ¿Ģç´ł": 4387,
      "æĻ®éģį": 4388,
      "èĭįçĻ½": 4389,
      "æľīæ²¡æľī": 4390,
      "åıĸåĨ³": 4391,
      "åļ¼": 4392,
      "ç¼©çŁŃ": 4393,
      "re": 4394,
      "ç¼©å°ı": 4395,
      "ä»įçĦ¶": 4396,
      "ç»Ĵ": 4397,
      "ç§įç±»": 4398,
      "æķĻèĤ²": 4399,
      "éĿ©": 4400,
      "æĿ¯": 4401,
      "èĦĳèĦĬ": 4402,
      "æīĢä»¥åľ¨": 4403,
      "æµģåĩº": 4404,
      "å±Ģéĥ¨çļĦ": 4405,
      "èĤīèĬ½": 4406,
      "åĭ¿": 4407,
      "æĥĬåİ¥": 4408,
      "æ¿Ģæ´»": 4409,
      "èħ¹èħĶéķľ": 4410,
      "æ²¹èĦĤ": 4411,
      "è¢ĭ": 4412,
      "ä¿¡å¿ĥ": 4413,
      "é¡¹çĽ®": 4414,
      "åĪĨæ³ĮçļĦ": 4415,
      "æĿ¥è¿Ľè¡Į": 4416,
      "èĢĮåĩºçİ°": 4417,
      "å¿ĥå¾ĭå¤±å¸¸": 4418,
      "æľīä¸Ģä¸ª": 4419,
      "åĵŃ": 4420,
      "æŃ£å¸¸äºº": 4421,
      "ä¸Ńå¤": 4422,
      "å¯ĦçĶŁèĻ«": 4423,
      "æĶ¿": 4424,
      "min": 4425,
      "åıĺå½¢": 4426,
      "è±Ĩç±»": 4427,
      "åĮĸå¦Ĩ": 4428,
      "è½¯ç»Ħç»ĩ": 4429,
      "å£°éŁ³": 4430,
      "æīģæ¡ĥ": 4431,
      "çĹħèıĮ": 4432,
      "çļĦåĬŁæķĪ": 4433,
      "åįµå·¢åĬŁèĥ½": 4434,
      "èŁ": 4435,
      "åŁºç¡Ģä¸Ĭ": 4436,
      "çĶ²çĬ¶èħºçĻĮ": 4437,
      "ç¥ŀç»ıæł¹": 4438,
      "åı¯èĥ½ä¼ļå¯¼èĩ´": 4439,
      "çļĦå¸¸è§ģ": 4440,
      "éĺ´éģĵæµģè¡Ģ": 4441,
      "éħ¸ä¸Ńæ¯Ĵ": 4442,
      "å®Įæķ´": 4443,
      "èĵĿ": 4444,
      "å°ıèĤł": 4445,
      "è¯´æĺİä¹¦": 4446,
      "åĤ¬": 4447,
      "åıĺä¸º": 4448,
      "çķĻä¸ĭ": 4449,
      "åı¯è¾¾": 4450,
      "æĪª": 4451,
      "å¹¶æľī": 4452,
      "èĽĽ": 4453,
      "åĿĩæľī": 4454,
      "çļĦåīį": 4455,
      "è¡ĢèĤ¿": 4456,
      "ãĢĤãĢĲ": 4457,
      "us": 4458,
      "è·ĳ": 4459,
      "åı¯çĶ±äºİ": 4460,
      "æĬĳåĪ¶åīĤ": 4461,
      "éĺĳ": 4462,
      "å¿ĥåĮħ": 4463,
      "éķ¿æľŁçļĦ": 4464,
      "çĤĴ": 4465,
      "å°¿éĩı": 4466,
      "éľĢæ±Ĥ": 4467,
      "å¤§æ¦Ĥ": 4468,
      "åĩıä½İ": 4469,
      "å¼¹æĢ§": 4470,
      "è¿¹": 4471,
      "éħļ": 4472,
      "éģŃ": 4473,
      "ç£ģ": 4474,
      "éĽĦæ¿Ģç´ł": 4475,
      "èĥĥçĹĽ": 4476,
      "åĩłå¤©": 4477,
      "èİ²": 4478,
      "çĥŃæķ·": 4479,
      "éĺĳå°¾": 4480,
      "å°±èĥ½": 4481,
      "åĮ»åĺ±": 4482,
      "èĤ¥åİļ": 4483,
      "è±ĨåĪ¶åĵģ": 4484,
      "æİĴå°¿åĽ°éļ¾": 4485,
      "æ¯«åįĩ": 4486,
      "åıĳæĮ¥": 4487,
      "èĥĥçĹħ": 4488,
      "åłĨ": 4489,
      "å¨ģèĥģ": 4490,
      "ä¸ªåĪ«": 4491,
      "æĲºå¸¦èĢħ": 4492,
      "å¼ĢæĶ¾": 4493,
      "åıĸåĨ³äºİ": 4494,
      "å®ĥæĺ¯": 4495,
      "åĴĮé¢Ħéĺ²": 4496,
      "åĸĤåħ»": 4497,
      "æĺ¯ä¸Ģç§įå¸¸è§ģçļĦ": 4498,
      "åĹľçĿ¡": 4499,
      "RNA": 4500,
      "åıĳçº¢": 4501,
      "è¸Ŀ": 4502,
      "ä¹Ĳè§Ĥ": 4503,
      "ä¸»è¦ģçĹĩçĬ¶": 4504,
      "åĢ¦": 4505,
      "å¤§èħ¿": 4506,
      "æĢİæł·": 4507,
      "èĦĳèĦĬæ¶²": 4508,
      "èµĦæĸĻ": 4509,
      "ç¥ŀç»ıè¡°å¼±": 4510,
      "è¿ĩåº¦åĬ³ç´¯": 4511,
      "é¦ĸéĢī": 4512,
      "å¥¹": 4513,
      "å°ĳé£Ł": 4514,
      "ä¸Ńå¤®": 4515,
      "æ¯Ľå·¾": 4516,
      "è¯´çļĦ": 4517,
      "äºļæĢ¥æĢ§": 4518,
      "èĤłèĥĥçĤİ": 4519,
      "æľĪç»ıæľŁ": 4520,
      "è§Ħæł¼": 4521,
      "ç±»åŀĭçļĦ": 4522,
      "çĻ¾åĪĨä¹ĭ": 4523,
      "æĢ§æĪĸ": 4524,
      "Ġs": 4525,
      "35": 4526,
      "åıĹéĻĲ": 4527,
      "éĥ½è¦ģ": 4528,
      "æ¯Ķè¾ĥå¤§": 4529,
      "éľīèıĮ": 4530,
      "èħ°æ¤İéĹ´çĽĺçªģåĩº": 4531,
      "åĲİåĨį": 4532,
      "æłª": 4533,
      "å±ı": 4534,
      "çļĦçĶ¨æ³ķçĶ¨éĩı": 4535,
      "æĺ¯éľĢè¦ģ": 4536,
      "åĲĪçĶ¨": 4537,
      "èº«å¿ĥ": 4538,
      "éŀĺèĨľç§¯æ¶²": 4539,
      "åı¯èĥ½åĩºçİ°": 4540,
      "éĵ¾çĲĥèıĮ": 4541,
      "æļ´é£Ł": 4542,
      "è®¿": 4543,
      "ç¼ĸ": 4544,
      "æĸ°çļĦ": 4545,
      "æľºæ¢°": 4546,
      "æ£®": 4547,
      "äº¤æĦŁç¥ŀç»ı": 4548,
      "Ġ3": 4549,
      "æ¯Ķè¾ĥå¤ļ": 4550,
      "çĶ²çĬ¶èħºèĤ¿å¤§": 4551,
      "åįµå·¢æĹ©è¡°": 4552,
      "åıĹç²¾åįµ": 4553,
      "åıĳé»Ħ": 4554,
      "åĮħçļ®è¿ĩéķ¿": 4555,
      "çļĦæģ¢å¤į": 4556,
      "ç«Ļç«ĭ": 4557,
      "è¿ģ": 4558,
      "è¡ĮæĢ§": 4559,
      "å¤ĸéĺ´çĺĻçĹĴ": 4560,
      "åį±åıĬ": 4561,
      "è¶£": 4562,
      "æ°Ķä½ĵ": 4563,
      "å°±ä¼ļå¯¼èĩ´": 4564,
      "è¿ĽèĢĮ": 4565,
      "çļĦä¸»è¦ģåİŁåĽł": 4566,
      "å¸¦è¡Ģ": 4567,
      "æĹ¶çļĦ": 4568,
      "ä¸įä½Ĩ": 4569,
      "åĴĮæħ¢æĢ§": 4570,
      "éª¨å¤´": 4571,
      "æĲŃ": 4572,
      "å·©": 4573,
      "æ¶ĪåĮĸç³»ç»Ł": 4574,
      "è°±": 4575,
      "çĬ¶ä¸Ĭçļ®": 4576,
      "çĥŁéħĴ": 4577,
      "æŃ£å¸¸æĥħåĨµä¸ĭ": 4578,
      "çļĦé£Łåĵģ": 4579,
      "ç²®": 4580,
      "éĤ£äºĽ": 4581,
      "æĦ¿": 4582,
      "17": 4583,
      "ä¹Łä¸įè¦ģ": 4584,
      "ä¿ĿçķĻ": 4585,
      "è¿ľç¦»": 4586,
      "ä¸»è¦ģçļĦ": 4587,
      "ç»Ŀå¯¹": 4588,
      "æĽ´å¤ļçļĦ": 4589,
      "æĮĤ": 4590,
      "æĢ»æĺ¯": 4591,
      "æľīçĿĢ": 4592,
      "åĲİåı¯": 4593,
      "æŁĶè½¯": 4594,
      "ch": 4595,
      "ä¸Ńæŀ¢ç¥ŀç»ıç³»ç»Ł": 4596,
      "æ¯Ķè¾ĥå¥½": 4597,
      "\"\"": 4598,
      "ä¸įæĦĪ": 4599,
      "æĥ¹": 4600,
      "èĦĤæº¢æĢ§çļ®çĤİ": 4601,
      "çļĦåģ¥åº·": 4602,
      "çŁ«": 4603,
      "æĺ¯å¥³æĢ§": 4604,
      "é«ĭ": 4605,
      "çļĦæīĭæľ¯": 4606,
      "åĶ¾": 4607,
      "è¯·åıĤ": 4608,
      "æĸ¯": 4609,
      "åįķä½į": 4610,
      "æ¶ī": 4611,
      "ç£º": 4612,
      "æľºæŀĦ": 4613,
      "å¼ºçĽ´": 4614,
      "åŃĲå®«åĨħèĨľå¼Ĥä½įçĹĩ": 4615,
      "èĭ·": 4616,
      "è¡£åİŁä½ĵ": 4617,
      "èĦĳéĥ¨": 4618,
      "æĺł": 4619,
      "åĩºçļĦ": 4620,
      "æĹ©äº§": 4621,
      "å®¹æĺĵåıĳçĶŁ": 4622,
      "è®¤çŁ¥": 4623,
      "æīįèĥ½å¤Ł": 4624,
      "åĮ»çĶŁè¯¢éĹ®": 4625,
      "åı¯èĥ½ä¼ļå¼ķèµ·": 4626,
      "åĪĽéĿ¢": 4627,
      "æĢĿç»´": 4628,
      "å¤įåĪ¶": 4629,
      "å¦Ĥæŀľä¸įç¡®å®ļ": 4630,
      "åĿĩåĮĢ": 4631,
      "æ²»æĦĪçļĦ": 4632,
      "éĴĪå¯¹æĢ§": 4633,
      "è¾Ľè¾£é£Łçī©": 4634,
      "ç¥ŀç»ıåħĥ": 4635,
      "å¦Ħæĥ³": 4636,
      "æ©ĺ": 4637,
      "çļĦä½įç½®": 4638,
      "éĿ¢èī²": 4639,
      "ä¿ĿæĮģèī¯å¥½çļĦ": 4640,
      "ä¸įèĪĴæľį": 4641,
      "æŁ¿": 4642,
      "è¯·åıĤçľĭ": 4643,
      "æ¯Ķè¾ĥä¸¥éĩį": 4644,
      "åĪ·": 4645,
      "çĶ·æĢ§æľĭåıĭ": 4646,
      "åıªä¾ĽåıĤèĢĥ": 4647,
      "åĮħè£ħè§Ħæł¼": 4648,
      "åįĬæľĪæĿ¿": 4649,
      "èį¯åĵģéļı": 4650,
      "æĪĸåĲĳåĮ»çĶŁè¯¢éĹ®": 4651,
      "è¯´æĺİä¹¦æĪĸåĲĳåĮ»çĶŁè¯¢éĹ®": 4652,
      "èį¯åĵģåı¯çĶ±äºİ": 4653,
      "å¸¦çļĦè¯´æĺİä¹¦æĪĸåĲĳåĮ»çĶŁè¯¢éĹ®": 4654,
      "åĲĮç§įèį¯åĵģåı¯çĶ±äºİ": 4655,
      "è¯·åıĤçľĭèį¯åĵģéļı": 4656,
      "è¯·åıĤçľĭèį¯åĵģéļıå¸¦çļĦè¯´æĺİä¹¦æĪĸåĲĳåĮ»çĶŁè¯¢éĹ®": 4657,
      "è¾Ľè¾£åĪºæ¿ĢæĢ§é£Łçī©": 4658,
      "ä»¥ä¾¿": 4659,
      "æĽ´å¥½çļĦ": 4660,
      "æ²«": 4661,
      "æīģæ¡ĥä½ĵ": 4662,
      "ä¿¡æģ¯": 4663,
      "çļĦçĬ¶æĢģ": 4664,
      "å·¦ä¾§": 4665,
      "å¤ļé¤Ĳ": 4666,
      "çļĦèĲ¥åħ»": 4667,
      "è¯´è¯Ŀ": 4668,
      "åĻ¨è´¨æĢ§": 4669,
      "ä»Ķ": 4670,
      "èĤ¿çī©": 4671,
      "çļĦä¸įåĲĮ": 4672,
      "ä¸įç¨³å®ļ": 4673,
      "ä¸īç§į": 4674,
      "æļ´é¥®": 4675,
      "äº§çī©": 4676,
      "å£«": 4677,
      "ç»Ŀå¤§å¤ļæķ°": 4678,
      "æĦıæĢĿ": 4679,
      "æ¡¥æľ¬": 4680,
      "æĹ¶åı¯": 4681,
      "è¾ĥå°ı": 4682,
      "æĺ¯æ²¡æľī": 4683,
      "ï¼ģ": 4684,
      "è±ĨèħĲ": 4685,
      "å¸¸è§Ħæ£ĢæŁ¥": 4686,
      "çļĦè¿ĩç¨ĭ": 4687,
      "ä¸Ģéĥ¨åĪĨ": 4688,
      "æµħè¡¨": 4689,
      "éĤ»è¿ĳ": 4690,
      "éĢĴ": 4691,
      "è¿Ļæł·åı¯ä»¥": 4692,
      "ä¿Ŀåħ»": 4693,
      "èĩªå·±çļĦèº«ä½ĵ": 4694,
      "éĻĦè¿ĳ": 4695,
      "éŀĭ": 4696,
      "æ°¨éħ¶": 4697,
      "èĤ½": 4698,
      "å¯ĴåĨ·": 4699,
      "èį¯çĲĨä½ľçĶ¨": 4700,
      "ä¹Łèĥ½": 4701,
      "å¦Ĥæŀľä½ł": 4702,
      "å¹¶éĿŀ": 4703,
      "èĦĵæ¶²": 4704,
      "èĥ¸éĹ·": 4705,
      "å¼¯æĽ²": 4706,
      "çļĦäº§çĶŁ": 4707,
      "æĺĵäºİ": 4708,
      "åŀĭç³ĸå°¿çĹħ": 4709,
      "åĶ¾æ¶²": 4710,
      "è´Ŀ": 4711,
      "åįİ": 4712,
      "èĸ¯": 4713,
      "è¿ĩæķıåİŁ": 4714,
      "å®¿": 4715,
      "çĲĨæĥ³": 4716,
      "è¯Ħä¼°": 4717,
      "èĦ±åıĳ": 4718,
      "æ³ª": 4719,
      "å°ıèħ¿": 4720,
      "å¤ĸåĳ¨": 4721,
      "åģıçĺ«": 4722,
      "æ´Ľ": 4723,
      "45": 4724,
      "èĩŃåĳ³": 4725,
      "åĨħå¤ĸ": 4726,
      "åı¤": 4727,
      "æ£ķ": 4728,
      "å¿ĥçĶµåĽ¾": 4729,
      "èģĮä¸ļ": 4730,
      "åĨįçĶŁ": 4731,
      "æľŁçļĦ": 4732,
      "è¾ĥå¤§çļĦ": 4733,
      "èĤ¥çļĤ": 4734,
      "å¿ĥæĪ¿": 4735,
      "ç§»ä½į": 4736,
      "åı³ä¾§": 4737,
      "æľīçļĦäºº": 4738,
      "å®ŀéĻħä¸Ĭ": 4739,
      "æľĪåŃĲ": 4740,
      "21": 4741,
      "æĽ´å¤ļ": 4742,
      "ä¸īä¸ª": 4743,
      "çľ¼çĿĳ": 4744,
      "åı¯ä¼´æľī": 4745,
      "åħ¥çĿ¡": 4746,
      "ph": 4747,
      "å¾·": 4748,
      "è·ĥ": 4749,
      "åħįçĸ«ç³»ç»Ł": 4750,
      "çº¦åįł": 4751,
      "æ°Ł": 4752,
      "çİ«": 4753,
      "å¾Īé«ĺ": 4754,
      "æĳĺ": 4755,
      "æĥħæĦŁ": 4756,
      "æļ´é¥®æļ´é£Ł": 4757,
      "éħµ": 4758,
      "æģ¶åıĺ": 4759,
      "om": 4760,
      "èĬĿ": 4761,
      "èº¯å¹²": 4762,
      "ä¼ļåĬłéĩį": 4763,
      "çº¢èĽĭçĻ½": 4764,
      "çĳ°": 4765,
      "åħ±æµİ": 4766,
      "èĦ±ä½į": 4767,
      "çī©çĲĨæ²»çĸĹ": 4768,
      "æ¡Ĥ": 4769,
      "ä¸ĬèĤ¢": 4770,
      "å¦Ĥæŀľåľ¨": 4771,
      "æ¯įä¹³": 4772,
      "èħ±éŀĺ": 4773,
      "åģ¶å°Ķ": 4774,
      "æĺĵåıĳçĶŁ": 4775,
      "ç²¾ç¥ŀç´§å¼ł": 4776,
      "è¡°èĢģ": 4777,
      "èĢĮå¼ķèµ·çļĦ": 4778,
      "åıįæĺł": 4779,
      "ç±»é£Łçī©": 4780,
      "çļĦåĩłçİĩ": 4781,
      "è¾ĥä½İ": 4782,
      "Bè¶ħæ£ĢæŁ¥": 4783,
      "çİ«çĳ°": 4784,
      "çļĦé¢Ħéĺ²": 4785,
      "æĪĲåĪĨæĪĸ": 4786,
      "åİ»åĮ»éĻ¢æ£ĢæŁ¥": 4787,
      "çľ©æĻķ": 4788,
      "è¿ĻäºĽçĹĩçĬ¶": 4789,
      "éĹŃåĲĪ": 4790,
      "æĹ¶éĹ´éķ¿": 4791,
      "ä¸įåŃķä¸įèĤ²": 4792,
      "è§ĦèĮĥ": 4793,
      "æĤ£èĢħè¦ģ": 4794,
      "è°ĥæŁ¥": 4795,
      "éķĩçĹĽ": 4796,
      "å°ĺ": 4797,
      "åĽŀæµģ": 4798,
      "æĢ§è¡Įä¸º": 4799,
      "çĶŁæ®ĸéģĵ": 4800,
      "ç¦ģé£Ł": 4801,
      "ä¸įä½³": 4802,
      "å®¶äºº": 4803,
      "å¤ļæ¢¦": 4804,
      "åĨħéĥ¨": 4805,
      "ç³ĸçļ®è´¨æ¿Ģç´ł": 4806,
      "ç¾İåĽ½": 4807,
      "å¹»": 4808,
      "ç²¾ç¥ŀéļľç¢į": 4809,
      "çľ¶": 4810,
      "æīģå¹³": 4811,
      "å®¹éĩı": 4812,
      "è½¬æ°¨éħ¶": 4813,
      "ä¾ĽåºĶ": 4814,
      "ç»ĻæĤ£èĢħ": 4815,
      "çĶŁæ®ĸåĻ¨çĸ±çĸ¹": 4816,
      "æłĩå¿Ĺ": 4817,
      "åģľèĤ²": 4818,
      "è¦ĨçĽĸ": 4819,
      "éĥ½ä¸į": 4820,
      "éĿĴå¹´": 4821,
      "è¿ĻæĹ¶åĢĻ": 4822,
      "å¼ķèµ·éĩįè§Ĩ": 4823,
      "å¿ĥçĲĨæ²»çĸĹ": 4824,
      "æ³¨å°Ħæ¶²": 4825,
      "ä¹Į": 4826,
      "æķĪåºĶ": 4827,
      "æĪĲåĪĨæĪĸå¤Ħæĸ¹": 4828,
      "åµĮ": 4829,
      "æĶ¾å°ĦæĢ§": 4830,
      "æĮīæĹ¶": 4831,
      "ä¸Ĭæľī": 4832,
      "å¿ħé¡»è¦ģ": 4833,
      "è¿ĺè¦ģæ³¨æĦı": 4834,
      "è¿ľç«¯": 4835,
      "è¾ĥéĩį": 4836,
      "éĢĤå®ľ": 4837,
      "ä½İè¡Ģç³ĸ": 4838,
      "éģĩåĪ°": 4839,
      "éļĨèµ·": 4840,
      "ä¸įå®Įåħ¨": 4841,
      "çļĦçĹĩçĬ¶æĺ¯ä»Ģä¹Ī": 4842,
      "çĻ½å¸¦å¼Ĥå¸¸": 4843,
      "åĮ»çĶŁçļĦæĮĩå¯¼ä¸ĭ": 4844,
      "åįĬå¹´": 4845,
      "çĽĲéħ¸": 4846,
      "çģ¼çĥŃ": 4847,
      "éĶ»çĤ¼èº«ä½ĵ": 4848,
      "æ·»": 4849,
      "çĤİçŃī": 4850,
      "è¾ĥå·®": 4851,
      "éģĹä¼łæĢ§": 4852,
      "çĥ§çģ¼": 4853,
      "å¸¸ä¸º": 4854,
      "åĨħè¡£": 4855,
      "è¯¯è¯Ĭ": 4856,
      "èĢ³é¸£": 4857,
      "åºĶè¯¥åıĬæĹ¶": 4858,
      "ç½ķ": 4859,
      "ç»ĻåŃ©åŃĲ": 4860,
      "é¡½": 4861,
      "é¢ĳçİĩ": 4862,
      "çļĦåħ³ç³»": 4863,
      "æ¸ĹéĢı": 4864,
      "åĬłä»¥": 4865,
      "è§¦åıĬ": 4866,
      "MRI": 4867,
      "çļĦå¼Ĥå¸¸": 4868,
      "èĤºåĬ¨èĦī": 4869,
      "èµ¤": 4870,
      "éļĲçĹĽ": 4871,
      "åħ±æµİå¤±è°ĥ": 4872,
      "çļĦæĬ¤çĲĨ": 4873,
      "å½¢çĬ¶": 4874,
      "éĺ»æĸŃ": 4875,
      "le": 4876,
      "åĮĸå¦Ĩåĵģ": 4877,
      "è½»éĩį": 4878,
      "èĭı": 4879,
      "ç¼ĿåĲĪ": 4880,
      "æ´»åĬĽ": 4881,
      "ä¹Łä¸įèĥ½": 4882,
      "å¤ļæ±Ĺ": 4883,
      "èĦĳæ¢Ĺå¡ŀ": 4884,
      "è¢«ç§°ä¸º": 4885,
      "åģıä½İ": 4886,
      "æľīæĹ¶åĢĻ": 4887,
      "éĿ¢å¯¹": 4888,
      "åĩłç§į": 4889,
      ")ï¼ļ": 4890,
      "è¾ĵè¡Ģ": 4891,
      "ä¹Łåı¯èĥ½æĺ¯": 4892,
      "å±ĢéĻĲæĢ§": 4893,
      "å®ļæľŁå¤įæŁ¥": 4894,
      "å®ļéĩı": 4895,
      "è§£éĻ¤": 4896,
      "æĹ©æ³Ħ": 4897,
      "èĤĽåĳ¨èĦĵèĤ¿": 4898,
      "è¡Ģæłĵå½¢æĪĲ": 4899,
      "æīįåı¯ä»¥": 4900,
      "åīª": 4901,
      "èĬ±çĶŁ": 4902,
      "è¯¸": 4903,
      "æīĢä»¥è¯´": 4904,
      "åıĸå¾Ĺ": 4905,
      "çļĦåĲ¸æĶ¶": 4906,
      "èĬ¹": 4907,
      "åłĨç§¯": 4908,
      "è®°å¿ĨåĬĽ": 4909,
      "æ¤İç®¡": 4910,
      "è¿ĩæķıåıįåºĶ": 4911,
      "çº¦ä¸º": 4912,
      "çĹ¿": 4913,
      "çŃīé£Łçī©": 4914,
      "ä¹ĭä¸º": 4915,
      "çļĦåī¯ä½ľçĶ¨": 4916,
      "èī²ç´łæ²īçĿĢ": 4917,
      "åīįåĪĹèħºæ¶²": 4918,
      "åĪĨæľŁ": 4919,
      "éĿŀçī¹å¼ĤæĢ§": 4920,
      "æķıæĦŁæĢ§": 4921,
      "åºĶæ¿Ģ": 4922,
      "åģĩå¦Ĥ": 4923,
      "ä¹ĭåĨħ": 4924,
      "çĿĢåºĬ": 4925,
      "èħ¥": 4926,
      "çļĦå½¢æĪĲ": 4927,
      "æĤ£èĢħåºĶ": 4928,
      "çĲĨçĸĹ": 4929,
      "å¤ĸçº¿": 4930,
      "ç¦ı": 4931,
      "é±¼é³ŀçĹħ": 4932,
      "çİī": 4933,
      "æ¶ĪåĮĸéģĵåĩºè¡Ģ": 4934,
      "å«": 4935,
      "çļĦä¸´åºĬè¡¨çİ°": 4936,
      "æĹ¶åºĶ": 4937,
      "ç¬¦": 4938,
      "ç»Ĵæ¯Ľ": 4939,
      "éļıè®¿": 4940,
      "æ´ĹåĩĢ": 4941,
      "èĤĮèħ±": 4942,
      "ç»Ĩèĥŀçĺ¤": 4943,
      "è¯Ĭæ²»": 4944,
      "èĢĮä¸į": 4945,
      "å¦¥": 4946,
      "ä¸¹": 4947,
      "å®³æĢķ": 4948,
      "ä¸İåħ¶ä»ĸ": 4949,
      "ç¬¬åĽĽ": 4950,
      "åľ¨é¥®é£Łä¸Ĭ": 4951,
      "æĲŃéħį": 4952,
      "II": 4953,
      "çĸ¼çĹĽæĦŁ": 4954,
      "çŁŃæļĤ": 4955,
      "è½¯èĨı": 4956,
      "ä¸ŃæĢ§": 4957,
      "èħ®èħº": 4958,
      "ä¼ļè®©": 4959,
      "èĭ±": 4960,
      "èĢĮå¼Ĥ": 4961,
      "å¯¿": 4962,
      "æĢ§èĤĿçĤİ": 4963,
      "æľīçĽĬ": 4964,
      "è¦ģéģ¿åħį": 4965,
      "ç»ıéªĮ": 4966,
      "CD": 4967,
      "åıĳçĶŁäºĨ": 4968,
      "åĽĬæĢ§": 4969,
      "æľīæĺİæĺ¾çļĦ": 4970,
      "æĿ¥çļĦ": 4971,
      "çĲĨè§£": 4972,
      "ä¸Ģå¹´": 4973,
      "æĪĴéħĴ": 4974,
      "å®«é¢ĪåĽĬèĤ¿": 4975,
      "çĶ·äºº": 4976,
      "çļĦæ²»çĸĹæķĪæŀľ": 4977,
      "è¿ĻäºĽé£Łçī©": 4978,
      "çĹħæĥħåĬłéĩį": 4979,
      "ä¸ŃéĹ´": 4980,
      "åĩºçĶŁåĲİ": 4981,
      "å¤¹": 4982,
      "èģļéĽĨ": 4983,
      "ä»¥æ¸ħæ·¡": 4984,
      "å®ŀè´¨": 4985,
      "åĬ³éĢ¸": 4986,
      "æĦŁæŁĵäºĨ": 4987,
      "é¼»èħĶ": 4988,
      "åħ¬åħ±": 4989,
      "æ¯ıå¹´": 4990,
      "æĪ´": 4991,
      "åĿĲæµ´": 4992,
      "æĢ§åĩºè¡Ģ": 4993,
      "æµ·ç»µ": 4994,
      "æĦŁè§īåĪ°": 4995,
      "å°ıæĹ¶åĨħ": 4996,
      "çķĻæĦı": 4997,
      "èĥ¸èħĶ": 4998,
      "ä¾Ľè¡Ģ": 4999,
      "è¡Ģçº¢èĽĭçĻ½": 5000,
      "åıĹåĩī": 5001,
      "èįĲ": 5002,
      "è¿Ļæł·æīįèĥ½": 5003,
      "åįķçº¯æĢ§": 5004,
      "----": 5005,
      "å¤ļæ³¨æĦı": 5006,
      "æµģè´¨": 5007,
      "ä¸ºä»Ģä¹Ī": 5008,
      "æ¤İä½ĵ": 5009,
      "éĿŀå¸¸çļĦ": 5010,
      "æ³¨æĦıçļĦäºĭé¡¹": 5011,
      "è½®": 5012,
      "æħ¢æĢ§èĤĿçĤİ": 5013,
      "çīĻé¾Ī": 5014,
      "ç»§åıĳæĦŁæŁĵ": 5015,
      "ä¸¥éĩįå½±åĵį": 5016,
      "åıĹä¼¤": 5017,
      "èĤĿæįŁä¼¤": 5018,
      "æ¤İéĹ´çĽĺ": 5019,
      "æŃ£ç¡®çļĦ": 5020,
      "å¿ĥåĬ¨è¿ĩéĢŁ": 5021,
      "æ³½": 5022,
      "ç§ģ": 5023,
      "æī«æıı": 5024,
      "ä¸Ĭèħ¹": 5025,
      "ç²¾åŃĲçļĦ": 5026,
      "å¦ĤæŀľæĤ£èĢħ": 5027,
      "è¿ĩåĪĨ": 5028,
      "ä»£è¡¨": 5029,
      "è¿Ļä¹Łæĺ¯": 5030,
      "å®ģ": 5031,
      "åİŁåĽłå¼ķèµ·çļĦ": 5032,
      "èĢģäºº": 5033,
      "ä¿Ĺç§°": 5034,
      "è¿Łç¼ĵ": 5035,
      "é¥ŃåĲİ": 5036,
      "çŁŃæľŁ": 5037,
      "æĬ½çĥŁ": 5038,
      "åı¯ä»¥åģļ": 5039,
      "åĶĲ": 5040,
      "åīĸèħ¹äº§": 5041,
      "å¾¡": 5042,
      "åį§ä½į": 5043,
      "æİ¨èįĲ": 5044,
      "ç»´çĶŁç´łA": 5045,
      "åĨ·åĨ»": 5046,
      "ä½ĵæ¶²": 5047,
      "è®¡åĪĴ": 5048,
      "é£ŁçĸĹ": 5049,
      "åĨħç§ĳ": 5050,
      "ä¸įèī¯çļĦ": 5051,
      "ä¸»è¦ģä¸º": 5052,
      "éľĢè¦ģè¿Ľè¡Į": 5053,
      "it": 5054,
      "75": 5055,
      "ä¸¾": 5056,
      "ä¸įå¿ħ": 5057,
      "è½»å¾®çļĦ": 5058,
      "28": 5059,
      "åĮ»æ²»": 5060,
      "çļĦçĽ®çļĦ": 5061,
      "æ°´æ³¡": 5062,
      "æ£ĢæŁ¥ç»ĵæŀľ": 5063,
      "éĿ¶": 5064,
      "ä¸Ĭçģ«": 5065,
      "é¡»æ³¨æĦıçļĦäºĭé¡¹": 5066,
      "åĳ¨åĽ´çļĦ": 5067,
      "ï¼ı": 5068,
      "çļĦå¤§å°ı": 5069,
      "ä¹Łä¼ļå¯¼èĩ´": 5070,
      "èī¯æĢ§èĤ¿çĺ¤": 5071,
      "æ¯Ľåıĳ": 5072,
      "çİ¯å¢ĥåĽłç´ł": 5073,
      "ä½Ĩåľ¨": 5074,
      "çľŁèıĮæĦŁæŁĵ": 5075,
      "ç³ĸå°¿çĹħçļĦ": 5076,
      "éķĩéĿĻ": 5077,
      "åĤ¨": 5078,
      "åİŁåıĳçĹħ": 5079,
      "ä½¿åħ¶": 5080,
      "çĽ²çĽ®": 5081,
      "ä¹Łä¼ļåĩºçİ°": 5082,
      "ä¸ĻåŀĭèĤĿçĤİ": 5083,
      "ä»°": 5084,
      "ä¸įéĶĻ": 5085,
      "åŀĭçļĦ": 5086,
      "ä¼ļéĺ´éĥ¨": 5087,
      "è®¤ä¸ºæĺ¯": 5088,
      "æ²ŁéĢļ": 5089,
      "å¿ĥçĹħ": 5090,
      "ä¸įåĪ©äºİ": 5091,
      "ç§»åĬ¨": 5092,
      "ä¼Ĺ": 5093,
      "æł½": 5094,
      "åģļå®Į": 5095,
      "è¶ħå£°æ£ĢæŁ¥": 5096,
      "èĦĳèĲİç¼©": 5097,
      "ä¸ĭåĪĹ": 5098,
      "è¿ŀæİ¥": 5099,
      "èħ°éª¶": 5100,
      "æĢ§çĹħåıĺ": 5101,
      "åħ´è¶£": 5102,
      "ä¸įå¤§": 5103,
      "èĤºç»ĵæł¸": 5104,
      "ä¾µè¢Ń": 5105,
      "é¥¥": 5106,
      "äºĭä»¶": 5107,
      "ä»ħæľī": 5108,
      "æ¯ĽåŃĶ": 5109,
      "ä¸įåıĬæĹ¶": 5110,
      "å¦ĤæŃ¤": 5111,
      "ä¹Łä¼ļæľī": 5112,
      "æµĵèĮ¶": 5113,
      "æ¯įå©´": 5114,
      "æŃ£è§ĦçļĦåĮ»éĻ¢": 5115,
      "æĭĸ": 5116,
      "å£³": 5117,
      "å°ıèħ¹": 5118,
      "éĻ¤æŃ¤": 5119,
      "è¹²": 5120,
      "æĴķè£Ĥ": 5121,
      "åĩºçİ°åľ¨": 5122,
      "çĸ¾çĹħçļĦåıĳçĶŁ": 5123,
      "å¸¸è§ģçļĦä¸Ģç§į": 5124,
      "å¾Īéĩįè¦ģ": 5125,
      "åı£åĲĥ": 5126,
      "å·Ŀ": 5127,
      "çĭ¼": 5128,
      "éĺµåıĳæĢ§": 5129,
      "èĤīç±»": 5130,
      "ä¸įè§Ħå¾ĭ": 5131,
      "åīįèĢħ": 5132,
      "æľºä½ĵçļĦ": 5133,
      "æł¸æ¡ĥ": 5134,
      "æ°´çĹĺ": 5135,
      "ç¾Ł": 5136,
      "èĢĮæĺ¯": 5137,
      "çģ°æĮĩçĶ²": 5138,
      "Ġc": 5139,
      "ç»ıè¡Ģ": 5140,
      "åĲİå¤©": 5141,
      "çºª": 5142,
      "éĶħ": 5143,
      "åı¯èĩ´": 5144,
      "èİ«": 5145,
      "ç´łè´¨": 5146,
      "èıłèıľ": 5147,
      "å¼ºåº¦": 5148,
      "è¿Ļæł·çļĦ": 5149,
      "æĽ´æį¢": 5150,
      "æ¤Ń": 5151,
      "ä¹Łè¦ģæ³¨æĦı": 5152,
      "æĺ¾å¾®": 5153,
      "æıĲåīį": 5154,
      "æĹºçĽĽ": 5155,
      "å¢ŀå¼ºä½ĵè´¨": 5156,
      "èĬ¹èıľ": 5157,
      "æĢ§çĹħ": 5158,
      "çĸ¾æĤ£": 5159,
      "åĲĪçĲĨçļĦ": 5160,
      "ä¸įå¥½çļĦ": 5161,
      "çĹĩæĤ£èĢħ": 5162,
      "é¥¿": 5163,
      "æ²»çĸĹæľŁéĹ´": 5164,
      "è¾Ĳ": 5165,
      "æİĮæı¡": 5166,
      "æľīè§Ħå¾ĭ": 5167,
      "å¤įä½į": 5168,
      "ä¸Ĭä¸ĭ": 5169,
      "åĬ¨èĦīç¡¬åĮĸ": 5170,
      "æ¨¡ç³Ĭ": 5171,
      "èĢ½": 5172,
      "ĸåŃĲ": 5173,
      "ul": 5174,
      "ç§°ä¹ĭä¸º": 5175,
      "æµģæĦŁ": 5176,
      "gt": 5177,
      "ä½ĵä½į": 5178,
      "çīµæĭī": 5179,
      "éħª": 5180,
      "èĥĨç¢±": 5181,
      "é»ĳèī²": 5182,
      "æ¸ħæ´ģåį«çĶŁ": 5183,
      "ä¹Łå°±": 5184,
      "åŃķéħ®": 5185,
      "èĦĤèĤªéħ¸": 5186,
      "èŁ¹": 5187,
      "æ³¨éĩį": 5188,
      "çļĦè¿ĩç¨ĭä¸Ń": 5189,
      "åĬ³éĢ¸ç»ĵåĲĪ": 5190,
      "ä¼ļåıĳçĶŁ": 5191,
      "æĭĩ": 5192,
      "çļĦçī¹çĤ¹": 5193,
      "èĮĦ": 5194,
      "ä¸įå°½": 5195,
      "åĬŁèĥ½æĢ§": 5196,
      "ä¸´åºĬè¡¨çİ°ä¸º": 5197,
      "èĤīçĺ¤": 5198,
      "ç¥ŀç»ıæĢ§": 5199,
      "è¡¨çİ°åĩº": 5200,
      "æ³³": 5201,
      "ä¸»è¦ģåĮħæĭ¬": 5202,
      "æģ¶å¿ĥåĳķåĲĲ": 5203,
      "ç¾Ĭæ°´": 5204,
      "å®¤åĨħ": 5205,
      "æĢ§æİ¥è§¦": 5206,
      "éĢĢè¡ĮæĢ§": 5207,
      "å°¿é¢ĳå°¿æĢ¥": 5208,
      "çļĦäººç¾¤": 5209,
      "é¡½åĽº": 5210,
      "åĩ¹éĻ·": 5211,
      "çĶ²æ²Ł": 5212,
      "ä¹Ŀ": 5213,
      "ï¼ļ(": 5214,
      "çİĩä¸º": 5215,
      "æ¯«ç±³": 5216,
      "åŃ¦ä¼ļ": 5217,
      "æĹłçĹĽäººæµģ": 5218,
      "æŃ£åľ¨": 5219,
      "ç½ķè§ģ": 5220,
      "ä¼ļäº§çĶŁ": 5221,
      "éľīèıĮæĢ§": 5222,
      "åĬŁèĥ½ä¸įåħ¨": 5223,
      "ç»Łè®¡": 5224,
      "æĤ£ä¾§": 5225,
      "è´®": 5226,
      "è¯±å¯¼": 5227,
      "éĩįèĢħ": 5228,
      "å¹¶æ²¡æľī": 5229,
      "è¿ĺæ²¡æľī": 5230,
      "è¿ĺæľīå°±æĺ¯": 5231,
      "tr": 5232,
      "é¢Ĩ": 5233,
      "ä¼´åıĳ": 5234,
      "çīµå¼ķ": 5235,
      "æľīä»¥ä¸ĭåĩł": 5236,
      "çĶŁæ´»è´¨éĩı": 5237,
      "ä¼łæĴŃéĢĶå¾Ħ": 5238,
      "åĲ»åĲĪ": 5239,
      "èĥ¸èĨľ": 5240,
      "æĶ¾åħ¥": 5241,
      "åŃĲå®«ä¸ĭåŀĤ": 5242,
      "æ´»å¤ļä¹ħ": 5243,
      "äººä¹³å¤´çĺ¤": 5244,
      "ä¸¤æ¬¡": 5245,
      "æĪ·": 5246,
      "æĮģç»ŃæĹ¶éĹ´": 5247,
      "è¡£çī©": 5248,
      "å¸¦æľī": 5249,
      "æ°´æŀľåĴĮ": 5250,
      "éķģ": 5251,
      "æĿĥ": 5252,
      "æĽ¿ä»£": 5253,
      "æĤ£èĢħåı¯ä»¥": 5254,
      "çĶ·å¥³": 5255,
      "é¸¡çľ¼": 5256,
      "ä¸įèĥ½å¤Ł": 5257,
      "ä»Ķç»Ĩ": 5258,
      "çļĦä¹łæĥ¯": 5259,
      "çĶ¨åĵģ": 5260,
      "åıĺå¼Ĥ": 5261,
      "èĭ¥æĺ¯": 5262,
      "è¨Ģè¯Ń": 5263,
      "å®ŀéªĮå®¤æ£ĢæŁ¥": 5264,
      "çī¹å®ļ": 5265,
      "ç²¾åĽĬçĤİ": 5266,
      "é©±": 5267,
      "åįĥä¸ĩä¸įè¦ģ": 5268,
      "è¶ĭåĬ¿": 5269,
      "èĨĪ": 5270,
      "éĹŃå¡ŀ": 5271,
      "å¹³æ»ĳèĤĮ": 5272,
      "å®¶å±ŀ": 5273,
      "éĺ´éĥ¨": 5274,
      "æº¶è§£": 5275,
      "èĥ¶åİŁ": 5276,
      "çļĦäºĭæĥħ": 5277,
      "è¿Ķ": 5278,
      "æĢ§çĬ¶": 5279,
      "åı«åģļ": 5280,
      "ç»ĵçĹĤ": 5281,
      "æĺĵæĦŁ": 5282,
      "ä½İçĥŃ": 5283,
      "æĻ°": 5284,
      "ä¸Ģèĩ´": 5285,
      "åĩłä¸ª": 5286,
      "è¯º": 5287,
      "æłĩæľ¬": 5288,
      "æ¼Ķ": 5289,
      "èµ°è·¯": 5290,
      "åıįèĢĮ": 5291,
      "é£Łæ¬²åĩıéĢĢ": 5292,
      "æĪĸçĶ¨éĩı": 5293,
      "åįµå·¢çĻĮ": 5294,
      "æĨĭ": 5295,
      "åīįåĪĹèħºéĴĻåĮĸ": 5296,
      "ç»ķ": 5297,
      "åĬ±": 5298,
      "èĲĿåįľ": 5299,
      "ä¸įåĲĮçļĦåĮħè£ħè§Ħæł¼": 5300,
      "çĶ¨æ³ķæĪĸçĶ¨éĩı": 5301,
      "æľīä¸įåĲĮçļĦçĶ¨æ³ķæĪĸçĶ¨éĩı": 5302,
      "æľ¬æĸĩåıªä¾ĽåıĤèĢĥ": 5303,
      "åĲĮç§įèį¯åĵģåı¯çĶ±äºİä¸įåĲĮçļĦåĮħè£ħè§Ħæł¼": 5304,
      "åĲĮç§įèį¯åĵģåı¯çĶ±äºİä¸įåĲĮçļĦåĮħè£ħè§Ħæł¼æľīä¸įåĲĮçļĦçĶ¨æ³ķæĪĸçĶ¨éĩı": 5305,
      "äº®": 5306,
      "å¦Ĥæŀľåĩºçİ°äºĨ": 5307,
      "å¤ļåĲĥäºĽ": 5308,
      "IV": 5309,
      "çļ®çĻ£": 5310,
      "æ·«": 5311,
      "å¤§åĩºè¡Ģ": 5312,
      "å®¶æĹıåı²": 5313,
      "ç»ĵæĿŁ": 5314,
      "éĻĦçĿĢ": 5315,
      "å¾Īå¤ļçļĦ": 5316,
      "ç²¾ç¥ŀåĽłç´ł": 5317,
      "æĿ¥æľĪç»ı": 5318,
      "èĤłæ¢Ĺéĺ»": 5319,
      "èĦĳæ¢ĹæŃ»": 5320,
      "ä¸įå¾Ĺ": 5321,
      "æ¶īåıĬ": 5322,
      "éĺ´èĻļ": 5323,
      "å¤ĸè§Ĥ": 5324,
      "çŀ³": 5325,
      "ç³»èĨľ": 5326,
      "æ·»åĬł": 5327,
      "éĺ³çĹ¿": 5328,
      "æł·çļĦ": 5329,
      "ç³ĸå°¿çĹħæĤ£èĢħ": 5330,
      "éĢĲæŃ¥": 5331,
      "çºµéļĶ": 5332,
      "æĸĳåĿĹ": 5333,
      "èĤĿåĮº": 5334,
      "èĥĥç²ĺèĨľ": 5335,
      "å»¶è¿Ł": 5336,
      "æĤ²": 5337,
      "çŃĭèĨľ": 5338,
      "çļĦå°±æĺ¯": 5339,
      "æ´»è·ĥ": 5340,
      "æĦŁæŁĵåĲİ": 5341,
      "èĦĸåŃĲ": 5342,
      "å¤©æ°Ķ": 5343,
      "æĪĳä»¬ä¸Ģèµ·æĿ¥": 5344,
      "éħįåĲĪåĮ»çĶŁ": 5345,
      "æĢ§åĬŁèĥ½": 5346,
      "å»¶ç¼ĵ": 5347,
      "è¾Ĳå°Ħ": 5348,
      "èĩĢéĥ¨": 5349,
      "ç»ĨèĥŀåĨħ": 5350,
      "åĪ®å®«": 5351,
      "å¯¹æĤ£èĢħ": 5352,
      "èĤ¾ä¸Ĭèħºç´ł": 5353,
      "æ²»çĸĹæĸ¹æ¡Ī": 5354,
      "èĥ°èħºçĻĮ": 5355,
      "ä¸»åĬ¨": 5356,
      "æª": 5357,
      "ç»ıæµİ": 5358,
      "æľīæķĪåľ°": 5359,
      "èĦ¸éĥ¨": 5360,
      "çİ»": 5361,
      "äºĭå®ŀ": 5362,
      "è¦ģæł¹æį®": 5363,
      "æ´²": 5364,
      "èĦĳçĺ¤": 5365,
      "èĢ»": 5366,
      "å¸¸åľ¨": 5367,
      "èļĢ": 5368,
      "ç§Ĵ": 5369,
      "å¹²é¢Ħ": 5370,
      "åįķçĭ¬": 5371,
      "çķı": 5372,
      "ç»Ļå®Ŀå®Ŀ": 5373,
      "ç»ĵèĬĤæĢ§": 5374,
      "çļĦåıĳå±ķ": 5375,
      "åİŁåĽłæĺ¯": 5376,
      "èĻ«çĹħ": 5377,
      "èĢ½è¯¯": 5378,
      "å°±åºĶè¯¥": 5379,
      "çļĦæ²»çĸĹåĴĮé¢Ħéĺ²": 5380,
      "èĪĴå¼ł": 5381,
      "åĲŀåĴ½åĽ°éļ¾": 5382,
      "è¿ĩæĹ©": 5383,
      "éľĢè¦ģåģļ": 5384,
      "åĴ¸": 5385,
      "å°¿éħ¸": 5386,
      "åĲĦä¸ª": 5387,
      "èħ°èĤĮ": 5388,
      "ä¿ĿæĮģå¿ĥæĥħ": 5389,
      "çŁ¿çī©è´¨": 5390,
      "æĹ©åŃķ": 5391,
      "åºĶéģ¿åħį": 5392,
      "èĬĿéº»": 5393,
      "è®¡ç®Ĺ": 5394,
      "åīįæľŁ": 5395,
      "è¿Ļæĺ¯åĽłä¸º": 5396,
      "åī§çĥĪè¿ĲåĬ¨": 5397,
      "ç»ĵæīİ": 5398,
      "æĿ¥è®²": 5399,
      "çļĦæįŁä¼¤": 5400,
      "èĢħçļĦ": 5401,
      "æ°Ķåĳ³": 5402,
      "èĢĲèį¯": 5403,
      "éŁŃ": 5404,
      "æ¶ķ": 5405,
      "çĹ¢": 5406,
      "ä¸ŃåĮ»æ²»çĸĹ": 5407,
      "åºĶèĢĥèĻĳ": 5408,
      "ç¢°": 5409,
      "åĳ¼åĲ¸éģĵæĦŁæŁĵ": 5410,
      "èħ°éħ¸": 5411,
      "æľīæĺİæĺ¾": 5412,
      "å½ĵåľ°": 5413,
      "ä¸Ńå¹´": 5414,
      "æĢ»ä¹ĭ": 5415,
      "tion": 5416,
      "ç»ıåİĨ": 5417,
      "æľīå¾Īå¤§çļĦ": 5418,
      "åĩĨå¦Īå¦Ī": 5419,
      "çľ¼éĥ¨": 5420,
      "çŁ«æŃ£": 5421,
      "èĴĻ": 5422,
      "ç³łçĸ¹": 5423,
      "è¿ģå»¶": 5424,
      "è¾ĵåįµç®¡åłµå¡ŀ": 5425,
      "å°ıå¿ĥ": 5426,
      "çĥ¤": 5427,
      "çĤİçĹĩåıįåºĶ": 5428,
      "æ¥Ĥ": 5429,
      "æħ¢æĢ§èĥĥçĤİ": 5430,
      "éĩĳæ£®": 5431,
      "è¯Ħä»·": 5432,
      "ä»¥èĩ´": 5433,
      "ç»Ŀç»ıåĲİ": 5434,
      "å®īæİĴ": 5435,
      "åıĳä½ľæĹ¶": 5436,
      "è¾Ľè¾£åĪºæ¿ĢçļĦé£Łçī©": 5437,
      "éĻĦä»¶çĤİ": 5438,
      "åŀ¢": 5439,
      "åı¯èĥ½æĢ§": 5440,
      "ç»¿è±Ĩ": 5441,
      "èĤĿçº¤ç»´åĮĸ": 5442,
      "èĥĨéģĵ": 5443,
      "æĬ±": 5444,
      "åĸĿæ°´": 5445,
      "èĤ¾å°ıç®¡": 5446,
      "æĢ§æºĥçĸ¡": 5447,
      "çİĩé«ĺ": 5448,
      "çĮ´": 5449,
      "éĢıæ°Ķ": 5450,
      "åģĩæĢ§": 5451,
      "å¸ķéĩĳæ£®": 5452,
      "ä½ĵåĬĽåĬ³åĬ¨": 5453,
      "éļ¾åº¦": 5454,
      "ä¿ĿæĮģå¤§ä¾¿": 5455,
      "..": 5456,
      "çİ©": 5457,
      "èĤīçľ¼": 5458,
      "å±±æ¥Ĥ": 5459,
      "ä¸ºå®ľ": 5460,
      "åģ¥èĦ¾": 5461,
      "èĢĮåıĳçĶŁ": 5462,
      "åħħè¶³çļĦçĿ¡çľł": 5463,
      "çĨı": 5464,
      "å¯ĨåĪĩçĽ¸åħ³": 5465,
      "èĥĥèĥĢ": 5466,
      "æ¸ħæ°´": 5467,
      "çļĦçĹĩçĬ¶è¡¨çİ°": 5468,
      "çļĦçĹħåıĺ": 5469,
      "æĢ§åħ³èĬĤçĤİ": 5470,
      "åİĭå¢ŀé«ĺ": 5471,
      "æĺ¯éĢļè¿ĩ": 5472,
      "å¾Īæľī": 5473,
      "çļĦå¹¶åıĳçĹĩ": 5474,
      "è¯ĬæĸŃä¸º": 5475,
      "çĽ¸éī´åĪ«": 5476,
      "æ»¥": 5477,
      "çĻ½å¤©": 5478,
      "å¤©å·¦åı³": 5479,
      "çļĦçĬ¶åĨµ": 5480,
      "èĬ¦": 5481,
      "çļĦåį«çĶŁ": 5482,
      "åıĮæĸ¹": 5483,
      "éĻ¤æŃ¤ä¹ĭå¤ĸ": 5484,
      "å´": 5485,
      "åħ¼": 5486,
      "æĮł": 5487,
      "åı¶éħ¸": 5488,
      "ä¸ªäººçļĦ": 5489,
      "æŀ¸": 5490,
      "çĥ¯": 5491,
      "çļĦåİŁåĽłæľīå¾Īå¤ļ": 5492,
      "æľīæķĪçļĦæ²»çĸĹ": 5493,
      "çĶĺæ²¹": 5494,
      "çļĦåĲĪæĪĲ": 5495,
      "çĹĩçĬ¶åĴĮ": 5496,
      "çº¢æŀ£": 5497,
      "çłĶç©¶è¡¨æĺİ": 5498,
      "åıĹéĺ»": 5499,
      "éĥ¨åĪĨçĹħäºº": 5500,
      "è¡Ģä¸Ń": 5501,
      "Ġp": 5502,
      "æīĢå¯¼èĩ´çļĦ": 5503,
      "è§Ĵåº¦": 5504,
      "ä»¥ä¸Ĭå°±æĺ¯": 5505,
      "Ġ4": 5506,
      "åĪ¶å®ļ": 5507,
      "te": 5508,
      "èĤ¾èĻļ": 5509,
      "æľīäºĨ": 5510,
      "èĩ´çĻĮ": 5511,
      "åĢ¡": 5512,
      "é¼»çĤİ": 5513,
      "åıĸåĩº": 5514,
      "å±±èį¯": 5515,
      "æĪĸä¸į": 5516,
      "è¾ĵæ¶²": 5517,
      "åİ»åĮ»éĻ¢åģļ": 5518,
      "æ¯ıä¸ªäºº": 5519,
      "èĤĿèħ¹æ°´": 5520,
      "åŃĲå®«æĶ¶ç¼©": 5521,
      "å¤©çĦ¶": 5522,
      "å¤ıåŃ£": 5523,
      "çļĦæ²»çĸĹåĴĮé¢Ħéĺ²æĸ¹æ³ķ": 5524,
      "èĢĮåľ¨": 5525,
      "è½½": 5526,
      "æīįä¼ļ": 5527,
      "æķ°çĽ®": 5528,
      "æ²¡æľīä»»ä½ķ": 5529,
      "ä¸Ģå®ļç¨ĭåº¦": 5530,
      "å¤įæĸ¹": 5531,
      "åĵºä¹³æľŁ": 5532,
      "åĽĽç»´": 5533,
      "ä¸įæĺ¯å¾Ī": 5534,
      "çĭ¼çĸ®": 5535,
      "åĢŁ": 5536,
      "çĲĨè®º": 5537,
      "è·ĸ": 5538,
      "il": 5539,
      "çĽ¸ä¿¡å¤§å®¶": 5540,
      "é»ĳèī²ç´łçĺ¤": 5541,
      "çļĦæ´»åĬ¨": 5542,
      "æģ¼": 5543,
      "é¼»çª¦": 5544,
      "ç¢³æ°´": 5545,
      "å¤ļäºİ": 5546,
      "æľīçļĦæĤ£èĢħ": 5547,
      "æ¸ħæĻ°": 5548,
      "22": 5549,
      "èĥ«": 5550,
      "çī©åĵģ": 5551,
      "äº§åīį": 5552,
      "çļĦé«ĺ": 5553,
      "æµ®èĤ¿": 5554,
      "è¿Ļä¸ªçĸ¾çĹħ": 5555,
      "è¡¥èĤ¾": 5556,
      "æĹ§": 5557,
      "ä»·æł¼": 5558,
      "æ³¨åħ¥": 5559,
      "å®¿ä¸»": 5560,
      "æ¦Ĥçİĩ": 5561,
      "èĤĿåĨħ": 5562,
      "æ¿Ģç´łæ°´å¹³": 5563,
      "æ°ĶåĢĻ": 5564,
      "éĿĴéľīç´ł": 5565,
      "å¯»å¸¸": 5566,
      "æĪĸæ¶Īå¤±": 5567,
      "æĿ¥æ½®": 5568,
      "çļĦèº«ä½ĵ": 5569,
      "ç¼ºå¤±": 5570,
      "è§Ħå®ļ": 5571,
      "ä¸¤åĳ¨": 5572,
      "å¸¸çĶ¨çļĦ": 5573,
      "åľĪ": 5574,
      "åıĺæĢģ": 5575,
      "åĮĸçĺĢ": 5576,
      "ter": 5577,
      "çļĦéĢīæĭ©": 5578,
      "ä¸Ģå®ļè¦ģåıĬæĹ¶": 5579,
      "ä¸įç¨³": 5580,
      "åĲİåĩºçİ°": 5581,
      "å¤§èĴľ": 5582,
      "éľľ": 5583,
      "èĥĥåĩºè¡Ģ": 5584,
      "èģĶç³»": 5585,
      "ä»¥åĨħ": 5586,
      "åħ¨èº«æĢ§": 5587,
      "ä¾Ľç»Ļ": 5588,
      "å°Ĩåħ¶": 5589,
      "çĶŁå§ľ": 5590,
      "è¦ģæĺ¯": 5591,
      "åįıè°ĥ": 5592,
      "æİĴåĪĹ": 5593,
      "å¿ĺ": 5594,
      "æĳĺéĻ¤": 5595,
      "ä»ª": 5596,
      "èĥ¸çĹĽ": 5597,
      "æĸŃè£Ĥ": 5598,
      "æĭĽ": 5599,
      "æĢĢåŃķçļĦ": 5600,
      "çĸ¼çĹĽåĴĮ": 5601,
      "è¿½": 5602,
      "åĵĳ": 5603,
      "åį·": 5604,
      "ç®¡èħĶ": 5605,
      "å°½ç®¡": 5606,
      "å¯ĮåĲ«ç»´çĶŁç´ł": 5607,
      "éĢĤéĩıçļĦ": 5608,
      "éĢļéģĵ": 5609,
      "çļĦåıĳçĹħçİĩ": 5610,
      "åı¯ä»¥åĩºçİ°": 5611,
      "æĺ¯äººä½ĵ": 5612,
      "çĶ²çĬ¶èħºçĸ¾çĹħ": 5613,
      "è¥¿çĵľ": 5614,
      "é£ŀ": 5615,
      "èĤ¾çĻĮ": 5616,
      "çĸ¯": 5617,
      "åŃ¤": 5618,
      "é«ĺçļĦé£Łçī©": 5619,
      "çĵ£èĨľ": 5620,
      "è½¯åĮĸ": 5621,
      "æ½®çº¢": 5622,
      "éĽ·": 5623,
      "æ»ĭçĶŁ": 5624,
      "åīįåºŃ": 5625,
      "åģļåĩº": 5626,
      "æ¶ĪåĮĸçļĦé£Łçī©": 5627,
      "åĽŀå£°": 5628,
      "çŁŃæĹ¶éĹ´": 5629,
      "åı¯ä»¥è¿Ľè¡Į": 5630,
      "æīĭæľ¯ä¹ĭåĲİ": 5631,
      "å¦Ĥæŀľåıĳçİ°": 5632,
      "åı¯èĥ½å¼ķèµ·": 5633,
      "é¼»åĴ½çĻĮ": 5634,
      "æľįçĶ¨èį¯çī©": 5635,
      "um": 5636,
      "æıĲåĩº": 5637,
      "æ¤ŃåľĨå½¢": 5638,
      "è´Łèį·": 5639,
      "åĲĥäºĨ": 5640,
      "åĳ¨æľŁæĢ§": 5641,
      "æ·ĭå·´ç®¡": 5642,
      "èĪĴçķħ": 5643,
      "ä¼łæŁĵç»Ļ": 5644,
      "åĲĳä¸Ĭ": 5645,
      "åģľç»ı": 5646,
      "æ´¥": 5647,
      "è¿ĺä¼ļæľī": 5648,
      "ç®Ģç§°": 5649,
      "é¼ĵåĬ±": 5650,
      "éŁŃèıľ": 5651,
      "æĢ§ä¼łæĴŃçĸ¾çĹħ": 5652,
      "å¯¿åĳ½": 5653,
      "åı¯è¡Į": 5654,
      "æ²¹èħ»çļĦé£Łçī©": 5655,
      "èĢĮèĩ´": 5656,
      "æİ¥è¿ĳ": 5657,
      "å²ģä»¥ä¸Ĭ": 5658,
      "å¤ļåĬ¨": 5659,
      "å¤ļæľī": 5660,
      "çĽ´èĩ³": 5661,
      "æ¯ĴçĹĩ": 5662,
      "çľģ": 5663,
      "çļĦä¸´åºĬ": 5664,
      "ä¸ĢèĪ¬éĥ½æĺ¯": 5665,
      "æ³Įå°¿ç³»": 5666,
      "èµĺ": 5667,
      "æ£ĢæŁ¥æĹ¶": 5668,
      "éĥ½ä¼ļæľī": 5669,
      "ä¸įæ¸ħæ¥ļ": 5670,
      "èĥ¸éª¨": 5671,
      "éļĶç¦»": 5672,
      "çĶ·æĢ§ä¸įèĤ²": 5673,
      "ä¸įå¤ļ": 5674,
      "æĺ¯ä»¥": 5675,
      "æµĭéĩı": 5676,
      "ä¸įè¶ħè¿ĩ": 5677,
      "æ¯įä½ĵ": 5678,
      "ä¸Ģæł·çļĦ": 5679,
      "åĨľ": 5680,
      "åĨłçĬ¶åĬ¨èĦī": 5681,
      "èĤīèĬ½èĤ¿": 5682,
      "ä¸įä¸Ģå®ļ": 5683,
      "çł´æºĥ": 5684,
      "å°½éĩıä¸įè¦ģ": 5685,
      "ä¸°å¯ĮçļĦé£Łçī©": 5686,
      "åıĬåħ¶ä»ĸ": 5687,
      "ä½ľçĶ¨äºİ": 5688,
      "å¯¹æĤ£èĢħçļĦ": 5689,
      "æĶ¾å°Ħæ²»çĸĹ": 5690,
      "ä¸ºå¤§å®¶ä»ĭç»į": 5691,
      "é«ĺèĦĤèĤª": 5692,
      "çĹĩçĬ¶è¡¨çİ°": 5693,
      "å¼Ģåı£": 5694,
      "éķ¿çĹĺçĹĺ": 5695,
      "è§£éĩĬ": 5696,
      "åıĳçĹĴ": 5697,
      "å±ıéļľ": 5698,
      "åĶĲæ°ı": 5699,
      "é½Ĳ": 5700,
      "åĥµç¡¬": 5701,
      "è®¡æķ°": 5702,
      "æľīæľº": 5703,
      "èĦ±å±ĳ": 5704,
      "çļĦåį±éĻ©": 5705,
      "ia": 5706,
      "ä¸¥éĩįåĲĹ": 5707,
      "çļĦç¥ŀç»ı": 5708,
      "éĥ½çŁ¥éģĵ": 5709,
      "ä¹ĻèĤĿè¡¨éĿ¢": 5710,
      "ç±»é£İæ¹¿": 5711,
      "%-": 5712,
      "æ¯ıåĳ¨": 5713,
      "ä½İè¡Ģåİĭ": 5714,
      "çļ®èĤ¤å¹²çĩ¥": 5715,
      "ç´«å¤ĸçº¿": 5716,
      "éļĲæĢ§": 5717,
      "åħ·ä½ĵæĥħåĨµ": 5718,
      "æĺ¯ä¸įä¼ļ": 5719,
      "èĩªéĹŃ": 5720,
      "æľįåĬ¡": 5721,
      "è½¬ä¸º": 5722,
      "é¡ºäº§": 5723,
      "åĴ½éĥ¨": 5724,
      "è¯į": 5725,
      "é¢Ĭ": 5726,
      "è¿ĺæľīä¸ĢäºĽ": 5727,
      "èºº": 5728,
      "ç¢³éħ¸": 5729,
      "çľŁæŃ£": 5730,
      "æĿĢèıĮ": 5731,
      "éĥ½èĥ½": 5732,
      "æ·¤è¡Ģ": 5733,
      "æĮģä¹ħ": 5734,
      "æİ¥åıĹæ²»çĸĹ": 5735,
      "å¤§ç±»": 5736,
      "å¤ļé¥®æ°´": 5737,
      "æ»´æ³¨": 5738,
      "æĿ¨": 5739,
      "è¡Ģç®¡çĺ¤": 5740,
      "çļĦæĥħç»ª": 5741,
      "æĪĲå¹´äºº": 5742,
      "çİ°å®ŀ": 5743,
      "æĦıè¯Ĩéļľç¢į": 5744,
      "ä¸įåºĶ": 5745,
      "åľ¨æľĪç»ı": 5746,
      "å¯¹å¾ħ": 5747,
      "è¾¹çķĮ": 5748,
      "ä¸įåĨį": 5749,
      "è¿Ļç§įæĥħåĨµä¸ĭ": 5750,
      "çļĦèĥ½åĬĽ": 5751,
      "å¹´é¾ĦçļĦ": 5752,
      "è¾ĵåįµç®¡éĢłå½±": 5753,
      "ä¸įæŃ£å¸¸": 5754,
      "çĶŁåĮĸ": 5755,
      "çĸĻ": 5756,
      "ä¸įåı¯ä»¥": 5757,
      "ä½Ĩæĺ¯å¦Ĥæŀľ": 5758,
      "èħ¹èĨľçĤİ": 5759,
      "åı¯åĽł": 5760,
      "åİ»åģļ": 5761,
      "çļĦåıĳèĤ²": 5762,
      "ç¡®ä¿Ŀ": 5763,
      "ä¸įå¤Ł": 5764,
      "çĺ©": 5765,
      "ä¸Ģç§įæĺ¯": 5766,
      "åı¯ä»¥èĢĥèĻĳ": 5767,
      "æĢĿæĥ³": 5768,
      "çī¹æ®ĬçļĦ": 5769,
      "æĹ©æ²»çĸĹ": 5770,
      "TP": 5771,
      "æľĢå¥½çļĦ": 5772,
      "åıł": 5773,
      "ç¼ĵè§£çĹĩçĬ¶": 5774,
      "æĦŁåıĹ": 5775,
      "äººæł¼": 5776,
      "åį±åıĬçĶŁåĳ½": 5777,
      "åĮºåĪĨ": 5778,
      "æŃ¢çĹĴ": 5779,
      "éĿĻèĦīæ³¨å°Ħ": 5780,
      "åĨħçļ®": 5781,
      "è¿ĳç«¯": 5782,
      "éĶĻè¯¯": 5783,
      "ä¸ĢæĹ¦åĩºçİ°": 5784,
      "ç¢³æ°´åĮĸåĲĪçī©": 5785,
      "æľĪç»ıå¤±è°ĥ": 5786,
      "å¹³æĹ¶è¦ģæ³¨æĦı": 5787,
      "æł¹éĥ¨": 5788,
      "æ¶ĪèĤ¿": 5789,
      "ä¿ĥæĢ§èħº": 5790,
      "çĸĻçĺ©": 5791,
      "å¹ħ": 5792,
      "çĻ«": 5793,
      "çĭĹ": 5794,
      "å¤©åĲİ": 5795,
      "çī¹åĪ«æ³¨æĦı": 5796,
      "éĨĽ": 5797,
      "å°ģéĹŃ": 5798,
      "me": 5799,
      "æĳĨ": 5800,
      "ç«Ł": 5801,
      "å¤ĦçļĦ": 5802,
      "åīįåĪĹèħºçĻĮ": 5803,
      "éķ¿æĹ¶éĹ´çļĦ": 5804,
      "è¿ŁéĴĿ": 5805,
      "èĥĥèĤłçĤİ": 5806,
      "åįģäºĮæĮĩèĤłæºĥçĸ¡": 5807,
      "å¤ļåıĳçĶŁäºİ": 5808,
      "æ¸ħæ·¡é¥®é£Ł": 5809,
      "èĦĳç»Ħç»ĩ": 5810,
      "æ¢ħæ¯ĴèŀºæĹĭä½ĵ": 5811,
      "åĲĳä¸ĭ": 5812,
      "éĽ¶": 5813,
      "èĤĮå±Ĥ": 5814,
      "ä¸īè§Ĵ": 5815,
      "èıĮç¾¤": 5816,
      "åı¯è¡¨çİ°ä¸º": 5817,
      "æĮ«": 5818,
      "èħºçĻĮ": 5819,
      "æĶ¾ç½®": 5820,
      "æĢ§åĬŁèĥ½éļľç¢į": 5821,
      "çļĦæ²»çĸĹæĸ¹æ¡Ī": 5822,
      "åĪĨæĶ¯": 5823,
      "ç±»åĽºéĨĩ": 5824,
      "èĽĭçĻ½å°¿": 5825,
      "çļĦèį¯": 5826,
      "å®«é¢ĪçĻĮçļĦ": 5827,
      "æĩ": 5828,
      "ãĢĭï¼ļ": 5829,
      "åİķ": 5830,
      "SA": 5831,
      "é¡ºåĪ©": 5832,
      "æĬ¤èĤ¤": 5833,
      "æ¤įçī©ç¥ŀç»ı": 5834,
      "æĸ¹ä¾¿": 5835,
      "ine": 5836,
      "ä¼ļç»Ļ": 5837,
      "ä¸įå®¹æĺĵ": 5838,
      "ä»ĸäºº": 5839,
      "æ´ĹèĦ¸": 5840,
      "è¡Ģæ¶²ä¸Ń": 5841,
      "åĪ°æŃ£è§ĦåĮ»éĻ¢": 5842,
      "å¹³æĹ¶è¦ģ": 5843,
      "å»¶è¯¯": 5844,
      "äºĪä»¥": 5845,
      "èĥĥèĥĢæ°Ķ": 5846,
      "çĬ¶æĪĸ": 5847,
      "èĤºæ³¡": 5848,
      "è¿Ļæĺ¯ä¸Ģç§į": 5849,
      "æĹłéľĢ": 5850,
      "éħĴç²¾æĢ§": 5851,
      "åı°": 5852,
      "åŃĲå®«åĨħèĨľçĻĮ": 5853,
      "ä¾£": 5854,
      "ç§įæ¤į": 5855,
      "å¤©åĨħ": 5856,
      "çĽ´èĤłçĤİ": 5857,
      "çĴ": 5858,
      "å®½æĿ¾": 5859,
      "å¤±è´¥": 5860,
      "éĵľ": 5861,
      "çļĦèĤ¿çĺ¤": 5862,
      "æľ¨èĢ³": 5863,
      "å¾ģè±¡": 5864,
      "æ±Ł": 5865,
      "æºĥçĸ¡æĢ§": 5866,
      "èĢħåºĶ": 5867,
      "äºĶé¡¹": 5868,
      "æĢĢåŃķæľŁéĹ´": 5869,
      "æĻºåĬĽä½İä¸ĭ": 5870,
      "çĹħåıĺçļĦ": 5871,
      "è´¥è¡ĢçĹĩ": 5872,
      "æ»¡è¶³": 5873,
      "èĤĮå¼łåĬĽ": 5874,
      "çĮ®": 5875,
      "åĪ°è¾¾": 5876,
      "èĢ»éª¨": 5877,
      "éĿŀå¸¸éĩįè¦ģ": 5878,
      "ä¸įåŃķçĹĩ": 5879,
      "å°ĸçĵ£": 5880,
      "å¤ĸåı£": 5881,
      "ä¸Ńèį¯æ²»çĸĹ": 5882,
      "ç»ĵèĨľ": 5883,
      "çĶŁçī©åŃ¦": 5884,
      "ç¬¦åĲĪ": 5885,
      "æľĢä¸»è¦ģ": 5886,
      "éħ¸ç¢±": 5887,
      "ä½ľçĶ¨çļĦ": 5888,
      "èĦĳæįŁä¼¤": 5889,
      "åĿļç¡¬": 5890,
      "è¥¿åĮ»æ²»çĸĹ": 5891,
      "éĺ³åħī": 5892,
      "çĦ¶åĲİåĨį": 5893,
      "çıŃ": 5894,
      "å¹³æĹ¶æ³¨æĦı": 5895,
      "æµĭè¯ķ": 5896,
      "ç§įåŃĲ": 5897,
      "è¿ĳè§Ĩ": 5898,
      "1000": 5899,
      "éĢļæ°Ķ": 5900,
      "æĮĩåĩº": 5901,
      "åĳ¨åĽ´ç»Ħç»ĩ": 5902,
      "æ°¸": 5903,
      "åĻ¨æ¢°": 5904,
      "æ»¤æ³¡": 5905,
      "æĿ¥çľĭ": 5906,
      "è¿ĲçĶ¨": 5907,
      "å¤§å¤§": 5908,
      "éļıä¹ĭ": 5909,
      "åĮĸèĦĵ": 5910,
      "æıī": 5911,
      "çļĦæ°´": 5912,
      "åı¯ä»¥éĩĩçĶ¨": 5913,
      "åħ¸åŀĭçĹĩçĬ¶": 5914,
      "çļĦå¿ĥçĲĨ": 5915,
      "æĤ£äºĨ": 5916,
      "éĹŃéĶģ": 5917,
      "çĦ¦èĻĳçĹĩ": 5918,
      "çŀ³åŃĶ": 5919,
      "æīĢéľĢ": 5920,
      "åĨ¬åŃ£": 5921,
      "CO": 5922,
      "è¿ĩå°ĳ": 5923,
      "äº¤æĽ¿": 5924,
      "æĹĭè½¬": 5925,
      "éĽ¾": 5926,
      "çĹħçŃī": 5927,
      "åĺ¶": 5928,
      "ç²¥æł·": 5929,
      "æī§": 5930,
      "æĹ©æľŁè¯ĬæĸŃ": 5931,
      "çĸ²ä¹ı": 5932,
      "éħĹ": 5933,
      "æģ°": 5934,
      "éĺ´åĶĩ": 5935,
      "çļĦçĶŁéķ¿": 5936,
      "åŃ¦èĢħ": 5937,
      "åı¯èĥ½æĺ¯çĶ±äºİ": 5938,
      "æİĴåĩºä½ĵå¤ĸ": 5939,
      "å«©": 5940,
      "å°ĳéĩıçļĦ": 5941,
      "æľĭåıĭä»¬": 5942,
      "åĪ«äºº": 5943,
      "çĹħçĲĨæĶ¹åıĺ": 5944,
      "ç¡®åĪĩ": 5945,
      "éĹ¨éĿĻèĦī": 5946,
      "æĮĩçļĦæĺ¯": 5947,
      "Xçº¿æ£ĢæŁ¥": 5948,
      "åı¯éĩĩçĶ¨": 5949,
      "æ¶©": 5950,
      "è¿Ļç§įçĹĩçĬ¶": 5951,
      "åįĪ": 5952,
      "èĽĩ": 5953,
      "çĶ²åŁº": 5954,
      "ãĢģâĢľ": 5955,
      "å¸¸è§ģçĹĩçĬ¶": 5956,
      "åĬłå¼ºèĲ¥åħ»": 5957,
      "éħĹéħĴ": 5958,
      "æ¶Ĥçīĩ": 5959,
      "ä¸įå¤ª": 5960,
      "è´µ": 5961,
      "è°¨": 5962,
      "æ¸ħçĥŃè§£æ¯Ĵ": 5963,
      "åĳ¤": 5964,
      "æĪ¿å®¤": 5965,
      "æĭį": 5966,
      "åĮ»åŃ¦ä¸Ĭ": 5967,
      "æĥ¹èµ·": 5968,
      "æ°´æł·": 5969,
      "æĪĳä»¬è¦ģ": 5970,
      "çĹħçĲĨæ£ĢæŁ¥": 5971,
      "ç§¯èģļ": 5972,
      "æ»ĳèĨľ": 5973,
      "éĿ©åħ°": 5974,
      "çªĴ": 5975,
      "ä¸ĢèĪ¬ä¸º": 5976,
      "å¿ĥç»ŀçĹĽ": 5977,
      "éĢļå¸¸æĺ¯": 5978,
      "å®īéĿĻ": 5979,
      "çĽĬæ°Ķ": 5980,
      "çĶŁæ´»åĴĮ": 5981,
      "çĶŁèĤ²èĥ½åĬĽ": 5982,
      "æª¬": 5983,
      "çļĦæ°´æŀľ": 5984,
      "ç²ĺç¨ł": 5985,
      "é¤ĲåĲİ": 5986,
      "ä¸įçĦ¶": 5987,
      "ãĢĤâĢĿ": 5988,
      "ä¼łæŁĵçļĦ": 5989,
      "ç´«èıľ": 5990,
      "ä¹Łæ²¡æľī": 5991,
      "åĲ¬åĬĽ": 5992,
      "åĨłå¿ĥçĹħ": 5993,
      "æĹłè®ºæĺ¯": 5994,
      "ä¸ŃèĢ³": 5995,
      "å®ĮåĸĦ": 5996,
      "æĤ£ä¸ĬäºĨ": 5997,
      "çİīç±³": 5998,
      "æĿĤéŁ³": 5999,
      "æĿ¥è¿Ľè¡Įæ²»çĸĹ": 6000,
      "é«ĺèĦĤ": 6001,
      "ä¸ĵç§ĳ": 6002,
      "æĹ¶æľº": 6003,
      "åŁºæľ¬ä¸Ĭ": 6004,
      "çĤİçĹĩæĢ§": 6005,
      "å°±æľī": 6006,
      "åº¦çļĦ": 6007,
      "ä¸»è¦ģæĺ¯åĽłä¸º": 6008,
      "èĪĴéĢĤ": 6009,
      "åºĬä¸Ĭ": 6010,
      "æıĲéĨĴ": 6011,
      "éĥ½ä¼ļåĩºçİ°": 6012,
      "è¿ĩåº¦çļĦ": 6013,
      "æĴĳ": 6014,
      "çĴĥ": 6015,
      "æ»¥çĶ¨": 6016,
      "åĹª": 6017,
      "ç»ĨèĥŀåĴĮ": 6018,
      "ä¼´ä¾£": 6019,
      "å¯»æī¾": 6020,
      "lt": 6021,
      "95": 6022,
      "æŃ¤ç§į": 6023,
      "çļĦç»Ħç»ĩ": 6024,
      "æŀ¶": 6025,
      "ä½İèĲ½": 6026,
      "è¥¿èį¯": 6027,
      "å¦¨": 6028,
      "çĪ½": 6029,
      "ra": 6030,
      "çªĴæģ¯": 6031,
      "è¾ħåĬ©æ²»çĸĹ": 6032,
      "è¾ĥå¤ļçļĦ": 6033,
      "æī¿åıĹ": 6034,
      "ä¸ŃæĻļæľŁ": 6035,
      "æĢ§æł¼": 6036,
      "åĪ°åºķ": 6037,
      "éĢļå¸¸åľ¨": 6038,
      "èĲİç¼©æĢ§èĥĥçĤİ": 6039,
      "åķ¶": 6040,
      "åĽłäºº": 6041,
      "æľ¯ä¸Ń": 6042,
      "ä¸¢": 6043,
      "ä¸ĢæĹ¦åıĳçİ°": 6044,
      "ä¸ĭé¢Į": 6045,
      "åľ¨æĹ¥å¸¸": 6046,
      "æĿı": 6047,
      "æĺĶ": 6048,
      "çİ»çĴĥ": 6049,
      "ä¸ĭåĿł": 6050,
      "æĢ§åĪ«": 6051,
      "æ»ĳèĨľçĤİ": 6052,
      "æĭŁ": 6053,
      "éĺ»æŃ¢": 6054,
      "å¤ªéĺ³": 6055,
      "åŀĭåĴĮ": 6056,
      "ä¹Ļéħ°": 6057,
      "è¿ĩæķıæĢ§çļ®çĤİ": 6058,
      "æĮĳ": 6059,
      "è¡Ģå°ıæĿ¿åĩıå°ĳ": 6060,
      "æĹ¶æľī": 6061,
      "è°Ī": 6062,
      "éľĢè¦ģåıĬæĹ¶": 6063,
      "å½±åĵįçļĦ": 6064,
      "åħ¥ä¾µ": 6065,
      "æķ°æį®": 6066,
      "æĹ©æľŁåıĳçİ°": 6067,
      "CA": 6068,
      "çĽ¸æ¯Ķ": 6069,
      "èĿ¶": 6070,
      "æģ¢å¤įæľŁ": 6071,
      "ä¸»è¦ģéĢļè¿ĩ": 6072,
      "ç»Ħèĥº": 6073,
      "åŃĺåľ¨äºİ": 6074,
      "æ°´æŀľåĴĮèĶ¬èıľ": 6075,
      "æīĢæľīçļĦ": 6076,
      "ä¼ĺè´¨": 6077,
      "å¤´åŃ¢": 6078,
      "ä¸įçŁ¥éģĵ": 6079,
      "èĢĮæĪĲ": 6080,
      "åı£å¹²": 6081,
      "åĴ¯": 6082,
      "ç¼ºå°ĳ": 6083,
      "Ġl": 6084,
      "ä¾¿åĲİ": 6085,
      "å¯¹äººä½ĵ": 6086,
      "çº¦æľī": 6087,
      "æ´ŀ": 6088,
      "æĭ¥": 6089,
      "åĭĴ": 6090,
      "ä¹°": 6091,
      "æŁł": 6092,
      "æĪĸå¤ļ": 6093,
      "è¤¥çĸ®": 6094,
      "ä¸»è¦ģè¡¨çİ°": 6095,
      "å¤´çĸ¼": 6096,
      "èĤĿèĤ¾": 6097,
      "æĽ´å®¹æĺĵ": 6098,
      "çļĦåŃ©åŃĲ": 6099,
      "å®ļä½į": 6100,
      "æ¢¢": 6101,
      "åįµå·¢èĤ¿çĺ¤": 6102,
      "æł¸å¿ĥ": 6103,
      "éĿĴæĺ¥çĹĺ": 6104,
      "åĲĮä¸Ģ": 6105,
      "è¿ĩåİ»": 6106,
      "æ²¸": 6107,
      "æľŁæ¢ħæ¯Ĵ": 6108,
      "è¿Ļä¸¤ç§į": 6109,
      "å¯¹ä¾§": 6110,
      "è¿Ļä¸ªéĹ®é¢ĺ": 6111,
      "æĬĹä½ĵéĺ³æĢ§": 6112,
      "è¯¦ç»ĨçļĦ": 6113,
      "ç¦ģå¿ĮçĹĩ": 6114,
      "æīĭæ·«": 6115,
      "åĲĳåīį": 6116,
      "å¿ħéľĢ": 6117,
      "èĨĢèĥ±çĻĮ": 6118,
      "ç£·èĦĤ": 6119,
      "éĢłè¡Ģ": 6120,
      "å±ĪæĽ²": 6121,
      "çĿĳ": 6122,
      "è½»è½»": 6123,
      "å¹½éĹ¨èŀºæĹĭ": 6124,
      "æŁłæª¬": 6125,
      "æ·±éĥ¨": 6126,
      "æĺ¯æŃ£å¸¸çļĦ": 6127,
      "æİ¨è¿Ł": 6128,
      "çķª": 6129,
      "è¡Ģä¸Ŀ": 6130,
      "åºŁ": 6131,
      "åıĺæĢģåıįåºĶ": 6132,
      "ä»¥ä¸º": 6133,
      "åĳ¨åĨħ": 6134,
      "è¯ģæį®": 6135,
      "æ±ł": 6136,
      "èĦĬæŁ±ä¾§": 6137,
      "æľĢåĪĿ": 6138,
      "èį§": 6139,
      "åģļä¸ĢäºĽ": 6140,
      "æ§": 6141,
      "å¹¸": 6142,
      "åĮħçļ®é¾Łå¤´çĤİ": 6143,
      "èĢĥèĻĳæĺ¯": 6144,
      "æĪĲéķ¿": 6145,
      "åıĮæīĭ": 6146,
      "æĪĬèĤĿ": 6147,
      "ç²¥æł·ç¡¬åĮĸ": 6148,
      "âĢĶâĢĶ": 6149,
      "åĪ°åĮ»éĻ¢æ£ĢæŁ¥": 6150,
      "äºĨè§£äºĨ": 6151,
      "è¯»": 6152,
      "å¦ĩç§ĳçĹħ": 6153,
      "è¾Ľè¾£çļĦé£Łçī©": 6154,
      "æ¯«åħĭ": 6155,
      "è§Ĩç¥ŀç»ı": 6156,
      "300": 6157,
      "æĢ§è´«è¡Ģ": 6158,
      "48": 6159,
      "åľ¨åĮ»çĶŁçļĦæĮĩå¯¼ä¸ĭ": 6160,
      "åŃĲå®«åĩºè¡Ģ": 6161,
      "åĮ¹": 6162,
      "ä»¥éĺ²æŃ¢": 6163,
      "ä¸ĭæĸ¹": 6164,
      "æķ°æľĪ": 6165,
      "éĩįæĸ°": 6166,
      "æŀģå¤§çļĦ": 6167,
      "äºĳ": 6168,
      "çī¹åĪ«çļĦ": 6169,
      "éĻįåİĭ": 6170,
      "å¹´è½»äºº": 6171,
      "å¤ļå°ĳéĴ±": 6172,
      "éĹ´æŃĩæĢ§": 6173,
      "èĨ³é£Łçº¤ç»´": 6174,
      "Ġd": 6175,
      "è°ĥåħ»": 6176,
      "éģ¿åŃķèį¯": 6177,
      "ä¸¥éĩįçļĦè¯Ŀ": 6178,
      "å·®åĪ«": 6179,
      "èħ°èĤĮåĬ³æįŁ": 6180,
      "ç¡«éħ¸": 6181,
      "çĽ´åĪ°": 6182,
      "æĹ©åıĳçİ°": 6183,
      "åħ¶ä»ĸçĸ¾çĹħ": 6184,
      "é£İåĽ¢": 6185,
      "ç´«çĻľ": 6186,
      "ä½ľåĩº": 6187,
      "çĶ¨æ¸©æ°´": 6188,
      "é¥®é£Łä¸Ń": 6189,
      "æ¹¿æ¶¦": 6190,
      "æħ¢æĢ§åīįåĪĹèħºçĤİ": 6191,
      "è¡Ģå¸¸è§Ħ": 6192,
      "ç¨ĢéĩĬ": 6193,
      "èį§åħī": 6194,
      "æĺ¯æľĢå¸¸è§ģçļĦ": 6195,
      "å¼Ĥå¸¸çļĦ": 6196,
      "æĢĢåŃķåĲİ": 6197,
      "èĦĬæ¤İ": 6198,
      "çīĽèĤī": 6199,
      "å¤§èĤłæĿĨèıĮ": 6200,
      "å¹½éĹ¨èŀºæĹĭæĿĨèıĮ": 6201,
      "æħ¢æĢ§å®«é¢ĪçĤİ": 6202,
      "æ¯ķ": 6203,
      "çĽ¸åıį": 6204,
      "æµģäº§åĲİ": 6205,
      "æĶ¯éħį": 6206,
      "å®¢": 6207,
      "åĲ«ç¢ĺ": 6208,
      "ä¸ªæľĪåĨħ": 6209,
      "åľ¨æŃ¤": 6210,
      "åīĸå®«": 6211,
      "å¹¶ä¼´æľī": 6212,
      "åħ±æĮ¯": 6213,
      "æĿŀ": 6214,
      "éļıæĦı": 6215,
      "çļĦå·¥ä½ľ": 6216,
      "ç¬ĳ": 6217,
      "åİĮæ°§": 6218,
      "èĢĮå®ļ": 6219,
      "å¤ļåĲĥæĸ°é²ľ": 6220,
      "çī¹çĤ¹æĺ¯": 6221,
      "å°±åı¯ä»¥äºĨ": 6222,
      "ç»¼åĲĪæ²»çĸĹ": 6223,
      "çĶŁåŃĺæľŁ": 6224,
      "å»ĵ": 6225,
      "éĽĮæ¿Ģç´łæ°´å¹³": 6226,
      "åħ³å¿ĥ": 6227,
      "ĠãĢĢ": 6228,
      "ç©´ä½į": 6229,
      "ä½ĵæł¼": 6230,
      "çĽĨåºķ": 6231,
      "èĤ¾çĽĤèĤ¾çĤİ": 6232,
      "çīĽçļ®çĻ£": 6233,
      "çĬ¶ä½ĵ": 6234,
      "æĭīèĤļåŃĲ": 6235,
      "çĿ¾ä¸¸çĸ¼çĹĽ": 6236,
      "çļĦçłĶç©¶": 6237,
      "æĬĹæĦŁæŁĵ": 6238,
      "å¤ļå¹´": 6239,
      "å¤ļå·´": 6240,
      "èŀ¨": 6241,
      "ä¸įè¦ģå¤ª": 6242,
      "ä¿ĿæĮģå¤§ä¾¿éĢļçķħ": 6243,
      "ä¿ĥæĢ§èħºæ¿Ģç´ł": 6244,
      "å¹¶åı¯": 6245,
      "åĬ¨èĦīçĺ¤": 6246,
      "åĬŁèĥ½å¤±è°ĥ": 6247,
      "ç»ĪæŃ¢å¦Ĭå¨ł": 6248,
      "æľĢé«ĺ": 6249,
      "å·¨å¤§": 6250,
      "é¥±åĴĮ": 6251,
      "èĩªæĿĢ": 6252,
      "ä»İäºĭ": 6253,
      "æºĲäºİ": 6254,
      "åĲ«æľīä¸°å¯ĮçļĦ": 6255,
      "éĺ´éģĵåĨħ": 6256,
      "æĭĩæĮĩ": 6257,
      "èĬ±ç²ī": 6258,
      "æ»¡æĦı": 6259,
      "çªģçľ¼": 6260,
      "é£ŁéģĵçĻĮ": 6261,
      "èĲ¥åħ»çī©è´¨": 6262,
      "ä¸Ģæĸ¹éĿ¢": 6263,
      "åı¯ä»¥å¼ķèµ·": 6264,
      "è¿ĻäºĽéĥ½æĺ¯": 6265,
      "è¡¥è¡Ģ": 6266,
      "æ»´åº¦": 6267,
      "æĺ¯å±ŀäºİ": 6268,
      "ä¸ĢèĪ¬è®¤ä¸º": 6269,
      "å¹¶åıĳçĹĩçļĦ": 6270,
      "éĢĨè¡Į": 6271,
      "æĻ¯": 6272,
      "op": 6273,
      "çĻ½èĽĭçĻ½": 6274,
      "çĻĮèĤ¿": 6275,
      "é¥®é£Łè¦ģ": 6276,
      "åĩıæħ¢": 6277,
      "åıĳèĤ²ä¸įåħ¨": 6278,
      "å¤§åīĤéĩı": 6279,
      "ä¸įéĢĤçĹĩçĬ¶": 6280,
      "æ´»è¡ĢåĮĸçĺĢ": 6281,
      "ä¸ŃæĢ§ç²Ĵç»Ĩèĥŀ": 6282,
      "çŃīå¤ļç§į": 6283,
      "çĶŁæ´»æĸ¹å¼ı": 6284,
      "ä¿ĿæĮģå¤ĸéĺ´": 6285,
      "èıĬ": 6286,
      "æľĢéĩįè¦ģçļĦ": 6287,
      "èĥ½æ´»å¤ļä¹ħ": 6288,
      "çļĦçĹħä¾ĭ": 6289,
      "çĶ²åŀĭèĤĿçĤİ": 6290,
      "æ¸ħå®«": 6291,
      "èģĭ": 6292,
      "æ²³": 6293,
      "éĺ´åĽĬæ½®æ¹¿": 6294,
      "ç¤¾äº¤": 6295,
      "æ¡¥æľ¬æ°ı": 6296,
      "æĤ£èĢħä¼ļåĩºçİ°": 6297,
      "åĽłäººèĢĮå¼Ĥ": 6298,
      "ä¸įéĢĤæĦŁ": 6299,
      "çĽ®æłĩ": 6300,
      "åħ³éĹŃ": 6301,
      "Ġ5": 6302,
      "éĢīæĭ©æĢ§": 6303,
      "æŃ£è§ĦçļĦ": 6304,
      "è§¦çĹĽ": 6305,
      "ä¼ŀ": 6306,
      "æĬ½è¡Ģ": 6307,
      "çĽ¸äºĴä½ľçĶ¨": 6308,
      "çļĦç»Ĩèĥŀ": 6309,
      "åı¯åıĳçİ°": 6310,
      "é¥®é£Łè°ĥçĲĨ": 6311,
      "å²ģä»¥ä¸ĭ": 6312,
      "èħ¹å£ģ": 6313,
      "æĺŁæľŁ": 6314,
      "èĺ": 6315,
      "å¿ĥæħĮ": 6316,
      "éĩĳå±ŀ": 6317,
      "çŃīå¤Ħ": 6318,
      "å¯¹èĥİåĦ¿": 6319,
      "èĦ±çļ®": 6320,
      "è½»åº¦çļĦ": 6321,
      "æ¸¸æ³³": 6322,
      "åıĳå±ķæĪĲ": 6323,
      "çĹħåİŁèıĮ": 6324,
      "åĨ²åĬ¨": 6325,
      "é«Ĥ": 6326,
      "åĴĮæ²»çĸĹæĸ¹æ³ķ": 6327,
      "åį±è±¡": 6328,
      "çĶŁåŃĺçİĩ": 6329,
      "Â°": 6330,
      "åī²": 6331,
      "å¿ĥçĲĨåĽłç´ł": 6332,
      "å¥½äºĨ": 6333,
      "æŀģä¸º": 6334,
      "ä¼ĺåĬ¿": 6335,
      "é«ĺçĥŃéĩı": 6336,
      "åĳ¨åĲİ": 6337,
      "éħĲ": 6338,
      "æ²¡æľīä»Ģä¹Ī": 6339,
      "æģ¶éľ²": 6340,
      "è¿ĩæķıä½ĵè´¨": 6341,
      "æīĢä»¥è¦ģ": 6342,
      "ç«¹": 6343,
      "éħ¶çļĦ": 6344,
      "è§ģåĪ°": 6345,
      "æĤ£èĢħçļĦçĹħæĥħ": 6346,
      "èĤĿèĦıçļĦ": 6347,
      "éĢļä¾¿": 6348,
      "ä½ĵéĩįåĩıè½»": 6349,
      "å¼Ģå±ķ": 6350,
      "åľ¨ä½ĵåĨħ": 6351,
      "éķ¿åº¦": 6352,
      "çĻ½èıľ": 6353,
      "éĢļé£İ": 6354,
      "çľŁçļ®": 6355,
      "ç£ģåħ±æĮ¯": 6356,
      "ä¹Łä¸įä¼ļ": 6357,
      "äº¤æµģ": 6358,
      "å¦Ĥä½ķæ²»çĸĹ": 6359,
      "ä»İèĢĮå¼ķèµ·": 6360,
      "éĺ»ç¢į": 6361,
      "çł´æįŁ": 6362,
      "æĪ·å¤ĸ": 6363,
      "è¾ĥå¥½çļĦ": 6364,
      "æīĭæİĮ": 6365,
      "çĽĹ": 6366,
      "çļĦæľºä¼ļ": 6367,
      "åĮ»çĶŁæĮĩå¯¼ä¸ĭ": 6368,
      "å¤ļåĬł": 6369,
      "è¡Ģç®¡æī©å¼ł": 6370,
      "åľºæīĢ": 6371,
      "åĲ¹": 6372,
      "ä¸ºçī¹å¾ģ": 6373,
      "ç²¾ç¥ŀåĪĨè£Ĥ": 6374,
      "åĲĥèį¯": 6375,
      "ä¹Łä¼ļå¼ķèµ·": 6376,
      "åı¯çĶ±": 6377,
      "ä¼ļå¢ŀåĬł": 6378,
      "åĲİæĸ¹": 6379,
      "æ´Ĺæīĭ": 6380,
      "äºĮåįģ": 6381,
      "çļĦåıĳçĹħ": 6382,
      "ing": 6383,
      "è·Ŀç¦»": 6384,
      "é«ĺæ¸©": 6385,
      "éĹ¹": 6386,
      "åı¯ä»¥åĪĨä¸º": 6387,
      "åĮħèĨľ": 6388,
      "ä¹³æ±ģ": 6389,
      "æĬĳåĪ¶ä½ľçĶ¨": 6390,
      "çĻĶ": 6391,
      "éĩįçĤ¹": 6392,
      "çªĹ": 6393,
      "æĬĹçĶŁç´łæ²»çĸĹ": 6394,
      "çĶļèĩ³æĺ¯": 6395,
      "éĢıæŀĲ": 6396,
      "éļıæĹ¶": 6397,
      "èĦĵæĢ§åĪĨæ³Įçī©": 6398,
      "çĽĪ": 6399,
      "æľªèĥ½": 6400,
      "èĢĮå½¢æĪĲ": 6401,
      "è¾Ľè¾£åĪºæ¿ĢæĢ§çļĦé£Łçī©": 6402,
      "éĢĢåĮĸ": 6403,
      "åľ¨æĹ©æľŁ": 6404,
      "çłģ": 6405,
      "èĤ¾åĬŁèĥ½ä¸įåħ¨": 6406,
      "çĹħæŃ»": 6407,
      "ur": 6408,
      "åĨĻ": 6409,
      "çĶľé£Ł": 6410,
      "ï¼īï¼Ł": 6411,
      "æĪĸåľ¨": 6412,
      "èĩªçĶ±": 6413,
      "èĬĤå¾ĭ": 6414,
      "çĽĳæĬ¤": 6415,
      "å¯¹çħ§": 6416,
      "æķ£åľ¨": 6417,
      "çĸ±çĸ®": 6418,
      "çĹħåŃ¦": 6419,
      "åģ¶æľī": 6420,
      "éģµåĮ»åĺ±": 6421,
      "äººä»¬çļĦ": 6422,
      "åıĳèĤ²å¼Ĥå¸¸": 6423,
      "å·²æľī": 6424,
      "èĦĳå®¤": 6425,
      "çĤİçĹĩçļĦ": 6426,
      "çģĮæ³¨": 6427,
      "æ·ĭçĲĥèıĮ": 6428,
      "ä¹ŁéľĢè¦ģ": 6429,
      "è®©åŃ©åŃĲ": 6430,
      "ä¸ºä¸Ģ": 6431,
      "è½»èĢħ": 6432,
      "ç»ĨèıĮçļĦ": 6433,
      "æĺ¯æ²»çĸĹ": 6434,
      "çŃīè¡¨çİ°": 6435,
      "ä¹Łå°±æĺ¯è¯´": 6436,
      "å®¹æĺĵéĢłæĪĲ": 6437,
      "å°¿å¤±ç¦ģ": 6438,
      "åŃĲå®«èħĶ": 6439,
      "åĶ¯": 6440,
      "åºĶç«ĭåį³": 6441,
      "åħīçľ¼": 6442,
      "åĬłéĩįçĹħæĥħ": 6443,
      "ä¼ļå½±åĵįåĪ°": 6444,
      "åŃĲçļĦ": 6445,
      "æĶ»": 6446,
      "æĴŃæķ£": 6447,
      "æŁ¥æĺİ": 6448,
      "é«ĺåıĳ": 6449,
      "å¯ĴæĪĺ": 6450,
      "ä¸ĭèħĶ": 6451,
      "ä½¿çĶ¨èį¯çī©": 6452,
      "çŃīåİŁåĽł": 6453,
      "èĤ¡çĻ£": 6454,
      "æľīå¿ħè¦ģ": 6455,
      "åħ¶ä»ĸçļĦ": 6456,
      "åĽĽç»´å½©è¶ħ": 6457,
      "å¸¸æŁĵèī²ä½ĵ": 6458,
      "å¤©çĸ±çĸ®": 6459,
      "åįķåıĳ": 6460,
      "éĹ»": 6461,
      "é»Ħçĵľ": 6462,
      "mmol": 6463,
      "æīĵèĥİ": 6464,
      "âĦ": 6465,
      "å¹¶åľ¨": 6466,
      "æĤ¬": 6467,
      "åı¯ä»¥æĺ¯": 6468,
      "å¥Ī": 6469,
      "åŁĥ": 6470,
      "ç®ĢåįķçļĦ": 6471,
      "åĮħèĮİ": 6472,
      "åĪ°åĮ»éĻ¢è¿Ľè¡Į": 6473,
      "é©¬ä¸Ĭ": 6474,
      "âĦĥ": 6475,
      "èĬ¥": 6476,
      "è¿Ļç§įçĹħ": 6477,
      "éħ°èĥº": 6478,
      "å®ŀæĸ½": 6479,
      "æĢ§éĺ´éģĵçĤİ": 6480,
      "åĪºæ¿ĢçĹĩçĬ¶": 6481,
      "åı¯ä¸º": 6482,
      "æŃ£å¸¸åĢ¼": 6483,
      "åıĹåĪ°å½±åĵį": 6484,
      "åıĪç§°ä¸º": 6485,
      "çļĦå¦ĩå¥³": 6486,
      "è¥¿çº¢": 6487,
      "éĺ²å¾¡": 6488,
      "é¢ŀ": 6489,
      "çĤĸ": 6490,
      "å»ºè®®æĤ£èĢħ": 6491,
      "éħįåĲĪæ²»çĸĹ": 6492,
      "åįķä¸Ģ": 6493,
      "å¼ºè¿«çĹĩ": 6494,
      "é«ĺè¾¾": 6495,
      "æ¸©çĥŃ": 6496,
      "ç»ĨèĥŀçĻĮ": 6497,
      "æĬĹçĹħæ¯Ĵæ²»çĸĹ": 6498,
      "æĺ¯å¸¸è§ģçļĦ": 6499,
      "ç³»ç»ŁçļĦ": 6500,
      "èµ·åºĬ": 6501,
      "èĤĽèĤł": 6502,
      "æ³¥": 6503,
      "åİļåº¦": 6504,
      "åĩıåİĭ": 6505,
      "æ¶ĪçĤİèį¯": 6506,
      "é¥¥é¥¿": 6507,
      "åĲĥçļĦ": 6508,
      "38": 6509,
      "ä¹³éħ¸": 6510,
      "åį«çĶŁä¹łæĥ¯": 6511,
      "æľµ": 6512,
      "éĿĴåħīçľ¼": 6513,
      "åıĮçľ¼": 6514,
      "æĸĳçĤ¹": 6515,
      "ä¸ĢåĪĩ": 6516,
      "åºĶæł¹æį®": 6517,
      "æŀ¸æĿŀ": 6518,
      "çĶ²æ²ŁçĤİ": 6519,
      "ç»´çĶŁç´łE": 6520,
      "HIV": 6521,
      "æĤ£èĢħä¼ļ": 6522,
      "åľ¨æĢĢåŃķæľŁéĹ´": 6523,
      "ä¹Łæĺ¯éĿŀå¸¸": 6524,
      "å°º": 6525,
      "æľĢå¤§çļĦ": 6526,
      "ç»´çĶŁç´łD": 6527,
      "é¼»å¡ŀ": 6528,
      "å¼ºè°ĥ": 6529,
      "çĪĨ": 6530,
      "æĭŃ": 6531,
      "åįķä¸ª": 6532,
      "am": 6533,
      "Ġæľ¬åĵģ": 6534,
      "æĺ¯è¦ģ": 6535,
      "ä¸įéĢļ": 6536,
      "éħĮ": 6537,
      "æľ«æ¢¢": 6538,
      "èĩ³äºİ": 6539,
      "çĲĥå½¢": 6540,
      "æĪ¿äºĭ": 6541,
      "è¯±åıĳåĽłç´ł": 6542,
      "åķĬ": 6543,
      "èĩªè§īçĹĩçĬ¶": 6544,
      "ä¸¢å¤±": 6545,
      "éĺ»åĬĽ": 6546,
      "åħ·ä½ĵçļĦ": 6547,
      "å¤įæĿĤçļĦ": 6548,
      "çº±": 6549,
      "èĦĳå¹²": 6550,
      "çļĦçĹĩçĬ¶æĺ¯": 6551,
      "æ¦Ĥå¿µ": 6552,
      "äººä¹³å¤´çĺ¤çĹħæ¯Ĵ": 6553,
      "å¾Ĺä¸įåĪ°": 6554,
      "ķçĮ´": 6555,
      "å°¿æ½´çķĻ": 6556,
      "çī¹åıĳæĢ§": 6557,
      "çĮķçĮ´": 6558,
      "èħ±éŀĺçĤİ": 6559,
      "éĺ´éģĵåı£": 6560,
      "å®ŀçİ°": 6561,
      "çļĦé£İéĻ©": 6562,
      "æī¹": 6563,
      "èħ¹èħĶåĨħ": 6564,
      "æ·ĭå·´ç»ĵè½¬ç§»": 6565,
      "åĳ¨çĤİ": 6566,
      "è¿ĻéĩĮ": 6567,
      "æº¢è¡Ģ": 6568,
      "è¥¿çº¢æŁ¿": 6569,
      "ä»¥åĩıå°ĳ": 6570,
      "è¿ĩæķıèĢħ": 6571,
      "è¿Ļç§įçĸ¾çĹħçļĦ": 6572,
      "åįķçº¯çļĦ": 6573,
      "æī¾åĩº": 6574,
      "èĬ¬": 6575,
      "å¸¸è§ģçĹħ": 6576,
      "ç¡®å®ŀ": 6577,
      "æ··æµĬ": 6578,
      "çĶŁç²¾": 6579,
      "å°ıåŃ©åŃĲ": 6580,
      "æĲıåĬ¨": 6581,
      "çĶ¨çļĦ": 6582,
      "è®¾å¤ĩ": 6583,
      "å°¿æ¯ĴçĹĩ": 6584,
      "å¾Īå¤ļå¥³æĢ§": 6585,
      "åıĳçĶŁæĶ¹åıĺ": 6586,
      "è¾¨è¯ģ": 6587,
      "æ£Ģåĩº": 6588,
      "åĲĥä»Ģä¹Īé£Łçī©": 6589,
      "ç¡Ŀéħ¸": 6590,
      "æĿ¥ç¼ĵè§£": 6591,
      "æ¯Ķè¾ĥä¸¥éĩįçļĦ": 6592,
      "åĹĿ": 6593,
      "èĹ¤": 6594,
      "è¿ĩåĲİ": 6595,
      "èĦ±èĤĽ": 6596,
      "å¤ļç³ĸ": 6597,
      "ç»ĵèĤłçĻĮ": 6598,
      "ä¼°è®¡": 6599,
      "æľīå¼Ĥåĳ³": 6600,
      "ä½Ĩå¦Ĥæŀľ": 6601,
      "è¿ĲåĬ¨éļľç¢į": 6602,
      "æľīèĲ¥åħ»": 6603,
      "ä¹ĻèĤĿå°ıä¸īéĺ³": 6604,
      "AL": 6605,
      "åĹ³": 6606,
      "æº¶è¡Ģ": 6607,
      "ç»§åıĳäºİ": 6608,
      "åı¯èĥ½ä¼ļæľī": 6609,
      "ä»ĭåħ¥": 6610,
      "çº¢ç³ĸ": 6611,
      "ç±»çļĦé£Łçī©": 6612,
      "éĴ©": 6613,
      "çļĨ": 6614,
      "å¥ı": 6615,
      "ä¿Ŀèĥİ": 6616,
      "åįĴ": 6617,
      "åħħçĽĪ": 6618,
      "åĿ¦": 6619,
      "åį±éĻ©åĽłç´ł": 6620,
      "ä»¥éģ¿åħį": 6621,
      "æ£ĢæŁ¥çļĦ": 6622,
      "æ¯Ķè¾ĥé«ĺ": 6623,
      "æĪĸæĹł": 6624,
      "èħĮ": 6625,
      "äºĭå®ŀä¸Ĭ": 6626,
      "èĤ¿çĹĽ": 6627,
      "æĿľ": 6628,
      "æĨ©": 6629,
      "è¿Ļå°±æĺ¯": 6630,
      "æľĢè¿ĳ": 6631,
      "åĪĨæ³Įè¿ĩå¤ļ": 6632,
      "æĢİä¹Īæ²»": 6633,
      "æİĴç©º": 6634,
      "å¤ļä¼ĳæģ¯": 6635,
      "è¢«åĬ¨": 6636,
      "ä¸įåħ¸åŀĭ": 6637,
      "éĹ¨è¯Ĭ": 6638,
      "ä¸Ĭæĸ¹": 6639,
      "åħįçĸ«çĲĥèĽĭçĻ½": 6640,
      "åĲĪå¹¶æľī": 6641,
      "å®£": 6642,
      "çŃīçİ°è±¡": 6643,
      "åºĶè¯¥æĺ¯": 6644,
      "çļĦçī©è´¨": 6645,
      "æĺ¯ä»Ģä¹ĪæĦıæĢĿ": 6646,
      "å°Ŀ": 6647,
      "èĭĵ": 6648,
      "èĽĭç±»": 6649,
      "é»ĦèĬ": 6650,
      "æ³¢åıĬ": 6651,
      "å°ıç±³": 6652,
      "èĻ¹": 6653,
      "ç²¾åŃĲçĹĩ": 6654,
      "é±¼ç±»": 6655,
      "ç²Ĺç²®": 6656,
      "Ġ(": 6657,
      "æĮīåİĭ": 6658,
      "å¤§å°ıä¾¿": 6659,
      "èĨ¨åĩº": 6660,
      "çŃĸ": 6661,
      "èĥĮçĹĽ": 6662,
      "æļ´åĬĽ": 6663,
      "æĹ©ä¸Ĭ": 6664,
      "ç»ĥä¹ł": 6665,
      "ä¸ĢèĪ¬çļĦ": 6666,
      "åŃķå¦ĩçļĦ": 6667,
      "çĻ«çĹ«åıĳä½ľ": 6668,
      "ä¸¤ç±»": 6669,
      "æŀģæĺĵ": 6670,
      "åĬŁèĥ½åĩıéĢĢ": 6671,
      "åľ°é»Ħ": 6672,
      "è´¨çļĦ": 6673,
      "æľĢå¥½ä¸įè¦ģ": 6674,
      "æ»ĭåħ»": 6675,
      "åĴĢ": 6676,
      "çĽ®çļĦæĺ¯": 6677,
      "çĮķçĮ´æ¡ĥ": 6678,
      "åķĨ": 6679,
      "åīĸå®«äº§": 6680,
      "èĩªåĬ¨": 6681,
      "çłĤ": 6682,
      "é«ĺå³°": 6683,
      "å®«é¢Īåı£": 6684,
      "é¦ĸæ¬¡": 6685,
      "ç¦ģæŃ¢æĢ§çĶŁæ´»": 6686,
      "éī´å®ļ": 6687,
      "å¾Ģå¾Ģæĺ¯": 6688,
      "æµ¸æ³¡": 6689,
      "åı£æľįèį¯çī©": 6690,
      "æĬķ": 6691,
      "åĬĽéĩı": 6692,
      "æĦŁæŁĵå¼ķèµ·çļĦ": 6693,
      "åĲĥä»Ģä¹Īå¥½": 6694,
      "å·©èĨľ": 6695,
      "äºı": 6696,
      "æĦıåĳ³": 6697,
      "å¿ĥèĤĮæ¢ĹæŃ»": 6698,
      "åĲ«ç³ĸ": 6699,
      "çĹĺåį°": 6700,
      "æĶ¯æ°Ķç®¡çĤİ": 6701,
      "æĭĴ": 6702,
      "åįķçº¯çĸ±çĸ¹": 6703,
      "æľ¬èįī": 6704,
      "æ©Ļ": 6705,
      "æĢģåº¦": 6706,
      "ä¼´éļıçĿĢ": 6707,
      "æ¼ł": 6708,
      "åºĶå¯¹": 6709,
      "å¤ļå½¢": 6710,
      "çĽĹæ±Ĺ": 6711,
      "å¤ļåıĳçĶŁåľ¨": 6712,
      "åŃĲå®«çļĦ": 6713,
      "ç¡®è®¤": 6714,
      "çªģèµ·": 6715,
      "çĶĺèįī": 6716,
      "è¿ĺåºĶè¯¥": 6717,
      "èĦĳæº¢è¡Ģ": 6718,
      "åĨħæľį": 6719,
      "åıĳå±ķåĪ°": 6720,
      "æĪĳä»¬åºĶè¯¥": 6721,
      "è¾ĵåįµç®¡ç§¯æ°´": 6722,
      "æ²»çĸĹåĴĮ": 6723,
      "ä¸»å¼ł": 6724,
      "åĪĨå¸ĥäºİ": 6725,
      "çº¢æĸĳçĭ¼çĸ®": 6726,
      "åīįçĹħåıĺ": 6727,
      "åĮĸåŃ¦çī©è´¨": 6728,
      "ä¹ŁåºĶè¯¥": 6729,
      "èĥĥæģ¯èĤī": 6730,
      "é»Ħè±Ĩ": 6731,
      "åı¯ä»¥ä½¿": 6732,
      "æĦŁæŁĵèĢħ": 6733,
      "çĿ¡çľłéļľç¢į": 6734,
      "æĿĲæĸĻ": 6735,
      "å°ıé¼ł": 6736,
      "çĻĮçĹĩçļĦ": 6737,
      "çľ¼åºķ": 6738,
      "è¯ĨåĪ«": 6739,
      "è¶ĬæĿ¥è¶Ĭå¤ļ": 6740,
      "åħ»æĪĲèī¯å¥½çļĦçĶŁæ´»ä¹łæĥ¯": 6741,
      "ä¸ŃçŃī": 6742,
      "åģľçĶ¨": 6743,
      "éĺĳå°¾çĤİ": 6744,
      "æĺ¯çĽ®åīį": 6745,
      "éĩıå°ĳ": 6746,
      "æīĢå¼ķèµ·": 6747,
      "åŃ¦è¯´": 6748,
      "ä¼łæŁĵæºĲ": 6749,
      "åĹ³æ°Ķ": 6750,
      "oc": 6751,
      "é¸Ń": 6752,
      "åĴĢåļ¼": 6753,
      "å¾Īå®¹æĺĵå¯¼èĩ´": 6754,
      "æł½åŁ¹": 6755,
      "Pa": 6756,
      "åĿĲæľĪåŃĲ": 6757,
      "ed": 6758,
      "èĽĭçĻ½éħ¶": 6759,
      "åĬ¨æĢģ": 6760,
      "åĲĮæĹ¶ä¼´æľī": 6761,
      "åľ¨æŃ£å¸¸": 6762,
      "åī©": 6763,
      "åįĬæķ°": 6764,
      "æŀ¯": 6765,
      "å¸¸è§ģçļĦçĸ¾çĹħ": 6766,
      "æħ¢æĢ§çĸ¾çĹħ": 6767,
      "åįĹçĵľ": 6768,
      "æ°´çħİ": 6769,
      "çĸ¼çĹĽçļĦ": 6770,
      "éĺ´å½±": 6771,
      "çļĦå®Ŀå®Ŀ": 6772,
      "å¿½çķ¥": 6773,
      "çĹħäººåľ¨": 6774,
      "æł¸ç»Ĩèĥŀ": 6775,
      "æľĢå¤ļ": 6776,
      "400": 6777,
      "æĺ¯å¯¼èĩ´": 6778,
      "æ¡ĳ": 6779,
      "æħ¢æĢ§çĽĨèħĶçĤİ": 6780,
      "ä¸»æ²»": 6781,
      "çĶ±æŃ¤": 6782,
      "150": 6783,
      "ÃĹ": 6784,
      "ç¬¬ä¸Ģæ¬¡": 6785,
      "è®©æĤ£èĢħ": 6786,
      "éķ¿çļĦ": 6787,
      "èĥ°èħºçĤİ": 6788,
      "et": 6789,
      "HBV": 6790,
      "çłĶç©¶åıĳçİ°": 6791,
      "è¡Ģä¾¿": 6792,
      "æĤ£èĢħåı¯": 6793,
      "æľĪç»ıæĿ¥æ½®": 6794,
      "éĴ¡": 6795,
      "CR": 6796,
      "æĢ¥æĢ§åıĳä½ľ": 6797,
      "éĥ¨éĹ¨": 6798,
      "åĨħå®¹çī©": 6799,
      "è¡°éĢĢ": 6800,
      "åĪĻæĺ¯": 6801,
      "èĦ¾æ°Ķ": 6802,
      "çľī": 6803,
      "æ°´æŀľèĶ¬èıľ": 6804,
      "??": 6805,
      "ä¸»è¦ģçĶ±": 6806,
      "æ£ĢéªĮ": 6807,
      "æĺİç¡®çļĦ": 6808,
      "âĳł": 6809,
      "è°ĥåĳ³": 6810,
      "æĹ¶éĹ´çļĦ": 6811,
      "æ··åĲĪçĹĶ": 6812,
      "å£®å¹´": 6813,
      "è¿ĺæĺ¯è¦ģ": 6814,
      "HCG": 6815,
      "æ¼±": 6816,
      "èĤ¾ç»ĵçŁ³": 6817,
      "æ°¯åĮĸ": 6818,
      "çļĦå¥½": 6819,
      "è´Łéĩį": 6820,
      "å¤įåĲĪ": 6821,
      "å¼Ĥä½įå¦Ĭå¨ł": 6822,
      "åĳķè¡Ģ": 6823,
      "ä¸ĭéĿ¢å°±": 6824,
      "æıĴåħ¥": 6825,
      "å¼ºåĮĸ": 6826,
      "èĦĨå¼±": 6827,
      "pH": 6828,
      "æŁ±çĬ¶ä¸Ĭçļ®": 6829,
      "åľ¨è¿Ľè¡Į": 6830,
      "å°ĳè®¸": 6831,
      "çĿĢåĩī": 6832,
      "è®°å½ķ": 6833,
      "é¥®é£Łæ¸ħæ·¡": 6834,
      "éĢĢåıĺ": 6835,
      "æĹ¢å¾Ģ": 6836,
      "å°¿ä¸Ń": 6837,
      "å¤ĸéĥ¨": 6838,
      "ç»Ħç»ĩåŃ¦": 6839,
      "èħ°éª¶éĥ¨": 6840,
      "é«ĺä½į": 6841,
      "ä¼łæŁĵåĲĹ": 6842,
      "äºĴçĽ¸": 6843,
      "æľīè®¸å¤ļ": 6844,
      "æĹ©æľŁçļĦ": 6845,
      "å°¿å¸¸è§Ħ": 6846,
      "æ°´å¹³çļĦ": 6847,
      "æĻķåİ¥": 6848,
      "åı¦ä¸Ģæĸ¹éĿ¢": 6849,
      "åĪĨåŀĭ": 6850,
      "èĦīæĲı": 6851,
      "ä¾ĿéĿł": 6852,
      "éĿĻèĦīæ»´æ³¨": 6853,
      "æ±Ĺçĸ±çĸ¹": 6854,
      "åı¯éĿł": 6855,
      "å°ıåı¶": 6856,
      "åı£æ¸´": 6857,
      "ec": 6858,
      "ä¸ĭçļĦ": 6859,
      "éķ¿çŁŃ": 6860,
      "å·ŀ": 6861,
      "åºĶä¸İ": 6862,
      "åĮħåĲ«": 6863,
      "ä¹Łæľīåı¯èĥ½æĺ¯": 6864,
      "å¾®æ³¢": 6865,
      "èĥİåģľèĤ²": 6866,
      "æĦıåĳ³çĿĢ": 6867,
      "ä¸ĭåİ»": 6868,
      "å±ĢéĻĲäºİ": 6869,
      "éĴ³": 6870,
      "ç§¯æŀģçļĦæ²»çĸĹ": 6871,
      "èĹĵ": 6872,
      "çĭ¬ç«ĭ": 6873,
      "æĹ©æĹ¥": 6874,
      "åŀĤçĽ´": 6875,
      "çĶŁçĲĨçİ°è±¡": 6876,
      "æ´ĭèĳ±": 6877,
      "æ¨¡å¼ı": 6878,
      "åĿĲéª¨ç¥ŀç»ıçĹĽ": 6879,
      "çĺĺç®¡": 6880,
      "çİ¯çĬ¶": 6881,
      "âĳ¡": 6882,
      "æĭĽèĩ´": 6883,
      "å½ĵå½Ĵ": 6884,
      "æİĴæ¯Ĵ": 6885,
      "èįīèį¯": 6886,
      "å¿ĥçĲĨåİĭåĬĽ": 6887,
      "çĽĨèħĶç²ĺè¿ŀ": 6888,
      "æŃ¥æĢģ": 6889,
      "ç¡Ĵ": 6890,
      "åŃĲå®«åĨħèĨľèĸĦ": 6891,
      "å¤ļåıĳäºİ": 6892,
      "åıĺèĸĦ": 6893,
      "æķ£æŃ¥": 6894,
      "æµģè¡ĮçĹħåŃ¦": 6895,
      "åģľçķĻ": 6896,
      "é«ĭåħ³èĬĤ": 6897,
      "éĩĳé»Ħèī²": 6898,
      "åĴª": 6899,
      "éĩįè¦ģçļĦæĺ¯": 6900,
      "æ½ľåľ¨": 6901,
      "éĵħ": 6902,
      "éĶģéª¨": 6903,
      "æĪªçĺ«": 6904,
      "éħ±": 6905,
      "èĥ½ä½¿": 6906,
      "å¤ıå¤©": 6907,
      "çİ«çĳ°ç³łçĸ¹": 6908,
      "éĹ®é¢ĺçļĦ": 6909,
      "åı¯è§ģäºİ": 6910,
      "è¡Ģéĩı": 6911,
      "å¤§è±Ĩ": 6912,
      "è°ĥæİ§": 6913,
      "åĳ¨åĽ´ç¥ŀç»ı": 6914,
      "å°ļæĹł": 6915,
      "åİŁçĲĨ": 6916,
      "å·¥ä½ľåĴĮ": 6917,
      "æĭ®": 6918,
      "çĶĻ": 6919,
      "å®«ç¼©": 6920,
      "è¡ĮåĬ¨": 6921,
      "åıįéħ¸": 6922,
      "å¡«": 6923,
      "ä¸»é£Ł": 6924,
      "æīĵåĹĿ": 6925,
      "å¤ļçĶ±": 6926,
      "è½¬å½ķ": 6927,
      "çļĦåıĳçĶŁçİĩ": 6928,
      "æ°Ķéģĵ": 6929,
      "ç²¾ç¥ŀåİĭåĬĽ": 6930,
      "èĤĭéª¨": 6931,
      "å´©": 6932,
      "æ¬ł": 6933,
      "åĲŀåĻ¬": 6934,
      "å¯»æ±Ĥ": 6935,
      "åı¯ä»¥éĩĩåıĸ": 6936,
      "åı¯çĶ¨äºİ": 6937,
      "æİ¥ä¸ĭæĿ¥": 6938,
      "æľīå¸®åĬ©": 6939,
      "åŃķåĽĬ": 6940,
      "èĬĤæ®µ": 6941,
      "æľīåħ³çļĦ": 6942,
      "æĺ¾æĢ§": 6943,
      "è´¯": 6944,
      "ç»´çĶŁç´łåĴĮ": 6945,
      "è¿ľå¤Ħ": 6946,
      "åıĳçī©": 6947,
      "å®ļæľŁæ£ĢæŁ¥": 6948,
      "æĭ®æĬĹ": 6949,
      "èĤłç®¡": 6950,
      "çīĩçĬ¶": 6951,
      "åİķæīĢ": 6952,
      "ä»ĸä»¬çļĦ": 6953,
      "æĬ¬é«ĺ": 6954,
      "ä¼ļä¸įä¼ļ": 6955,
      "çļ®çĤİçļĦ": 6956,
      "çī¹æĢ§": 6957,
      "èļĬ": 6958,
      "æĦŁæŁĵçŃī": 6959,
      "æ²¹èħ»é£Łçī©": 6960,
      "éĺ²æĬ¤": 6961,
      "äºĨè§£ä¸Ģä¸ĭåĲ§": 6962,
      "å¤±è¡¡": 6963,
      "å¹²æī°ç´ł": 6964,
      "åĬ¨èĦīç²¥æł·ç¡¬åĮĸ": 6965,
      "å°ıåĦ¿éº»çĹ¹": 6966,
      "æº¶è¡ĢæĢ§": 6967,
      "çļĦæ²»çĸĹæĸ¹å¼ı": 6968,
      "æĦıè§ģ": 6969,
      "æŁĦ": 6970,
      "åıĳçĹħå¹´é¾Ħ": 6971,
      "æĹ©æĻļ": 6972,
      "æķ°å¹´": 6973,
      "æĦŁæŁĵåĴĮ": 6974,
      "åĲĳåĲİ": 6975,
      "æ£ķèī²": 6976,
      "éľīèıĮæĢ§éĺ´éģĵçĤİ": 6977,
      "èº«ä½ĵçĬ¶åĨµ": 6978,
      "çĩķ": 6979,
      "åĮĸçļĦ": 6980,
      "å¯ĨéĽĨ": 6981,
      "ä¼ĺçĤ¹": 6982,
      "æĺ¯ä¼ļ": 6983,
      "å¤§æŀ£": 6984,
      "èħ¹åİĭ": 6985,
      "çŃīéĥ¨ä½į": 6986,
      "éĿĴå£®å¹´": 6987,
      "åľ¨ä¸´åºĬ": 6988,
      "å¤ĸéĺ´çĤİ": 6989,
      "è£¹": 6990,
      "æĹ©æľŁæ²»çĸĹ": 6991,
      "åľ¨ä¸Ģèµ·": 6992,
      "åĺ¶åĵĳ": 6993,
      "æıĲåıĸ": 6994,
      "åīįåĪĹèħºçĤİçļĦ": 6995,
      "å¤įåıĳçİĩ": 6996,
      "å¹»è§ī": 6997,
      "ä¸įç®¡æĺ¯": 6998,
      "é¸¡èĤī": 6999,
      "æĹ¥åħī": 7000,
      "èĤĽéĹ¨åĳ¨åĽ´": 7001,
      "è¾ħåĬ©æ£ĢæŁ¥": 7002,
      "èĤ²é¾Ħ": 7003,
      "åĽ½éĻħ": 7004,
      "ä¹ĻèĤĿå¤§ä¸īéĺ³": 7005,
      "çĶŁæ´»è§Ħå¾ĭ": 7006,
      "æ±Ĺèħº": 7007,
      "èħ®èħºçĤİ": 7008,
      "èĥĥçļĦ": 7009,
      "æģĲæĥ§çĹĩ": 7010,
      "éĩįçļĦ": 7011,
      "èĩªéĹŃçĹĩ": 7012,
      "æ·¤ç§¯": 7013,
      "ä¸ĢèĪ¬æ²»çĸĹ": 7014,
      "åŃĺåľ¨çļĦ": 7015,
      "å¸¦æĿ¥äºĨ": 7016,
      "çŃīåĪ°": 7017,
      "ä¸Ģæĺ¯": 7018,
      "å°¤åħ¶æĺ¯åľ¨": 7019,
      "Ġt": 7020,
      "åı¯éĢłæĪĲ": 7021,
      "éķ¿å¤§": 7022,
      "åĳ³éģĵ": 7023,
      "åŁİ": 7024,
      "ç³»ç»ŁæĢ§": 7025,
      "èĬ±æĸĳ": 7026,
      "é«ĵæł¸": 7027,
      "ä¸ŃåĮ»è®¤ä¸º": 7028,
      "çĥ§çģ¼æĦŁ": 7029,
      "é£İçĸ¹": 7030,
      "èĤ©éĥ¨": 7031,
      "éĢłå½±åīĤ": 7032,
      "åı¯ä»¥ä¿ĥè¿Ľ": 7033,
      "èĤ©åħ³èĬĤ": 7034,
      "çº¤ç»´èĽĭçĻ½": 7035,
      "æģ¢å¤įçļĦ": 7036,
      "æĨ©å®¤": 7037,
      "æĹłèıĮ": 7038,
      "æĬĳéĥģçĹĩçļĦ": 7039,
      "çŁŃæĹ¶éĹ´åĨħ": 7040,
      "æľĪç»ıç´Ĭä¹±": 7041,
      "çıį": 7042,
      "åıĳçİ°æľī": 7043,
      "æľīåĪ©": 7044,
      "éĢłæĪĲäºĨ": 7045,
      "çļĦåŁºç¡Ģä¸Ĭ": 7046,
      "è¶Ĭå¤§": 7047,
      "çĥ¹": 7048,
      "çħ§é¡¾": 7049,
      "èī¯æĢ§çļĦ": 7050,
      "æī©å±ķ": 7051,
      "ä¸įè¦ģçĨ¬å¤ľ": 7052,
      "èĥ¶è´¨": 7053,
      "65": 7054,
      "ç¬ĭ": 7055,
      "çĶ°": 7056,
      "å¤įåıĳæĢ§": 7057,
      "çļĦä¸į": 7058,
      "ä¿ĿåŃĺ": 7059,
      "çļ®èĤ¤è¡¨éĿ¢": 7060,
      "äººä½ĵåĨħ": 7061,
      "æĹģèħº": 7062,
      "éŃ": 7063,
      "ä¸įå½±åĵį": 7064,
      "è®©èĩªå·±": 7065,
      "ç¾İå®¹": 7066,
      "é¦Ī": 7067,
      "çĶµåŃĲ": 7068,
      "âĢĿãĢģâĢľ": 7069,
      "èĩ´çĹħåĽłç´ł": 7070,
      "æľīçĤ¹": 7071,
      "çĶ¾": 7072,
      "åĪĩæĸŃ": 7073,
      "IgG": 7074,
      "æīĭèĦļ": 7075,
      "èĦĤèĽĭçĻ½": 7076,
      "çĿ¡çľłè´¨éĩı": 7077,
      "ç¨ĢèĸĦ": 7078,
      "åĶ¯ä¸Ģ": 7079,
      "æĶ¾åĮĸçĸĹ": 7080,
      "å½±åĥıåŃ¦æ£ĢæŁ¥": 7081,
      "å¸¸ä¸İ": 7082,
      "è¯¥çĹħçļĦ": 7083,
      "çļ®èĤ¤ä¸Ĭ": 7084,
      "è¡ĮæĶ¿": 7085,
      "CTæ£ĢæŁ¥": 7086,
      "ç¼ºè¡ĢæĢ§": 7087,
      "æ·±åº¦": 7088,
      "çļĦä»£è°¢": 7089,
      "æĬ¢": 7090,
      "çļĦåŃķå¦ĩ": 7091,
      "æİĴä¾¿æĹ¶": 7092,
      "æľ«ç«¯": 7093,
      "çī¹åĪ«æĺ¯åľ¨": 7094,
      "éº»çĥ¦": 7095,
      "å¤įåĲĪçī©": 7096,
      "ä¸įéĢĤåĲĪ": 7097,
      "åĢ¼å¾Ĺ": 7098,
      "å¤ªå¤§": 7099,
      "ä¸įäºĨ": 7100,
      "çŃīåĿĩ": 7101,
      "ep": 7102,
      "æ°ĶçŁŃ": 7103,
      "åıĳçİ°çļĦ": 7104,
      "èĽĽç½ĳèĨľ": 7105,
      "æĢ§æ°´èĤ¿": 7106,
      "ä¼¦": 7107,
      "èĤ¿çĺ¤ç»Ĩèĥŀ": 7108,
      "çĹħæĤ£èĢħ": 7109,
      "åİ»åĮ»éĻ¢å°±è¯Ĭ": 7110,
      "ä¸įå¹³": 7111,
      "è¦ģè¿Ľè¡Į": 7112,
      "ä¸ŃæĪĲ": 7113,
      "èĢĮäº§çĶŁ": 7114,
      "æīĭæ³ķ": 7115,
      "è¿ĩåº¦çĸ²åĬ³": 7116,
      "åĬ¨åĬĽåŃ¦": 7117,
      "ï¼Ĥ": 7118,
      "åĲĦç§įåİŁåĽł": 7119,
      "å°Ŀè¯ķ": 7120,
      "äº¦æľī": 7121,
      "èĨĿçĽĸ": 7122,
      "å¿ĥè·³": 7123,
      "çļĦåħ³éĶ®": 7124,
      "å¯¹æĬĹ": 7125,
      "èĥ¡æ¤Ĵ": 7126,
      "çļĦå¿ĥæĥħ": 7127,
      "çļĦéĩı": 7128,
      "èĢ³éģĵ": 7129,
      "çļĦåĲ«éĩı": 7130,
      "è¡Ģæµģéĩı": 7131,
      "å¾Īå¤ļæĤ£èĢħ": 7132,
      "èĥľ": 7133,
      "æİ¥è§¦æĢ§åĩºè¡Ģ": 7134,
      "èĤĮèĤīèĲİç¼©": 7135,
      "çĥ§ä¼¤": 7136,
      "æĿĢçģŃ": 7137,
      "å®«é¢Īç²ĺè¿ŀ": 7138,
      "å®«é¢ĪèĤ¥å¤§": 7139,
      "å»ºè®®ä½ł": 7140,
      "æĢ§é£Łçī©": 7141,
      "æľīä»Ģä¹ĪçĹĩçĬ¶": 7142,
      "æ´»åĬ¨åıĹéĻĲ": 7143,
      "è®¤çľŁ": 7144,
      "å¼±ç²¾çĹĩ": 7145,
      "æĨĭå°¿": 7146,
      "éĢĤåº¦": 7147,
      "çĶŁæ´»å½ĵä¸Ń": 7148,
      "em": 7149,
      "mmH": 7150,
      "æīĭéĥ¨": 7151,
      "åĲĥäºĽ": 7152,
      "æľīäºĽæĤ£èĢħ": 7153,
      "çŃīéĥ½": 7154,
      "æ¸Ĺæ¶²": 7155,
      "åįıåĬ©": 7156,
      "æ²»å¥½åĲĹ": 7157,
      "æĤ¦": 7158,
      "å¸¸åĽł": 7159,
      "æ¸ħæ´Ĺå¤ĸéĺ´": 7160,
      "ä¼ļéĢĲæ¸Ĳ": 7161,
      "åħ¶ä»ĸéĥ¨ä½į": 7162,
      "çĶµä½į": 7163,
      "è¿Ļç§įæĸ¹æ³ķ": 7164,
      "æŀģåº¦": 7165,
      "äº¤çķĮ": 7166,
      "ä»İèĢĮä½¿": 7167,
      "åģıå¤´çĹĽ": 7168,
      "çĶµèĦĳ": 7169,
      "æľīæ¯Ĵ": 7170,
      "åıįé¦Ī": 7171,
      "åĪĨå¼Ģ": 7172,
      "æĭĮ": 7173,
      "ä¼¤å¯Ĵ": 7174,
      "éĺ³æĢ§çļĦ": 7175,
      "åĽ½åĨħ": 7176,
      "åī§çĹĽ": 7177,
      "æĢ§èĦĳçĹħ": 7178,
      "PA": 7179,
      "éĿ¢çļĦ": 7180,
      "åĪĻåı¯": 7181,
      "éģĹçķĻ": 7182,
      "åıĬæĹ¶åıĳçİ°": 7183,
      "éŁ¦": 7184,
      "èĤ¾åĬŁèĥ½è¡°ç«Ń": 7185,
      "é¼»åŃĲ": 7186,
      "ç©ºéĹ´": 7187,
      "é»ıèĨľä¸ĭ": 7188,
      "ä»¥ä¸ĭåĩłçĤ¹": 7189,
      "å¥³åŃ©": 7190,
      "æ¯Ķè¾ĥå°ı": 7191,
      "çĹħæ¯Ĵå¼ķèµ·çļĦ": 7192,
      "æŃ»èĥİ": 7193,
      "çĵ¶": 7194,
      "æ¶ĪåĮĸæĢ§æºĥçĸ¡": 7195,
      "è·Į": 7196,
      "çĹħåıĳ": 7197,
      "åħĭæľį": 7198,
      "çļĦåİŁåĽłæľī": 7199,
      "åı©": 7200,
      "æ¦´": 7201,
      "åĪĿæŃ¥": 7202,
      "èħĭçªĿ": 7203,
      "æİ¢æŁ¥": 7204,
      "çĶļèĩ³åĩºçİ°": 7205,
      "è¡¨éĿ¢åħīæ»ĳ": 7206,
      "æĽ´å¤§": 7207,
      "å®ĺèĥ½": 7208,
      "æŃ£å¸¸æĪĸ": 7209,
      "åĪĩå¿Į": 7210,
      "å£¤": 7211,
      "æ¯įä¹³åĸĤåħ»": 7212,
      "äºĮå°ĸçĵ£": 7213,
      "å¸¸è§ģçļĦçĹĩçĬ¶": 7214,
      "èĥİåĬ¨": 7215,
      "ä½ĨçĶ±äºİ": 7216,
      "æŃ¥éª¤": 7217,
      "å¾Īå°ı": 7218,
      "èĤłå£ģ": 7219,
      "åĻ¨å®ĺçļĦ": 7220,
      "åĬłæ·±": 7221,
      "éĥ½éľĢè¦ģ": 7222,
      "åĩºæĿ¥çļĦ": 7223,
      "ä¸ĢèĪ¬æĹł": 7224,
      "è¿Ľè¡Įæīĭæľ¯": 7225,
      "æŀķå¤´": 7226,
      "åĨįåĬłä¸Ĭ": 7227,
      "åµĮé¡¿": 7228,
      "æł¸éħ¸": 7229,
      "ä¹ĥ": 7230,
      "åĬŁçĶ¨": 7231,
      "å®ĥåı¯ä»¥": 7232,
      "æįŁä¼¤çļĦ": 7233,
      "åģļæīĭæľ¯": 7234,
      "åĽłç´łæľīåħ³": 7235,
      "æĬĹçĹħ": 7236,
      "è¿Ļç§įçİ°è±¡": 7237,
      "çļ®å±Ĥ": 7238,
      "åŃĲå®«åĨħèĨľå¢ŀçĶŁ": 7239,
      "åħ¶ä»ĸçĹĩçĬ¶": 7240,
      "æĤ£èĢħåºĶè¯¥": 7241,
      "æ´Ĺå¤´": 7242,
      "ä¸ĵä¸ļçļĦ": 7243,
      "ST": 7244,
      "é¢Ħéĺ²æĦŁæŁĵ": 7245,
      "è¡¨æĥħ": 7246,
      "ç²¾åĬĽ": 7247,
      "äºļä¸´åºĬ": 7248,
      "æĺİæĺ¾çļĦçĹĩçĬ¶": 7249,
      "æĬ½åĬ¨": 7250,
      "æľīæīĢå¸®åĬ©": 7251,
      "37": 7252,
      "od": 7253,
      "ä¸Ģç±»": 7254,
      "ä¸ªå°ıæĹ¶": 7255,
      "å¼ĥ": 7256,
      "æ¸©åĴĮ": 7257,
      "èĦīç»ľ": 7258,
      "ç»Ŀç»ıæľŁ": 7259,
      "å¿§éĥģ": 7260,
      "åĨħåĪĨæ³Įç´Ĭä¹±": 7261,
      "åįłä½į": 7262,
      "å½ĵåĩºçİ°": 7263,
      "åŁºè´¨": 7264,
      "æĢ§ä¼´ä¾£": 7265,
      "è§¦æĳ¸": 7266,
      "çĹħæĥħåıĳå±ķ": 7267,
      "åĪ°åĮ»éĻ¢åģļ": 7268,
      "å¿ĥå¢ĥ": 7269,
      "çļĦåİŁåĽłå¾Īå¤ļ": 7270,
      "åĨ·æ·¡": 7271,
      "æĸ¤": 7272,
      "å¯¹æľ¬åĵģ": 7273,
      "ä¿ĥçĶ²çĬ¶èħºç´ł": 7274,
      "å°¤ä¸º": 7275,
      "åĪĿèµ·": 7276,
      "æĬĹçĻĮ": 7277,
      "å·¨åĻ¬": 7278,
      "è§Ĩéĩİ": 7279,
      "èĢģåĮĸ": 7280,
      "æķ´ä½ĵ": 7281,
      "çļĦæĹ©æľŁ": 7282,
      "æīĢä»¥æĪĳä»¬": 7283,
      "éĻ¤å¤ĸ": 7284,
      "éĴĪåĪº": 7285,
      "è±ĨæµĨ": 7286,
      "Ġn": 7287,
      "å¥½å¥½": 7288,
      "æĦŁè§īéļľç¢į": 7289,
      "ç¦ģå¿ĮçĹĩæĺ¯ä»Ģä¹Ī": 7290,
      "æīĢåĲ«": 7291,
      "æµĨæ¶²": 7292,
      "èĢħä¸º": 7293,
      "æĺĵå¼ķèµ·": 7294,
      "è½¬ç§»åĪ°": 7295,
      "åŃĲå®«åĨħ": 7296,
      "çĹħäººæľī": 7297,
      "éĴĿçĹĽ": 7298,
      "éķ¿æľŁæľįçĶ¨": 7299,
      "å£°å¸¦": 7300,
      "å¤ļç§įå¤ļæł·": 7301,
      "åĲĪéĢĤçļĦ": 7302,
      "æ³¨æĦıä¸ªäººåį«çĶŁ": 7303,
      "ä¸įè®º": 7304,
      "å¤ĸç¿»": 7305,
      "ç½Ĳ": 7306,
      "ç°": 7307,
      "ä¹Łåı¯å¼ķèµ·": 7308,
      "hy": 7309,
      "æħ°": 7310,
      "èĬĤåĪ¶": 7311,
      "ä½İèĦĤ": 7312,
      "ç¨įå¾®": 7313,
      "èį¯èĨı": 7314,
      "åħ¶æ¬¡æĺ¯": 7315,
      "èĢĲå¿ĥ": 7316,
      "éĩĮçļĦ": 7317,
      "æĤ£èĢħä¸Ń": 7318,
      "çĿ¾éħ®": 7319,
      "ä¸Ģä¸ªäºº": 7320,
      "èĹķ": 7321,
      "ä¸ŃåĴĮ": 7322,
      "å¤ĸåĬĽ": 7323,
      "åĿĩä¸º": 7324,
      "åŃĲå®«åĨħèĨľæģ¯èĤī": 7325,
      "è¡ĢåĲ¸": 7326,
      "RS": 7327,
      "è§Ĥå¿µ": 7328,
      "ä¸ŃèĢģå¹´äºº": 7329,
      "è§Ĩè§ī": 7330,
      "çªģåıĳ": 7331,
      "ä¸ĸçºª": 7332,
      "çļĦæ¸ħæ´ģ": 7333,
      "2000": 7334,
      "åī¥ç¦»": 7335,
      "æĺ¯å¯¹": 7336,
      "èĩ´æķı": 7337,
      "æ¯Ĵçī©": 7338,
      "èĤłç³»èĨľ": 7339,
      "éħĴç²¾èĤĿ": 7340,
      "ä¸ĭèħ¹çĹĽ": 7341,
      "ä»įæľī": 7342,
      "æĪĸåĽł": 7343,
      "äº§éģĵ": 7344,
      "ç»ĵæł¸æĢ§": 7345,
      "åĲİå£ģ": 7346,
      "ä¹ĭä¸Ń": 7347,
      "åľ¨æĪĳåĽ½": 7348,
      "èĦĤè´¨": 7349,
      "çļĦçĶŁæ´»ä¸Ń": 7350,
      "çĤİçĹĩåĪºæ¿Ģ": 7351,
      "çĸ²åĢ¦": 7352,
      "çļĦé¢ľèī²": 7353,
      "è¡Ģå®¹éĩı": 7354,
      "ç¡¬ç»ĵ": 7355,
      "åı¯ä»¥å¤ļåĲĥ": 7356,
      "åı¯ä¸İ": 7357,
      "åıĹåĪ°äºĨ": 7358,
      "ç²¾ç¥ŀçĬ¶æĢģ": 7359,
      "å¥³æĢ§ä¸įåŃķ": 7360,
      "åĨ·æ°´": 7361,
      "çĶŁçĲĨåĬŁèĥ½": 7362,
      "ä¸ĭéĿ¢ä¸ºå¤§å®¶ä»ĭç»į": 7363,
      "åĹľéħ¸æĢ§": 7364,
      "çº±å¸ĥ": 7365,
      "çĪ¸": 7366,
      "un": 7367,
      "85": 7368,
      "çļĦæħ¢æĢ§": 7369,
      "36": 7370,
      "èĢĮæľī": 7371,
      "AD": 7372,
      "åı¯çĸĳ": 7373,
      "ä¹Łç§°ä¸º": 7374,
      "èĤłèłķåĬ¨": 7375,
      "è¯ķç®¡": 7376,
      "å¤ĸéĺ´çĻ½æĸĳ": 7377,
      "æĹ¶è¦ģ": 7378,
      "æºĥçĸ¡æĢ§ç»ĵèĤłçĤİ": 7379,
      "æ³¡æ²«": 7380,
      "éĩĳé»Ħèī²èĳ¡èĲĦçĲĥèıĮ": 7381,
      "è¡ĢåĿĹ": 7382,
      "æĪĸçĶ¨": 7383,
      "èĢĮå¯¼èĩ´çļĦ": 7384,
      "ä¹ĻçĬ¶": 7385,
      "è®©äºº": 7386,
      "åı£èħĶæºĥçĸ¡": 7387,
      "èĮĥåĽ´åĨħ": 7388,
      "éģŃåıĹ": 7389,
      "æľīåı¯èĥ½ä¼ļ": 7390,
      "åĴĻ": 7391,
      "å°ĳé£Łå¤ļé¤Ĳ": 7392,
      "åı¯èĢĥèĻĳ": 7393,
      "èħĳ": 7394,
      "è·µ": 7395,
      "èĢĮä¸įæĺ¯": 7396,
      "ä¸ĢèĪ¬ä¸įä¼ļ": 7397,
      "æĸ¹æ³ķæĺ¯": 7398,
      "çº¤ç»´çĺ¤": 7399,
      "æºĥçĥĤ": 7400,
      "åı¯å¢ŀåĬł": 7401,
      "æĬĸ": 7402,
      "ä¸Ĭè¡Į": 7403,
      "èĢĮæĹł": 7404,
      "æĮĩæķ°": 7405,
      "ä¼łå¯¼éĺ»æ»ŀ": 7406,
      "çļĦåİĭåĬĽ": 7407,
      "å¸¸è§ģçĸ¾çĹħ": 7408,
      "çİ¯èĬĤ": 7409,
      "èĥ¡èĲĿåįľç´ł": 7410,
      "è½¬åĮĸä¸º": 7411,
      "çļĦåıįåºĶ": 7412,
      "æŁĲä¸Ģ": 7413,
      "åĮ¿": 7414,
      "ä¸ºæŃ¢": 7415,
      "ç»Īèº«": 7416,
      "mmHg": 7417,
      "ç»Ļå¤§å®¶ä»ĭç»į": 7418,
      "è¶³éĥ¨": 7419,
      "é£İå¯Ĵ": 7420,
      "æ°¸ä¹ħ": 7421,
      "æĤ£èĢħæĿ¥è¯´": 7422,
      "æ¤įåħ¥": 7423,
      "ä¸ºä¸»è¦ģè¡¨çİ°": 7424,
      "å¿ħé¡»åľ¨": 7425,
      "èİĵ": 7426,
      "å°ĳæķ°æĤ£èĢħ": 7427,
      "250": 7428,
      "é£Łç®¡çĻĮ": 7429,
      "åı¯äº§çĶŁ": 7430,
      "æł¡": 7431,
      "ä¸įä¾¿": 7432,
      "åħįçĸ«åıįåºĶ": 7433,
      "åľĨå½¢æĪĸ": 7434,
      "åĳ¨è¾¹": 7435,
      "æ¢Ĺå¡ŀ": 7436,
      "tic": 7437,
      "èĢĮæĿ¥": 7438,
      "æĢ§çļ®èĤ¤çĹħ": 7439,
      "æĺ¯å¼ķèµ·": 7440,
      "ä»¥å¾Ģ": 7441,
      "åıĳçİ°èĩªå·±": 7442,
      "éľĢè¦ģæł¹æį®": 7443,
      "çĶµè§£è´¨ç´Ĭä¹±": 7444,
      "æ°§åĮĸç¢³": 7445,
      "çĹ¢çĸ¾": 7446,
      "æĤ£èĤ¢": 7447,
      "çĮĽ": 7448,
      "é³ŀçĬ¶ä¸Ĭçļ®": 7449,
      "ä¸ŃæĸŃ": 7450,
      "èĢĮä½¿": 7451,
      "çĽĨæµ´": 7452,
      "æ¡¡": 7453,
      "æĴŀ": 7454,
      "ä¹ĻèĤĿçĸ«èĭĹ": 7455,
      "å¼¯èħ°": 7456,
      "å¤ļåĽĬåįµå·¢ç»¼åĲĪå¾ģ": 7457,
      "æľīçļĦæĹ¶åĢĻ": 7458,
      "å¯¹èº«ä½ĵçļĦ": 7459,
      "ç¥ŀç»ıå®ĺèĥ½": 7460,
      "åĬłå·¥": 7461,
      "åħ·å¤ĩ": 7462,
      "å®«èħĶéķľ": 7463,
      "æ³ķå¾ĭ": 7464,
      "åİŁåĽłçļĦ": 7465,
      "åĨħåĪĨæ³Įç³»ç»Ł": 7466,
      "èĤ¡éª¨": 7467,
      "æľĢæĹ©": 7468,
      "æ±Ĺæ¶²": 7469,
      "äººæµģåĲİ": 7470,
      "èĦĳä¸Ńé£İ": 7471,
      "åħģ": 7472,
      "èĤºçĻĮçļĦ": 7473,
      "æ¬§": 7474,
      "èĮ¯": 7475,
      "éĩįè¦ģä½ľçĶ¨": 7476,
      "æĿĢæŃ»": 7477,
      "39": 7478,
      "of": 7479,
      "åľ¨é¥®é£Łæĸ¹éĿ¢": 7480,
      "è¿ĩçĥŃ": 7481,
      "èľĺ": 7482,
      "åĳ¨å·¦åı³": 7483,
      "ig": 7484,
      "æĸĹ": 7485,
      "çĶ·ç§ĳ": 7486,
      "åĸīåĴĻ": 7487,
      "æľĿ": 7488,
      "åĴ½çĤİ": 7489,
      "æıĲåĢ¡": 7490,
      "æ·ĭèıĮæĢ§": 7491,
      "äººåıĤ": 7492,
      "çķıå¯Ĵ": 7493,
      "åıĳåĩº": 7494,
      "è¿ĺä¼ļå¯¼èĩ´": 7495,
      "çĸıéĢļ": 7496,
      "ä¸įåıĹ": 7497,
      "æĽ´å¿«": 7498,
      "è§Ĵè´¨å±Ĥ": 7499,
      "åħ·æľīä¸Ģå®ļçļĦ": 7500,
      "æ³Įå°¿å¤ĸç§ĳ": 7501,
      "åŃ¢åŃĲ": 7502,
      "çĹĩçĬ¶æĺ¯": 7503,
      "æĪĳä»¬çŁ¥éģĵ": 7504,
      "å±ģ": 7505,
      "çŃīæĸ¹æ³ķ": 7506,
      "æĿ¥åĪ¤æĸŃ": 7507,
      "èľĺèĽĽ": 7508,
      "PR": 7509,
      "ä¸»è¦ģä¸İ": 7510,
      "é¦Ļèıĩ": 7511,
      "Tç»Ĩèĥŀ": 7512,
      "æľīå¾Īå¤§": 7513,
      "åŁºéĥ¨": 7514,
      "å®ŀè·µ": 7515,
      "çĹĽé£İ": 7516,
      "æµģèĦĵ": 7517,
      "é¢Ħéĺ²æİªæĸ½": 7518,
      "é«ĺç»´çĶŁç´ł": 7519,
      "è¾ĥé«ĺçļĦ": 7520,
      "å²ģçļĦ": 7521,
      "å¯Ĵåĩī": 7522,
      "ä½ĵæł¼æ£ĢæŁ¥": 7523,
      "æīĢè¯´çļĦ": 7524,
      "ä¸ĭéĥ¨": 7525,
      "ä¸¤å¤§ç±»": 7526,
      "èĨ¨èĥĢ": 7527,
      "å¿įåıĹ": 7528,
      "æĬ¢æķĳ": 7529,
      "åİī": 7530,
      "åºĶè¯¥è¦ģ": 7531,
      "è¿Ĳè¡Į": 7532,
      "åĪ·çīĻ": 7533,
      "yl": 7534,
      "ä¸įä¼ļæľī": 7535,
      "å¤§èĩ´": 7536,
      "å®«èħĶåĨħ": 7537,
      "åĦ¿ç«¥çļĦ": 7538,
      "éģ¿åŃķæİªæĸ½": 7539,
      "çļĦæľĢä½³": 7540,
      "åĽłåħ¶": 7541,
      "è¿Ļå¯¹": 7542,
      "æĳĩ": 7543,
      "èĭ¦çĵľ": 7544,
      "ç²Ł": 7545,
      "è¿Ľè¡Įæīĭæľ¯æ²»çĸĹ": 7546,
      "éĿ¢èī²èĭįçĻ½": 7547,
      "èĤĮèĤīçļĦ": 7548,
      "æŁı": 7549,
      "æĿ¡ä»¶ä¸ĭ": 7550,
      "ä¹ĭç±»çļĦ": 7551,
      "éŁ§å¸¦æįŁä¼¤": 7552,
      "å±Ģçģ¶": 7553,
      "æ¸©å¼Ģæ°´": 7554,
      "æĪĸå°ĳ": 7555,
      "åģļäºĨ": 7556,
      "çļĦæ°´å¹³": 7557,
      "å°ıæĹ¶åĲİ": 7558,
      "çģ°çĻ½èī²": 7559,
      "èĻ¹èĨľ": 7560,
      "åĪĨæŀĿ": 7561,
      "æ¶²åĮĸ": 7562,
      "æĬĹè¿ĩæķı": 7563,
      "éĽª": 7564,
      "æĺ¯æĢİä¹Ī": 7565,
      "å¤ĸçĶŁæ®ĸåĻ¨": 7566,
      "åĬŁèĥ½å¼Ĥå¸¸": 7567,
      "èºģçĭĤ": 7568,
      "åħ»è¡Ģ": 7569,
      "å¾ģåħĨ": 7570,
      "Ġ6": 7571,
      "èĬĤèĤ²": 7572,
      "èĥĥéħ¸åĪĨæ³Į": 7573,
      "èĩªèº«åħįçĸ«æĢ§": 7574,
      "éģ¿åħįåĲĥ": 7575,
      "ãĢĤãĢĬ": 7576,
      "æĽ¾ç»ı": 7577,
      "åı¯ä»¥éĢĤå½ĵ": 7578,
      "æĮĽç¼©": 7579,
      "åİĮæ°§èıĮ": 7580,
      "ä¼ģ": 7581,
      "è¿ĳæľŁ": 7582,
      "è£Ĥä¼¤": 7583,
      "é«ĺè¡ĢèĦĤ": 7584,
      "æ»ĭè¡¥": 7585,
      "ç²Ĵä½ĵ": 7586,
      "çİĭ": 7587,
      "ä¹Łæ¯Ķè¾ĥ": 7588,
      "ä¹Łæĺ¯ä¸Ģç§į": 7589,
      "æĤ£èĢħä¸Ģå®ļè¦ģ": 7590,
      "ç²¾ç¥ŀçĹĩçĬ¶": 7591,
      "ç¥ŀç»ıèĬĤ": 7592,
      "çĤ¹çĬ¶": 7593,
      "æĦŁæŁĵæĪĸ": 7594,
      "æº¶æĢ§": 7595,
      "ä¸ŃæĪĲèį¯": 7596,
      "æľīå¾Īå¥½çļĦ": 7597,
      "èº«ä½ĵç´łè´¨": 7598,
      "åĳ³çĶĺ": 7599,
      "ãĢĤï¼ł": 7600,
      "å°¿ç´ł": 7601,
      "å°±åĥı": 7602,
      "ä¿Ŀéļľ": 7603,
      "å¤±è¯Ń": 7604,
      "å¼ķåıĳçļĦ": 7605,
      "éª¨èĤ¿çĺ¤": 7606,
      "éĹ´çļĦ": 7607,
      "ĠA": 7608,
      "åľ¨åıĳçĹħ": 7609,
      "æ¯Ķè¾ĥå¥½çļĦ": 7610,
      "æĶ¶è´¹": 7611,
      "çĶŁçĲĨçĽĲæ°´": 7612,
      "27": 7613,
      "è¿ĽæŃ¥": 7614,
      "é£Łçī©çļĦ": 7615,
      "æĹ©æĻ¨": 7616,
      "åħ³èĬĤçļĦ": 7617,
      "å°±ä¼ļå¼ķèµ·": 7618,
      "ä¿®è¡¥": 7619,
      "å¥¹ä»¬": 7620,
      "çĹĩçĬ¶åĬłéĩį": 7621,
      "ä»£æĽ¿": 7622,
      "å¸¦æĿ¥çļĦ": 7623,
      "æ¸ħçĲĨ": 7624,
      "ä»ĸçļĦ": 7625,
      "çļĦé¥®é£Łä¹łæĥ¯": 7626,
      "æ»¤è¿ĩ": 7627,
      "ç»ĨèĥŀèĨľ": 7628,
      "åħħæ»¡": 7629,
      "å£°éŁ³åĺ¶åĵĳ": 7630,
      "å¤ļæĺ¯": 7631,
      "åĲĮä¾§": 7632,
      "æĭ³": 7633,
      "å¤§å°ıä¸įçŃī": 7634,
      "æĬµæĬĹåĬĽä¸ĭéĻį": 7635,
      "å°ıç®¡": 7636,
      "ç¾¤ä½ĵ": 7637,
      "åģ¶è§ģ": 7638,
      "æ·Ĩ": 7639,
      "è¿Ľè¡Įè°ĥçĲĨ": 7640,
      "èĸı": 7641,
      "éľį": 7642,
      "è¾Ľè¾£åĪºæ¿Ģé£Łçī©": 7643,
      "èħ°éĹ´çĽĺçªģåĩº": 7644,
      "åĵªç§į": 7645,
      "åĸīçĻĮ": 7646,
      "æ··æ·Ĩ": 7647,
      "æļĹçº¢èī²": 7648,
      "åıĳè¾¾": 7649,
      "å¥½åıĳ": 7650,
      "èĹ»": 7651,
      "çļĦåŃĺåľ¨": 7652,
      "éĢļéĢı": 7653,
      "ä½Ĩä¸į": 7654,
      "è¡¥åħħç»´çĶŁç´ł": 7655,
      "æĬ¤èĤ¤åĵģ": 7656,
      "åı¯ä»¥éĢĤå½ĵçļĦ": 7657,
      "ä¹ĻéĨĩ": 7658,
      "èĤĿèĦ¾": 7659,
      "åı¯èĥ½åıĳçĶŁ": 7660,
      "é¥®é£ŁçļĦ": 7661,
      "äºĮèĢħ": 7662,
      "çŁŃæľŁåĨħ": 7663,
      "è½»æĿ¾": 7664,
      "ä½¿çĶ¨çļĦ": 7665,
      "ä½¿çĶ¨æľ¬åĵģ": 7666,
      "èļ´": 7667,
      "åı¯å°Ĩ": 7668,
      "å½¢æĪĲäºĨ": 7669,
      "åħ¨èº«æĢ§çĸ¾çĹħ": 7670,
      "æłĩå¿Ĺçī©": 7671,
      "å·¦å¿ĥå®¤": 7672,
      "ap": 7673,
      "è¾ĥå¿«": 7674,
      "FT": 7675,
      "æīĢè°ĵçļĦ": 7676,
      "æ²»æĦĪçİĩ": 7677,
      "å¤ļåĲĥæĸ°é²ľçļĦ": 7678,
      "åıĪæľī": 7679,
      "å®¤æĢ§": 7680,
      "åĨ¬çĵľ": 7681,
      "èĦ±ç¦»": 7682,
      "æ±Ĺæĸĳ": 7683,
      "æļĤåģľ": 7684,
      "é¼»æ¶ķ": 7685,
      "è¦ģæĥ³": 7686,
      "ä½Ĩä¹Łæľī": 7687,
      "åħģè®¸": 7688,
      "çī¹å¾ģæĺ¯": 7689,
      "æīŃä¼¤": 7690,
      "çĸ³": 7691,
      "èį¯çī©æĢ§": 7692,
      "éĢļè¿ĩä¸Ĭè¿°": 7693,
      "çļĦçĹħåĽłæĺ¯ä»Ģä¹Ī": 7694,
      "ä¸Ĭåĳ¼åĲ¸éģĵæĦŁæŁĵ": 7695,
      "ä½Ĩå¯¹": 7696,
      "åĩºéĻ¢": 7697,
      "éĺ³èĻļ": 7698,
      "éļĲåĮ¿": 7699,
      "èº«å¿ĥåģ¥åº·": 7700,
      "æĺ¯ä¸įèĥ½": 7701,
      "éķ¿äºĨ": 7702,
      "Ġm": 7703,
      "ä¸ªæľĪåĲİ": 7704,
      "ä¸ĢæĿ¯": 7705,
      "çŃīæĸ¹éĿ¢": 7706,
      "ç»§èĢĮ": 7707,
      "ä¹³å¤´çĬ¶çĺ¤": 7708,
      "ç¦½": 7709,
      "èıĮç´ł": 7710,
      "ä¸»è¦ģåİŁåĽł": 7711,
      "è¾ĵåįµç®¡çĤİ": 7712,
      "åİĭè¿«çĹĩçĬ¶": 7713,
      "åİĨåı²": 7714,
      "èĥĥæ¶²": 7715,
      "çī¹å¾ģæĢ§": 7716,
      "èĤĮæĹłåĬĽ": 7717,
      "æľĪç»ıæľŁéĹ´": 7718,
      "æľīçĤİçĹĩ": 7719,
      "ä¸Ĭæ¶ĪåĮĸéģĵåĩºè¡Ģ": 7720,
      "æµģåĬ¨": 7721,
      "ä¹³ç³ĸ": 7722,
      "ç»ĨèıĮåŁ¹åħ»": 7723,
      "åīįåĪĹèħºèĤ¥å¤§": 7724,
      "éĥ½ä¼ļå¯¼èĩ´": 7725,
      "æĢ¥æĢ§çĤİçĹĩ": 7726,
      "è¿ĺåºĶ": 7727,
      "ä¿ĿèĤĿ": 7728,
      "éħ¸å¥¶": 7729,
      "æł·åıĺ": 7730,
      "çĿ¾ä¸¸çļĦ": 7731,
      "åŀĭçĹħæ¯ĴæĢ§èĤĿçĤİ": 7732,
      "ä½Ĩæĺ¯åľ¨": 7733,
      "ç¯": 7734,
      "äººæ°ĳ": 7735,
      "æģ°å½ĵ": 7736,
      "çĿ£": 7737,
      "åºıåĪĹ": 7738,
      "åĮħè£¹": 7739,
      "èĺĳ": 7740,
      "äºĭçī©": 7741,
      "åı¯ä»¥ç¼ĵè§£": 7742,
      "æĬĹåĩĿ": 7743,
      "åŁºåĽłç»Ħ": 7744,
      "åĲ¡": 7745,
      "æĬĹçľŁèıĮ": 7746,
      "55": 7747,
      "åĬłå¤§": 7748,
      "è°¨æħİ": 7749,
      "è¡į": 7750,
      "æľīå¥½å¤Ħ": 7751,
      "å¤ļæĻ®": 7752,
      "åĴ¯è¡Ģ": 7753,
      "IC": 7754,
      "æµĳ": 7755,
      "åŃĲå®«æģ¯èĤī": 7756,
      "å®«é¢ĪçļĦ": 7757,
      "æĽ´é«ĺ": 7758,
      "éĺ¿ç±³": 7759,
      "èĮ¯èĭĵ": 7760,
      "26": 7761,
      "å¥³æĢ§åĩºçİ°": 7762,
      "åīįçļĦ": 7763,
      "çĺ¾": 7764,
      "è¶Ĭé«ĺ": 7765,
      "ç´§èº«": 7766,
      "åĩºçİ°å¼Ĥå¸¸": 7767,
      "æĿ¾è§£": 7768,
      "æĶ»åĩ»": 7769,
      "çļĦå¢ŀåĬł": 7770,
      "åĮ»çĸĹæľºæŀĦ": 7771,
      "èħºç®¡": 7772,
      "æģ¶æĢ§çļĦ": 7773,
      "è¿Ľä¸ĢæŃ¥æ£ĢæŁ¥": 7774,
      "23": 7775,
      "åİŁæĸĻ": 7776,
      "èĤĮéħĲ": 7777,
      "å¤ªå¤§çļĦ": 7778,
      "ä»£è°¢ç´Ĭä¹±": 7779,
      "è´Łè´£": 7780,
      "å¯¹å¥³æĢ§": 7781,
      "å¤ĩåŃķ": 7782,
      "åĴĮéĿŀ": 7783,
      "éģĹç²¾": 7784,
      "å¯¹ç§°æĢ§": 7785,
      "å¯¹æŃ¤": 7786,
      "é«ĺçĥ§": 7787,
      "å¤±çľłå¤ļæ¢¦": 7788,
      "åıĺç¡¬": 7789,
      "ä¾Ľè¡Ģä¸įè¶³": 7790,
      "äº§ç§ĳ": 7791,
      "å°¿è¡Ģ": 7792,
      "çļĦè¡Ģç®¡": 7793,
      "åı¯åĳĪ": 7794,
      "åĩłå¹´": 7795,
      "ç¿¼": 7796,
      "ç´§æĢ¥": 7797,
      "æĥħç»ªæ¿ĢåĬ¨": 7798,
      "å¤ļé£ŁçĶ¨": 7799,
      "éģ¿åħįåĩºçİ°": 7800,
      "çŁ³èĨı": 7801,
      "å¤§å°ıçļĦ": 7802,
      "æĺ¯æħ¢æĢ§": 7803,
      "ä¸įéĽĨä¸Ń": 7804,
      "åĪĨæķ£": 7805,
      "å®¢è§Ĥ": 7806,
      "æĢ¥åī§": 7807,
      "éĻįæ¸©": 7808,
      "å®¹æĺĵå¤įåıĳ": 7809,
      "ç²¾ç¥ŀåĪºæ¿Ģ": 7810,
      "å¤ļæĻ®åĭĴ": 7811,
      "PT": 7812,
      "å¸¸åĩºçİ°": 7813,
      "ä¸Ĭéĥ¨": 7814,
      "æħİéĩį": 7815,
      "è¡Ģèį¯": 7816,
      "å¿ĥåĨħèĨľ": 7817,
      "åĵ¦": 7818,
      "è¾ĥå°ĳè§ģ": 7819,
      "éªĳ": 7820,
      "éĿ¢ç¥ŀç»ı": 7821,
      "çĽ¸å½ĵäºİ": 7822,
      "çļĦå¿ĥæĢģ": 7823,
      "æĬĵæĮł": 7824,
      "æ¯įå©´ä¼łæĴŃ": 7825,
      "å¤ļåĽł": 7826,
      "å±Ģéĥ¨çļ®èĤ¤": 7827,
      "åħĭéļĨ": 7828,
      "å»ºè®®æĤ¨": 7829,
      "å¹¶ä¸įèĥ½": 7830,
      "æį£": 7831,
      "éª¨èĨľ": 7832,
      "ä½Ĩåħ¶": 7833,
      "æ¯ķç«Ł": 7834,
      "åºĶä»¥": 7835,
      "ä¿Ŀæ¹¿": 7836,
      "åĵģç§į": 7837,
      "èĤ±": 7838,
      "å½©èī²": 7839,
      "çĶŁçļĦ": 7840,
      "Ġ1": 7841,
      "å¹´ä»£": 7842,
      "éĻĨ": 7843,
      "æĹłç²¾çĹĩ": 7844,
      "çĮªèĤī": 7845,
      "æĦīæĤ¦": 7846,
      "æ±ī": 7847,
      "è§Ĥå¯ŁåĪ°": 7848,
      "ä¹Łç§°": 7849,
      "å°¿ä¸įå°½": 7850,
      "æĹłä»»ä½ķ": 7851,
      "åį±éĻ©æĢ§": 7852,
      "ä½ĻçļĦ": 7853,
      "è¿ĩä½İ": 7854,
      "æĬĹæ°§åĮĸ": 7855,
      "å°½éĩıå°ĳåĲĥ": 7856,
      "HPVæĦŁæŁĵ": 7857,
      "çĶ¨æĿ¥": 7858,
      "çļ®èĤ¤ç§ĳ": 7859,
      "199": 7860,
      "å°ĶèĴĻ": 7861,
      "èħŃ": 7862,
      "ç²Ĺçº¤ç»´": 7863,
      "èĦĤæº¢æĢ§": 7864,
      "æĢ§åĨ·æ·¡": 7865,
      "èĤ¿å¤§çļĦ": 7866,
      "çĬ¶æĢģä¸ĭ": 7867,
      "åĲĥä»Ģä¹Īæ°´æŀľ": 7868,
      "çĸ½": 7869,
      "åĬª": 7870,
      "ä½¿æĤ£èĢħ": 7871,
      "èĢ³èģĭ": 7872,
      "ä¸įåĲĮç¨ĭåº¦": 7873,
      "æ¸©æļĸ": 7874,
      "åĲĳå¤ĸ": 7875,
      "èĤĮåĬĽ": 7876,
      "çļĦå½¢æĢģ": 7877,
      "ä»»ä½ķå¹´é¾Ħ": 7878,
      "å¾Īå¤§çļĦå½±åĵį": 7879,
      "èĦļè¶¾": 7880,
      "çģĮèĤł": 7881,
      "çĹĩçŃī": 7882,
      "ä¸įè¦ģçĶ¨": 7883,
      "æİ¨æĭ¿": 7884,
      "æĢķåĨ·": 7885,
      "æħ¢æħ¢çļĦ": 7886,
      "åı¯ä»¥å¯¼èĩ´": 7887,
      "è¢«åıĳçİ°": 7888,
      "èĪĮå¤´": 7889,
      "è¡ĢçĺĢ": 7890,
      "å®ļä¹ī": 7891,
      "çĻĮåīįçĹħåıĺ": 7892,
      "åıĬæĹ¶çļĦæ²»çĸĹ": 7893,
      "åĮ»éĻ¢çļĦ": 7894,
      "å²ģä»¥åĲİ": 7895,
      "ç»ıç»ľ": 7896,
      "åįĬæľĪæĿ¿æįŁä¼¤": 7897,
      "å¸¸è¡¨çİ°ä¸º": 7898,
      "çĶŁèĤ²è¦ģæ±Ĥ": 7899,
      "æľīåĵªäºĽåĳ¢": 7900,
      "å¿ĥè¡°": 7901,
      "åı¯æł¹æį®": 7902,
      "ä¸ºå¤§å®¶": 7903,
      "çŃīçļĦ": 7904,
      "çķ¸èĥİ": 7905,
      "DS": 7906,
      "èµ·æºĲäºİ": 7907,
      "åĽĽåĳ¨": 7908,
      "ç£ºèĥº": 7909,
      "èĢħæħİçĶ¨": 7910,
      "éª¨è½¬ç§»": 7911,
      "ä¸īå¤©": 7912,
      "é»ĳä¾¿": 7913,
      "æīĢéĢłæĪĲçļĦ": 7914,
      "å¾®å¾ªçİ¯": 7915,
      "é£ŁçĽĲ": 7916,
      "èĥĥåĨħ": 7917,
      "èĦĳç¥ŀç»ı": 7918,
      "åħīæ³½": 7919,
      "é¢ħåĨħåİĭå¢ŀé«ĺ": 7920,
      "çĬ¬": 7921,
      "æ°Ķæ»ŀ": 7922,
      "è½¬åıĺä¸º": 7923,
      "éķ¿æľŁä½¿çĶ¨": 7924,
      "èĽĭçĻ½è´¨åĴĮ": 7925,
      "åħ¶ä¸Ńä»¥": 7926,
      "åĮ¹æŀĹ": 7927,
      "çļĦåŁºæľ¬": 7928,
      "ent": 7929,
      "èĦĳçĶµåĽ¾": 7930,
      "æ¯Ķè¾ĥå¤§çļĦ": 7931,
      "ä»Ĭå¤©": 7932,
      "çļ®èĤ¤åĴĮ": 7933,
      "èį·å°ĶèĴĻ": 7934,
      "äº¤éĢļ": 7935,
      "çģ¼çĹĽ": 7936,
      "é¥±èĥĢ": 7937,
      "49": 7938,
      "èĬĤå¥ı": 7939,
      "èĥ¸èħĶç§¯æ¶²": 7940,
      "éĿŀå¸¸å¤§": 7941,
      "åį±å®³æĢ§": 7942,
      "ç½ĳçĬ¶": 7943,
      "çº¤ç»´ç»Ħç»ĩ": 7944,
      "åĮħçļ®åŀ¢": 7945,
      "èĥĥéħ¸è¿ĩå¤ļ": 7946,
      "äºĮæĺ¯": 7947,
      "å¥³æĢ§æĤ£èĢħ": 7948,
      "å³¡": 7949,
      "åĵŃéĹ¹": 7950,
      "æ¹¿åº¦": 7951,
      "æŁĵèī²ä½ĵå¼Ĥå¸¸": 7952,
      "è¦ģçľĭ": 7953,
      "èĦĺ": 7954,
      "åį³ä¸º": 7955,
      "åĽłæŃ¤åľ¨": 7956,
      "å¿Įåı£": 7957,
      "è·ĳæŃ¥": 7958,
      "ç»Ģ": 7959,
      "æĹ¥æľ¬": 7960,
      "ç¬¬ä¸Ģä¸ª": 7961,
      "ä¼łæŁĵæĢ§çļĦ": 7962,
      "è¡Ģåİĭä¸ĭéĻį": 7963,
      "ç»Ĵæ¯ĽèĨľ": 7964,
      "èĤĽéĹ¨çĽ´èĤł": 7965,
      "åı¯æĺ¯": 7966,
      "å¢ŀåĬłäºĨ": 7967,
      "äº¤å¾Ģ": 7968,
      "åĮ»åĬ¡": 7969,
      "è¡Ģæ¸ħä¸Ń": 7970,
      "åĴĮèĥĥ": 7971,
      "æľīä¸¤ç§į": 7972,
      "æŁļ": 7973,
      "æīĭæľ¯æĸ¹å¼ı": 7974,
      "å¤§çĸ±": 7975,
      "ä»Ģä¹ĪçĹĩçĬ¶": 7976,
      "æ¶ĪåĮĸåĲ¸æĶ¶": 7977,
      "åĲ¯": 7978,
      "çŃīåĪºæ¿ĢæĢ§é£Łçī©": 7979,
      "åīįèĩĤ": 7980,
      "éĤ£æł·": 7981,
      "æĹ¥å¸¸æĬ¤çĲĨ": 7982,
      "æĦŁæŁĵæĹ¶": 7983,
      "æ»ŀçķĻ": 7984,
      "éļıçĿĢå¹´é¾ĦçļĦ": 7985,
      "èĥ½åĲ¦": 7986,
      "é»ĺ": 7987,
      "ä¼ļåĪºæ¿Ģ": 7988,
      "âĳ¢": 7989,
      "æĺ¯çĶ·æĢ§": 7990,
      "é³ŀçĬ¶": 7991,
      "ä½İçĽĲ": 7992,
      "çļĦæĢ§çĶŁæ´»": 7993,
      "åı¯æĮģç»Ń": 7994,
      "è¾ĥå¼º": 7995,
      "å¢ŀç²Ĺ": 7996,
      "åĮ»çĶŁä¼ļ": 7997,
      "å¤ļæ³¨æĦıä¼ĳæģ¯": 7998,
      "åĳ¼æ°Ķ": 7999,
      "å½»åºķæ²»æĦĪ": 8000,
      "è¯¯è¯Ĭä¸º": 8001,
      "æĤ£èĢħéľĢè¦ģ": 8002,
      "éĽ¨": 8003,
      "çĵľæŀľ": 8004,
      "åľ¨å®¶": 8005,
      "è¡¥åħħèĲ¥åħ»": 8006,
      "æĿ¥æºĲäºİ": 8007,
      "åĪ°åĮ»éĻ¢å°±è¯Ĭ": 8008,
      "å½±åĥıåŃ¦": 8009,
      "å¡ĳ": 8010,
      "ĠC": 8011,
      "ä¸ĢäºĽèį¯çī©": 8012,
      "æī¶": 8013,
      "æĸ°é²ľèĶ¬èıľ": 8014,
      "æĦŁæŁĵæĢ§çĸ¾çĹħ": 8015,
      "ä¼łéĢĴ": 8016,
      "è¿Ļæĺ¯çĶ±äºİ": 8017,
      "ç³ĸç±»": 8018,
      "åĪĩåĭ¿": 8019,
      "ĠI": 8020,
      "ä¸įå½»åºķ": 8021,
      "ä¸ºä¸»çļĦ": 8022,
      "èĩªä¸»ç¥ŀç»ı": 8023,
      "çĸŁ": 8024,
      "æŃ£ä¸Ń": 8025,
      "åħ¨çĲĥ": 8026,
      "èıľèĬ±": 8027,
      "èĢĮéĢłæĪĲ": 8028,
      "éĨĭéħ¸": 8029,
      "çļĦçĹħçĹĩ": 8030,
      "ç½ĳç»ľ": 8031,
      "èĭĶèĹĵ": 8032,
      "æ·ĭå·´çĻĮ": 8033,
      "æĺĵæĢĴ": 8034,
      "å¾Īå¤ļäººéĥ½": 8035,
      "ä¹Łå¾Ī": 8036,
      "æµĵç¼©": 8037,
      "çĹħæĥħçļĦåıĳå±ķ": 8038,
      "è¦ģæľī": 8039,
      "çĶ¨èį¯çī©": 8040,
      "æ±ĩ": 8041,
      "æĢĢåŃķäºĨ": 8042,
      "èľķ": 8043,
      "åı¯ä»¥æł¹æį®": 8044,
      "ä¹³çĻ½èī²": 8045,
      "æ©ĺåŃĲ": 8046,
      "å°±èĥ½å¤Ł": 8047,
      "ä¸ĢèĪ¬éľĢè¦ģ": 8048,
      "æ·±åħ¥": 8049,
      "è¿ĩå¿«": 8050,
      "èħ¿éĥ¨": 8051,
      "èµ·çĿĢ": 8052,
      "æĬĹæĬĳéĥģ": 8053,
      "å½±åĵįäºĨ": 8054,
      "çĶŁçĲĨæĢ§çļĦ": 8055,
      "å¯¹è±¡": 8056,
      "å¾®åĪĽæīĭæľ¯": 8057,
      "å¯¹åħ¶": 8058,
      "å¹¶æĹł": 8059,
      "åģļæ³ķ": 8060,
      "åīįåĪĹèħºåĽĬèĤ¿": 8061,
      "åĲ¬åĪ°": 8062,
      "HL": 8063,
      "ä½İèĦĤèĤª": 8064,
      "éĴĻè´¨": 8065,
      "é¥¼": 8066,
      "è¿ĩåº¦ç´§å¼ł": 8067,
      "åİ»æŃ£è§ĦåĮ»éĻ¢": 8068,
      "å°¿éģĵæĦŁæŁĵ": 8069,
      "ä¼¸çĽ´": 8070,
      "å¤ĸçĶ¨èį¯": 8071,
      "èĲ¥åħ»ä¸°å¯Į": 8072,
      "åı¯ä»¥åħĪ": 8073,
      "å¿ĥèıľ": 8074,
      "å°±æľīåı¯èĥ½": 8075,
      "çĶ²çĬ¶èħºæľºèĥ½": 8076,
      "æ¢Ń": 8077,
      "æĹ¶åĩºçİ°": 8078,
      "çĿ«": 8079,
      "å®¹æĺĵè¢«": 8080,
      "å·¨ç»Ĩèĥŀ": 8081,
      "çĬ¶çļĦ": 8082,
      "æĪĸèį¯": 8083,
      "åı¯ä»¥å¤ļåĲĥä¸ĢäºĽ": 8084,
      "åħįçĸ«æĢ§": 8085,
      "çļĦåİŁåĽłæĺ¯": 8086,
      "é²ľçº¢èī²": 8087,
      "ag": 8088,
      "ir": 8089,
      "åĪĩçīĩ": 8090,
      "æľĢä½İ": 8091,
      "èĦ¾èĦı": 8092,
      "æĸĳçīĩ": 8093,
      "åı¦ä¸Ģç§į": 8094,
      "ot": 8095,
      "çŃīçĹĩ": 8096,
      "å°±ä¸įä¼ļ": 8097,
      "æĲĵ": 8098,
      "åĻ¨è´¨æĢ§çĹħåıĺ": 8099,
      "å¼Ħ": 8100,
      "é¡¹æ£ĢæŁ¥": 8101,
      "æģĭ": 8102,
      "è¯ĬçĸĹ": 8103,
      "æĤ£çĹħçİĩ": 8104,
      "å¼Ĥçī©æĦŁ": 8105,
      "åħįçĸ«ç¼ºéĻ·": 8106,
      "æļĳ": 8107,
      "é¢ħéª¨": 8108,
      "çĶ²çĬ¶æĹģèħº": 8109,
      "ä»ħä»ħ": 8110,
      "åİīå®³": 8111,
      "ç»´æĬ¤": 8112,
      "èº«æĿĲ": 8113,
      "åĬłæ°´": 8114,
      "åį¡åĽł": 8115,
      "éĩıå¤ļ": 8116,
      "å®«é¢ĪçĤİçļĦ": 8117,
      "æĶ¯æĴĳ": 8118,
      "è¦ģåģļ": 8119,
      "è¡ĢéĴĻ": 8120,
      "åī§çĥĪçĸ¼çĹĽ": 8121,
      "æĸĩçĮ®": 8122,
      "198": 8123,
      "è¦ģåģļå¥½": 8124,
      "åĪĨæµģ": 8125,
      "æĺ¯åĲ¦åŃĺåľ¨": 8126,
      "MP": 8127,
      "åıĳéŁ³": 8128,
      "çĽ´ç«ĭ": 8129,
      "å°½éĩıåĩıå°ĳ": 8130,
      "è¡Ģèį¯æµĵåº¦": 8131,
      "æĬĹçĹħèĥ½åĬĽ": 8132,
      "å¾Ĺä»¥": 8133,
      "è½¬è¿Ĳ": 8134,
      "ç¿»èº«": 8135,
      "æį¢èį¯": 8136,
      "åľ¨è¿Ļä¸ª": 8137,
      "å¼ºçĥĪçļĦ": 8138,
      "LD": 8139,
      "éŁ³ä¹Ĳ": 8140,
      "ä¸»è¦ģæĺ¯éĢļè¿ĩ": 8141,
      "çĻ£èıĮ": 8142,
      "ç²¾ç¥ŀåĪĨè£ĤçĹĩ": 8143,
      "åľ¨æ²»çĸĹæľŁéĹ´": 8144,
      "æĶ¾æĿ¾å¿ĥæĥħ": 8145,
      "ä¿ĿæĮģå¿ĥæĥħèĪĴçķħ": 8146,
      "äº§çĶŁäºĨ": 8147,
      "éļıåĲİ": 8148,
      "åı¯ä»¥èµ·åĪ°": 8149,
      "å¹³çīĩ": 8150,
      "ä»Ģä¹Īæĺ¯": 8151,
      "èĦĬé«ĵçĤİ": 8152,
      "æīĢåľ¨": 8153,
      "å¸¸è§ģçļĦæľī": 8154,
      "è¡ĢéĴ¾": 8155,
      "åıĺå¤§": 8156,
      "èĦĳæ°´èĤ¿": 8157,
      "çĽ¸åħ³æ£ĢæŁ¥": 8158,
      "å¯¼èĩ´äºĨ": 8159,
      "è¡Ģç®¡çļĦ": 8160,
      "ä¸»è¦ģæĺ¯çĶ±": 8161,
      "è¯ķçº¸": 8162,
      "èħĭä¸ĭ": 8163,
      "éħĮæĥħ": 8164,
      "åĪºæ¿ĢæĢ§çļĦ": 8165,
      "éĺ´èĮİå¤´": 8166,
      "çĸ£ä½ĵ": 8167,
      "åľŁå£¤": 8168,
      "æĹłåħ³": 8169,
      "æ±Ģ": 8170,
      "æĢĢåŃķåĪĿæľŁ": 8171,
      "ä¹ĻèĤĿçĹħæ¯ĴæĲºå¸¦èĢħ": 8172,
      "çķªèĮĦ": 8173,
      "æ¯Ķè¾ĥéķ¿": 8174,
      "ç»Īæľ«": 8175,
      "æ²»çĸĹæĹ¶": 8176,
      "uc": 8177,
      "åı®": 8178,
      "äº«": 8179,
      "ç²ĺèĨľä¸ĭ": 8180,
      "åİ»åĮ»éĻ¢è¿Ľè¡Į": 8181,
      "ä¸įåı¯éĢĨ": 8182,
      "èĥ½ä¿ĥè¿Ľ": 8183,
      "æĺİç¡®çĹħåĽł": 8184,
      "ation": 8185,
      "æĪĲåĳĺ": 8186,
      "å®«èħĶç²ĺè¿ŀ": 8187,
      "è¿ĺåİŁ": 8188,
      "åĭ¤æį¢åĨħè£¤": 8189,
      "ç¡®è¯Ĭä¸º": 8190,
      "åłķ": 8191,
      "ä¸Ģå®ļç¨ĭåº¦ä¸Ĭ": 8192,
      "åĩºè¡ĢæĢ§": 8193,
      "åŃķå¦Īå¦Ī": 8194,
      "åħ¶ä¸»è¦ģ": 8195,
      "ç»Ĩèĥŀå¤ĸ": 8196,
      "éĴĪå¯¹æĢ§çļĦ": 8197,
      "ä»¥æ¸ħæ·¡ä¸ºä¸»": 8198,
      "é«Į": 8199,
      "éķ¿åľ¨": 8200,
      "æĺ¯éĿŀå¸¸éĩįè¦ģçļĦ": 8201,
      "æĢ§èĦĳèĨľçĤİ": 8202,
      "ï¼ļâĢľ": 8203,
      "éĿ¢å®¹": 8204,
      "ä¸īåıī": 8205,
      "æĽ´åĬłä¸¥éĩį": 8206,
      "æľºçĲĨ": 8207,
      "è®¨": 8208,
      "çĥ¦æģ¼": 8209,
      "å·¨å¤§çļĦ": 8210,
      "ä¸ºæŃ¤": 8211,
      "å¤§é¼ł": 8212,
      "èįīèİĵ": 8213,
      "ä¸įæİĴåįµ": 8214,
      "é¥®é£Łç»ĵæŀĦ": 8215,
      "å¤´æĺı": 8216,
      "æ°ĶèĻļ": 8217,
      "æŀģå°ĳ": 8218,
      "æľĢå¸¸è§ģçļĦæĺ¯": 8219,
      "ä½ĵéªĮ": 8220,
      "èį¯çļĦ": 8221,
      "åİŁèĻ«": 8222,
      "çĶ¨äºİæ²»çĸĹ": 8223,
      "èĤ¾ä¸Ĭèħºçļ®è´¨": 8224,
      "çĥ«æ´Ĺ": 8225,
      "çļĦè¡Ģæ¶²": 8226,
      "éļ¾åıĹ": 8227,
      "åħįçĸ«æĬĳåĪ¶åīĤ": 8228,
      "çļĦä¸Ģç§įçĸ¾çĹħ": 8229,
      "èĺĳèıĩ": 8230,
      "å¹¶ä¸Ķåľ¨": 8231,
      "çļĦçĹħçĲĨ": 8232,
      "æ¶¤": 8233,
      "åºĶè¿Ľè¡Į": 8234,
      "ç³ķ": 8235,
      "èį¯çī©çĽ¸": 8236,
      "åĺĮ": 8237,
      "å¤ļå°¿": 8238,
      "å¼ķå¯¼": 8239,
      "èĤĽéĹ¨çĺĻçĹĴ": 8240,
      "å¥³æĢ§æľĭåıĭä»¬": 8241,
      "æīĭæľ¯æĸ¹æ³ķ": 8242,
      "æıĲåįĩ": 8243,
      "é²ģ": 8244,
      "ä¹ĻçĬ¶ç»ĵèĤł": 8245,
      "Ag": 8246,
      "åĲİéĩį": 8247,
      "ä¸ŃèĢģå¹´": 8248,
      "æłĩè®°": 8249,
      "HS": 8250,
      "PD": 8251,
      "é¥®é£Łå®ľ": 8252,
      "éģĹå°¿": 8253,
      "æ¸Ĳæ¸Ĳ": 8254,
      "æĸ½è¡Į": 8255,
      "Ġf": 8256,
      "å¿Ļ": 8257,
      "éĺ´éģĵçļĦ": 8258,
      "èĢ³æľµ": 8259,
      "çĸ¾çĹħçļĦæ²»çĸĹ": 8260,
      "æľīè¿ĩ": 8261,
      "çļĦä¸¥éĩį": 8262,
      "åĴĮçĸ¼çĹĽ": 8263,
      "ä¸īé¤Ĳ": 8264,
      "ç¥ŀå¿Ĺ": 8265,
      "æŀģå¤§": 8266,
      "è¿ĩæ°§åĮĸ": 8267,
      "éĶĢ": 8268,
      "çļĦæįŁå®³": 8269,
      "120": 8270,
      "æ°´åĴĮ": 8271,
      "å¾Īæľīåı¯èĥ½": 8272,
      "è§£çŃĶ": 8273,
      "çĹĶæł¸": 8274,
      "æ¼±åı£": 8275,
      "ä¸»åĬ¨èĦīçĵ£": 8276,
      "å°ıç¼ĸ": 8277,
      "åıĳçĹħçļĦ": 8278,
      "åĬŁèĥ½äº¢è¿Ľ": 8279,
      "åħ±çĶ¨": 8280,
      "ä»°åį§": 8281,
      "èĥİå¿ĥ": 8282,
      "éĶĻè¿ĩ": 8283,
      "åĨħåı£": 8284,
      "æĹłæİĴåįµ": 8285,
      "åŁºåĽłçªģåıĺ": 8286,
      "åĴĮå¿ĥçĲĨ": 8287,
      "æģĴ": 8288,
      "å¹³éĿ¢": 8289,
      "å¤ļåĲĥèĶ¬èıľ": 8290,
      "éª¨çĻĮ": 8291,
      "æ²»çĸĹåİŁåĪĻ": 8292,
      "åŀĭé¢Īæ¤İçĹħ": 8293,
      "å¹³åį§": 8294,
      "çĿ¾ä¸¸éŀĺèĨľç§¯æ¶²": 8295,
      "åĽ¾åĥı": 8296,
      "åı¯ä»¥è¾¾åĪ°": 8297,
      "çĽ¸è¿ŀ": 8298,
      "åºľ": 8299,
      "ä»ĭå¯¼": 8300,
      "å¤ļåĲĥèĶ¬èıľæ°´æŀľ": 8301,
      "çļĦéĢŁåº¦": 8302,
      "åħ´å¥ĭæĢ§": 8303,
      "ä»¥ä¸ĭåĩłç§į": 8304,
      "åı¯ä»¥æľįçĶ¨": 8305,
      "åĪ¶æĪĲ": 8306,
      "ç¬¬äºĶ": 8307,
      "çļĦæĳĦåħ¥éĩı": 8308,
      "çĶ²çĬ¶èħºåĬŁèĥ½ä½İä¸ĭ": 8309,
      "ç¡¬èĨľ": 8310,
      "ä¸ªæĸ¹éĿ¢": 8311,
      "æ¯Ķè¾ĥæĺİæĺ¾": 8312,
      "é¦ĸåıĳ": 8313,
      "ä¸įæŃ¢": 8314,
      "èĥ½æ²»å¥½åĲĹ": 8315,
      "éĩįå»º": 8316,
      "ä¸īåįģ": 8317,
      "å¢ŀçĶŁæĢ§": 8318,
      "çŃīæ£ĢæŁ¥": 8319,
      "åĩĿè¡Ģéħ¶": 8320,
      "åĲįç§°": 8321,
      "åĩıéĩı": 8322,
      "è¸Ŀåħ³èĬĤ": 8323,
      "æľīå¤ļç§į": 8324,
      "æĪĳä»¬å°±": 8325,
      "æ³¨å°ĦçĶ¨": 8326,
      "æĵ¦æĭŃ": 8327,
      "çģ°è´¨": 8328,
      "å¤ļåĳĪ": 8329,
      "åħ»èĥĥ": 8330,
      "æ¯Ķè¾ĥå®¹æĺĵ": 8331,
      "ä»£è°¢äº§çī©": 8332,
      "é«ĺåį±åŀĭ": 8333,
      ");": 8334,
      "ä¸¥éĩįçļĦæĤ£èĢħ": 8335,
      "å¤ªè¿ĩ": 8336,
      "æ³¼": 8337,
      "èĩªéĻĲ": 8338,
      "å¤ļåĬ¨çĹĩ": 8339,
      "æµģè¡ĮæĢ§": 8340,
      "æĹłæĺİæĺ¾çĹĩçĬ¶": 8341,
      "èĦĳå¤ĸä¼¤": 8342,
      "æĺĵæĤ£": 8343,
      "åĩĿåĽº": 8344,
      "ç´«èī²": 8345,
      "äººåľ¨": 8346,
      "è¾ĵåħ¥": 8347,
      "ç½ª": 8348,
      "åįĴä¸Ń": 8349,
      "åŃķæĹ©æľŁ": 8350,
      "çĸ¼çĹĽçŃī": 8351,
      "åŁºåĽłçļĦ": 8352,
      "çĻĶçĹĩ": 8353,
      "éħ·": 8354,
      "æ²īæ·Ģ": 8355,
      "æĸĩç«ł": 8356,
      "åıĳéħµ": 8357,
      "çĤİåĴĮ": 8358,
      "çŃīèį¯çī©": 8359,
      "åĩºçİ°éĹ®é¢ĺ": 8360,
      "å°±æĺ¯å¯¹": 8361,
      "è¡¥ä½ĵ": 8362,
      "æİ§åĪ¶çĹħæĥħ": 8363,
      "åĪĻéľĢè¦ģ": 8364,
      "äºĮæ¬¡": 8365,
      "æĹłçĹĽæĢ§": 8366,
      "æĪĲåĬŁçİĩ": 8367,
      "ç³ĸåİŁ": 8368,
      "éħµæ¯į": 8369,
      "ç»Ħç»ĩä¸Ń": 8370,
      "æµ·äº§åĵģ": 8371,
      "éĥ½æ²¡æľī": 8372,
      "çģ¯": 8373,
      "çĺĢè¡Ģ": 8374,
      "èį¯çī©çĽ¸ä½ľçĶ¨": 8375,
      "çĤ¹æ»´": 8376,
      "èĦ¾èĻļ": 8377,
      "éĺ¿åı¸": 8378,
      "æľīä»¥ä¸ĭåĩłç§į": 8379,
      "åıĺå°ı": 8380,
      "é¡¶ç«¯": 8381,
      "éĥ½åºĶè¯¥": 8382,
      "èĤĮçļĦ": 8383,
      "è½¬æį¢": 8384,
      "ä¹³ç´ł": 8385,
      "çĮĿ": 8386,
      "æĪĲå½¢": 8387,
      "æ¿Ģéħ¶": 8388,
      "åĿļæŀľ": 8389,
      "åĳĬè¯ī": 8390,
      "åłķèĥİ": 8391,
      "å¹´é¾Ħå¢ŀéķ¿": 8392,
      "èĥ½å¼ķèµ·": 8393,
      "åħ·æľīä¼łæŁĵæĢ§": 8394,
      "æ·¡çº¢èī²": 8395,
      "éķľæ£Ģ": 8396,
      "å¹ħåº¦": 8397,
      "32": 8398,
      "ä¹ŁåºĶ": 8399,
      "éķ¿çº¦": 8400,
      "èĦĳèĤ¿çĺ¤": 8401,
      "åĽ½å¤ĸ": 8402,
      "å¥¥": 8403,
      "åĨħæ³¨å°Ħ": 8404,
      "å¤ļäºĨ": 8405,
      "éĩĮæĢ¥": 8406,
      "å°ļæľī": 8407,
      "å¹²ç»Ĩèĥŀ": 8408,
      "ç§¯ç´¯": 8409,
      "çī¡": 8410,
      "åĴĮç¥ŀç»ı": 8411,
      "åĪĨä¸ºæĢ¥æĢ§": 8412,
      "æľīæīĢäºĨè§£äºĨ": 8413,
      "éĹ´æĸŃ": 8414,
      "è¿Ļå°±": 8415,
      "æĮĩå¾ģ": 8416,
      "éķ¿åĩº": 8417,
      "çļĦæ²»çĸĹæİªæĸ½": 8418,
      "äº¤åıīæĦŁæŁĵ": 8419,
      "ä¹ĭåĵģ": 8420,
      "åĪĻä¸º": 8421,
      "ä¼¸å±ķ": 8422,
      "éĽ¶é£Ł": 8423,
      "æĺ¯æĪĳä»¬": 8424,
      "çĤİçļĦåıĳçĶŁ": 8425,
      "ä¿ĿæĮģä¹Ĳè§Ĥ": 8426,
      "æ¸Ĺåĩºçī©": 8427,
      "å®īç¥ŀ": 8428,
      "åĪĨå¨©åĲİ": 8429,
      "ç»ĵå©ļ": 8430,
      "æ¢ģ": 8431,
      "ä¹łæĥ¯æĢ§": 8432,
      "èĦĬæŁ±ä¾§å¼¯": 8433,
      "ä½¿ä¹ĭ": 8434,
      "æĬĹç»Ħèĥº": 8435,
      "é»Ħçĸ¸åŀĭ": 8436,
      "å·¨åĻ¬ç»Ĩèĥŀ": 8437,
      "æŁ¥ä½ĵ": 8438,
      "åīįåĪĹèħºç´ł": 8439,
      "çķ¸èĥİçĺ¤": 8440,
      "æľ¨çĵľ": 8441,
      "çĹħæŃ»çİĩ": 8442,
      "ä¼ļå¼ķåıĳ": 8443,
      "çĹĩçĬ¶æĹ¶": 8444,
      "çĶµè§Ĩ": 8445,
      "èĩªèº«åħįçĸ«æĢ§çĸ¾çĹħ": 8446,
      "èĤ¾è¡°ç«Ń": 8447,
      "ä¸įä»ħä»ħ": 8448,
      "è¿ĩäºİæĭħå¿ĥ": 8449,
      "æĤ²è§Ĥ": 8450,
      "åıįå¤įçļĦ": 8451,
      "å¤ĸæķ·": 8452,
      "å°±ä¼ļæľī": 8453,
      "æ´»åĮĸ": 8454,
      "çĽ¸ç»ĵåĲĪ": 8455,
      "æīĭèħķ": 8456,
      "çĪ¬": 8457,
      "ä¹Łä¸įåĲĮ": 8458,
      "æ¡ĤåľĨ": 8459,
      "æ°´æĿ¨": 8460,
      "ä¸įæ²»çĸĹ": 8461,
      "æ¹ĸ": 8462,
      "åıĳçĹħåĲİ": 8463,
      "åĲĦç±»": 8464,
      "ä¸ĢæĹ¦åıĳçĶŁ": 8465,
      "ä¸ĭæ®µ": 8466,
      "å¤ĸèĢ³éģĵ": 8467,
      "æ°ĶèĤ¿": 8468,
      "è¢ľ": 8469,
      "åľ¨åºĬä¸Ĭ": 8470,
      "éģĹä¼łçĹħ": 8471,
      "é»ĳç´ł": 8472,
      "åĲ¸å¼ķ": 8473,
      "åĽłç´łå¼ķèµ·çļĦ": 8474,
      "è¾ĵåįµç®¡ç²ĺè¿ŀ": 8475,
      "æĢ§æįŁä¼¤": 8476,
      "ä¸Ńæ¯ĴçĹĩçĬ¶": 8477,
      "æ³¨æĦıä¿Ŀæļĸ": 8478,
      "èĶĹ": 8479,
      "çļĦçĹħ": 8480,
      "éĢļéĢıæĢ§": 8481,
      "ä¸ĭç«¯": 8482,
      "æ¿Ģç´łåĪĨæ³Į": 8483,
      "åİĮé£ŁçĹĩ": 8484,
      "éĩĮæĢ¥åĲİéĩį": 8485,
      "åĲĦç§įåĲĦ": 8486,
      "åĴĮç»§åıĳæĢ§": 8487,
      "åĬłçĶ¨": 8488,
      "éĿ¢æĿ¡": 8489,
      "è¡¥æ¶²": 8490,
      "çŃīå¾ħ": 8491,
      "èĤłçĻĮ": 8492,
      "di": 8493,
      "æĢ¥æĢ§èĤłèĥĥçĤİ": 8494,
      "æ²»çĸĹçļĦæĸ¹æ³ķ": 8495,
      "åı¯èĥ½åľ¨": 8496,
      "éª¨çļĦ": 8497,
      "å¤±ä»£åģ¿": 8498,
      "èĬ±åºı": 8499,
      "å©´åĦ¿çļĦ": 8500,
      "ä»¥åħįå¼ķèµ·": 8501,
      "çĹħçĲĨæĢ§çļĦ": 8502,
      "æĢ§èį¨éº»çĸ¹": 8503,
      "çĶ¨çĥŃæ°´": 8504,
      "éģ®": 8505,
      "å¹³æĹ¶åºĶè¯¥": 8506,
      "åįıåĲĮ": 8507,
      "æ°´ä¸Ń": 8508,
      "ä½ĨæĹł": 8509,
      "æŀģå°ĳæķ°": 8510,
      "æµĨèĨľ": 8511,
      "âħ¡": 8512,
      "èĤĮèĲİç¼©": 8513,
      "åİŁæĿ¥": 8514,
      "çģ¼çĥŃæĦŁ": 8515,
      "æĪĲåĥı": 8516,
      "å¤±è¡Ģ": 8517,
      "å¿ħçĦ¶": 8518,
      "åĺĮåĳ¤": 8519,
      "æľĹ": 8520,
      "èĤĿåĬŁ": 8521,
      "æľīåĵªäºĽçĹĩçĬ¶": 8522,
      "éĿŀæīĭæľ¯æ²»çĸĹ": 8523,
      "æ¶¦æ»ĳ": 8524,
      "ä¹ĻèĤĿè¡¨éĿ¢æĬĹåİŁ": 8525,
      "çļĦè°ĥèĬĤ": 8526,
      "çĶŁçĹħ": 8527,
      "åīĬ": 8528,
      "åı¯ä¿ĥè¿Ľ": 8529,
      "éĹ´æľŁ": 8530,
      "åĪĩæľ¯": 8531,
      "åĬªåĬĽ": 8532,
      "Ġg": 8533,
      "ä¸īæ¬¡": 8534,
      "ç»Ĩå°ı": 8535,
      "è§¦è¯Ĭ": 8536,
      "çĻ«çĸ¯": 8537,
      "åĮ»æĤ£": 8538,
      "è¶Ĭå¤ļ": 8539,
      "åħįçĸ«åĬĽä½İä¸ĭ": 8540,
      "æĻºèĥ½": 8541,
      "èµ·å±ħ": 8542,
      "çļĦåĲĦç§į": 8543,
      "çĶ·åŃĲ": 8544,
      "è¡Ģç®¡åĨħ": 8545,
      "æĺ¯ä»Ģä¹ĪåİŁåĽłå¼ķèµ·çļĦ": 8546,
      "å£ģçļĦ": 8547,
      "æĪĸèį¯å¸Ī": 8548,
      "èĤĿåĬŁèĥ½å¼Ĥå¸¸": 8549,
      "åľ¨åĩºçİ°": 8550,
      "ä¸įå¹²åĩĢ": 8551,
      "åĲĥä¸ľè¥¿": 8552,
      "æģ¢å¤įåĪ°": 8553,
      "ä¸İäºº": 8554,
      "åı¦ä¸Ģä¸ª": 8555,
      "åĨħåĲ«": 8556,
      "éĽĦæĢ§æ¿Ģç´ł": 8557,
      "æ¯ıä¸ªäººçļĦ": 8558,
      "ä½¿çĶ¨æĬĹçĶŁç´ł": 8559,
      "åĴ¨è¯¢åĮ»å¸Ī": 8560,
      "èĬ±æĸĳçĻ£": 8561,
      "çĶŁæ°Ķ": 8562,
      "åĹħ": 8563,
      "å°ļä¸į": 8564,
      "å¤ĸç§ĳæīĭæľ¯": 8565,
      "ç§ĭåŃ£": 8566,
      "æ·¡æ¼ł": 8567,
      "èĤ©åĳ¨çĤİ": 8568,
      "åħĶ": 8569,
      "å°ıåīĤéĩı": 8570,
      "è¡Ģè¡Į": 8571,
      "éĺ¿åı¸åĮ¹æŀĹ": 8572,
      "èį¯æ²»çĸĹ": 8573,
      "è¾ĥçŁŃ": 8574,
      "éķ¿çĹĺ": 8575,
      "æ£ĢæŁ¥æĸ¹æ³ķ": 8576,
      "æ¢¯": 8577,
      "åİŁå§ĭ": 8578,
      "çĳŁ": 8579,
      "æģ©": 8580,
      "Na": 8581,
      "åı¯ä»¥æľīæķĪ": 8582,
      "é»ĦèĬª": 8583,
      "dro": 8584,
      "æŀļ": 8585,
      "è¿ĺä¼´æľī": 8586,
      "æ³¨æĦıåį«çĶŁ": 8587,
      "ç»Ĩèĥŀæµ¸æ¶¦": 8588,
      "å¾®å°ı": 8589,
      "æ¶ĪåĮĸéģĵçĹĩçĬ¶": 8590,
      "ä»Ļ": 8591,
      "åľ¨å¦Ĭå¨ł": 8592,
      "å¢ŀå¤ļçĹĩ": 8593,
      "åı¯è§ģåĪ°": 8594,
      "å°¸": 8595,
      "åİ»æ²»çĸĹ": 8596,
      "æ¬¡æķ°å¢ŀå¤ļ": 8597,
      "æĪĲä»½": 8598,
      "æ¡Ķ": 8599,
      "æģ¶èĩŃ": 8600,
      "åįĬèº«": 8601,
      "çļĦåĮºåĪ«": 8602,
      "äº§è¤¥": 8603,
      "æİĴæ°Ķ": 8604,
      "åĩºè¡ĢåĴĮ": 8605,
      "éļ¾æ²»": 8606,
      "åħ³èĬĤçĸ¼çĹĽ": 8607,
      "ase": 8608,
      "è®°å¿ĨåĬĽåĩıéĢĢ": 8609,
      "æĮ½": 8610,
      "ä¸İåħ¶": 8611,
      "æĪĴçĥŁæĪĴéħĴ": 8612,
      "å¤ļå·´èĥº": 8613,
      "æĤ£åĦ¿çļĦ": 8614,
      "åĬłåĩı": 8615,
      "çļĦåİŁåĽłä¹ĭä¸Ģ": 8616,
      "çļĦæĢ§è´¨": 8617,
      "åºķéĥ¨": 8618,
      "åīĤéĩıä¸º": 8619,
      "/(": 8620,
      "åı¯éĢīçĶ¨": 8621,
      "å¹¿æ³ĽçļĦ": 8622,
      "ç°ĩ": 8623,
      "æķ°å°ıæĹ¶": 8624,
      "ä¼¤åı£æĦĪåĲĪ": 8625,
      "æĺĵæ¶ĪåĮĸçļĦé£Łçī©": 8626,
      "æ¤İéĹ´çĽĺçªģåĩº": 8627,
      "çĹĩåĢĻ": 8628,
      "ys": 8629,
      "è¯´æĺ¯": 8630,
      "ä¹ĻèĤĿäºĶé¡¹": 8631,
      "ä¸įæĦ¿": 8632,
      "åľ¨è¿Ļ": 8633,
      "å¿ĥçĲĨéļľç¢į": 8634,
      "éĺµæĮĽ": 8635,
      "æľĪç»ıè¿ĩå¤ļ": 8636,
      "çº¿ç²Ĵä½ĵ": 8637,
      "æľªç»ı": 8638,
      "åļı": 8639,
      "ä¸Ģè¿ĩ": 8640,
      "ä¹Łåı¯ä»¥éĢļè¿ĩ": 8641,
      "ä¹Łèĥ½å¤Ł": 8642,
      "æ¶¦èĤł": 8643,
      "å¤ļè¡¨çİ°ä¸º": 8644,
      "éĩıå¢ŀåĬł": 8645,
      "èĬį": 8646,
      "æīĭæľ¯ä»¥åĲİ": 8647,
      "åŃĺåľ¨çĿĢ": 8648,
      "ä»Ģä¹Īç§ĳ": 8649,
      "ä¸ĭçĸ³": 8650,
      "æ£Ĵ": 8651,
      "å¤ļå½¢æĢ§": 8652,
      "ä½łåı¯ä»¥": 8653,
      "ä¸Ńèįīèį¯": 8654,
      "è¿ĻäºĽçĸ¾çĹħ": 8655,
      "ä¸įå¿ħè¦ģçļĦ": 8656,
      "èĤ¾ä¸Ĭèħºçļ®è´¨æ¿Ģç´ł": 8657,
      "42": 8658,
      "çīĪ": 8659,
      "åı¯èĥ½æĺ¯åĽłä¸º": 8660,
      "åı£èħĶçĻĮ": 8661,
      "æĿıä»ģ": 8662,
      "ä»¿": 8663,
      "åĨħéļľ": 8664,
      "ç¥ŀç»ıæĢ§çļ®çĤİ": 8665,
      "çĽ¸ä¿¡å¤§å®¶å¯¹": 8666,
      "ä¸ŃèĢ³çĤİ": 8667,
      "æ¿Ģåıĳ": 8668,
      "éĺ»å¡ŀæĢ§": 8669,
      "ox": 8670,
      "æĶ¾å°Ħçº¿": 8671,
      "ell": 8672,
      "å¦Ĥä»Ĭ": 8673,
      "ç»·": 8674,
      "ç¢Ĺ": 8675,
      "çİ¯å¢ĥä¸Ń": 8676,
      "çī©çĲĨçĸĹæ³ķ": 8677,
      "æļĹç¤º": 8678,
      "å¤ļæ¯Ľ": 8679,
      "æ»ĭéĺ´": 8680,
      "è®²ç©¶": 8681,
      "ï¼ļï¼Ī": 8682,
      "é¸Ł": 8683,
      "ä»¤äºº": 8684,
      "é«ĺèĦĤè¡ĢçĹĩ": 8685,
      "çļĦå¤§": 8686,
      "è¦ģåľ¨": 8687,
      "éķ¿æľŁåĪºæ¿Ģ": 8688,
      "æİĪ": 8689,
      "èľ¡": 8690,
      "çļĦçĶ·æĢ§": 8691,
      "æĹ¶çĸ¼çĹĽ": 8692,
      "å¤ĸåĩº": 8693,
      "æĪĳä»¬åı¯ä»¥": 8694,
      "æ·¡é»Ħèī²": 8695,
      "çĥ¦èºģä¸įå®ī": 8696,
      "è¿¹è±¡": 8697,
      "éļıä¾¿": 8698,
      "çľĭä¸Ģä¸ĭ": 8699,
      "åı¯çĽ´æİ¥": 8700,
      "ä¸įå»ºè®®": 8701,
      "åĲĪçĲĨé¥®é£Ł": 8702,
      "åĸ·åļı": 8703,
      "æĪĸåĩºçİ°": 8704,
      "æĹ©èµ·": 8705,
      "æ°´æĿ¨éħ¸": 8706,
      "æķ¢": 8707,
      "éĥ½ä¼ļå¼ķèµ·": 8708,
      "å¼§": 8709,
      "åı¯æĢķ": 8710,
      "å°¤ä»¥": 8711,
      "000": 8712,
      "æĭĸå»¶": 8713,
      "è¿ĩçļĦ": 8714,
      "çĿ¡çľłæĹ¶éĹ´": 8715,
      "å®Įåħ¨æĢ§": 8716,
      "ä¸įé«ĺ": 8717,
      "çŃīåľ°": 8718,
      "æħ¢æĢ§çļĦ": 8719,
      "ç½©": 8720,
      "è½¬ç§»æĢ§": 8721,
      "èĥĽ": 8722,
      "IL": 8723,
      "ç¼ĸçłģ": 8724,
      "ç§ģå¤Ħ": 8725,
      "åı¯åĩıå°ĳ": 8726,
      "æķĽ": 8727,
      "èĥĥéķľ": 8728,
      "è®¸å¤ļäºº": 8729,
      "ä¼¦çĲĨ": 8730,
      "äº¬": 8731,
      "åı¯ä»¥æľīæķĪçļĦ": 8732,
      "çļ®è´¨ç±»åĽºéĨĩ": 8733,
      "èİ²åŃĲ": 8734,
      "çĻ½èī²å¿µçıłèıĮ": 8735,
      "çĹīæĮĽæĢ§": 8736,
      "ç³ĸåĪĨ": 8737,
      "çľ¼çľ¶": 8738,
      "Ġb": 8739,
      "çĻ½åĨħéļľ": 8740,
      "ä¹ĻåŀĭèĤĿçĤİçĹħæ¯Ĵ": 8741,
      "çĶ²çĬ¶èħºåĬŁèĥ½äº¢è¿ĽçĹĩ": 8742,
      "åı¯ä»¥åı£æľį": 8743,
      "ä¸ĢæĿ¡": 8744,
      "ä¸»è¦ģå°±æĺ¯": 8745,
      "çĸ¼çĹĽçļĦçĹĩçĬ¶": 8746,
      "èĲ¥åħ»ç´ł": 8747,
      "äºļåŀĭ": 8748,
      "èħ¹èħĶéķľæīĭæľ¯": 8749,
      "èĲ¥åħ»åĿĩè¡¡": 8750,
      "åĪ¤å®ļ": 8751,
      "HA": 8752,
      "çª¥": 8753,
      "çĥ§å¿ĥ": 8754,
      "ä½ĵè¡¨": 8755,
      "åĲ¸æ°Ķ": 8756,
      "æł¹æį®çĹħæĥħ": 8757,
      "å°½éĩıçļĦ": 8758,
      "è¯ķéªĮéĺ³æĢ§": 8759,
      "èĩªçĶ±åŁº": 8760,
      "çĶŁåĲİ": 8761,
      "åĬ¨éĿĻèĦī": 8762,
      "æķ°æĹ¥": 8763,
      "è¿Ļä¸ªçĹħ": 8764,
      "éĺĶ": 8765,
      "èĤ©èĥĽ": 8766,
      "æĦŁæŁĵå¼ķèµ·": 8767,
      "é¥²": 8768,
      "ç»Ħç»ĩçĹħçĲĨ": 8769,
      "ç©¿éĢı": 8770,
      "å¤ĸçĶ¨èį¯çī©": 8771,
      "æļĤæĹ¶æĢ§": 8772,
      "è¿ĩæķıèĢħç¦ģçĶ¨": 8773,
      "Ġå¦Ĥ": 8774,
      "å¸¸ä¼´": 8775,
      "èįĶ": 8776,
      "åĪ°æŃ£è§ĦçļĦåĮ»éĻ¢": 8777,
      "æİĴåįµéļľç¢į": 8778,
      "èħĵ": 8779,
      "çŃīæľīåħ³": 8780,
      "å¤ĸéĿ¢": 8781,
      "ä¹³èħºçĻĮçļĦ": 8782,
      "æŀľç³ĸ": 8783,
      "æľīå¾Īå¤ļç§į": 8784,
      "ä¸įåıĬæĹ¶æ²»çĸĹ": 8785,
      "èĥĥéķľæ£ĢæŁ¥": 8786,
      "æ¸ħéĨĴ": 8787,
      "å®ŀæĢ§": 8788,
      "ç¼ºéĵģ": 8789,
      "èħĲèļĢ": 8790,
      "èĥ«éª¨": 8791,
      "åĨħéķľ": 8792,
      "åŃĲå¥³": 8793,
      "ç»Ĩèĥŀå¢ŀçĶŁ": 8794,
      "é»Ħç´ł": 8795,
      "å®ļæľŁçļĦ": 8796,
      "è¯ĬæĸŃçļĦ": 8797,
      "éĺ¿ç±³å·´": 8798,
      "HCV": 8799,
      "ç¥ŀç»ıå®ĺèĥ½çĹĩ": 8800,
      "éĴĪå¯¹æĢ§çļĦæ²»çĸĹ": 8801,
      "åĨħåĪĨæ³Įçĸ¾çĹħ": 8802,
      "åħĥå·¦åı³": 8803,
      "ä¾ĿèµĸæĢ§": 8804,
      "æĤ£èĢħçļĦèº«ä½ĵ": 8805,
      "è¶ħå£°æ³¢": 8806,
      "èµ·å§ĭ": 8807,
      "åı¯ä»¥æľī": 8808,
      "çļ®èĤ¤åĩºçİ°": 8809,
      "éģ¿åħįé£ŁçĶ¨": 8810,
      "éĻĲäºİ": 8811,
      "èĬĴ": 8812,
      "å§Ķ": 8813,
      "è¡Ģç³ĸé«ĺ": 8814,
      "è¤¶": 8815,
      "åıĪåĲį": 8816,
      "æľīæĹ¶åı¯": 8817,
      "èµĺçĶŁçī©": 8818,
      "çī©ä½ĵ": 8819,
      "åħ¶ä¸ŃçļĦ": 8820,
      "æīĭèĩĤ": 8821,
      "åĲĮæĹ¶åŃĺåľ¨": 8822,
      "æŃª": 8823,
      "é²ľçº¢": 8824,
      "åºĵ": 8825,
      "æģ¢å¤įåģ¥åº·": 8826,
      "é¥®é£Łä¸įå½ĵ": 8827,
      "æ½®çĥŃ": 8828,
      "ä¿ĿæĬ¤ä½ľçĶ¨": 8829,
      "ä¸įåĬ¨": 8830,
      "æĪĸåĬłéĩį": 8831,
      "ä»ĭç»įäºĨ": 8832,
      "HPVçĹħæ¯Ĵ": 8833,
      "æīĭæľ¯æĹ¶": 8834,
      "å²ģå·¦åı³": 8835,
      "åĬ¨çī©çļĦ": 8836,
      "ç»ĵèĨľçĤİ": 8837,
      "çļ®èĤ¤é»ıèĨľ": 8838,
      "è¶Ĭå¥½": 8839,
      "éĢĤåºĶè¯ģ": 8840,
      "åħ³ç³»çļĦ": 8841,
      "åĪ¶éĢł": 8842,
      "éĿĴèıľ": 8843,
      "Ġ7": 8844,
      "åħ¸": 8845,
      "åĪĽéĢł": 8846,
      "æ¸ĹéĢıåİĭ": 8847,
      "æīĳ": 8848,
      "ä½ĵå¼±": 8849,
      "æ²»çĸĹæİªæĸ½": 8850,
      "éĢłæĪĲå½±åĵį": 8851,
      "çķĮéĻĲ": 8852,
      "æĤī": 8853,
      "çļĦåĦ¿ç«¥": 8854,
      "è¯¾": 8855,
      "çī¹æķĪ": 8856,
      "çĮ«": 8857,
      "è¿Ļæł·æīįèĥ½å¤Ł": 8858,
      "ä¹Łä¸įæĺ¯": 8859,
      "è½¬éĺ´": 8860,
      "ç¼ºå¦Ĥ": 8861,
      "éģµå¾ª": 8862,
      "æīĭæľ¯åīį": 8863,
      "åı³å¿ĥå®¤": 8864,
      "æľīäºĽçĹħäºº": 8865,
      "éĩįä½ĵåĬĽåĬ³åĬ¨": 8866,
      "æĽ´æĺ¯": 8867,
      "ç²¾ç¥ŀçĸ¾çĹħ": 8868,
      "åģļå¥½é¢Ħéĺ²": 8869,
      "ä¸įçŁ¥": 8870,
      "å¢ŀå¿«": 8871,
      "æħ¢æĢ§èį¨éº»çĸ¹": 8872,
      "å¯¹çĹĩå¤ĦçĲĨ": 8873,
      "ç±»ä¼¼äºİ": 8874,
      "ä¸įä¹ħ": 8875,
      "èĩ´æŃ»": 8876,
      "åİŁåĽłä¹ĭä¸Ģ": 8877,
      "åĪĨæ³Įåĩıå°ĳ": 8878,
      "éĩįå¤§": 8879,
      "éĻįç³ĸ": 8880,
      "èĵĦ": 8881,
      "è´£ä»»": 8882,
      "ä¸įä¸Ģæł·çļĦ": 8883,
      "çĶ·åŃ©": 8884,
      "åĮ»åĬ¡äººåĳĺ": 8885,
      "ç¼ł": 8886,
      "å¹´çļĦ": 8887,
      "åĿĲéª¨ç¥ŀç»ı": 8888,
      "åģıé£Ł": 8889,
      "å°ĳæķ°çĹħäºº": 8890,
      "ç¾ĬçĻ«çĸ¯": 8891,
      "ç¼ºçĤ¹": 8892,
      "éĥ½åı¯": 8893,
      "æ»´èĻ«æĢ§éĺ´éģĵçĤİ": 8894,
      "æŁ¥åĩº": 8895,
      "éģ¿åħįæİ¥è§¦": 8896,
      "èĪŀ": 8897,
      "å½¢æĪĸ": 8898,
      "çĻ½å¸¦åıĳé»Ħ": 8899,
      "æĥħç»ªæ³¢åĬ¨": 8900,
      "åĬłä¹ĭ": 8901,
      "å¹´åĨħ": 8902,
      "çĽ¸éĤ»": 8903,
      "æ£ĢæŁ¥ä¸Ģä¸ĭ": 8904,
      "æľĢå¤ļè§ģ": 8905,
      "æĥ³æ³ķ": 8906,
      "æ³¨æĦıåĬĽä¸įéĽĨä¸Ń": 8907,
      "ve": 8908,
      "çļĦæĦĪåĲĪ": 8909,
      "èĦ²": 8910,
      "ä¸įéľĢ": 8911,
      "çĸ¾çĹħå¼ķèµ·çļĦ": 8912,
      "åĽŃ": 8913,
      "åİŁä½į": 8914,
      "å¤ļåĬłæ³¨æĦı": 8915,
      "æīª": 8916,
      "å¤±æĺİ": 8917,
      "èĤ¿çĺ¤çŃī": 8918,
      "çİ¯ç´ł": 8919,
      "æīįæĺ¯": 8920,
      "åĨ¬å¤©": 8921,
      "ç»ĨèıĮæĢ§åīįåĪĹèħºçĤİ": 8922,
      "å¥ĪçĳŁ": 8923,
      "æĬĹçĶ²çĬ¶èħº": 8924,
      "è¿·èµ°": 8925,
      "Ġin": 8926,
      "æ¸¡": 8927,
      "éĿŀå¸¸å¤§çļĦ": 8928,
      "ä¿Ŀè¯ģåħħè¶³çļĦçĿ¡çľł": 8929,
      "èĤĿèĥĨ": 8930,
      "IgM": 8931,
      "æŀľå®ŀ": 8932,
      "èĤĿæĢ§èĦĳçĹħ": 8933,
      "å®«é¢ĪçĤİçĹĩ": 8934,
      "éĿĻèĦīåĽŀæµģ": 8935,
      "èĥĥçĻĮçļĦ": 8936,
      "å·²çŁ¥": 8937,
      "çļĦä½ľçĶ¨ä¸ĭ": 8938,
      "é¢ľéĿ¢": 8939,
      "ä¸Ģå®ļçļĦå½±åĵį": 8940,
      "åĨħåľ¨": 8941,
      "çħ®æ²¸": 8942,
      "im": 8943,
      "èħºåŀĤä½ĵ": 8944,
      "ä¸ªæľĪå·¦åı³": 8945,
      "éĺħ": 8946,
      "å°ĳçļĦ": 8947,
      "æĮº": 8948,
      "éĴĪå¤´": 8949,
      "å¦¨ç¢į": 8950,
      "éĢļè¿ĩä¸Ĭè¿°çļĦä»ĭç»į": 8951,
      "åĨħæºĲæĢ§": 8952,
      "ä¹³çªģ": 8953,
      "æ´»åĬ¨çļĦ": 8954,
      "æĢİä¹ĪåĬŀåĳ¢": 8955,
      "ä¸įåĩº": 8956,
      "æŃ£å¸¸çİ°è±¡": 8957,
      "åħħåĪĨçļĦ": 8958,
      "og": 8959,
      "åı¯èĥ½éĢłæĪĲ": 8960,
      "èĩªåıĳæĢ§": 8961,
      "è¿ĺèĥ½å¤Ł": 8962,
      "ç¾½": 8963,
[...]
