#version: 0.2
ï ¼
ï¼ Į
ä ¸
ã Ģ
ç ļ
çļ Ħ
å ı
ãĢ Ĥ
æ ľ
ç Ĺ
å ¤
ç Ķ
ä º
ãĢ ģ
æ ĺ
è Ĥ
æ Ģ
å Ĳ
ç »
ä ½
è ¿
å Ī
ä »
å ħ
ç ĸ
è ĥ
å °
æĢ §
å ®
æĺ ¯
è ¡
æľ ī
æ Ĺ
çĹ ħ
ä ¹
ä¸ į
å Ĭ
è Ģ
æ Ī
ä ¼
åı ¯
ä¸ Ģ
å Ľ
å ĩ
çĶ Ł
æ ²
å º
å ¸
¦ ģ
å Ń
ä» ¥
å ¼
è ¦ģ
ç İ
åı ĳ
å ľ
ç ī
é ĩ
è ħ
å ¯
å Ĩ
å Ĵ
æĹ ¶
æ ³
è Ħ
ç §
è §
é Ģ
å Į
æ Ħ
å į
åľ ¨
èĥ ½
çĹ ĩ
çĸ Ĺ
å ¹
æ² »
æ ī
è ¯
å ¦
ç Ĥ
å¤ ļ
è¡ Ģ
åĴ Į
å ¾
ç Ĭ
å¸ ¸
çĶ ¨
çĬ ¶
çİ °
ä¸ º
è ĩ
é ĥ
æ ĸ
åĩ º
æ Ł
èĢ ħ
æ ¯
ä½ ĵ
æ²» çĸĹ
å İ
æĪ ĸ
æ °
Ĥ £
æ Ń
é £
ä¼ ļ
åĲ İ
åĽ ł
çī ©
æ ŀ
ç ´
çĤ İ
å ¿
äº İ
è ¾
å ½
å¤ §
ç Ń
é ĺ
å ¥
ç Ļ
ç Ľ
æ ķ
é£ Ł
æ Ĥ£
é Ļ
çŃ ī
äº º
å¦ Ĥ
ä¸ Ń
æ Ĭ
é ģ
å ·
é ¢
åĪ Ĩ
æ Ŀ
é Ŀ
é Ĺ
è į
æľ Ł
è¿ ĩ
éĥ ¨
æ ĥ
åı Ĭ
æ ¶
è µ
å ī
å¯ ¹
å ĳ
åĨ ħ
æ ł
ç´ ł
ç» ı
ä¸ Ĭ
æ ´
æ İ
ä¸ ĭ
ä ¾
æ Į
æĦ Ł
æ µ
æĤ£ èĢħ
ç ²
æŀ ľ
åº Ķ
éĩ į
ç§ į
èį ¯
èµ ·
åŃ Ĳ
è¿ Ļ
é «
æĪ Ĳ
ä¹ Ł
åı¯ ä»¥
é ħ
çĹĩ çĬ¶
çĹ Ľ
ç º
çļ ®
è ´
èĢ Į
ï¼ ļ
å ģ
è¿ Ľ
è Ĩ
åĩº çİ°
åĮ ĸ
å° ¿
ç Ĳ
èĤ ¿
ç ³
å® «
é« ĺ
èħ º
èĤ Ŀ
ç ĺ
å¼ ķ
åĪ °
æ ¸
æ° ´
å¿ ĥ
å° ±
æŁ ĵ
ç ®
æĥ ħ
å ¢
åĬ ¨
éĩ ı
è¡ Į
å¤ ĸ
å ĵ
é ķ
è ı
é ļ
å ±
äº Ĩ
åħ ¶
æ £
ç ĥ
èĩ ´
æĸ ¹
ä¸ ª
ç» Ĩ
æ Ķ
ä½ ľ
ï¼ Ł
è ī
ç® ¡
å° ı
ä ¿
ç ¼
è ®
äº Ľ
è ½
æľ ¯
è º
æ ģ
æ´ »
æĦ ı
æ£ Ģ
ç Ŀ
çĲ Ĩ
å¢ ŀ
çĸ ¾
å¼ķ èµ·
å® ļ
å¥ ½
æ³ ¨
åĲ Ī
åı ĺ
æŁ ¥
åī į
éģ ĵ
ç ľ
åİ Ł
æ į
è¾ ĥ
çĸ¾ çĹħ
æī ĭ
æ ¿
åº ¦
æ¿ Ģ
è Ĭ
éĹ ´
è¡ ¨
é ª
èº «
å° ĳ
çĻ ½
å¯ ¼
é ľ
ä¸ »
éķ ¿
å¾ Ī
åĬ ł
åĬ Ľ
ç» ĵ
ä¹ Ī
çĶ ²
æĿ ¥
èĨ ľ
æī Ģ
è´ ¨
æ¯ Ĵ
æ³ ķ
åĮ »
åĲ Į
æĦŁ æŁĵ
å¤ į
è§ ģ
å¹ ¶
é ¥
éĺ ´
å Ŀ
å ŀ
äº §
ä½ ¿
æ ĭ
ç ¥
å¦Ĥ æŀľ
åı¯ èĥ½
åħ ³
ä¸ İ
ç ±
èĩ ª
è¿ ĺ
æ£Ģ æŁ¥
åĲ ĥ
éĿ ¢
åıĳ çĶŁ
ç ¡
æ¶ ²
è ¶
çĶ ±
æ³¨ æĦı
åĬ Ł
çĻ Į
èħ ¹
èı Į
ç¥ ŀ
åħ į
éĢ ļ
è °
è Ī
åŃ ķ
çĺ ¤
æŃ £
ç² ¾
èĤ ł
å¯¼ èĩ´
èĥ ŀ
æ ·
éľ Ģ
ä½ Ĩ
èĥ ĥ
ä¹ ĭ
æĹ ł
è¿Ľ è¡Į
æ¯ Ķ
å¥ ³
ç»Ĩ èĥŀ
ä½ į
æľ Ģ
æ ¬
ç ¨
æĺ İ
å¹ ´
éĥ ½
åį µ
åĬŁ èĥ½
èĦ ĳ
å½ ¢
é¥ ®
å Ħ
åĦ ¿
æīĭ æľ¯
é¢ Ī
é£Ł çī©
åĨ µ
åĩ ı
ä¸» è¦ģ
æµ ģ
å¤ ´
æĺ ĵ
æ ħ
ç± »
èį¯ çī©
åŀ ĭ
éª ¨
é »
è Ļ
ä¼ ¤
æĬ Ĺ
åı Ĺ
åİ ĭ
èĤ ¤
åı £
å½ ĵ
èĬ Ĥ
è¡¨ çİ°
æ¶ Ī
å¹ ³
å Ģ
æ¸ ħ
å½ ±
é Ĵ
æ Ľ
èĪ ¬
åĪ ¶
èĤ Į
è Ĳ
åŃĲ å®«
ä¸Ģ èĪ¬
æŃ ¤
æľ Ī
èī ²
ä¿ Ŀ
ï¼ Ľ
è¯ Ĭ
æĥħ åĨµ
æķ Ī
å¼ Ĥ
ä¾ ¿
è§ £
ä½ İ
å ĸ
ä¸ ¥
çĶŁ æ´»
ç «
ç ¢
æħ ¢
æİ Ĵ
éĻ ¤
çļ® èĤ¤
æĹ ©
çĶ² çĬ¶
æĮ ģ
åº Ĭ
åħ ¨
éħ ¸
å¸ ¦
ç Ħ
å¤ ©
æį Ł
éľĢ è¦ģ
æ Ļ
çĶ²çĬ¶ èħº
çĽ ¸
åĽ Ĭ
åı į
æ° Ķ
åĪ º
çī ¹
çĸ ¼
éĢ Ĥ
å¥³ æĢ§
æĸ Ń
æł ·
èħ Ķ
æĺ ¾
æ¬ ¡
ä» ¬
æ ®
ç ķ
ä¼ ł
ä¸¥ éĩį
æķ °
åģ ļ
å¤ ±
ç³ ĸ
ç Ł
æ³ Į
ç¥ŀ ç»ı
åĳ ¨
ç» ´
åİŁ åĽł
éĺ ²
è° ĥ
çĥ Ń
å Ł
åĵ į
ç³ »
æĮ ĩ
ä¸Ģ äºĽ
é¥® é£Ł
æĢ ¥
æľ ¬
å½± åĵį
æŃ£ å¸¸
åħ ¥
æ ±
æĸ¹ æ³ķ
ç ª
â Ģ
çĸ ¹
è ĭ
èĦ ī
èĤ ¾
ç» Ħ
æ º
è Ľ
èĤ ī
çĸ¼ çĹĽ
ç¨ ĭ
ä» Ģ
çĶ± äºİ
ä½ľ çĶ¨
ä»Ģ ä¹Ī
éĢ ł
ä¸Ģ ç§į
é ¡
ä¸ ´
åĩº è¡Ģ
å® ¹
åħ »
åĮ ħ
èĩ ³
èº« ä½ĵ
çĦ ¶
ç§ ¯
çĹħ æ¯Ĵ
è½ »
ä¸ Ķ
å¸¸ è§ģ
éģ ¿
åŃ ¦
åĪ «
çº ¢
æ »
æ ı
ä¸Ģ å®ļ
ä¸´ åºĬ
çĹħ äºº
åĪĨ æ³Į
æ ¤
è¯ ¥
æľ į
èĤ ²
è ±
å¾ Ĺ
åĵ ģ
æİ ¥
åĪº æ¿Ģ
èī ¯
ä» ĸ
èĦ Ĥ
å®« é¢Ī
èĽ ĭ
ç ©
åĲ ¸
æ² ¡
æĹ¶ éĹ´
å¦ ĩ
çĽ ´
æ¯Ķ è¾ĥ
éĿ ŀ
æ¿Ģ ç´ł
æĪ ĳ
èĤ¿ çĺ¤
ç¡ ®
è¯ ´
æĽ ´
å »
ä¸ ī
çİ ĩ
ï¼ Ī
å® ¶
å¤ Ħ
å¼ º
æīĢ ä»¥
ï¼ ī
æħ¢ æĢ§
éģ¿ åħį
æŃ ¢
é Ķ
ç ģ
æĪĸ èĢħ
åİ »
æł ¹
éĻ į
åĲ «
æ¯ ı
åĪ Ļ
åĽł ä¸º
åĪ ĩ
æ²¡ æľī
æ ¢
ç» ĩ
ä¸į è¦ģ
åŁ º
èĥ İ
å® ³
é¢ Ħ
ä» İ
éĢł æĪĲ
åĪ Ĺ
ç»Ħ ç»ĩ
åľ °
æĺİ æĺ¾
çĤİ çĹĩ
çļĦ çĹĩçĬ¶
æģ ¯
å®¹ æĺĵ
å® Ŀ
éĻ ¢
ä¾ §
èĦ ı
åĽł ç´ł
çĤ ¹
æ ¹
éĢļ è¿ĩ
åħ Ī
ç§ ĳ
ä¹ ³
çļĦ æ²»çĸĹ
è½ ¬
è¯Ĭ æĸŃ
æĹ ¥
è¿Ļ ç§į
ç ł
åıĬ æĹ¶
ä¸į èĥ½
äº Į
è £
è§ Ħ
èĽĭ çĻ½
åĢ Ļ
æ¹ ¿
çĿ ¾
åıĳ çĹħ
ä¸į åĲĮ
è ¢
çĸ «
å Ļ
æĶ ¹
é» Ħ
è Į
ä¸ ¤
æľ º
ä¸Ģ ä¸ª
å°± æĺ¯
çĿ Ģ
å¹ ²
ä¼ ´
æĢ¥ æĢ§
å £
çİ ¯
éĺ´ éģĵ
å¼ Ģ
åħ ·
æģ ¶
å® ĥ
å® ŀ
èĤ Ľ
çļĦ é£Łçī©
å¯¹ äºİ
æķ ı
åģ ¥
åº ·
éļ ľ
æĶ ¾
æĹ¶ åĢĻ
ç» Ł
å¾ ģ
åºĶ è¯¥
æı Ĳ
èĤ º
çĶ ·
è¿ Ĳ
ä»¥ åıĬ
åĮ» éĻ¢
è ·
ç¼ º
è¡Ģ ç®¡
çľ ¼
é Ĥ£
ç§ °
ä½¿ çĶ¨
æľĪ ç»ı
æį ®
ç¢ į
åį ³
å° Ħ
æĪĳ ä»¬
ç ¬
å± Ģ
å¼ķèµ· çļĦ
åĻ ¨
éļ ¾
å¼ ł
å¾Ī å¤ļ
åī Ĥ
ç¼ ©
èĦ ±
ç ¾
è¾ ĵ
è§ ī
éĢ ī
éĹ ¨
ç» Ļ
å½¢ æĪĲ
ç¼ ĵ
èı ľ
å¼Ĥ å¸¸
åĲ Ħ
é ¾
é ¦
åĲĮ æĹ¶
åħį çĸ«
è¢ «
åŃ ĺ
åıĳ çİ°
çĹħ æĥħ
å¢ŀ åĬł
éļľ ç¢į
åı ª
ï ½
æ· ĭ
å· ±
åħ¶ ä»ĸ
åĬ ©
åīį åĪĹ
é º
çĶŁ ç´ł
éĿ Ļ
åħ ħ
ä» £
ï½ ŀ
å¿ ħ
å· ¢
é Ľ
æŀ ģ
è§ Ĩ
æĢ ģ
èĩª å·±
è¶ ³
åīįåĪĹ èħº
åŃ ©
éħ Ĵ
åįµ å·¢
æ ĳ
åĩı å°ĳ
å ¨
ç ½
è± ¡
å¾ Ģ
æ´ Ĺ
çĹħ åıĺ
çĿ ¡
æŃ »
åħ³ èĬĤ
ä¸ ¸
çĽ ®
åį ķ
è¶ ħ
ç¡ ¬
åĨ į
äº§ çĶŁ
æĺ¯ ä»Ģä¹Ī
åı ĸ
æĸ °
é¢Ħ éĺ²
ä¿ ĥ
æĬ ĳ
éļ ı
æĢ§ çļĦ
çľ ĭ
å° Ĩ
æĦ Ī
çª ģ
ç³» ç»Ł
å° ½
éĥ¨ ä½į
éĺ ³
è¿Ĳ åĬ¨
èħ °
ä¹ Ļ
éĥ¨ åĪĨ
äº ĭ
ç¬ ¬
å¥½ çļĦ
éĹ ®
åĳ Ī
æĹ© æľŁ
æĬ ¤
è¡ ¥
æįŁ ä¼¤
ç² ĺ
åĲ ĳ
åĽł æŃ¤
å¿ «
æ¯ Ľ
ä½Ĩ æĺ¯
èĥ Ģ
é£ İ
èĲ ¥
æĭ ¬
æĢ Ģ
å· ´
¢ å¤į
é ¼
æģ ¢å¤į
1 0
åıį åºĶ
æ¤ İ
çĽ Ĩ
å¸¸è§ģ çļĦ
èĦ ĵ
å¤ Ł
çĶ ļ
éĩ ĩ
ä¼ļ åĩºçİ°
ä¿Ŀ æĮģ
åĪ ©
èĲ¥ åħ»
å· ¥
å±Ģ éĥ¨
çĿ¾ ä¸¸
æ ļ
æł ¸
å¾ ®
åģ¥ åº·
åĿ ĩ
éº »
åį ±
çĹ Ĵ
ç» Ń
æ¶Ī åĮĸ
æĢ İ
ç ¤
æĶ ¶
æ² ¹
å §
ç²¾ ç¥ŀ
å® Į
åĽ ´
å± ķ
ç§ »
åĮ º
å» º
éĿŀ å¸¸
çľ ł
èĥ Ĩ
çļĦ æĹ¶åĢĻ
åħ ĭ
è¡¨çİ° ä¸º
åĮħ æĭ¬
è¾ ¾
éĩį è¦ģ
æł¹ æį®
ä¸Ģå®ļ è¦ģ
è¿Ļ äºĽ
è£ Ĥ
å¹³ æĹ¶
æī į
èĻ ĳ
éģ Ĺ
ä¸į èī¯
æ¸ ©
çĶļ èĩ³
ä¼ ĳ
è¯ Ŀ
éĤ£ ä¹Ī
æĢĢ åŃķ
é Ĩ
åŃ© åŃĲ
å ¡
æĸ ĳ
éķ¿ æľŁ
çļĦ æĥħåĨµ
é¢ ĺ
æĢİ ä¹Ī
æµ ĭ
éĺ »
è¿ĩ æķı
éĿĻ èĦī
æĭ ©
ä¹ ł
åĨħ èĨľ
ç»Ĩ èıĮ
ç» ¼
åĩ ł
æ´» åĬ¨
ä¾ ĭ
éĢī æĭ©
æİ §
çī ĩ
æ ¡
åį «
çº ¤
æ® ĸ
çĲ ĥ
çĶ· æĢ§
ä¹Ł æĺ¯
è§ ¦
å± ŀ
éĹ® é¢ĺ
åĽĬ èĤ¿
åıĳ èĤ²
å ²
éĢ Ģ
å· ¦
åį« çĶŁ
èĤ ª
âĢ ľ
å· ²
èĦĤ èĤª
è® ®
âĢ Ŀ
æĤ£èĢħ çļĦ
è¿ ŀ
çĹħ åĽł
ç»´ çĶŁç´ł
æ·ĭ å·´
çİ° è±¡
æĺ¯ ä¸Ģç§į
è® ¤
çł ´
åĬ¨ èĦī
åı ³
æĻ ļ
å¼ ı
å¤§ çļĦ
è¿Ļ æł·
è¾ £
å¤ļ åĲĥ
åıĳ ä½ľ
æķĪ æŀľ
éª Į
ç ¦
åı Ī
è§ Ĥ
èĥ ¸
å¡ ŀ
çļĦ æĤ£èĢħ
çĸ ®
èĢĮ ä¸Ķ
å°¿ éģĵ
ä»¥ ä¸Ĭ
çļĦ åİŁåĽł
ä¼´ æľī
åĲ ¦
é ĵ
çº¤ ç»´
åį ģ
èĤĿ çĤİ
åĽ Ľ
åĸ Ŀ
å»º è®®
åį ĩ
åĬ ³
åĮ» çĶŁ
æ® µ
ç¨ĭ åº¦
æľī æķĪ
æİ§ åĪ¶
èĢ ģ
æľī åħ³
éĢļ å¸¸
è¡Ģ æ¶²
åħ ī
è ¥
åĳ ¼
è Ķ
åįµ ç®¡
æº ĥ
æ Ĵ
è¾ĵ åįµç®¡
æµģ äº§
éĢ Ł
é Ł
åıĳ æĢ§
æ Ĳ
ä¼ł æŁĵ
çº ¦
ç»¼ åĲĪ
åħ· æľī
åĬł éĩį
èĤ ¥
å°± ä¼ļ
èĤ ¢
äº ¤
æĸ¹ éĿ¢
é¼ »
è¶ Ĭ
çĽĨ èħĶ
åı ¦
æĶ ¯
è¿ ĳ
çº ¿
èĬ ±
åŃĲå®« åĨħèĨľ
é¢ ĳ
çī¹ åĪ«
èĥ½ å¤Ł
ä¹ ı
çĸ ±
çļĦ è¯Ŀ
å¼ ±
çĻ½ å¸¦
è ģ
å¦ Ĭ
è¯ ģ
è® ©
éĴ Ī
ç ħ
è¥ ¿
å¨ ł
ä» ħ
å®Ŀ å®Ŀ
ä¹ĭ åĲİ
å¦Ĭ å¨ł
æĶ¹ åıĺ
é¦ ĸ
èĢ ĥ
è¿Ļ ä¸ª
è ĳ
2 0
äºº ä½ĵ
ç ĭ
å¢ŀ çĶŁ
è¦ģ æ³¨æĦı
è¿ĺ æľī
ç¼ĵ è§£
æĿ ¾
åĳ¼ åĲ¸
å¤ļ æķ°
ä¹ ħ
éħ ¶
è¾ Ľ
ä¼ļ æľī
é¡ »
åį Ĭ
åŃĺ åľ¨
ç³ĸ å°¿
é» ı
æĥ ¯
ç± ³
ç¦ »
ä¹ł æĥ¯
æ°´ æŀľ
ä¹Ļ èĤĿ
åħ¨ èº«
åĨ ·
è½ ¯
èĥ ±
å ©
æĪ ¿
æŃ ¥
çĹ ĺ
çŁ Ń
ç´ §
çŁ ¥
ä¼ĳ æģ¯
åĽ ½
åĿ ı
è§ Ĵ
å¤ ª
åĽ °
åĿ Ĺ
èĨ Ģ
å Ĺ
è¿ĩ ç¨ĭ
çĹ Ķ
å» ¶
çĹħ çļĦ
æĥ ³
åģ ľ
çĶ µ
æ¸ Ĳ
å° ¤
ç» §
ä½ ł
æĮ ī
åº ķ
çķ Ļ
çĸ ¡
åĲĦ ç§į
åĳ ³
åĲ Ĳ
æ ½
å® ľ
å® ¤
èĨĢ èĥ±
æķ ´
å¢ ĥ
ç»ı å¸¸
è¡ °
åĽ º
æī ©
åı Į
å¿ĥ çĲĨ
èĦ Ĭ
æºĥ çĸ¡
å® ī
ç¤ º
ç ¦ģ
éĹ Ń
éĿ Ĵ
é ²
éĥ½ æĺ¯
æ° §
åŃķ å¦ĩ
ä½ ķ
è¡Ģ åİĭ
åĸ Ħ
æ· ¡
ä¸»è¦ģ æĺ¯
å¢ŀ å¤ļ
éķ ľ
éĻ Ħ
éĴ Ļ
éĢĤ å½ĵ
éĻį ä½İ
çĶŁ æ®ĸ
é¡ ¹
ãĢĤ (
åŀ Ĥ
åıĳ å±ķ
åĪĩ éĻ¤
è¾Ľ è¾£
ç« ¥
èĻ «
éĢ Ĳ
æľį çĶ¨
ä¸ĭ éĻį
èĤĽ éĹ¨
æľ ª
åĲ Ĺ
çĺ Ļ
åĴ ½
çĺĻ çĹĴ
å¯ Į
å· ®
ç ĵ
èĶ ¬
è± Ĩ
æĮģ ç»Ń
ä¼ļ å¯¼èĩ´
ç Ĩ
ç« ĭ
ä¸į éĢĤ
å² ģ
ä½ĵ åĨħ
ç§¯ æŀģ
å·¥ ä½ľ
è¿ °
ç³ĸå°¿ çĹħ
æ¯Ķ å¦Ĥ
çļĦ äºº
æł ĩ
åĽ ŀ
æ´ ģ
è¯ ķ
éģĹ ä¼ł
åĦ¿ ç«¥
è° ¢
ä¸ª æľĪ
éĩ Į
å¾ ĭ
äºĨ è§£
èĥİ åĦ¿
çĶŁ éķ¿
é« ĵ
çĶŁæ´» ä¸Ń
ä»£ è°¢
åĪĨ ä¸º
éĻ Ĳ
é¾ Ħ
å¹¶ åıĳ
éĥ ģ
ä»İ èĢĮ
ä¸į æĺ¯
èĭ ¥
å± Ĥ
æĦŁ è§ī
ç´ ¯
ä¸¥éĩį çļĦ
èĶ¬ èıľ
çĤİ çļĦ
ä¿ĥ è¿Ľ
ä»¥ åĲİ
æİ¥ è§¦
åı Ĥ
å¿ Į
å¤§ å®¶
çĥ Ł
æ³ »
åĳ¨ åĽ´
éħ į
æľĢ å¥½
åı¯èĥ½ æĺ¯
æľ¯ åĲİ
å¹¶ ä¸Ķ
åı ¶
ç¡¬ åĮĸ
æģ¶ æĢ§
çĹħ çĲĨ
å¤ĸ éĺ´
æ³ ¡
å°¤ åħ¶
é ¸
ç» ª
æ¯ į
æĿ¥ è¯´
æķ £
çĽ´ èĤł
çĸ¾çĹħ çļĦ
åĳ ķ
å§ ĭ
æĹ¥ å¸¸
å¸ ®
å ĥ
ç© ¿
æĥħ ç»ª
è½¬ ç§»
æĺ¯ åĲ¦
çİ¯ å¢ĥ
æĴ Ń
è¿ĩ åº¦
é² ľ
åĩ Ĩ
æŀ Ħ
æľŁ éĹ´
å® ĺ
çĥ Ĥ
è¿ «
æĶ¹ åĸĦ
æĬĳ åĪ¶
åıĺ åĮĸ
ç²¾ åŃĲ
çŁ ³
æ¢ Ĺ
åĨħ åĪĨæ³Į
èĤĮ èĤī
å¤§ éĩı
åĽ° éļ¾
æ°´ å¹³
éĺ² æŃ¢
å© ´
æįŁ å®³
çī© è´¨
æĸ¹ å¼ı
ä¹ ±
çĿ¡ çľł
å¸® åĬ©
å£ °
é ±
èħ¹ éĥ¨
å¯ Ĩ
è¿ĺ æĺ¯
åıį å¤į
å®Į åħ¨
ä¹Ł æľī
æº Ĳ
è ŀ
èĤĿ èĦı
é± ¼
å£ ģ
ä¸Ń çļĦ
æ± Ĺ
çľ Ł
éĢĲ æ¸Ĳ
å¤į åıĳ
æīĭæľ¯ æ²»çĸĹ
å¦ĩ ç§ĳ
5 0
ä¸į ä¼ļ
æ°´ èĤ¿
èĻ ļ
çĬ¶ æĢģ
è¯ ±
æĸ ½
çĽ¸ åħ³
çĽ® åīį
æĬĹ ä½ĵ
ç§° ä¸º
å Ķ
éĩĩ çĶ¨
æģ¯ èĤī
æ° ¨
æ¤ į
åı ĭ
æĢ§ çĶŁæ´»
çĶŁ çĲĨ
ç £
é» ĳ
èĢĥ èĻĳ
åı¦ å¤ĸ
äº ¢
çī Ļ
æµ ·
åĳķ åĲĲ
å°½ éĩı
èĩªå·± çļĦ
æŁ Ĳ
æ¢ ħ
çĤ ¼
æĢ »
ä¾ Ľ
æıĲ é«ĺ
å¿ħ é¡»
çł Ķ
æĪĸèĢħ æĺ¯
è¡Ģ ç³ĸ
ç½ ®
åĻ¨ å®ĺ
èĲ İ
è¡¨ éĿ¢
èĢ ³
å¯ Ĵ
è· ¯
ä»¥ ä¸ĭ
éĶ »
åģ ı
ç»ĵ èĬĤ
åī §
è®¤ ä¸º
ç§ ĺ
çĽ Ĳ
ä¾ µ
éĶ» çĤ¼
èĮ İ
ç ĩ
æĻļ æľŁ
å¦ Ī
åĿ Ĳ
æ ĵ
è¿Ľè¡Į æ²»çĸĹ
åĪ Ŀ
é¦ĸ åħĪ
æ¹¿ çĸ¹
æ· ±
ä» ĭ
ç© ¶
æĽ ²
æł ¼
åıĹ åĪ°
ç Ī
åºĶ çĶ¨
ä» ¶
èĥ½ åĬĽ
é ī
éī ´
æĬ ĺ
æĳ Ħ
ç© º
çĶ¨ èį¯
å¯ Ł
èį¯çī© æ²»çĸĹ
èĩª èº«
ç³ ľ
ç»ĵ åĲĪ
å°ı æĹ¶
æľ ĭ
ä¼ł æĴŃ
åİĭ åĬĽ
ç« ¯
è¡¥ åħħ
åı ²
ä¸º ä¸»
è¯ Ĩ
çĽ´ æİ¥
é»ı èĨľ
ä» »
å·¦ åı³
æľĭ åıĭ
ä¾¿ ç§ĺ
å¥ ¶
ä¹Ł åı¯
å¹´ é¾Ħ
åĬ ŀ
¤ Ĳ
åįĩ é«ĺ
éĻ ©
ç»¼åĲĪ å¾ģ
ç¾ ¤
3 0
æĿ ¡
åĲ« æľī
åĥ ı
èĦ ¾
å¾Ģ å¾Ģ
è¿ĩ å¤ļ
åı£ æľį
æĤ£ æľī
å¾ ª
ä¹Ł ä¼ļ
çĹĩ çļĦ
èħ¹ çĹĽ
èĽĭçĻ½ è´¨
æ ¼
ç³ľ çĥĤ
åĪĨæ³Į çī©
èħ¹ æ³»
æĿ Ĩ
å ĭ
æľī äºĽ
éĺ³ æĢ§
æ²» æĦĪ
æĺ¯ æĮĩ
ç² ī
æīĢ èĩ´
æĬ ½
çļĦ ä½ľçĶ¨
æİĴ åįµ
æľī æĹ¶
æ¢ħ æ¯Ĵ
æĬĳ éĥģ
èĲİ ç¼©
è® ¸
èĤł éģĵ
å¤ļ è§ģ
èĥ °
çĽ ĺ
ä¹Ł åı¯ä»¥
æ¬ ²
èĢģ å¹´
å¼Ģ å§ĭ
æ Ĥ
è§Ĥ å¯Ł
ä¿ ¡
çļĦ æĸ¹æ³ķ
æĿĨ èıĮ
æ³¨ å°Ħ
çķ ¸
å±ŀ äºİ
ä¸Ģ ä¸ĭ
ç¼º ä¹ı
åĳ ¢
è ĸ
åİ ļ
ä¹ĭ ä¸Ģ
åĩı è½»
å¤± è°ĥ
çłĶ ç©¶
çĥ §
åı¯èĥ½ ä¼ļ
ç§¯ æ¶²
æ¸ħ æ´ģ
ç² Ĵ
ç» Ŀ
åĪ Ľ
çĥ Ī
çĶ²çĬ¶èħº æ¿Ģç´ł
çĦ¶ åĲİ
éĢ ı
å¸ ĥ
åį± å®³
åĢ ¼
çĩ ¥
çĻĮ çļĦ
æ¯ı å¤©
èį ī
æĬ¤ çĲĨ
å¤§ ä¾¿
äºº çļĦ
éļ Ĳ
éī´ åĪ«
ç Į
å¤´ çĹĽ
ç²ĺ è¿ŀ
åĲ¸ æĶ¶
æľī çļĦ
å¢ŀ å¼º
å°¿ é¢ĳ
åıĳ çĥŃ
çī Ľ
å¤Ħ çĲĨ
æ» ĳ
é£Ł çĶ¨
¡ èĲ
è İ
åĳ ½
äº Ķ
ä¸į åŃķ
çĸ± çĸ¹
ä¸´åºĬ ä¸Ĭ
åĪºæ¿Ģ æĢ§
å¤ ľ
å¤ļ ç§į
å°¤åħ¶ æĺ¯
ä¸Ģ æ¬¡
å¤§ å°ı
çĸĹ æ³ķ
åı¯ è§ģ
åħ ±
æĿ ¿
çĦ ¦
éļı çĿĢ
åħ³ ç³»
æŃ£å¸¸ çļĦ
æ¶ ¦
ç´§ å¼ł
å¾ Ħ
ä¸´åºĬ è¡¨çİ°
çķ Į
³ å®ļ
ä¼ ¼
å¾ª çİ¯
æī ĵ
ä¸įåĲĮ çļĦ
è ľ
å¿ħ è¦ģ
åĵ ª
ä¸Ģå®ļ çļĦ
åĩı éĢĢ
æĺİ ç¡®
æł ĵ
è Ĵ
ä¸ ĺ
å¹¶åıĳ çĹĩ
ä¸ ĵ
çĶ¨ äºİ
æµ ĵ
è¾¾ åĪ°
æĿ Ĥ
i n
ç»ĵ æŀľ
æİĴ åĩº
å ķ
æķ ħ
ç´ Ĭ
è¡ £
é¦ Ļ
çŃī çĹĩçĬ¶
èĥ Į
è½» åº¦
ç´Ĭ ä¹±
äº ¦
èĮ ĥ
æ²»çĸĹ çļĦ
éĩĩ åıĸ
æĹ ¦
è°ĥ èĬĤ
éĨ ĩ
æĢ§ çĸ¾çĹħ
éª¨ æĬĺ
å¤§ å¤ļæķ°
« çĹ
æĺ¯ çĶ±äºİ
æº ¶
æİ ª
è¡ ¡
æ¶Ī å¤±
è¿Ľ åħ¥
ä¸Ģ æĹ¦
é ŀ
ä¸ Ļ
å¯¼èĩ´ çļĦ
æİĴ å°¿
ç±» åŀĭ
ä¸Ń åĮ»
çķ¸ å½¢
çļĦ æĺ¯
å¿ĥ èĦı
å©´ åĦ¿
è¾ ¹
åħ ĥ
åĴ ³
ç»ĵ æł¸
é£Ł åĵģ
é¾ Ł
ä¾ Ŀ
åĿ ļ
è¯ ·
ç¢ ±
ä»¥ åħį
è¶ħ è¿ĩ
åŁº åĽł
çĶŁ çī©
åĽ ¾
æį ¢
å¢ŀ é«ĺ
åħ¶ ä¸Ń
æİª æĸ½
æģ¶ å¿ĥ
æľ¬ åĵģ
ç²ĺ èĨľ
äº Ī
éŁ ³
ç» Ī
æĭ ħ
éĽ Į
åį ĥ
æīį èĥ½
å¹ ¿
è§Ħ å¾ĭ
ç¡® å®ļ
åĮħ çļ®
ä¸į è¶³
æ³ ¢
èĤ¿ å¤§
è°ĥ çĲĨ
ä»» ä½ķ
èĤĿ ç¡¬åĮĸ
éľ ī
æĸ Ļ
äº ¡
éĺ´ èĮİ
æĻ ®
åį §
èĲ ½
æ± Ĥ
æ£Ģ æµĭ
åİĭ è¿«
èĻ ½
é¸ ¡
æĬ Ĭ
æĳ ©
çĸ £
å ł
æļ ´
å·² ç»ı
é¾Ł å¤´
çī¹åĪ« æĺ¯
æĥħåĨµ ä¸ĭ
æ¸ħ æ·¡
åħ· ä½ĵ
ä¸ ļ
ä¸Ĭ çļ®
ä¸Ń æ¯Ĵ
é¢ ħ
çķ ħ
åŃ Ķ
èĭ ¦
åı¯ æľī
æ» ´
å°ı åĦ¿
æĻ ķ
æ ¥
æĶ¶ ç¼©
¸ åŀĭ
èī¯ å¥½çļĦ
çĶ²çĬ¶èħº åĬŁèĥ½
äº§ åĲİ
çª Ħ
èĨľ çĤİ
m g
èĥĥ çĤİ
è¯± åıĳ
æľº ä½ĵ
è´ Ł
èĦ ļ
ç»ĵ èĤł
åİ» åĮ»éĻ¢
ç¢ ĺ
è¡Į ä¸º
èĤĮ çĺ¤
ç» į
é ³
éĽ Ĩ
æ·ĭå·´ ç»ĵ
çĦ¦ èĻĳ
é ¤Ĳ
è¿Ļ æĺ¯
ä»ĭ ç»į
æľ¬ çĹħ
æĺİæĺ¾ çļĦ
) ï¼Į
åħĪ å¤©
è´ ¹
å¦Ĥæŀľ æĺ¯
ä¹³ å¤´
å¹² çĩ¥
åı£ èħĶ
æ½ ®
é ©
åĸ ī
ä¸Ń èį¯
åĩºçİ° äºĨ
åīĤ éĩı
æĬ µ
? ï¼Ł
çħ §
çĸ ²
ç² Ĺ
ä¸ °
æŃ» äº¡
åı¯ å¼ķèµ·
å° ĸ
éĴ Ł
è¯ ¯
æ¸ Ĺ
æĭ ī
å¼ķ åıĳ
åį ł
å¤± çľł
ç»ĵ æŀĦ
èĥ º
åĩ Ģ
è´ «
è® ¡
ä» į
çģ ¶
éļ Ķ
æµ Ĩ
èħ ¿
ç¾ İ
è¿ ľ
ç½ ĳ
æ² Ł
æ°Ķ ç®¡
çģ «
çº ¯
çļĦ ä¸Ģç§į
åı¯ åĩºçİ°
èħ »
èĪ Ĵ
è¡Ģ æ¸ħ
çī¹ å¾ģ
çªģ åĩº
æİĴ ä¾¿
å®ļ æľŁ
èĥ ¶
1 5
æ± ¤
ç¼ ĺ
æ ¦
éĺ´ åĽĬ
æŃ¤ å¤ĸ
èģ Ķ
éħ ®
æ² ī
æľ ¨
åıĳçĶŁ åľ¨
èµ °
èĦ ¸
åĩ Ŀ
æ ¨
ä¸Ģ æŃ¥
åģļ å¥½
ä¿Ŀ æĬ¤
åħ ¸åŀĭ
è¯ķ éªĮ
è´« è¡Ģ
åĪ° åĮ»éĻ¢
èī² ç´ł
æ» ĭ
å° ļ
è¿ĩç¨ĭ ä¸Ń
èŀ º
çļĦ çĸ¾çĹħ
0 0
åīįåĪĹèħº çĤİ
åĬł å¼º
çĵ ľ
çĻ £
åĲĪ å¹¶
åİŁ ä½ĵ
çĨ Ł
èĳ ¡èĲ
èĳ¡èĲ Ħ
çļĦ åıĳçĶŁ
æ± ģ
èĸ Ħ
åĪ© äºİ
è¿Ľ é£Ł
æ· ·
å°ĳ æķ°
åī ¯
æĬĹ çĶŁç´ł
é«ĺ è¡Ģåİĭ
æŁĲ äºĽ
åħ¶ å®ŀ
å ĺ
çĬ¶ åĨµ
å°ĳ åĲĥ
çļĦ èį¯çī©
åĲĪ çĲĨ
çī¹ çĤ¹
æĳĦ åħ¥
æĺ¯ çĶ±
è® º
ä¸° å¯Į
åıĳçĹħ çİĩ
çĭ Ń
åľ Ĩ
è®¸ å¤ļ
ç´ «
æ²»çĸĹ æĸ¹æ³ķ
å¾Ī å®¹æĺĵ
ç¡® è¯Ĭ
æĪĲ åĪĨ
äº ļ
åĮ» åŃ¦
åĩ ī
éº» çĸ¹
èĤ ¡
éĴĪ å¯¹
åĿı æŃ»
éĩ ĳ
å¦ĩ å¥³
ç»ĵ çŁ³
ä¹ĭ éĹ´
ç¤ ¾
èĩ Ń
è® °
å¸¸ è§Ħ
èĦĵ èĤ¿
æµ ¸
çĹĶ çĸ®
èĮ ¶
ä¸ª äºº
ä¸ ľ
çĻ½ èī²
çļ® çĤİ
1 2
ä¸Ģ æł·
åģ ĩ
çĶŁ èĤ²
è ¨
çĶ² äº¢
è¨ Ģ
çļĦ çİ°è±¡
æī© å¼ł
ä½ ³
ä¸į ä»ħ
çº¢ èī²
å°± åı¯ä»¥
åĲ į
éķ¿ æĹ¶éĹ´
æŃ£ è§Ħ
æİ ¨
å¤ ĩ
æĬµ æĬĹ
éĩı çļĦ
åŀĭ èĤĿçĤİ
åĳ¨ æľŁ
å± ĳ
å¾Ĺ åĪ°
ä½ĵ éĩį
æ» ŀ
çĽ¸ å¯¹
éĥ½ æľī
éĥ½ ä¼ļ
é£Ł æ¬²
çŁ¥ éģĵ
åĪ ¤
äºº ä»¬
é³ ŀ
åħ ´
é¢Ī æ¤İ
åĲĪ æĪĲ
æĸ° é²ľ
æĢ Ŀ
æīĭæľ¯ åĲİ
é ½
èħ¹ èħĶ
åŃ £
è¿Ľ ä¸ĢæŃ¥
éħį åĲĪ
æ® Ĭ
æĬ Ģ
æ¯Ľ åĽĬ
åĪĨ éĴŁ
è¡Ģ çĹĩ
éĻ ·
åī§ çĥĪ
è¿ Ł
ä½ĵ è´¨
èĥ ļ
æĸ° çĶŁ
ç« Ń
æģ¶æĢ§ èĤ¿çĺ¤
çļĦ ä¸»è¦ģ
ç ¹
èĦĬ é«ĵ
ç¹ ģ
æĹ ĭ
ä¹³ èħº
æĢİä¹Ī åĬŀ
å¸¦ æĿ¥
èµ· æĿ¥
å°¿ è·¯
çĭŃ çªĦ
æĵ ¦
æķı æĦŁ
e r
æĹł æ³ķ
ç® Ģ
èħ° æ¤İ
è¾ ħ
æľĢ å¸¸è§ģçļĦ
æī ¾
çŃī çŃī
çİ° åľ¨
èĩª çĦ¶
åĵª äºĽ
éŁ §
ç´ ¢
çī¹ æ®Ĭ
é£Ł ç®¡
) ãĢĤ
çľŁ èıĮ
åĮĸ çĸĹ
ç ı
éĩįè¦ģ çļĦ
å¢ŀ å¤§
åĬ¨ çī©
æĶ¾ å°Ħ
éĩ Ĭ
ä¸į åı¯
éĩį è§Ĩ
èį ¨
çĹħ ä¾ĭ
éĽĮ æ¿Ģç´ł
çªģ çĦ¶
æĮ Ľ
çĽ Ĭ
æĬ ¥
ä¸¤ ç§į
èĻ½ çĦ¶
ç»ı è¿ĩ
çļĦæ²»çĸĹ æĸ¹æ³ķ
çļ® è´¨
ç»Ļ äºĪ
è¡° ç«Ń
ä¿ ®
èį¨ éº»çĸ¹
å¤ļ çļĦ
çļ® çĸ¹
åŁ ¹
åĨ ²
åĲ ¬
ä¿Ŀ è¯ģ
æŁ ±
4 0
é¥ Ń
çĹ °
çł´ åĿı
ä¸ĭ éĿ¢
èĮĥ åĽ´
çĲĥ èıĮ
ä¸įè¦ģ åĲĥ
ä¼¤ å®³
æĺ ¥
ç¬¬ äºĮ
æ²¹ èħ»
ä¸Ĭ çļĦ
éĻ¤ äºĨ
èĪ Į
èĤ¿ èĥĢ
æŁĵ èī²
å¿ĥ æĥħ
åħ ¬
è¯ Ń
ä» ·
åħįçĸ« åĬĽ
ç¾ Ĭ
æľī å¾Īå¤ļ
çĶŁ åĳ½
åŁº æľ¬
ç¨ ³å®ļ
åĮĸ åŃ¦
é¢Ħ åĲİ
éĥ¨ çļĦ
å¯¹ çĹĩ
æĸ ĩ
èĨ Ŀ
è°ĥ æķ´
åıª æľī
çĺ ¦
ãĢ Ģ
æ¡ ĥ
åĨħ çļĦ
ä¸į åħ¨
è£ ¤
ä¸ ĩ
è¿Ļç§į æĥħåĨµ
ç£ ·
æİ¥ åıĹ
æ³ Ľ
èĢ Ĳ
éĢłæĪĲ çļĦ
åº· å¤į
çī¹ å¼Ĥ
çł´ è£Ĥ
åĨ ³
çļĦ æĹ¶éĹ´
æ¡ Ī
æĻ º
æı ı
çĹ ķ
èĨ ı
æ³Į å°¿
äºĭ é¡¹
ä½į ç½®
åįķ çº¯
è¿ĺ ä¼ļ
å¹ ¼
ä½ ı
åıª è¦ģ
å± ±
è Ĺ
éª¨ è´¨
æ° ı
çļĦ æ£ĢæŁ¥
ä¹ ī
åĬŁèĥ½ éļľç¢į
N A
èĦĤèĤª èĤĿ
çĸ ı
å¨ ©
åį± éĻ©
æ¸ħ æ´Ĺ
ä¸į å®ľ
çĸĹ æķĪ
æľº åĪ¶
éŀ ĺ
èĤ ©
æµ ħ
èº«ä½ĵ çļĦ
åĪ¤ æĸŃ
æ¢Ĺ éĺ»
åħħ è¡Ģ
æĺ¾ ç¤º
çº §
ç» ¿
çĶ ĺ
éĢł å½±
æľī åı¯èĥ½
% ï¼Į
çª ¦
æ¤į çī©
é»Ħ çĸ
èį¯ åĵģ
éĢ Ķ
åĬ ¿
æ¥ ļ
æļ Ĥ
æ¯ı æĹ¥
çĻ «çĹ
æµĵ åº¦
æĤ£ åĦ¿
çĻ«çĹ «
åģ ¶
éĻĦ çĿ¾
æĮĩ å¯¼
éĢĤå½ĵ çļĦ
ç»´ æĮģ
ãĢĤ ï¼Ī
ä¸ĺ çĸ¹
ä¸ Ŀ
å¿ĥ èĤĮ
è¯´ æĺİ
éħĴ ç²¾
åĪĨ å¸ĥ
æ¶ Ĥ
å®« èħĶ
ç¥ŀç»ı ç³»ç»Ł
çĹħ ç¨ĭ
åį³ åı¯
æµ ´
åĨ Ĵ
ä¸º äºĨ
æĸ°çĶŁ åĦ¿
å»¶ éķ¿
å¯Į åĲ«
éĺ ¶
çĹħ çĹĩ
ç² ª
æľ Ľ
æ¸ħ æ¥ļ
å¥³æĢ§ çļĦ
éŁ§ å¸¦
ä»ĸ ä»¬
éĹ´ çĽĺ
ä¾ĭ å¦Ĥ
åĹ ½
çļĦ é¥®é£Ł
ä¼¤ åı£
æĹ ı
å¹¶ ä¸į
åĬ© äºİ
èĥ ĸ
é½ ¿
ä¼ ¸
çĶŁæ®ĸ åĻ¨
ç ¿
å¤ĸ ä¼¤
ä½ľ ä¸º
çĽ¸ åºĶ
åĴ³ åĹ½
æĬĢ æľ¯
æĤ£èĢħ åľ¨
éľ ²
å¼Ĥ ä½į
èĤ¿ åĿĹ
èĥĥ èĤł
çĹ ī
çļĦ å½±åĵį
æŃ£ ç¡®
åī ĸ
æ¶ĪåĮĸ éģĵ
ç¤¾ ä¼ļ
åĲ« éĩı
æľ «
åĪĨ å¨©
å°¿ æĢ¥
åħĪå¤© æĢ§
æ® ĭ
äº ²
æĬĹ åİŁ
è¿Ļç§į çĸ¾çĹħ
æĤ£ ä¸Ĭ
åĲĥ ä»Ģä¹Ī
çģ °
o n
éĿ¢ éĥ¨
æĿ Ģ
ä½İ ä¸ĭ
åŁº ç¡
åĬ³ ç´¯
æķ ·
æŀ Ĳ
èĥļ èĥİ
é¢ ľ
äºº æµģ
æĿ¡ ä»¶
åĿļ æĮģ
å°± è¯Ĭ
éĶ Ļ
éĺ´éģĵ çĤİ
å½ »
é¢Ī éĥ¨
¤ çĸ®
åŁºç¡ Ģ
å¤§ èĦĳ
æ³ Ħ
ä½į äºİ
å¹ ½
æ» ¡
è½» å¾®
è· Ł
æº ¢
å¤ļ åĸĿ
çĹħæ¯Ĵ æĦŁæŁĵ
çĻ ¾
å®ī åħ¨
å¤į æĿĤ
C T
æĦŁ åĨĴ
ä¸ľ è¥¿
çĺ ĺ
æĬµæĬĹ åĬĽ
çĹ ¤çĸ®
åİŁ åıĳæĢ§
éĺ¶ æ®µ
è¿ĺ åı¯ä»¥
å¹³ è¡¡
èĤĿ åĬŁèĥ½
è´¨ éĩı
å®«é¢Ī ç³ľçĥĤ
åĨ ł
éĻ ħ
è¯ ¢
çĹĺ çĹĺ
æĮī æĳ©
çĥ ¦
é© ¬
æĦĪ åĲĪ
çļĦ å¥³æĢ§
äºº å·¥
æ¶Ī éĻ¤
èħ¹ æ°´
æľ¬ èº«
çĸ ĳ
ä¸Ĭ è¿°
çĶ¨ éĩı
å¾Ī å¤§çļĦ
å¤§ éĥ¨åĪĨ
èģ ļ
æİĴ éĻ¤
åĹ ľ
çĵ £
åº Ń
éĴ ł
å¿ µ
å½» åºķ
é¡ º
âĢ Ķ
åī¯ ä½ľçĶ¨
æ¦ Ĥ
1 9
åİ Į
éĹŃ ç»ı
å¹½ éĹ¨
èº ģ
è´¹ çĶ¨
ä¸´åºĬ çĹĩçĬ¶
ç² ¥
è¶ħ å£°
ä¹ı åĬĽ
æ¸ ¸
å¦Ĥ ä½ķ
æģ Ĳ
ç»Ĩèĥŀ çļĦ
ä½ĵ å¾ģ
çº¢ æĸĳ
èĦ± åŀĤ
åŃĲå®« èĤĮçĺ¤
éĵ ģ
æĮ ¯
åģľ æŃ¢
ãĢ ĭ
å¤Ħ äºİ
H P
ãĢ Ĭ
æĢ§ çļ®çĤİ
é Ĥ
æĺ¯ åľ¨
- -
çĸ² åĬ³
åł µ
çĹī æĮĽ
åıĬæĹ¶ æ²»çĸĹ
èī¯ æĢ§
e n
æ¯ «
å° Ķ
çĽ ĳ
æĪ Ĵ
æĹ¥å¸¸ çĶŁæ´»ä¸Ń
çļĦ åı¯èĥ½
çļĦ è¯ĬæĸŃ
è ļ
æ± ¡
å¦Ī å¦Ī
å°¿ æ¶²
% ãĢĤ
çļĦ çĹħäºº
èĤ¾ èĦı
æŀ ¢
æ½ ľ
èĩ´ çĹħ
æĬ ĵ
è¿ ħ
èĭ Ĺ
èħ¹ èĥĢ
èĢģå¹´ äºº
å¾ ħ
å¯Ĩ åĪĩ
èĥĥ éħ¸
ä¸į å¥½
çļĦ éĹ®é¢ĺ
æī °
ä¼ ĺ
ç»§ åıĳ
å¸¸ å¸¸
å¤į æŁ¥
åĽº éĨĩ
å¥ ĭ
çĶŁæ´» ä¹łæĥ¯
ä¸ī éĺ³
åı «
éĺ» å¡ŀ
çļĦ è¡¨çİ°
å¤ļè§ģ äºİ
æĺ¯ ä¸į
æĢ ķ
ä¼ļ å¼ķèµ·
é»Ħçĸ ¸
è¿ħ éĢŁ
æľīæķĪ çļĦ
äº Ĵ
æŃ¤ æĹ¶
çīĽ å¥¶
å¸ Ī
èĳ Ĺ
æİ Į
ï¼ī ï¼Į
a n
éĢĶ å¾Ħ
åħ» æĪĲ
æµ¸ æ¶¦
çĨ ¬
ä¹Ł ä¸į
åıĳçĶŁ äºİ
æĽ ¿
å°ĳ éĩı
æĮĩ çĶ²
è¯ ¦
é¥® éħĴ
ä¹ Ĳ
èĦĵ æĢ§
å¤ļ ä¸º
æľī åĬ©äºİ
å¸ Į
åŀĤ ä½ĵ
çģ ¼
æľī åĵªäºĽ
çī¹å¼Ĥ æĢ§
å® ½
åĲ ŀ
ä¸į èĤ²
æĺ¯ åı¯ä»¥
æĶ¯ æ°Ķç®¡
æĺ ı
çĻĮ çĹĩ
ç¨ Ģ
çľ¼ çĿ
åħ Ĩ
åĩº æĿ¥
å®« å¤ĸ
åĽº å®ļ
çĽĨèħĶ çĤİ
çĹħæ¯Ĵ æĢ§
æĢ§ äº¤
ç»ı æľŁ
å¾Ī å¤§
åŁ¹ åħ»
ç¼ĵ æħ¢
ä¸ĭ èĤ¢
å°¿éģĵ çĤİ
éĴĻ åĮĸ
è¾ħ åĬ©
å®«å¤ĸ åŃķ
æ°§ åĮĸ
çĻ½ ç»Ĩèĥŀ
ä¸Ń æŀ¢
èµ· åĪ°
æĭħ å¿ĥ
B è¶ħ
6 0
m m
æ¯ı æ¬¡
æĺ¯ éĿŀå¸¸
åıĬæĹ¶ çļĦ
åĽŀ äºĭ
åħ´ å¥ĭ
æłĩ åĩĨ
æŁĵèī² ä½ĵ
c m
è¿ĺ è¦ģ
å² Ľ
çĶ¨ æ³ķ
è¿ĩ äºİ
å¦Ĥæŀľ ä¸į
æ ¾
éĢ Ĩ
èĤ ļ
ï¼ ħ
çĹĽ èĭ¦
åºĶ æ³¨æĦı
è¡Ģ æłĵ
æĸ¹ æ¡Ī
HP V
çĹħäºº çļĦ
éĺ ¿
åĳ ĺ
åłµ å¡ŀ
éĨ Ĵ
æľī æĹł
èİ ·
åİĭ çĹĽ
åĨ ¬
å· ¨
çĶ² åĩı
èĤ¥ èĥĸ
å®«é¢Ī çĻĮ
å¹¿ æ³Ľ
ä¹Ł è¦ģ
æĹł åĬĽ
èĤ¢ ä½ĵ
é»Ħ èī²
åĨħ è£¤
æĪĲ äºº
åĲ¸ çĥŁ
a l
å®ŀ éªĮ
åıįå¤į åıĳä½ľ
åı¯ä»¥ éĢļè¿ĩ
åŃĲå®« é¢Ī
çĶŁ åŃĺ
çļ® èĦĤ
èĤ¥ å¤§
åĳ¼åĲ¸ éģĵ
å¹² åĩĢ
çĺ Ģ
æĺ¾ èĳĹ
åįģ äºĮ
åĮ» çĸĹ
ç» ĥ
ç¬¬ ä¸Ģ
ï¼ į
m l
å¤´ æĻķ
æľĢ åĲİ
åįģ åĪĨ
å°± è¦ģ
äº¢ è¿Ľ
éļ¾ ä»¥
çĽ® çļĦ
çļĦæĥħåĨµ ä¸ĭ
åıĹ ä½ĵ
æĪĲ ä¸º
è¾ĥ å¤§
ç¨ į
æľĪç»ı ä¸į
çļ® æįŁ
çī© çĲĨ
æıĲ ç¤º
ä¹ĭ åīį
) ãĢģ
æıı è¿°
å½±åĵį åĪ°
æī ģ
åĪĿ æľŁ
èĤ¾ åĬŁèĥ½
ä¼ ı
èĥ° èħº
X çº¿
æĽ² å¼ł
æĤ£ çĹħ
t i
èĦ± èĲ½
å° ¾
æĢİä¹Ī åĽŀäºĭ
åĢ į
èī ¾
æľī åĪ©äºİ
çĹħ åı²
å¸¸ çĶ¨
è§Ħ åĪĻ
åı¯ ä½¿
è¯¦ ç»Ĩ
åıĹ æįŁ
çħ ®
ï¼ İ
èĩª è¡Į
åĪºæ¿ĢæĢ§ é£Łçī©
æĦŁ åĪ°
çĬ ¯
åį Ĺ
æĦı è¯Ĩ
å¾Īå¤ļ äºº
éľī ç´ł
é£İ éĻ©
o l
çļ®èĤ¤ çĹħ
å¹´ æľŁ
å¥³æĢ§ æľĭåıĭ
å¤ļ ä¹ħ
è¶Ĭ æĿ¥
ä¼ĳ åħĭ
æĲ Ĳ
æ´» æĢ§
ç¼º è¡Ģ
åį§ åºĬ
æĽ´ åĬł
å½¢ æĢģ
çĽ ĸ
å½ĵ ä¸Ń
é¢ľ èī²
å¿ Ĺ
ãĢ ĳ
ä¸Ģ ä¾§
æ¸ħ éĻ¤
æħ İ
è¶ĬæĿ¥ è¶Ĭ
å± Ī
åĽł åŃĲ
éĵ ¶
éĿĴ æĺ¥
çĪ ±
èĤĿ çĹħ
æĵ į
åĬŁ æķĪ
å® Ī
ä¿® å¤į
åĿ ł
æ°¨ éħ¸
åĬ¨ ä½ľ
2 5
ä¸Ģ çĤ¹
é«ĺ çļĦ
åİŁ åĪĻ
æĦŁæŁĵ çļĦ
éĶ ®
éĴ ¾
åĪĨ æŀĲ
æļ ĸ
å°ĳ è§ģ
åĽĽ èĤ¢
éģ¿ åŃķ
æĬĳéĥģ çĹĩ
éī´åĪ« è¯ĬæĸŃ
çĹħ çģ¶
å½ ©
èħ ±
ä¸ĢèĪ¬ æĿ¥è¯´
ç»§ ç»Ń
æ¤ Ĵ
æľī æīĢ
åĶ ĩ
åĳĪ çİ°
æĬ½ æĲĲ
ç»§ åıĳæĢ§
åľĨ å½¢
è¿ ·
æ¶Ī æ¯Ĵ
å¤ļåĲĥ ä¸ĢäºĽ
åıĪ ç§°
çĨ¬ å¤ľ
éĵ ¾
å°¿ çĹĽ
ä¿ĥ çĶ²çĬ¶èħºæ¿Ģç´ł
çĻ½ æĸĳ
è¾ĥ å¤ļ
å¹½éĹ¨ èŀº
ä¸Ģå®ļè¦ģ æ³¨æĦı
å¤ «
ä¸¥éĩį èĢħ
åħ³èĬĤ çĤİ
æĿ Ł
èĦĬ æŁ±
åı¯ çĶ¨
åĪĽ ä¼¤
åĩº çĶŁ
å¤ĸ ç§ĳ
ç²¾ æ¶²
çĺ «
èĤ¾ ä¸Ĭ
èĥ° å²Ľ
å¼ ¯
èĬ ½
åıª æĺ¯
è¡Ģ æµģ
åľ° æĸ¹
åı¯ åĪĨä¸º
é¥ ±
åĲİ çļĦ
æĹ¶ æľŁ
åľ¨ æ²»çĸĹ
çı ł
ä¹³ æĪ¿
è ķ
èĤ¾ä¸Ĭ èħº
åħ Ń
éĿ ł
æ±¡ æŁĵ
åıĳ äºİ
åı ·
å¾Ī å¥½çļĦ
å¸Į æľĽ
åĨħ å®¹
è¡¨ æĺİ
åħ¶ æ¬¡
æĪĸ æĺ¯
åĲİ éģĹ
é«ĺ çĥŃ
ä½ĵ æ¸©
èħ Ĳ
ç¢ ³
ãĢ Ĳ
æİ ī
å®¶ éķ¿
è¡Ģæ¶² å¾ªçİ¯
åĸ ľ
ç¨ĭåº¦ çļĦ
è¦ģ æ±Ĥ
å¼ ¥
èĥĥ èĤłéģĵ
æ¶Ī çĤİ
çĭ ¬
äºº ç¾¤
çĹ ¹
æ·· åĲĪ
å®«é¢Ī çĤİ
å°½ å¿«
åĮ»çĶŁ çļĦ
åıĺ å¾Ĺ
æĽ´ å¹´æľŁ
çļĦ çĹħåĽł
åį ´
åĪ¶ åĵģ
åĩł çİĩ
åı¯ å¯¼èĩ´
æ¶² ä½ĵ
æ³¨æĦı äºĭé¡¹
å¾Ĺ äºĨ
å¸¸ æľī
10 0
æĮĩ èĤł
æĪĲ çĨŁ
åįµå·¢ åĽĬèĤ¿
æļ Ĺ
é¢ħ åĨħ
æµģ è¡Į
å°ı æĿ¿
èĤł èĥĥ
åŁ Ł
æ¬¡ æķ°
æ¾ ¡
å¤§ å¤ļ
æĻº åĬĽ
ä¼łæŁĵ æĢ§
åįģäºĮ æĮĩèĤł
æĹł çĹĽ
è¡Ģ å°ıæĿ¿
æĤ ¨
åķ ¡
åħ¶ å®ĥ
åĭ ¤
å¿ħè¦ģ æĹ¶
å®¶ æĹı
è¾ĥ ä¸º
ä¸į æĸŃ
çļĦ éĩįè¦ģ
ç®Ģ åįķ
æĺ¯ åĽłä¸º
æĢ§ èĦĳ
ï¼ ł
ä¹ĻèĤĿ çĹħæ¯Ĵ
è® ²
æĺ¯ æľī
æ ©
æľĪç»ıä¸į è°ĥ
åĢ ¾
å±Ģ éĻĲ
æ¸Ĺ åĩº
ç¼º éĻ·
åıĮ ä¾§
åħ³ éĶ®
å¿ ½
æĪĳä»¬ çļĦ
éķ ĩ
åĳ Ĭ
è¡Ģ å°¿
èī¯ å¥½
éĿĻèĦī æĽ²å¼ł
å¯¹çĹĩ æ²»çĸĹ
æĺ¯ æ¯Ķè¾ĥ
éĶ Ĳ
å°ı åŃ©
è¯ Ħ
éĢļ çķħ
âĢĿ ï¼Į
8 0
ä¹Ł å°±æĺ¯
å®¶ åºŃ
æ° ¯
æĥ §
éĺ´ æĢ§
å¿ĥ æĢģ
éĽ Ħ
å¤ ı
æĶ¾ æĿ¾
ä¸į æĺĵ
ç²¾ ç´¢
çī µ
ä¸į è¿ĩ
% ï½ŀ
ç²ª ä¾¿
æ¨ ¡
ç±» ä¼¼
çĹħ åİŁä½ĵ
å¼ Ľ
åĪĨ åŃĲ
æŀ Ĺ
å½ĵ çĦ¶
èĤĿ çĻĮ
æĹ ¢
ä¼ļ éĺ´
çŃ Ľ
çĮ ª
çº¢ ç»Ĩèĥŀ
åį ľ
éľĢè¦ģ æ³¨æĦı
éĩį åº¦
å¿« éĢŁ
æľĢ ä½³
èĤº çĤİ
æ¼ «
éĥ¨ä½į çļĦ
éĢĤ åĲĪ
åħĥ ç´ł
éĢĤ éĩı
a r
åĲĮ æĪ¿
D NA
äº§ å¦ĩ
éĢī çĶ¨
é¥®é£Ł ä¸Ĭ
ç«ĭ åį³
å· §
çª Ŀ
èº ¯
çº¢ èĤ¿
æĮĩå¯¼ ä¸ĭ
ä¸»è¦ģ è¡¨çİ°ä¸º
ä¸įèī¯ åıįåºĶ
éĩĬ æĶ¾
æ·ĭ çĹħ
åĲ¦ åĪĻ
çķ ¥
åĨħåĪĨæ³Į å¤±è°ĥ
ä»¥ä¸ĭ åĩł
ä¿Ŀ å®Ī
æĥ Ĭ
èĩª æĪĳ
é¢ ¤
ä¸ ĸ
èĥĨ åĽºéĨĩ
åıį å°Ħ
ç© ´
æ°¨ åŁº
çħ İ
Ŀ åįľ
ä¸į è§ĦåĪĻ
çļĦ éĥ¨ä½į
ç½ĳ èĨľ
ç»ĨèıĮ æĦŁæŁĵ
2 4
åİ ĺ
å°¿è·¯ æĦŁæŁĵ
å§ ¿
æ¹¿ çĸ£
æĹ ģ
åĬŀ æ³ķ
çĤİ æĢ§
é«ĺ åº¦
ç¦ģ æŃ¢
è¿Ļ ä¸Ģ
éĨ ī
åĴ ĸ
å¸¦ çĬ¶
åĲĥ ä¸ĢäºĽ
èº«ä½ĵ åģ¥åº·
èĥ°å²Ľ ç´ł
å Ĥ
å¯ »
ä¸ĵ ä¸ļ
èĤĽ åĳ¨
åį³ ä½¿
ç§ĳ åŃ¦
çļĦ ä¸Ģ
åĪĨ ç¦»
åİĺ ç±³
èĤ¾ å°ı
è¿Ľ å±ķ
ç¿ »
ä¸¤ ä¸ª
æ¯Ĵ ç´ł
è£ ħ
ä¾µ çĬ¯
æģĲ æĥ§
å¤ļåĸĿ æ°´
ç¦ģ å¿Į
èĥİ çĽĺ
èĭ ¯
èĤļ åŃĲ
æĮĩ æłĩ
çŃ ĭ
æħ¢ æħ¢
ç® Ĺ
åŃķ æľŁ
æµĭ å®ļ
åħħ è¶³
æ² Ļ
ç¬¬ ä¸ī
å¢ŀ åİļ
åĸ ĺ
ç« Ļ
å¹¼ åĦ¿
èĦĳ æ¢Ĺ
åĪ ®
ä¹ ¦
é¢ Ĺ
çº¤ç»´ åĮĸ
åĨį æ¬¡
éĢĤ åºĶ
â ĳ
éĩĮ éĿ¢
ç» ľ
æĦı ä¹ī
èĩªèº« åħįçĸ«
åĬ ¡
ä¸Ń é£İ
æī Ń
éĹ´çĽĺ çªģåĩº
éº» çĹ¹
æ°´ åĪĨ
è ł
æ¶Ī éĢĢ
åıĳ çĥ§
èĤº çĻĮ
ç ĳ
çļĦ ä¸Ģä¸ª
ä¸į åĪ°
åĢ Ĵ
éļ Ĩ
åĸĿ éħĴ
åĮº åĪ«
æĶ¯ æĮģ
çĸ« èĭĹ
éĻ Ī
åĴĮ æ²»çĸĹ
è½¯ éª¨
æĮ ¤
éļ Ļ
éº ¦
çĸĹ ç¨ĭ
å± ħ
çº ¹
æıĲ ä¾Ľ
éĢŁ åº¦
å¤ļ å°ĳ
æ½® æ¹¿
åĴĸ åķ¡
å¼ ¹
ä¾¿ è¡Ģ
èĨĢèĥ± çĤİ
ä½ĵ èĤ²
åıĬ åħ¶
éª¨ éª
å·® å¼Ĥ
æºĲ æĢ§
è¶³ å¤Ł
éĻĲ åĪ¶
çļĦ åĬŁèĥ½
éķľ æ£ĢæŁ¥
èł ķ
èİ· å¾Ĺ
å¹´ è½»
äºº ç±»
ç³» åĪĹ
è¾Ľè¾£ åĪºæ¿Ģ
æī© æķ£
æķ Ļ
åŃ©åŃĲ çļĦ
è° ·
æĸ ľ
åıĤ èĢĥ
ç©¿ åĪº
çº ³
çĿ¡ è§ī
èıĮ æĢ§
çľĭ çľĭ
åĩº æ±Ĺ
æĺ¯ä»Ģä¹Ī åİŁåĽł
æĪĳ åĽ½
éħ °
æ¸© åº¦
ä¸Ļ èĤĿ
èĤ¾ çĤİ
çļĦ æĦŁæŁĵ
ä¸°å¯Į çļĦ
å°ĸ éĶĲ
çĶŁ åĨ·
èµ· çĹħ
æµģ è¡Ģ
ä¸į å½ĵ
ä½ Ļ
æł¹ æ²»
ä¸ §
éĹ ·
æĻ Ĵ
ç§¯ æ°´
è® Ń
åľ¨ æĢĢåŃķ
åı£ èĩŃ
é£İ æ¹¿
å¦Ĥæŀľ æľī
è¿Ļ ç±»
åľ Ł
9 0
ä¸ĭ åŀĤ
åİ ¥
èħ° éĥ¨
ç´¯ åıĬ
ä¹ĭ å¤ĸ
çº¢ ç´ł
æīĭ æĮĩ
éĶ ģ
é¥® æ°´
è§£ åĨ³
çĽ ²
æµ İ
çº µ
åı¯ åľ¨
o r
å¯ Ħ
åĨ ³å®ļ
åº ı
æĻ® éĢļ
å¼Ĥ çī©
æĿ¾ å¼Ľ
âĢĿ ãĢĤ
è ĵ
æĿ Ĳ
åĲİéģĹ çĹĩ
ä¸Ģ èµ·
æ³¨æĦı ä¼ĳæģ¯
çĿ¾ä¸¸ çĤİ
å¤ĸ çĶ¨
éª ¶
å¤§éĩı çļĦ
éĺ² æ²»
ä½ĵ å¤ĸ
è¯· æııè¿°
ç¡ «
æĬ¥ éģĵ
èĲ¥åħ» ä¸įèī¯
æĲ ı
ç»Ħ æĪĲ
å°½ æĹ©
èłķ åĬ¨
æŁ Ķ
èĢ Ĺ
éº» éĨī
åºĶ å½ĵ
ä¹Ł åı¯èĥ½
æ½ľ ä¼ı
èŀ į
åį ¡
ä¸»è¦ģ æľī
å®ŀ éĻħ
æĢ§ è´¨
æĢİä¹Ī æ²»çĸĹ
åı¯ä»¥ çĶ¨
å§ ľ
è´ ¥
çļĦ çļ®èĤ¤
è§ģ äºİ
æľĢ ç»Ī
é¸¡ èĽĭ
èģĶ åĲĪ
æ®µ æĹ¶éĹ´
è ¤
è¡Ģ æµĨ
1 1
æľį èį¯
å°ı çļĦ
å¤´ éĥ¨
åĩ »
çĻ½å¸¦ å¢ŀå¤ļ
çĶ ľ
çĻ ľ
åĲİ æľŁ
çļ® ä¸ĭ
è¿ĩ éķ¿
å¼ķ æµģ
éģ ĩ
æ· ¤
éª¨ é«ĵ
ä¸ªäºº åį«çĶŁ
è¾¹ ç¼ĺ
åį ı
çĹĩçĬ¶ çļĦ
åŃ¦ æ£ĢæŁ¥
å¼¥ æ¼«
çļ®èĤ¤ çļĦ
å¸¦çĬ¶ çĸ±çĸ¹
k g
ä¿Ŀ åģ¥
ä¸¤ ä¾§
è¾ĥ é«ĺ
è® ¾
çĽ¸ ä¼¼
çĹħæĥħ çļĦ
çĶ²çĬ¶èħº çĤİ
ä¸ ģ
éĺ µ
åĲŀ åĴ½
æ¯Ĵ æĢ§
æĵį ä½ľ
æ´Ĺ æ¾¡
é¼ ł
åħĭ åĬĽ
å·§ åħĭåĬĽ
æ¢ ¦
çĪ ¶
åıĹ ç´¯
èľ Ĥ
èĦĳ åĩºè¡Ģ
æľī ä¸Ģå®ļçļĦ
åıĬ æĹ©
çľ¼çĿ Ľ
çļĦ æĦŁè§ī
ä¸į æĮ¯
æĺ¯ å¾Ī
ä¹ İ
åŃĲå®« èĦ±åŀĤ
ç©º æ°Ķ
ç§¯æŀģ æ²»çĸĹ
ä¾µ åħ¥
èī¾ æ»ĭ
ä» Ĭ
çĶ²çĬ¶èħº ç´ł
çĽ¸ åĲĮ
r o
åĸ Ĥ
çĺ «çĹ
åĲĪ çī©
èį¯ æµģ
åĪ° äºĨ
1 4
éª¨éª ¼
æ¿Ģ åħī
çĺ«çĹ ª
åı ī
èĤĿ ç»Ĩèĥŀ
èĳ¡èĲĦ ç³ĸ
ç»Ŀ ç»ı
å· ¾
æļĤ æĹ¶
å¿ Ĩ
ä¹Ļ åŀĭèĤĿçĤİ
çĸ ¤
è¿Ļä¸ª æĹ¶åĢĻ
åħħ åĪĨ
æĶ¾ çĸĹ
æģ¶ åĮĸ
ä¸Ń åº¦
åĮ» å¸Ī
å¤´ çļ®
èĭ ¹
çº ł
çĶŁ æĪĲ
èħº ä½ĵ
çĹ Ĥ
åİ» éĻ¤
èĭ¹ æŀľ
æĺ Ł
æīĢ æľī
èį ·
å¹¶ ä¸įæĺ¯
åľ° åĮº
ä¸įåĲĮ ç¨ĭåº¦çļĦ
ä¸ ĥ
è¡¨ çļ®
å½© è¶ħ
æķ´ ä¸ª
åħĪ åħĨ
é¢ĳ ç¹ģ
åĳ Ĩ
åĨ °
è´Ł æĭħ
ç¼ Ŀ
ä¸į éľĢè¦ģ
æ´» æ£Ģ
å°¿ ç®¡
åģļ åĪ°
å¤§ èĤł
ä¸į çĶ¨
åı¯ä»¥ åľ¨
æ¸ħ çĥŃ
åĪ© çĶ¨
æĺ¯ ä¸Ģä¸ª
çĤ ¸
å¥½ è½¬
æŃ¢ çĹĽ
è®Ń ç»ĥ
è ¤Ĳ
æ¯ĽåĽĬ çĤİ
åĪ Ģ
è ¸
å¹½éĹ¨èŀº æĿĨèıĮ
èĥĥ çĻĮ
æ¨ ª
å®ĥ ä»¬
ä¸į åĲĥ
æ£ ī
çļĦ çĤİçĹĩ
æ¢ °
æŀ £
å¦ĩç§ĳ çĸ¾çĹħ
é»Ħ ä½ĵ
å¯Ħ çĶŁ
å°ĸéĶĲ æ¹¿çĸ£
çĻĮ åıĺ
äºĭ æĥħ
åĵ º
é¢Ĺ ç²Ĵ
è¡Ģ èĦĤ
ä½ĵ åĬĽ
çĽĳ æµĭ
ä¼ļ ä½¿
æĢ¥æĢ§ æľŁ
éħ¸ æĢ§
ä¸§ å¤±
ä¾Ŀ æį®
åĩĿ è¡Ģ
ï¼ī ãĢĤ
èĥĨ çº¢ç´ł
æŀ Ŀ
åįµ æ³¡
èĥĨ æ±ģ
éĢĤ çĶ¨äºİ
åĿĩ åı¯
çļĦ çĶŁæ´»
åľ º
èĦĳ è¡Ģç®¡
7 0
åĪ ļ
åĽ ¢
äººä½ĵ çļĦ
æľº ä¼ļ
å¾Ī å°ĳ
1 8
è Ń
ä¹³èħº çĻĮ
èĨĿ åħ³èĬĤ
æĹł æĺİæĺ¾
ä¸Ń åĽ½
è¿ŀ ç»Ń
æŃ¢ è¡Ģ
æĺı è¿·
è´¨ æĢ§
è¿Ľè¡Į æ£ĢæŁ¥
çļĦ æķĪæŀľ
çĽ´ å¾Ħ
è ¹
åıĳ çĤİ
åĭ ĥ
ä¸Ĭ æīĢ
çģ ¸
é¡ ¶
èĤł çĤİ
ä¼ļ å½±åĵį
åıĳçĶŁ çļĦ
èµ Ħ
ä» ģ
æĻļ ä¸Ĭ
æī© å¤§
éĥ½ åı¯ä»¥
çĶ²çĬ¶èħº èĤ¿
æĸ¹éĿ¢ çļĦ
åĽł èĢĮ
æĢ§ åĴĮ
å¿ĥ å®¤
è§Ĩ åĬĽ
æ°´ çĸ±
èĩ Ĥ
åĩºçİ° çļĦ
äº§çĶŁ çļĦ
æ¶ĪåĮĸ ä¸įèī¯
èµ ĸ
æĲ º
ä¼ °
èĤ¿çĺ¤ çļĦ
å½¢æĪĲ çļĦ
ä¸ª ä½ĵ
å½ Ĵ
èľ ľ
åĬ³ åĬ¨
çģ Į
æ¬ ¢
å®«é¢Ī æģ¯èĤī
çĽ¸ äºĴ
ä¸Ģä¸ª æľĪ
æľĪç»ı åĳ¨æľŁ
å ³
çĥŃ æ°´
i c
é¾Łå¤´ çĤİ
åĵº ä¹³
çļĦ æĸ¹å¼ı
å¼º è¿«
å¢ŀ éķ¿
èĤĽ è£Ĥ
éĿĴæĺ¥ æľŁ
ç¥ Ľ
å°ı ä¾¿
å© ļ
1 3
åŃ¦ ä¹ł
è¡Ģ æĢ§
çļ®è´¨ æ¿Ģç´ł
åıª èĥ½
å®ĥ çļĦ
éĺ» æ»ŀ
åŃĲå®«åĨħèĨľ å¼Ĥä½į
æľĢ ä¸º
æ¯Ľ ç»Ĩ
éĴ ±
ä¹³å¤´ çĺ¤
è¶ ¾
åĩĨ ç¡®
èĨ ³
çļ Ĥ
æĳ© æĵ¦
æīĭ æ®µ
å¼ł åĬĽ
ä¸» åĬ¨èĦī
éĶ Į
åį§åºĬ ä¼ĳæģ¯
ç§¯æŀģ çļĦ
ä¸¥ æł¼
æīĭæľ¯ åĪĩéĻ¤
è¿ĩæķı æĢ§
é¼ ĵ
ï¼Ľ ï¼ł
åİ Ĩ
éķľ ä¸ĭ
éĻĦ ä»¶
æĺ¯åĲ¦ æľī
ä¸Ģ ç³»åĪĹ
æī İ
æĲº å¸¦
å°± åĮ»
éĴ Ŀ
é¢Īæ¤İ çĹħ
åĨħ èĦı
èĦ± åĩº
è®° å¿Ĩ
ç¹ģ æ®ĸ
æ² ¿
éĻĦçĿ¾ çĤİ
å¤± å¸¸
æ¶Ī çĺ¦
åĳ¼åĲ¸ åĽ°éļ¾
åĨł çĬ¶
å¹´ æĿ¥
åĲ §
æķ° éĩı
èĢĮ å¼ķèµ·
æŀ ķ
çļĦ åĪºæ¿Ģ
åĮº åŁŁ
èŀº æĹĭ
åľ¨ æĹ¥å¸¸çĶŁæ´»ä¸Ń
åľ¨ çĶŁæ´»ä¸Ń
è¥¿ åĮ»
ä½ĵåĨħ çļĦ
æĢ§ èĥĥçĤİ
æ·ĭå·´ ç»Ĩèĥŀ
åĩı å¼±
åĩ ¹
èĻ ¾
åħ³ äºİ
æĬĹ èıĮ
æĹł è®º
èĥĢ æ°Ķ
æĪĲ åĬŁ
i s
ç»¼ ä¸ĬæīĢ
çĶµ åĽ¾
çĸ Ŀ
åĨħ çĹĶ
å¦ »
èŃ ¦
ä¿Ŀå®Ī æ²»çĸĹ
æĹ©æľŁ çĹĩçĬ¶
ä¸ĺ èĦĳ
æķ ĳ
ç§» æ¤į
åįĥ ä¸ĩ
æ¡ ¥
å¸¸è§ģ äºİ
æĥ³ è¦ģ
èĥĥ æºĥçĸ¡
åľ¨ å¹³æĹ¶
çºł æŃ£
æł ĳ
çĽ Ľ
ä»¥ä¸Ĭ çļĦ
æľº èĥ½
å¤§ çº¦
20 0
å¿ĥ å¾ĭ
è®¤ è¯Ĩ
ä¸į å®ī
å¥ Ĺ
èĤ¡ æ²Ł
è¯¢ éĹ®
1 6
æ° ¢
æ· Ģ
æ» ¤
åıĹ ç²¾
éĤ »
æĦ ī
çĪ¶ æ¯į
æ¯ı ä¸ª
e s
ç»¼ä¸ĬæīĢ è¿°
çĶŁ äº§
äººå·¥ æµģäº§
åĨ »
æ° ĳ
çĽ¸ ä¿¡
èĻļ å¼±
ç²ĺ æ¶²
èħ¹ èĤ¡æ²Ł
å¯¼ ç®¡
æİĴ æ³Ħ
åĭĥ èµ·
è· ³
æī ĺ
åĢ¾ åĲĳ
ç²¾ ç®¡
çĸı æĿ¾
åħ¨ éĿ¢
çŁ¥ è¯Ĩ
ç²Ĵ ç»Ĩèĥŀ
åŁº åºķ
èĩª è§ī
å¼ķ äº§
èĳ ±
ä¸ĢèĪ¬ æĺ¯
ä¸ĢèĪ¬ åľ¨
å¿µ çıł
å°± éľĢè¦ģ
å§¿ åĬ¿
ç»´çĶŁç´ł C
äº§ åĵģ
å¾Ī éļ¾
æģ¢å¤į æŃ£å¸¸
æľī ä»Ģä¹Ī
èĥĨ åĽĬ
ï¼ī ãĢģ
åİĮ é£Ł
éľ ĩ
çĽ¸ å½ĵ
ç»Ħç»ĩ çļĦ
é¢ Į
æ¯Ķå¦Ĥ è¯´
S H
åºĶè¯¥ æ³¨æĦı
çľ¼ çĲĥ
é¢ Ŀ
éĢ ģ
æĸ°é²ľ çļĦ
æĪĲ å¹´
èĩ³ å°ĳ
éº» æľ¨
éĺ´éģĵ åĩºè¡Ģ
é¸ £
ç²¾ åĽĬ
ç³ Ĭ
æŃ£è§Ħ åĮ»éĻ¢
åıĺ æĢ§
èĨ³ é£Ł
a s
ä¼ļ éĢłæĪĲ
æĲ Ķ
é¾ Ļ
æı ¡
çĶ¨ åĬĽ
æ¯Ľç»Ĩ è¡Ģç®¡
èĨ ¨
é£Łæ¬² ä¸įæĮ¯
ç¢ İ
æĽ ¾
ä½ĵ æ£Ģ
åĪĩ å¼Ģ
èĴ ľ
èĦĳ çĤİ
åı¯èĥ½ ä¸İ
ä¸Ń å¿ĥ
ä¿Ŀ æļĸ
èħ° çĹĽ
è½ ¦
a t
å°ı ä¸īéĺ³
éļĲ çĿ¾
å° ¼
ä¸Ĭ éĿ¢
èĢĮ å¯¼èĩ´
çģ Ń
æĬĹ çĹħæ¯Ĵ
éĥ¨åĪĨ æĤ£èĢħ
ä¸ĵ å®¶
é«ĺ åį±
è¦ģ åıĬæĹ¶
ç±» èį¯çī©
èĤ ĭ
åĪĩéĻ¤ æľ¯
å ļ
æ Ĩ
æħ¢æĢ§ çĤİçĹĩ
ä» ½
ç» ŀ
ä»· åĢ¼
èĦĤ æº¢
å¼Ĥ åĳ³
éª¨è´¨ å¢ŀçĶŁ
ç»ĨèıĮ æĢ§
ä¸¥éĩį æĹ¶
çļĦ åĮ»éĻ¢
åĲİ æŀľ
å¼Ģ æ°´
èĭ Ķ
ä¸Ĭ åįĩ
ç£· éħ¸
åĪ Ĵ
åĪĨ è£Ĥ
é¥®é£Ł ä¹łæĥ¯
åĪĨ åĮĸ
ç±» çļĦ
çĹ Ĭ
æ°Ķ è¡Ģ
å¤ĸ çķĮ
ä¸ĭ èħ¹
éģĹä¼ł åĽłç´ł
åĮħ åĿĹ
åı¯ä»¥ éĢīæĭ©
ä½¿ å¾Ĺ
åıĳçĹħ åİŁåĽł
æ´» è¡Ģ
æĻ ¨
å®Ŀå®Ŀ çļĦ
æİĴåįµ æľŁ
åĴ ¨
èħ¹ èĨľ
åħ»æĪĲ èī¯å¥½çļĦ
åĺ ±
èĤº éĥ¨
é¼» åĴ½
å¤± åİ»
è´ ´
èĥĢ çĹĽ
ç¼ Ķ
åı¯ åıĳçĶŁ
åĩĨ å¤ĩ
åĴ¨ è¯¢
éŀĺ èĨľ
æĢ§ æ¿Ģç´ł
çĹĬ æĦĪ
å¼¥æ¼« æĢ§
æĮ ¥
è§£ æ¯Ĵ
çľĭ åĪ°
ä½ĵèĤ² éĶ»çĤ¼
èĥĮ éĥ¨
å°ĳ å¹´
a c
åħ³ æ³¨
ç¼º æ°§
åħ °
çļĦåı¯èĥ½ æĢ§
æĪĸ æľī
æ¼ ı
åıĳçĹħ æľºåĪ¶
ç»ĵ ç¼Ķ
åģľ èį¯
çĹħæ¯ĴæĢ§ èĤĿçĤİ
çĹĽ ç»ı
åŃ ¢
åģ¥åº· çļĦ
æĺ¯ æľĢ
å¤ļ åĽĬ
å¾Ī å¿«
è¦ģ å¤ļ
è· Ŀ
åĶ ĳ
çļ®èĦĤ èħº
ç¨ ł
å¹³ åĿĩ
çŃĽ æŁ¥
åĮ Ģ
éģ į
çĲĥ èĽĭçĻ½
ä¸į å°ĳ
èĦ Ĳ
è§Ĵ åĮĸ
åħ «
åŃĺ æ´»
é«ĺ èĽĭçĻ½
åľ¨ ä¸´åºĬä¸Ĭ
çĶµ è§£
åĪ© å°¿
ä¿¡ åı·
è ¦
è¿Ľè¡Į æĢ§
çļĦ åıĺåĮĸ
ä½ł çļĦ
é»ĳ èī²ç´ł
ä¸Ģ çĽ´
åĲĪ éĢĤ
å¹³ å¸¸
å¿ĥ åĬ¨
åĬł ä¸Ĭ
å½ ķ
å¯Ĩ åº¦
ä¸ĢèĪ¬ æĥħåĨµä¸ĭ
å¿ĥ è¡Ģç®¡
èĦĳ èĨľçĤİ
é«ĺ è¡Ģç³ĸ
ç»ĵèĤł çĤİ
éĵ¶ å±ĳ
æ²» å¥½
èĤĽ çĺĺ
é¦ĸåħĪ è¦ģ
æĺĵ æ¶ĪåĮĸ
Â ·
çĽĨèħĶ ç§¯æ¶²
è¤Ĳ èī²
æľī åı¯èĥ½æĺ¯
çĶ· æĢ§çļĦ
è¦ Ĩ
èº« ä¸Ĭ
è¾£ æ¤Ĵ
çĶ¨æ³ķ çĶ¨éĩı
åģ ¿
çĶµè§£ è´¨
æ¸© æ°´
ä¸Ģ æ®µæĹ¶éĹ´
ç³ Ļ
å¤´ åıĳ
èį¯çī© æµģäº§
èĭ į
äºĨè§£ ä¸Ģä¸ĭ
ä¸º ä¸»è¦ģ
ç»ĵç¼Ķ ç»Ħç»ĩ
èĥİåĦ¿ çļĦ
è¾ĵ å°¿ç®¡
ä¼ł ç»Ł
çĻ½ è¡Ģ
æ¿Ģ åĬ¨
åĪĨ åĪ«
åŃ£ èĬĤ
æĢ§ èħº
åĪĨ ç±»
åĪ »
å¾® éĩı
p v
èī¾æ»ĭ çĹħ
å¤§ äºİ
ç²¾ çĹĩ
çļĦ æĳĦåħ¥
èĩªèº« çļĦ
é»ı æ¶²
è¿ĺ åı¯
åĬŁèĥ½ çļĦ
æīĢèĩ´ çļĦ
å¦Ĥ ä¸ĭ
å¸ Ĥ
æ²»çĸĹ æķĪæŀľ
æĺ¯ æĢİä¹ĪåĽŀäºĭ
è¾ ¨
èĥ ¡
çŃī åĽłç´ł
èħ ĭ
å¿ §
åºĶ åıĬæĹ¶
çģ µ
ä¸į çŃī
è¶ ĭ
åĸľ æ¬¢
æĬ ¹
çĽ´èĤł çĻĮ
çļĦ éī´åĪ«è¯ĬæĸŃ
åıį æµģ
åĮĸ èĦĵæĢ§
ä¼ł å¯¼
èĶ¬èıľ åĴĮ
çĶ¨ æīĭ
èĤ ¯
ç¨ ³
åīįåĪĹèħº å¢ŀçĶŁ
éĩį å¤į
ä½ĵ ç§¯
åı¯ä»¥ åĲĥ
å¥½ åıĳäºİ
åĪĩ åı£
åĬł åī§
åĸ ·
æī «
ä¸ĭ æĿ¥
ä¸Ń æľī
å¢ŀ æ®ĸ
é£Ł éģĵ
åĪº çĹĽ
å¯¹ èº«ä½ĵ
èģ Į
å¤ĸ ä¾§
å°ı èĦĳ
æ¸ £
èĩª æĦĪ
åıĳçĶŁ çİĩ
H C
çĹħ åİŁ
æłĵ å¡ŀ
ä¸ĢèĪ¬ ä¸į
èĦ± æ°´
æĹ¥å¸¸ çĶŁæ´»
è§ī å¾Ĺ
æĿ¥ æºĲ
åĿĩ è¡¡
h pv
çĶ²çĬ¶èħº ç»ĵèĬĤ
çīĻ é½¿
åĪºæ¿ĢæĢ§ çļĦé£Łçī©
æ¸¸ ç¦»
åĬł å¿«
å½± åĥı
è¯Ń è¨Ģ
ä¸įèĥ½ åĲĥ
ä½ľ æģ¯
åİŁ åıĳ
å¹² æī°
åĲĮ æł·
å¿ĥèĦı çĹħ
åīį åĲİ
åĵ ®
èĦı åĻ¨
æĭ Ķ
ç»´çĶŁç´ł B
ä¸Ģ åĳ¨
éĢı æĺİ
èķ ī
å¨ ģ
çĽ¸åºĶ çļĦ
çĺ ¢
ä¼´ éļı
è¶³å¤Ł çļĦ
çĸ¤ çĹķ
çĦ¶ èĢĮ
è§Ĩ ç½ĳèĨľ
èĤ¾ çĹħ
èį¯çī© çļĦ
åŃ Ĺ
æīĭæľ¯ çļĦ
I g
ä¾Ŀ èµĸ
å¤ľ éĹ´
æĪĴ çĥŁ
è¯¥ çĹħ
å¤Ħ æĸ¹
å¥½ å¤Ħ
å·§åħĭåĬĽ åĽĬèĤ¿
æĺ¯ ä¸Ģ
åĲ¸ åħ¥
Ġ 2
æĪ Ĭ
æĹł æķĪ
çĽ¸åħ³ çļĦ
åĲİ èĢħ
è Ŀ
èĥ ¡èĲ
æ¯Ķ ä¾ĭ
å¯¹ ç§°
èĤ¾ çĽ
ä¸į æ´ģ
å¤« å¦»
ç¢± æĢ§
ç¡ Ŀ
éģ µ
å¼º çļĦ
åī ¥
åŀ «
æĤ£ å¤Ħ
å°Ħ ç²¾
è§Ĵ èĨľ
èĥ¡èĲ Ŀåįľ
å¦ Ħ
åıĺ æĪĲ
åĮĸ éªĮ
æľī ä¸Ģå®ļ
è¿ĺ ä¼ļåĩºçİ°
ç©¿ åŃĶ
æİ ¢
æĹł çĹĩçĬ¶
é¦Ļ èķī
å°± ä¼ļåĩºçİ°
æľĢ å¸¸è§ģ
èħĶ åĨħ
éĿĴ å°ĳå¹´
æ²»çĸĹ åĲİ
å¤§ ä¸īéĺ³
æľĢå¥½ æĺ¯
åĪĨ è§£
è¿ĺ éľĢè¦ģ
è¯± åĽł
çļĦ çĸ¼çĹĽ
èĢĮ è¨Ģ
å¥ ĩ
åħ¨ éĥ¨
åĩł ä¹İ
è° ĵ
æ¯į äº²
ä¸į æĺİæĺ¾
èĤĮ èĤ¤
åıĹ åŃķ
å¥³æĢ§ åľ¨
å½¢ å¼ı
çĺ¢ çĹķ
èĥĥ éĥ¨
å¸¸ ä¼´æľī
çļĦ åľ°æĸ¹
åı¦ ä¸Ģ
è§Ĵ è´¨
è¡° å¼±
åįµ åŃĲ
æĳ ¸
åĬŁèĥ½ ç´Ĭä¹±
è¾ĵ ç²¾ç®¡
éĨ ĭ
é³ŀ å±ĳ
çļĦ ä»ĭç»į
å¤ļ åıĳæĢ§
è¤ ¥
çĥ¦ èºģ
çĹ £
çĻ¾ åĪĨ
åħħè¶³ çļĦ
å¿Į é£Ł
æ³Įå°¿ ç³»ç»Ł
åħī æ»ĳ
ä¿ĥ ä½¿
æ½ľä¼ı æľŁ
äºº åĳĺ
ä¸Ń åĲ«æľī
æľī ä¸Ģ
çĹħçĲĨ æĢ§
å®ļ æĹ¶
ä½ĵ çļĦ
ä¸į ä¸Ģ
å¿½ è§Ĩ
å¤ļ æ¬¡
æŃ ĩ
è½ ´
çĥ «
ç²¾ç´¢ éĿĻèĦīæĽ²å¼ł
ä¸į æĺİ
å°ļ æľª
å®ŀéªĮ å®¤
åĬł éĢŁ
å¤ļ ä¸ª
ç®¡ çĲĨ
åįĬ æľĪ
åĩºè¡Ģ éĩı
ç»¼åĲĪ çĹĩ
åīĸ èħ¹
è¿ĺ èĥ½
æľī ä¸ĢäºĽ
åı¯èĥ½ ä¼ļåĩºçİ°
äº¤ æĦŁ
åħ¨èº« çĹĩçĬ¶
äº¦ åı¯
åıĤ åĬł
æĢ§ ä¼łæĴŃ
éª¨è´¨ çĸıæĿ¾
åģı é«ĺ
ç ŀ
ä½İ äºİ
çĹ ´
åĨħ ä¾§
ä¸ĭ èħ¹éĥ¨
èĥ¸ éĥ¨
ç©º èħ¹
ä¸į çķħ
æ·ĭå·´ çĺ¤
å¦Ĭå¨ł æľŁ
è¿ĩ éĩı
åĪ¶ åīĤ
è¿ĳ å¹´æĿ¥
èĢĲ åıĹ
å¤ĸ çĹĶ
å¤ļ åľ¨
æ³¢ åĬ¨
å¼º çĥĪ
æ½ ´
å¤ļ é£Ł
èĦĳ èĨľ
éħ ¯
æ»´ èĻ«
æĮģç»Ń æĢ§
èĥ ģ
èĶ ĵ
èĩ Ģ
æŃ»äº¡ çİĩ
æĤ£èĢħ æľī
æ³¨æĦı é¥®é£Ł
çĶŁæ®ĸ ç³»ç»Ł
å£ ®
ç£ ¨
éĹ´ éļĻ
çļĦ ç¨ĭåº¦
å¦Ĥæŀľ åĩºçİ°
åĵ® åĸĺ
ä¿ Ĺ
å¦ Ĩ
èĦ¸ ä¸Ĭ
æī¾ åĪ°
çº ¸
ç»Ī æŃ¢
ä½ı éĻ¢
èį¯ çĲĨ
é¡ ¾
æµ Ĭ
èĤ¯ å®ļ
çļĦ åĽłç´ł
ä¸į æ¸ħ
æµ· é²ľ
èĤ¾å°ı çĲĥ
ä¸ĭ ä¸ĺèĦĳ
ä¹ĭéĹ´ çļĦ
é«ĺ äºİ
çļ®èĤ¤ çĺĻçĹĴ
çļĦ åį±å®³
å¦Ĥæŀľ æ²¡æľī
æµ ®
è¡Į èµ°
åı ¸
å®« åĨħ
é¥® æĸĻ
çĥŃ éĩı
å¤ļ æł·
çĶŁéķ¿ åıĳèĤ²
å®¹æĺĵ å¼ķèµ·
åĮ Ĺ
æŀĦ æĪĲ
æ½´ çķĻ
ç»¿ èī²
æº¶ æ¶²
åħ¸åŀĭ çļĦ
æ³¨æĦı åĬĽ
æ°¨åŁº éħ¸
ç»ŀ çĹĽ
çļĦ æŃ£å¸¸
æĢ Ĵ
ç« ł
æ¢ ¨
åĨ² æ´Ĺ
ä¸ĸ çķĮ
å®¹æĺĵ åĩºçİ°
èĥĨ ç®¡
å¤ļ åıĳ
æı Ĵ
è¡£ æľį
ä¼łæŁĵ çĹħ
å¿ħè¦ģ çļĦ
åħĪåħĨ æµģäº§
è¿Ļ æĹ¶
è¡¨ è¾¾
ä¸Ń æľŁ
ä¹ħ åĿĲ
é ¹
çļĦ è¿ĲåĬ¨
æ²¹ çĤ¸
åıĳèĤ² ä¸įèī¯
æħİ çĶ¨
çŃ Ķ
ç¥ŀç»ı çĹĽ
ï¼ »
éĿ¢ ç§¯
çªģ åıĺ
åĩ ¸
å®Į æĪĲ
å°½éĩı éģ¿åħį
è¿ĩ å¤§
åĮĸ åĲĪçī©
åĽ½ å®¶
éĩ İ
æĤ ¸
ä¹³å¤´ çĬ¶
e l
æĹ© è¡°
çĻĮ ç»Ĩèĥŀ
çļĦ åĩºçİ°
èľĤ èľľ
ä¼ļ å¯¹
èĪĴ æľį
æŃ¤ çĹħ
å¹³ æ»ĳ
çĻ½ çĻľ
å¾® çĶŁçī©
æľī ä¸įåĲĮçļĦ
éĹ´ æİ¥
ä¸į ç®¡
æĺİç¡® è¯ĬæĸŃ
åį °
è¡¨ ç¤º
æĪ ĺ
ç²¾ç¥ŀ çĹħ
ä¸Ģ èµ·æĿ¥
è§£ åīĸ
æĹ º
åĬ¨ åĬĽ
åĴ½ åĸī
çĻ½çĻľ é£İ
éĤ ª
å¾®éĩı åħĥç´ł
o s
è¾ĥ éķ¿
ç²Ĺ ç³Ļ
ç¦» åŃĲ
æľī äºº
æ° ®
æ¯Ķè¾ĥ å¸¸è§ģçļĦ
èĥ½ éĩı
åı¯èĥ½ å¯¼èĩ´
ä»¥ å¤ĸ
åĩı èĤ¥
æ¹¿ çĥŃ
èĶ¬èıľåĴĮ æ°´æŀľ
èĤ¾çĽ Ĥ
æ®ĭ çķĻ
çĶŁæ®ĸ åĻ¨å®ĺ
åĥ µ
çĿ¡ åīį
å¤§å®¶ ä»ĭç»į
è´ £
æĬ¥ åĳĬ
å©´ å¹¼åĦ¿
50 0
éĽĨ ä¸Ń
ä¸ī ä¸ªæľĪ
æ¶Ī èĢĹ
è½¬ åĮĸ
èĥĥ é»ıèĨľ
åħįçĸ« åĬŁèĥ½
çĹ´ åĳĨ
æ²ī ç§¯
éĵ¶å±ĳ çĹħ
çļĦ å°ı
æ²ī çĿĢ
ç½ Ĺ
ä¸Ģ æĹ¥
æĥ ķ
æ·ĭå·´ç»ĵ èĤ¿å¤§
åĺ ´
éĹ´ æŃĩ
å¾Ī å¥½
ç¼º æįŁ
æ£ ĺ
è¾ĥ è½»
çļĦ ä¸ľè¥¿
å°¿éģĵ åı£
åĽ° æī°
çļĦ ç»ĵæŀľ
æĻ ¶
çļ ±
åĴĮ åħ¶ä»ĸ
çļĦ ä¸ĢäºĽ
èĩª ä¸»
èĹ ı
åıĹ åİĭ
èŃ¦ æĥķ
çļĦ åĪĨæ³Į
ä¸į åĪ©
æľ¬ çĹħçļĦ
éĺ´éģĵ åĪĨæ³Įçī©
ä¸į æ³¨æĦı
å¿ĥ æĤ¸
éª ¤
å¤ª å¤ļ
ï¼Ł (
éĴĪ çģ¸
é¥®é£Ł æĸ¹éĿ¢
å®¹æĺĵ å¯¼èĩ´
æĿ¥ æ²»çĸĹ
äº ī
èħ ķ
æľ¯ åīį
æħ Į
åĿĲ éª¨
æĪĸ åħ¶ä»ĸ
é¥® çĶ¨
ç»Ļ èį¯
ä¸į ä¸Ģæł·
é±¼ é³ŀ
åºĶ åľ¨
éª¨ çĽĨ
èĦ¾ èĥĥ
éĹ´ éļĶ
è´¨ åľ°
åħ± åĲĮ
èħº çĺ¤
i d
å¦ĩç§ĳ çĤİçĹĩ
çĺ¦ èĤī
å®«é¢Ī ç®¡
çº¤ç»´ ç´ł
çĶ² èĤĿ
èĶ¬èıľ æ°´æŀľ
èĦ Ĩ
é¡ ¿
æľĢ å¤§
èŀºæĹĭ ä½ĵ
çļ®èĤ¤ è¿ĩæķı
åľ¨ äºİ
å°½ åı¯èĥ½
å¿ĥ çİĩ
T SH
æī ¿
åĿł èĥĢ
éĻĪ ä»£è°¢
åĬ³ æįŁ
çº¦ èĤĮ
æ¶Ĥ æĬ¹
åŃĲå®«åĨħèĨľ çĤİ
èĴ ¸
çĶŁçĲĨ æĢ§
æĸ° éĻĪä»£è°¢
éĶ ¥
éħ¸ çĹĽ
çļĦ çİ¯å¢ĥ
æĽ´ ä¸º
å¦ĩç§ĳ æ£ĢæŁ¥
èĤ ĺ
å°ı äºİ
åıĤ ä¸İ
å¿ į
t h
å¼ ĵ
ç¦ģ çĶ¨
æĤ£èĢħ åĩºçİ°
æĬĹ çĤİ
æīĢ å¼ķèµ·çļĦ
çļĦè¯ĬæĸŃ æĺ¯ä»Ģä¹Ī
ä»£ åģ¿
èĢħ åı¯
åĨħ æľī
å¿µçıł èıĮ
æĳĦ åıĸ
æĭ¬ çº¦èĤĮ
å¤± ç¦ģ
ä¸¥éĩį ç¨ĭåº¦
æİ¥ ç§į
M R
æĽ´ å¥½
èĤĽ ç®¡
æ·Ģ ç²ī
æľīåħ³ ç³»
å¦Ĥ æľī
æ´ ĭ
è¯ģ å®ŀ
ç²ī åĪº
å¤ļåĽĬ åįµå·¢
ä¼ļ åľ¨
åĩ ¡
åĴ ¬
å¿ĥåĬ¨ è¿ĩ
ä¸ Ľ
ä» ¤
ä»¥ åīį
çĶ²çĬ¶èħºåĬŁèĥ½ åĩıéĢĢ
çĶ²çĬ¶èħºåĬŁèĥ½ äº¢è¿Ľ
è¦ģ ä¿ĿæĮģ
æľĪç»ı éĩı
å° ģ
æĲĶ æĬĵ
æł¹ æľ¬
å¾® åĪĽ
åı¯ éĢļè¿ĩ
çİ° ä»£
èĩ´ ä½¿
ä¾Ľ åıĤèĢĥ
æļ´ éľ²
æĸ¹ åĲĳ
åĭ¤ æį¢
åı¯ä»¥ å¸®åĬ©
çŁ ¿
çŃī æĥħåĨµ
æĢ§ æ¬²
æ¢Ĺ æŃ»
ç³ ł
å¸¦ çļĦ
åıĳå±ķ ä¸º
æŁĲ ç§į
çħ§ å°Ħ
æĦŁæŁĵ æĢ§
çľ ©
èĴ Ĥ
â ħ
æīŃ è½¬
è¾ĥ å¥½
æīĢ è°ĵ
åĻ ¬
éĢ ¸
ç§ ĭ
çĻ½è¡Ģ çĹħ
çļĦ æĶ¹åıĺ
èı ł
ä¸Ĭçļ® ç»Ĩèĥŀ
åĲ »
éĹ´ è´¨
æĺ¯ ä¸įæĺ¯
æĶ¯ åİŁä½ĵ
èŀį åĲĪ
æ¸ ´
çŃī çĸ¾çĹħ
ç» µ
å¿ĥ åĬĽ
èĳ¡èĲĦ çĲĥèıĮ
æĶ¾ åľ¨
èº¯ ä½ĵ
æĦī å¿«
æĴ ķ
è¾ĥ å°ĳ
çļĦ åĲĮæĹ¶
æĮī çħ§
æľī å®³
æŃ¤ ç±»
å¥³ äºº
é¾ Ī
çĽĲ æ°´
ï¼ ½
æīĭ è¶³
å µ
ä»¥ éĺ²
ä¸¤ èĢħ
æĿ¥ èĩª
èĩ´çĹħ èıĮ
æµ· å¸¦
å¸ ķ
H B
æĬ ¬
æĭ ¿
æĦı å¤ĸ
åĲĥ é¥Ń
çĹħæ¯Ĵ çļĦ
åĮħ è£ħ
èĦĵ çĸ±
è¿ĩå¤ļ çļĦ
æľ¬ æĸĩ
ç¾Ĭ èĤī
æĮ¤ åİĭ
åı¯ä»¥ ä½¿çĶ¨
åĬł åħ¥
æľīäºĽ äºº
ä¸Ĭ èħ¹éĥ¨
çĭ Ĥ
ä»İèĢĮ å¯¼èĩ´
å»º ç«ĭ
èĶĵ å»¶
åı¯èĥ½ æľī
åĲĮ ç§į
äº¤ åıī
è¢ Ń
å¿ĥåĬĽ è¡°ç«Ń
æĪĸ åĲĳ
åįķ ä¾§
è¿ĩ é«ĺ
éĩį çĹĩ
ä¸Ģ å¤©
å³ °
èĥ¶ åĽĬ
èı ĩ
çļĦåİŁåĽł æĺ¯ä»Ģä¹Ī
èħ ®
ä¸»è¦ģæĺ¯ çĶ±äºİ
éľĩ é¢¤
é«ĺ åİĭ
æ³¨æĦı çļĦ
è¯ ī
è¯ģ æĺİ
æĢĢ çĸĳ
åŃķ æ¿Ģç´ł
æĻ® éģį
èĭį çĻ½
æľī æ²¡æľī
åıĸ åĨ³
åļ ¼
ç¼© çŁŃ
r e
ç¼© å°ı
ä»į çĦ¶
ç» Ĵ
ç§į ç±»
æķĻ èĤ²
éĿ ©
æĿ ¯
èĦĳ èĦĬ
æīĢä»¥ åľ¨
æµģ åĩº
å±Ģéĥ¨ çļĦ
èĤī èĬ½
åĭ ¿
æĥĬ åİ¥
æ¿Ģ æ´»
èħ¹èħĶ éķľ
æ²¹ èĦĤ
è¢ ĭ
ä¿¡ å¿ĥ
é¡¹ çĽ®
åĪĨæ³Į çļĦ
æĿ¥ è¿Ľè¡Į
èĢĮ åĩºçİ°
å¿ĥå¾ĭ å¤±å¸¸
æľī ä¸Ģä¸ª
åĵ Ń
æŃ£å¸¸ äºº
ä¸Ń å¤
å¯ĦçĶŁ èĻ«
æĶ ¿
m in
åıĺ å½¢
è±Ĩ ç±»
åĮĸ å¦Ĩ
è½¯ ç»Ħç»ĩ
å£° éŁ³
æīģ æ¡ĥ
çĹħ èıĮ
çļĦ åĬŁæķĪ
åįµå·¢ åĬŁèĥ½
è Ł
åŁºç¡Ģ ä¸Ĭ
çĶ²çĬ¶èħº çĻĮ
ç¥ŀç»ı æł¹
åı¯èĥ½ ä¼ļå¯¼èĩ´
çļĦ å¸¸è§ģ
éĺ´éģĵ æµģè¡Ģ
éħ¸ ä¸Ńæ¯Ĵ
å®Į æķ´
èĵ Ŀ
å°ı èĤł
è¯´æĺİ ä¹¦
åĤ ¬
åıĺ ä¸º
çķĻ ä¸ĭ
åı¯ è¾¾
æĪ ª
å¹¶ æľī
èĽ Ľ
åĿĩ æľī
çļĦ åīį
è¡Ģ èĤ¿
ãĢĤ ãĢĲ
u s
è· ĳ
åı¯ çĶ±äºİ
æĬĳåĪ¶ åīĤ
éĺ ĳ
å¿ĥ åĮħ
éķ¿æľŁ çļĦ
çĤ Ĵ
å°¿ éĩı
éľĢ æ±Ĥ
å¤§ æ¦Ĥ
åĩı ä½İ
å¼¹ æĢ§
è¿ ¹
éħ ļ
éģ Ń
ç£ ģ
éĽĦ æ¿Ģç´ł
èĥĥ çĹĽ
åĩł å¤©
èİ ²
çĥŃ æķ·
éĺĳ å°¾
å°± èĥ½
åĮ» åĺ±
èĤ¥ åİļ
è±Ĩ åĪ¶åĵģ
æİĴå°¿ åĽ°éļ¾
æ¯« åįĩ
åıĳ æĮ¥
èĥĥ çĹħ
åł Ĩ
å¨ģ èĥģ
ä¸ª åĪ«
æĲºå¸¦ èĢħ
å¼Ģ æĶ¾
åıĸåĨ³ äºİ
å®ĥ æĺ¯
åĴĮ é¢Ħéĺ²
åĸĤ åħ»
æĺ¯ä¸Ģç§į å¸¸è§ģçļĦ
åĹľ çĿ¡
R NA
åıĳ çº¢
è¸ Ŀ
ä¹Ĳ è§Ĥ
ä¸»è¦ģ çĹĩçĬ¶
åĢ ¦
å¤§ èħ¿
æĢİ æł·
èĦĳèĦĬ æ¶²
èµĦ æĸĻ
ç¥ŀç»ı è¡°å¼±
è¿ĩåº¦ åĬ³ç´¯
é¦ĸ éĢī
å¥ ¹
å°ĳ é£Ł
ä¸Ńå¤ ®
æ¯Ľ å·¾
è¯´ çļĦ
äºļ æĢ¥æĢ§
èĤł èĥĥçĤİ
æľĪç»ı æľŁ
è§Ħ æł¼
ç±»åŀĭ çļĦ
çĻ¾åĪĨ ä¹ĭ
æĢ§ æĪĸ
Ġ s
3 5
åıĹ éĻĲ
éĥ½ è¦ģ
æ¯Ķè¾ĥ å¤§
éľī èıĮ
èħ°æ¤İ éĹ´çĽĺçªģåĩº
åĲİ åĨį
æł ª
å± ı
çļĦ çĶ¨æ³ķçĶ¨éĩı
æĺ¯ éľĢè¦ģ
åĲĪ çĶ¨
èº« å¿ĥ
éŀĺèĨľ ç§¯æ¶²
åı¯èĥ½ åĩºçİ°
éĵ¾ çĲĥèıĮ
æļ´ é£Ł
è® ¿
ç¼ ĸ
æĸ° çļĦ
æľº æ¢°
æ£ ®
äº¤æĦŁ ç¥ŀç»ı
Ġ 3
æ¯Ķè¾ĥ å¤ļ
çĶ²çĬ¶èħº èĤ¿å¤§
åįµå·¢ æĹ©è¡°
åıĹç²¾ åįµ
åıĳ é»Ħ
åĮħçļ® è¿ĩéķ¿
çļĦ æģ¢å¤į
ç«Ļ ç«ĭ
è¿ ģ
è¡Į æĢ§
å¤ĸéĺ´ çĺĻçĹĴ
åį± åıĬ
è¶ £
æ°Ķ ä½ĵ
å°±ä¼ļ å¯¼èĩ´
è¿Ľ èĢĮ
çļĦä¸»è¦ģ åİŁåĽł
å¸¦ è¡Ģ
æĹ¶ çļĦ
ä¸į ä½Ĩ
åĴĮ æħ¢æĢ§
éª¨ å¤´
æĲ Ń
å· ©
æ¶ĪåĮĸ ç³»ç»Ł
è° ±
çĬ¶ ä¸Ĭçļ®
çĥŁ éħĴ
æŃ£å¸¸ æĥħåĨµä¸ĭ
çļĦ é£Łåĵģ
ç² ®
éĤ£ äºĽ
æĦ ¿
1 7
ä¹Ł ä¸įè¦ģ
ä¿Ŀ çķĻ
è¿ľ ç¦»
ä¸»è¦ģ çļĦ
ç»Ŀ å¯¹
æĽ´ å¤ļçļĦ
æĮ Ĥ
æĢ» æĺ¯
æľī çĿĢ
åĲİ åı¯
æŁĶ è½¯
c h
ä¸Ńæŀ¢ ç¥ŀç»ıç³»ç»Ł
æ¯Ķè¾ĥ å¥½
" "
ä¸į æĦĪ
æĥ ¹
èĦĤæº¢ æĢ§çļ®çĤİ
çļĦ åģ¥åº·
çŁ «
æĺ¯ å¥³æĢ§
é« ĭ
çļĦ æīĭæľ¯
åĶ ¾
è¯· åıĤ
æĸ ¯
åįķ ä½į
æ¶ ī
ç£ º
æľº æŀĦ
å¼º çĽ´
åŃĲå®«åĨħèĨľå¼Ĥä½į çĹĩ
èĭ ·
è¡£ åİŁä½ĵ
èĦĳ éĥ¨
æĺ ł
åĩº çļĦ
æĹ© äº§
å®¹æĺĵ åıĳçĶŁ
è®¤ çŁ¥
æīį èĥ½å¤Ł
åĮ»çĶŁ è¯¢éĹ®
åı¯èĥ½ä¼ļ å¼ķèµ·
åĪĽ éĿ¢
æĢĿ ç»´
å¤į åĪ¶
å¦Ĥæŀľä¸į ç¡®å®ļ
åĿĩ åĮĢ
æ²»æĦĪ çļĦ
éĴĪå¯¹ æĢ§
è¾Ľè¾£ é£Łçī©
ç¥ŀç»ı åħĥ
å¦Ħ æĥ³
æ© ĺ
çļĦ ä½įç½®
éĿ¢ èī²
ä¿ĿæĮģ èī¯å¥½çļĦ
ä¸į èĪĴæľį
æŁ ¿
è¯·åıĤ çľĭ
æ¯Ķè¾ĥ ä¸¥éĩį
åĪ ·
çĶ·æĢ§ æľĭåıĭ
åıª ä¾ĽåıĤèĢĥ
åĮħè£ħ è§Ħæł¼
åįĬæľĪ æĿ¿
èį¯åĵģ éļı
æĪĸåĲĳ åĮ»çĶŁè¯¢éĹ®
è¯´æĺİä¹¦ æĪĸåĲĳåĮ»çĶŁè¯¢éĹ®
èį¯åĵģ åı¯çĶ±äºİ
å¸¦çļĦ è¯´æĺİä¹¦æĪĸåĲĳåĮ»çĶŁè¯¢éĹ®
åĲĮç§į èį¯åĵģåı¯çĶ±äºİ
è¯·åıĤçľĭ èį¯åĵģéļı
è¯·åıĤçľĭèį¯åĵģéļı å¸¦çļĦè¯´æĺİä¹¦æĪĸåĲĳåĮ»çĶŁè¯¢éĹ®
è¾Ľè¾£ åĪºæ¿ĢæĢ§é£Łçī©
ä»¥ ä¾¿
æĽ´ å¥½çļĦ
æ² «
æīģæ¡ĥ ä½ĵ
ä¿¡ æģ¯
çļĦ çĬ¶æĢģ
å·¦ ä¾§
å¤ļ é¤Ĳ
çļĦ èĲ¥åħ»
è¯´ è¯Ŀ
åĻ¨ è´¨æĢ§
ä» Ķ
èĤ¿ çī©
çļĦ ä¸įåĲĮ
ä¸į ç¨³å®ļ
ä¸ī ç§į
æļ´ é¥®
äº§ çī©
å£ «
ç»Ŀ å¤§å¤ļæķ°
æĦı æĢĿ
æ¡¥ æľ¬
æĹ¶ åı¯
è¾ĥ å°ı
æĺ¯ æ²¡æľī
ï¼ ģ
è±Ĩ èħĲ
å¸¸è§Ħ æ£ĢæŁ¥
çļĦ è¿ĩç¨ĭ
ä¸Ģ éĥ¨åĪĨ
æµħ è¡¨
éĤ» è¿ĳ
éĢ Ĵ
è¿Ļæł· åı¯ä»¥
ä¿Ŀ åħ»
èĩªå·±çļĦ èº«ä½ĵ
éĻĦ è¿ĳ
éŀ ĭ
æ°¨ éħ¶
èĤ ½
å¯Ĵ åĨ·
èį¯çĲĨ ä½ľçĶ¨
ä¹Ł èĥ½
å¦Ĥæŀľ ä½ł
å¹¶ éĿŀ
èĦĵ æ¶²
èĥ¸ éĹ·
å¼¯ æĽ²
çļĦ äº§çĶŁ
æĺĵ äºİ
åŀĭ ç³ĸå°¿çĹħ
åĶ¾ æ¶²
è´ Ŀ
åį İ
èĸ ¯
è¿ĩæķı åİŁ
å® ¿
çĲĨ æĥ³
è¯Ħ ä¼°
èĦ± åıĳ
æ³ ª
å°ı èħ¿
å¤ĸ åĳ¨
åģı çĺ«
æ´ Ľ
4 5
èĩŃ åĳ³
åĨħ å¤ĸ
åı ¤
æ£ ķ
å¿ĥ çĶµåĽ¾
èģĮ ä¸ļ
åĨį çĶŁ
æľŁ çļĦ
è¾ĥ å¤§çļĦ
èĤ¥ çļĤ
å¿ĥ æĪ¿
ç§» ä½į
åı³ ä¾§
æľī çļĦäºº
å®ŀéĻħ ä¸Ĭ
æľĪ åŃĲ
2 1
æĽ´ å¤ļ
ä¸ī ä¸ª
çľ¼çĿ ĳ
åı¯ ä¼´æľī
åħ¥ çĿ¡
p h
å¾ ·
è· ĥ
åħįçĸ« ç³»ç»Ł
çº¦ åįł
æ° Ł
çİ «
å¾Ī é«ĺ
æĳ ĺ
æĥħ æĦŁ
æļ´é¥® æļ´é£Ł
éħ µ
æģ¶ åıĺ
o m
èĬ Ŀ
èº¯ å¹²
ä¼ļ åĬłéĩį
çº¢ èĽĭçĻ½
çĳ °
åħ± æµİ
èĦ± ä½į
çī©çĲĨ æ²»çĸĹ
æ¡ Ĥ
ä¸Ĭ èĤ¢
å¦Ĥæŀľ åľ¨
æ¯į ä¹³
èħ± éŀĺ
åģ¶ å°Ķ
æĺĵ åıĳçĶŁ
ç²¾ç¥ŀ ç´§å¼ł
è¡° èĢģ
èĢĮ å¼ķèµ·çļĦ
åıį æĺł
ç±» é£Łçī©
çļĦ åĩłçİĩ
è¾ĥ ä½İ
Bè¶ħ æ£ĢæŁ¥
çİ« çĳ°
çļĦ é¢Ħéĺ²
æĪĲåĪĨ æĪĸ
åİ»åĮ»éĻ¢ æ£ĢæŁ¥
çľ© æĻķ
è¿ĻäºĽ çĹĩçĬ¶
éĹŃ åĲĪ
æĹ¶éĹ´ éķ¿
ä¸įåŃķ ä¸įèĤ²
è§Ħ èĮĥ
æĤ£èĢħ è¦ģ
è°ĥ æŁ¥
éķĩ çĹĽ
å° ĺ
åĽŀ æµģ
æĢ§ è¡Įä¸º
çĶŁæ®ĸ éģĵ
ç¦ģ é£Ł
ä¸į ä½³
å®¶ äºº
å¤ļ æ¢¦
åĨħ éĥ¨
ç³ĸ çļ®è´¨æ¿Ģç´ł
ç¾İ åĽ½
å¹ »
ç²¾ç¥ŀ éļľç¢į
çľ ¶
æīģ å¹³
å®¹ éĩı
è½¬ æ°¨éħ¶
ä¾Ľ åºĶ
ç»Ļ æĤ£èĢħ
çĶŁæ®ĸåĻ¨ çĸ±çĸ¹
æłĩ å¿Ĺ
åģľ èĤ²
è¦Ĩ çĽĸ
éĥ½ ä¸į
éĿĴ å¹´
è¿Ļ æĹ¶åĢĻ
å¼ķèµ· éĩįè§Ĩ
å¿ĥçĲĨ æ²»çĸĹ
æ³¨å°Ħ æ¶²
ä¹ Į
æķĪ åºĶ
æĪĲåĪĨæĪĸ å¤Ħæĸ¹
åµ Į
æĶ¾å°Ħ æĢ§
æĮī æĹ¶
ä¸Ĭ æľī
å¿ħé¡» è¦ģ
è¿ĺ è¦ģæ³¨æĦı
è¿ľ ç«¯
è¾ĥ éĩį
éĢĤ å®ľ
ä½İ è¡Ģç³ĸ
éģĩ åĪ°
éļĨ èµ·
ä¸į å®Įåħ¨
çļĦçĹĩçĬ¶ æĺ¯ä»Ģä¹Ī
çĻ½å¸¦ å¼Ĥå¸¸
åĮ»çĶŁçļĦ æĮĩå¯¼ä¸ĭ
åįĬ å¹´
çĽĲ éħ¸
çģ¼ çĥŃ
éĶ»çĤ¼ èº«ä½ĵ
æ· »
çĤİ çŃī
è¾ĥ å·®
éģĹä¼ł æĢ§
çĥ§ çģ¼
å¸¸ ä¸º
åĨħ è¡£
è¯¯ è¯Ĭ
èĢ³ é¸£
åºĶè¯¥ åıĬæĹ¶
ç½ ķ
ç»Ļ åŃ©åŃĲ
é¡ ½
é¢ĳ çİĩ
çļĦ åħ³ç³»
æ¸Ĺ éĢı
åĬł ä»¥
è§¦ åıĬ
MR I
çļĦ å¼Ĥå¸¸
èĤº åĬ¨èĦī
èµ ¤
éļĲ çĹĽ
åħ±æµİ å¤±è°ĥ
çļĦ æĬ¤çĲĨ
å½¢ çĬ¶
éĺ» æĸŃ
l e
åĮĸå¦Ĩ åĵģ
è½» éĩį
èĭ ı
ç¼Ŀ åĲĪ
æ´» åĬĽ
ä¹Ł ä¸įèĥ½
å¤ļ æ±Ĺ
èĦĳæ¢Ĺ å¡ŀ
è¢« ç§°ä¸º
åģı ä½İ
æľī æĹ¶åĢĻ
éĿ¢ å¯¹
åĩł ç§į
) ï¼ļ
è¾ĵ è¡Ģ
ä¹Ł åı¯èĥ½æĺ¯
å±ĢéĻĲ æĢ§
å®ļæľŁ å¤įæŁ¥
å®ļ éĩı
è§£ éĻ¤
æĹ© æ³Ħ
èĤĽåĳ¨ èĦĵèĤ¿
è¡Ģæłĵ å½¢æĪĲ
æīį åı¯ä»¥
åī ª
èĬ± çĶŁ
è¯ ¸
æīĢä»¥ è¯´
åıĸ å¾Ĺ
çļĦ åĲ¸æĶ¶
èĬ ¹
åłĨ ç§¯
è®°å¿Ĩ åĬĽ
æ¤İ ç®¡
è¿ĩæķı åıįåºĶ
çº¦ ä¸º
çĹ ¿
çŃī é£Łçī©
ä¹ĭ ä¸º
çļĦ åī¯ä½ľçĶ¨
èī²ç´ł æ²īçĿĢ
åīįåĪĹèħº æ¶²
åĪĨ æľŁ
éĿŀ çī¹å¼ĤæĢ§
æķıæĦŁ æĢ§
åºĶ æ¿Ģ
åģĩ å¦Ĥ
ä¹ĭ åĨħ
çĿĢ åºĬ
èħ ¥
çļĦ å½¢æĪĲ
æĤ£èĢħ åºĶ
çĲĨ çĸĹ
å¤ĸ çº¿
ç¦ ı
é±¼é³ŀ çĹħ
çİ ī
æ¶ĪåĮĸéģĵ åĩºè¡Ģ
å «
çļĦ ä¸´åºĬè¡¨çİ°
æĹ¶ åºĶ
ç¬ ¦
ç»Ĵ æ¯Ľ
éļı è®¿
æ´Ĺ åĩĢ
èĤĮ èħ±
ç»Ĩèĥŀ çĺ¤
è¯Ĭ æ²»
èĢĮ ä¸į
å¦ ¥
ä¸ ¹
å®³ æĢķ
ä¸İ åħ¶ä»ĸ
ç¬¬ åĽĽ
åľ¨ é¥®é£Łä¸Ĭ
æĲŃ éħį
I I
çĸ¼çĹĽ æĦŁ
çŁŃ æļĤ
è½¯ èĨı
ä¸Ń æĢ§
èħ® èħº
ä¼ļ è®©
èĭ ±
èĢĮ å¼Ĥ
å¯ ¿
æĢ§ èĤĿçĤİ
æľī çĽĬ
è¦ģ éģ¿åħį
ç»ı éªĮ
C D
åıĳçĶŁ äºĨ
åĽĬ æĢ§
æľī æĺİæĺ¾çļĦ
æĿ¥ çļĦ
çĲĨ è§£
ä¸Ģ å¹´
æĪĴ éħĴ
å®«é¢Ī åĽĬèĤ¿
çĶ· äºº
çļĦæ²»çĸĹ æķĪæŀľ
è¿ĻäºĽ é£Łçī©
çĹħæĥħ åĬłéĩį
ä¸Ń éĹ´
åĩºçĶŁ åĲİ
å¤ ¹
èģļ éĽĨ
ä»¥ æ¸ħæ·¡
å®ŀ è´¨
åĬ³ éĢ¸
æĦŁæŁĵ äºĨ
é¼» èħĶ
åħ¬ åħ±
æ¯ı å¹´
æĪ ´
åĿĲ æµ´
æĢ§ åĩºè¡Ģ
æµ· ç»µ
æĦŁè§ī åĪ°
å°ıæĹ¶ åĨħ
çķĻ æĦı
èĥ¸ èħĶ
ä¾Ľ è¡Ģ
è¡Ģ çº¢èĽĭçĻ½
åıĹ åĩī
èį Ĳ
è¿Ļæł· æīįèĥ½
åįķçº¯ æĢ§
-- --
å¤ļ æ³¨æĦı
æµģ è´¨
ä¸º ä»Ģä¹Ī
æ¤İ ä½ĵ
éĿŀå¸¸ çļĦ
æ³¨æĦıçļĦ äºĭé¡¹
è½ ®
æħ¢æĢ§ èĤĿçĤİ
çīĻ é¾Ī
ç»§åıĳ æĦŁæŁĵ
ä¸¥éĩį å½±åĵį
åıĹ ä¼¤
èĤĿ æįŁä¼¤
æ¤İ éĹ´çĽĺ
æŃ£ç¡® çļĦ
å¿ĥåĬ¨è¿ĩ éĢŁ
æ³ ½
ç§ ģ
æī« æıı
ä¸Ĭ èħ¹
ç²¾åŃĲ çļĦ
å¦Ĥæŀľ æĤ£èĢħ
è¿ĩ åĪĨ
ä»£ è¡¨
è¿Ļ ä¹Łæĺ¯
å® ģ
åİŁåĽł å¼ķèµ·çļĦ
èĢģ äºº
ä¿Ĺ ç§°
è¿Ł ç¼ĵ
é¥Ń åĲİ
çŁŃ æľŁ
æĬ½ çĥŁ
åı¯ä»¥ åģļ
åĶ Ĳ
åīĸèħ¹ äº§
å¾ ¡
åį§ ä½į
æİ¨ èįĲ
ç»´çĶŁç´ł A
åĨ· åĨ»
ä½ĵ æ¶²
è®¡ åĪĴ
é£Ł çĸĹ
åĨħ ç§ĳ
ä¸įèī¯ çļĦ
ä¸»è¦ģ ä¸º
éľĢè¦ģ è¿Ľè¡Į
i t
7 5
ä¸ ¾
ä¸į å¿ħ
è½»å¾® çļĦ
2 8
åĮ» æ²»
çļĦ çĽ®çļĦ
æ°´ æ³¡
æ£ĢæŁ¥ ç»ĵæŀľ
éĿ ¶
ä¸Ĭ çģ«
é¡» æ³¨æĦıçļĦäºĭé¡¹
åĳ¨åĽ´ çļĦ
ï¼ ı
çļĦ å¤§å°ı
ä¹Ł ä¼ļå¯¼èĩ´
èī¯æĢ§ èĤ¿çĺ¤
æ¯Ľ åıĳ
çİ¯å¢ĥ åĽłç´ł
ä½Ĩ åľ¨
çľŁèıĮ æĦŁæŁĵ
ç³ĸå°¿ çĹħçļĦ
éķĩ éĿĻ
åĤ ¨
åİŁ åıĳçĹħ
ä½¿ åħ¶
çĽ² çĽ®
ä¹Ł ä¼ļåĩºçİ°
ä¸Ļ åŀĭèĤĿçĤİ
ä» °
ä¸į éĶĻ
åŀĭ çļĦ
ä¼ļéĺ´ éĥ¨
è®¤ä¸º æĺ¯
æ²Ł éĢļ
å¿ĥ çĹħ
ä¸į åĪ©äºİ
ç§» åĬ¨
ä¼ Ĺ
æł ½
åģļ å®Į
è¶ħå£° æ£ĢæŁ¥
èĦĳ èĲİç¼©
ä¸ĭ åĪĹ
è¿ŀ æİ¥
èħ° éª¶
æĢ§ çĹħåıĺ
åħ´ è¶£
ä¸į å¤§
èĤº ç»ĵæł¸
ä¾µ è¢Ń
é¥ ¥
äºĭ ä»¶
ä»ħ æľī
æ¯Ľ åŃĶ
ä¸į åıĬæĹ¶
å¦Ĥ æŃ¤
ä¹Ł ä¼ļæľī
æµĵ èĮ¶
æ¯į å©´
æŃ£è§Ħ çļĦåĮ»éĻ¢
æĭ ĸ
å£ ³
å°ı èħ¹
éĻ¤ æŃ¤
è¹ ²
æĴķ è£Ĥ
åĩºçİ° åľ¨
çĸ¾çĹħçļĦ åıĳçĶŁ
å¸¸è§ģçļĦ ä¸Ģç§į
å¾Ī éĩįè¦ģ
åı£ åĲĥ
å· Ŀ
çĭ ¼
éĺµ åıĳæĢ§
èĤī ç±»
ä¸į è§Ħå¾ĭ
åīį èĢħ
æľºä½ĵ çļĦ
æł¸ æ¡ĥ
æ°´ çĹĺ
ç¾ Ł
èĢĮ æĺ¯
çģ° æĮĩçĶ²
Ġ c
ç»ı è¡Ģ
åĲİ å¤©
çº ª
éĶ ħ
åı¯ èĩ´
èİ «
ç´ł è´¨
èıł èıľ
å¼º åº¦
è¿Ļæł· çļĦ
æĽ´ æį¢
æ¤ Ń
ä¹Ł è¦ģæ³¨æĦı
æĺ¾ å¾®
æıĲ åīį
æĹº çĽĽ
å¢ŀå¼º ä½ĵè´¨
èĬ¹ èıľ
æĢ§ çĹħ
çĸ¾ æĤ£
åĲĪçĲĨ çļĦ
ä¸į å¥½çļĦ
çĹĩ æĤ£èĢħ
é¥ ¿
æ²»çĸĹ æľŁéĹ´
è¾ Ĳ
æİĮ æı¡
æľī è§Ħå¾ĭ
å¤į ä½į
ä¸Ĭ ä¸ĭ
åĬ¨èĦī ç¡¬åĮĸ
æ¨¡ ç³Ĭ
èĢ ½
ĸ åŃĲ
u l
ç§° ä¹ĭä¸º
æµģ æĦŁ
g t
ä½ĵ ä½į
çīµ æĭī
éħ ª
èĥĨ ç¢±
é»ĳ èī²
æ¸ħæ´ģ åį«çĶŁ
ä¹Ł å°±
åŃķ éħ®
èĦĤèĤª éħ¸
èŁ ¹
æ³¨ éĩį
çļĦ è¿ĩç¨ĭä¸Ń
åĬ³éĢ¸ ç»ĵåĲĪ
ä¼ļ åıĳçĶŁ
æĭ ĩ
çļĦ çī¹çĤ¹
èĮ Ħ
ä¸į å°½
åĬŁèĥ½ æĢ§
ä¸´åºĬ è¡¨çİ°ä¸º
èĤī çĺ¤
ç¥ŀç»ı æĢ§
è¡¨çİ° åĩº
æ³ ³
ä¸»è¦ģ åĮħæĭ¬
æģ¶å¿ĥ åĳķåĲĲ
ç¾Ĭ æ°´
å®¤ åĨħ
æĢ§ æİ¥è§¦
éĢĢ è¡ĮæĢ§
å°¿é¢ĳ å°¿æĢ¥
çļĦäºº ç¾¤
é¡½ åĽº
åĩ¹ éĻ·
çĶ² æ²Ł
ä¹ Ŀ
ï¼ļ (
çİĩ ä¸º
æ¯« ç±³
åŃ¦ ä¼ļ
æĹłçĹĽ äººæµģ
æŃ£ åľ¨
ç½ķ è§ģ
ä¼ļ äº§çĶŁ
éľī èıĮæĢ§
åĬŁèĥ½ ä¸įåħ¨
ç»Ł è®¡
æĤ£ ä¾§
è´ ®
è¯± å¯¼
éĩį èĢħ
å¹¶ æ²¡æľī
è¿ĺ æ²¡æľī
è¿ĺæľī å°±æĺ¯
t r
é¢ Ĩ
ä¼´ åıĳ
çīµ å¼ķ
æľī ä»¥ä¸ĭåĩł
çĶŁæ´» è´¨éĩı
ä¼łæĴŃ éĢĶå¾Ħ
åĲ» åĲĪ
èĥ¸ èĨľ
æĶ¾ åħ¥
åŃĲå®« ä¸ĭåŀĤ
æ´» å¤ļä¹ħ
äºº ä¹³å¤´çĺ¤
ä¸¤ æ¬¡
æĪ ·
æĮģç»Ń æĹ¶éĹ´
è¡£ çī©
å¸¦ æľī
æ°´æŀľ åĴĮ
éķ ģ
æĿ ĥ
æĽ¿ ä»£
æĤ£èĢħ åı¯ä»¥
çĶ· å¥³
é¸¡ çľ¼
ä¸įèĥ½ å¤Ł
ä»Ķ ç»Ĩ
çļĦ ä¹łæĥ¯
çĶ¨ åĵģ
åıĺ å¼Ĥ
èĭ¥ æĺ¯
è¨Ģ è¯Ń
å®ŀéªĮå®¤ æ£ĢæŁ¥
çī¹ å®ļ
ç²¾åĽĬ çĤİ
é© ±
åįĥä¸ĩ ä¸įè¦ģ
è¶ĭ åĬ¿
èĨ Ī
éĹŃ å¡ŀ
å¹³æ»ĳ èĤĮ
å®¶ å±ŀ
éĺ´ éĥ¨
æº¶ è§£
èĥ¶ åİŁ
çļĦ äºĭæĥħ
è¿ Ķ
æĢ§ çĬ¶
åı« åģļ
ç»ĵ çĹĤ
æĺĵ æĦŁ
ä½İ çĥŃ
æĻ °
ä¸Ģ èĩ´
åĩł ä¸ª
è¯ º
æłĩ æľ¬
æ¼ Ķ
èµ° è·¯
åıį èĢĮ
é£Łæ¬² åĩıéĢĢ
æĪĸ çĶ¨éĩı
åįµå·¢ çĻĮ
æĨ ĭ
åīįåĪĹèħº éĴĻåĮĸ
ç» ķ
åĬ ±
èĲ Ŀåįľ
ä¸įåĲĮçļĦ åĮħè£ħè§Ħæł¼
çĶ¨æ³ķ æĪĸçĶ¨éĩı
æľīä¸įåĲĮçļĦ çĶ¨æ³ķæĪĸçĶ¨éĩı
æľ¬æĸĩ åıªä¾ĽåıĤèĢĥ
åĲĮç§įèį¯åĵģåı¯çĶ±äºİ ä¸įåĲĮçļĦåĮħè£ħè§Ħæł¼
åĲĮç§įèį¯åĵģåı¯çĶ±äºİä¸įåĲĮçļĦåĮħè£ħè§Ħæł¼ æľīä¸įåĲĮçļĦçĶ¨æ³ķæĪĸçĶ¨éĩı
äº ®
å¦Ĥæŀľ åĩºçİ°äºĨ
å¤ļåĲĥ äºĽ
I V
çļ® çĻ£
æ· «
å¤§ åĩºè¡Ģ
å®¶æĹı åı²
ç»ĵ æĿŁ
éĻĦ çĿĢ
å¾Īå¤ļ çļĦ
ç²¾ç¥ŀ åĽłç´ł
æĿ¥ æľĪç»ı
èĤł æ¢Ĺéĺ»
èĦĳæ¢Ĺ æŃ»
ä¸į å¾Ĺ
æ¶ī åıĬ
éĺ´ èĻļ
å¤ĸ è§Ĥ
çŀ ³
ç³» èĨľ
æ·» åĬł
éĺ³ çĹ¿
æł· çļĦ
ç³ĸå°¿çĹħ æĤ£èĢħ
éĢĲ æŃ¥
çºµ éļĶ
æĸĳ åĿĹ
èĤĿ åĮº
èĥĥ ç²ĺèĨľ
å»¶ è¿Ł
æĤ ²
çŃĭ èĨľ
çļĦ å°±æĺ¯
æ´» è·ĥ
æĦŁæŁĵ åĲİ
èĦ ĸåŃĲ
å¤© æ°Ķ
æĪĳä»¬ ä¸Ģèµ·æĿ¥
éħįåĲĪ åĮ»çĶŁ
æĢ§ åĬŁèĥ½
å»¶ ç¼ĵ
è¾Ĳ å°Ħ
èĩĢ éĥ¨
ç»Ĩèĥŀ åĨħ
åĪ® å®«
å¯¹ æĤ£èĢħ
èĤ¾ä¸Ĭèħº ç´ł
æ²»çĸĹ æĸ¹æ¡Ī
èĥ°èħº çĻĮ
ä¸» åĬ¨
æ ª
ç»ı æµİ
æľīæķĪ åľ°
èĦ¸ éĥ¨
çİ »
äºĭ å®ŀ
è¦ģ æł¹æį®
æ´ ²
èĦĳ çĺ¤
èĢ »
å¸¸ åľ¨
èļ Ģ
ç§ Ĵ
å¹² é¢Ħ
åįķ çĭ¬
çķ ı
ç»Ļ å®Ŀå®Ŀ
ç»ĵèĬĤ æĢ§
çļĦ åıĳå±ķ
åİŁåĽł æĺ¯
èĻ« çĹħ
èĢ½ è¯¯
å°± åºĶè¯¥
çļĦæ²»çĸĹ åĴĮé¢Ħéĺ²
èĪĴ å¼ł
åĲŀåĴ½ åĽ°éļ¾
è¿ĩ æĹ©
éľĢè¦ģ åģļ
åĴ ¸
å°¿ éħ¸
åĲĦ ä¸ª
èħ° èĤĮ
ä¿ĿæĮģ å¿ĥæĥħ
çŁ¿ çī©è´¨
æĹ© åŃķ
åºĶ éģ¿åħį
èĬĿ éº»
è®¡ ç®Ĺ
åīį æľŁ
è¿Ļæĺ¯ åĽłä¸º
åī§çĥĪ è¿ĲåĬ¨
ç»ĵ æīİ
æĿ¥ è®²
çļĦ æįŁä¼¤
èĢħ çļĦ
æ°Ķ åĳ³
èĢĲ èį¯
éŁ Ń
æ¶ ķ
çĹ ¢
ä¸ŃåĮ» æ²»çĸĹ
åºĶ èĢĥèĻĳ
ç¢ °
åĳ¼åĲ¸éģĵ æĦŁæŁĵ
èħ° éħ¸
æľī æĺİæĺ¾
å½ĵ åľ°
ä¸Ń å¹´
æĢ» ä¹ĭ
ti on
ç»ı åİĨ
æľī å¾Īå¤§çļĦ
åĩĨ å¦Īå¦Ī
çľ¼ éĥ¨
çŁ« æŃ£
èĴ Ļ
ç³ł çĸ¹
è¿ģ å»¶
è¾ĵåįµç®¡ åłµå¡ŀ
å°ı å¿ĥ
çĥ ¤
çĤİçĹĩ åıįåºĶ
æ¥ Ĥ
æħ¢æĢ§ èĥĥçĤİ
éĩĳ æ£®
è¯Ħ ä»·
ä»¥ èĩ´
ç»Ŀç»ı åĲİ
å®ī æİĴ
åıĳä½ľ æĹ¶
è¾Ľè¾£åĪºæ¿Ģ çļĦé£Łçī©
éĻĦä»¶ çĤİ
åŀ ¢
åı¯èĥ½ æĢ§
ç»¿ è±Ĩ
èĤĿ çº¤ç»´åĮĸ
èĥĨ éģĵ
æĬ ±
åĸĿ æ°´
èĤ¾å°ı ç®¡
æĢ§ æºĥçĸ¡
çİĩ é«ĺ
çĮ ´
éĢı æ°Ķ
åģĩ æĢ§
å¸ķ éĩĳæ£®
ä½ĵåĬĽ åĬ³åĬ¨
éļ¾ åº¦
ä¿ĿæĮģ å¤§ä¾¿
. .
çİ ©
èĤī çľ¼
å±± æ¥Ĥ
ä¸º å®ľ
åģ¥ èĦ¾
èĢĮ åıĳçĶŁ
åħħè¶³çļĦ çĿ¡çľł
çĨ ı
å¯ĨåĪĩ çĽ¸åħ³
èĥĥ èĥĢ
æ¸ħ æ°´
çļĦçĹĩçĬ¶ è¡¨çİ°
çļĦ çĹħåıĺ
æĢ§ åħ³èĬĤçĤİ
åİĭ å¢ŀé«ĺ
æĺ¯ éĢļè¿ĩ
å¾Ī æľī
çļĦ å¹¶åıĳçĹĩ
è¯ĬæĸŃ ä¸º
çĽ¸ éī´åĪ«
æ» ¥
çĻ½ å¤©
å¤© å·¦åı³
çļĦ çĬ¶åĨµ
èĬ ¦
çļĦ åį«çĶŁ
åıĮ æĸ¹
éĻ¤æŃ¤ ä¹ĭå¤ĸ
å ´
åħ ¼
æĮ ł
åı¶ éħ¸
ä¸ª äººçļĦ
æŀ ¸
çĥ ¯
çļĦåİŁåĽł æľīå¾Īå¤ļ
æľīæķĪ çļĦæ²»çĸĹ
çĶĺ æ²¹
çļĦ åĲĪæĪĲ
çĹĩçĬ¶ åĴĮ
çº¢ æŀ£
çłĶç©¶ è¡¨æĺİ
åıĹ éĺ»
éĥ¨åĪĨ çĹħäºº
è¡Ģ ä¸Ń
Ġ p
æīĢ å¯¼èĩ´çļĦ
è§Ĵ åº¦
ä»¥ä¸Ĭ å°±æĺ¯
Ġ 4
åĪ¶ å®ļ
t e
èĤ¾ èĻļ
æľī äºĨ
èĩ´ çĻĮ
åĢ ¡
é¼» çĤİ
åıĸ åĩº
å±± èį¯
æĪĸ ä¸į
è¾ĵ æ¶²
åİ»åĮ»éĻ¢ åģļ
æ¯ı ä¸ªäºº
èĤĿ èħ¹æ°´
åŃĲå®« æĶ¶ç¼©
å¤© çĦ¶
å¤ı åŃ£
çļĦæ²»çĸĹåĴĮé¢Ħéĺ² æĸ¹æ³ķ
èĢĮ åľ¨
è½ ½
æīį ä¼ļ
æķ° çĽ®
æ²¡æľī ä»»ä½ķ
ä¸Ģå®ļ ç¨ĭåº¦
å¤į æĸ¹
åĵºä¹³ æľŁ
åĽĽ ç»´
ä¸įæĺ¯ å¾Ī
çĭ¼ çĸ®
åĢ Ł
çĲĨ è®º
è· ĸ
i l
çĽ¸ä¿¡ å¤§å®¶
é»ĳèī²ç´ł çĺ¤
çļĦ æ´»åĬ¨
æģ ¼
é¼» çª¦
ç¢³ æ°´
å¤ļ äºİ
æľī çļĦæĤ£èĢħ
æ¸ħ æĻ°
2 2
èĥ «
çī© åĵģ
äº§ åīį
çļĦ é«ĺ
æµ® èĤ¿
è¿Ļä¸ª çĸ¾çĹħ
è¡¥ èĤ¾
æĹ §
ä»· æł¼
æ³¨ åħ¥
å®¿ ä¸»
æ¦Ĥ çİĩ
èĤĿ åĨħ
æ¿Ģç´ł æ°´å¹³
æ°Ķ åĢĻ
éĿĴ éľīç´ł
å¯» å¸¸
æĪĸ æ¶Īå¤±
æĿ¥ æ½®
çļĦ èº«ä½ĵ
ç¼º å¤±
è§Ħ å®ļ
ä¸¤ åĳ¨
å¸¸çĶ¨ çļĦ
åľ Ī
åıĺ æĢģ
åĮĸ çĺĢ
t er
çļĦ éĢīæĭ©
ä¸Ģå®ļè¦ģ åıĬæĹ¶
ä¸į ç¨³
åĲİ åĩºçİ°
å¤§ èĴľ
éľ ľ
èĥĥ åĩºè¡Ģ
èģĶ ç³»
ä»¥ åĨħ
åħ¨èº« æĢ§
ä¾Ľ ç»Ļ
å°Ĩ åħ¶
çĶŁ å§ľ
è¦ģ æĺ¯
åįı è°ĥ
æİĴ åĪĹ
å¿ ĺ
æĳĺ éĻ¤
ä» ª
èĥ¸ çĹĽ
æĸŃ è£Ĥ
æĭ Ľ
æĢĢåŃķ çļĦ
çĸ¼çĹĽ åĴĮ
è¿ ½
åĵ ĳ
åį ·
ç®¡ èħĶ
å°½ ç®¡
å¯ĮåĲ« ç»´çĶŁç´ł
éĢĤ éĩıçļĦ
éĢļ éģĵ
çļĦ åıĳçĹħçİĩ
åı¯ä»¥ åĩºçİ°
æĺ¯ äººä½ĵ
çĶ²çĬ¶èħº çĸ¾çĹħ
è¥¿ çĵľ
é£ ŀ
èĤ¾ çĻĮ
çĸ ¯
åŃ ¤
é«ĺ çļĦé£Łçī©
çĵ£ èĨľ
è½¯ åĮĸ
æ½® çº¢
éĽ ·
æ»ĭ çĶŁ
åīį åºŃ
åģļ åĩº
æ¶ĪåĮĸ çļĦé£Łçī©
åĽŀ å£°
çŁŃ æĹ¶éĹ´
åı¯ä»¥ è¿Ľè¡Į
æīĭæľ¯ ä¹ĭåĲİ
å¦Ĥæŀľ åıĳçİ°
åı¯èĥ½ å¼ķèµ·
é¼»åĴ½ çĻĮ
æľįçĶ¨ èį¯çī©
u m
æıĲ åĩº
æ¤Ń åľĨå½¢
è´Ł èį·
åĲĥ äºĨ
åĳ¨æľŁ æĢ§
æ·ĭå·´ ç®¡
èĪĴ çķħ
ä¼łæŁĵ ç»Ļ
åĲĳ ä¸Ĭ
åģľ ç»ı
æ´ ¥
è¿ĺ ä¼ļæľī
ç®Ģ ç§°
é¼ĵ åĬ±
éŁŃ èıľ
æĢ§ä¼łæĴŃ çĸ¾çĹħ
å¯¿ åĳ½
åı¯ è¡Į
æ²¹èħ» çļĦé£Łçī©
èĢĮ èĩ´
æİ¥ è¿ĳ
å²ģ ä»¥ä¸Ĭ
å¤ļ åĬ¨
å¤ļ æľī
çĽ´ èĩ³
æ¯Ĵ çĹĩ
çľ ģ
çļĦ ä¸´åºĬ
ä¸ĢèĪ¬ éĥ½æĺ¯
æ³Įå°¿ ç³»
èµ ĺ
æ£ĢæŁ¥ æĹ¶
éĥ½ ä¼ļæľī
ä¸į æ¸ħæ¥ļ
èĥ¸ éª¨
éļĶ ç¦»
çĶ·æĢ§ ä¸įèĤ²
ä¸į å¤ļ
æĺ¯ ä»¥
æµĭ éĩı
ä¸į è¶ħè¿ĩ
æ¯į ä½ĵ
ä¸Ģæł· çļĦ
åĨ ľ
åĨłçĬ¶ åĬ¨èĦī
èĤīèĬ½ èĤ¿
ä¸į ä¸Ģå®ļ
çł´ æºĥ
å°½éĩı ä¸įè¦ģ
ä¸°å¯Į çļĦé£Łçī©
åıĬ åħ¶ä»ĸ
ä½ľçĶ¨ äºİ
å¯¹ æĤ£èĢħçļĦ
æĶ¾å°Ħ æ²»çĸĹ
ä¸º å¤§å®¶ä»ĭç»į
é«ĺ èĦĤèĤª
çĹĩçĬ¶ è¡¨çİ°
å¼Ģ åı£
éķ¿ çĹĺçĹĺ
è§£ éĩĬ
åıĳ çĹĴ
å±ı éļľ
åĶĲ æ°ı
é½ Ĳ
åĥµ ç¡¬
è®¡ æķ°
æľī æľº
èĦ± å±ĳ
çļĦ åį±éĻ©
i a
ä¸¥éĩį åĲĹ
çļĦ ç¥ŀç»ı
éĥ½ çŁ¥éģĵ
ä¹ĻèĤĿ è¡¨éĿ¢
ç±» é£İæ¹¿
% -
æ¯ı åĳ¨
ä½İ è¡Ģåİĭ
çļ®èĤ¤ å¹²çĩ¥
ç´« å¤ĸçº¿
éļĲ æĢ§
åħ·ä½ĵ æĥħåĨµ
æĺ¯ ä¸įä¼ļ
èĩª éĹŃ
æľį åĬ¡
è½¬ ä¸º
é¡º äº§
åĴ½ éĥ¨
è¯ į
é¢ Ĭ
è¿ĺæľī ä¸ĢäºĽ
èº º
ç¢³ éħ¸
çľŁ æŃ£
æĿĢ èıĮ
éĥ½ èĥ½
æ·¤ è¡Ģ
æĮģ ä¹ħ
æİ¥åıĹ æ²»çĸĹ
å¤§ ç±»
å¤ļ é¥®æ°´
æ»´ æ³¨
æĿ ¨
è¡Ģç®¡ çĺ¤
çļĦ æĥħç»ª
æĪĲå¹´ äºº
çİ° å®ŀ
æĦıè¯Ĩ éļľç¢į
ä¸į åºĶ
åľ¨ æľĪç»ı
å¯¹ å¾ħ
è¾¹ çķĮ
ä¸į åĨį
è¿Ļç§į æĥħåĨµä¸ĭ
çļĦ èĥ½åĬĽ
å¹´é¾Ħ çļĦ
è¾ĵåįµç®¡ éĢłå½±
ä¸į æŃ£å¸¸
çĶŁ åĮĸ
çĸ Ļ
ä¸į åı¯ä»¥
ä½Ĩæĺ¯ å¦Ĥæŀľ
èħ¹ èĨľçĤİ
åı¯ åĽł
åİ» åģļ
çļĦ åıĳèĤ²
ç¡® ä¿Ŀ
ä¸į å¤Ł
çĺ ©
ä¸Ģç§į æĺ¯
åı¯ä»¥ èĢĥèĻĳ
æĢĿ æĥ³
çī¹æ®Ĭ çļĦ
æĹ© æ²»çĸĹ
T P
æľĢ å¥½çļĦ
åı ł
ç¼ĵè§£ çĹĩçĬ¶
æĦŁ åıĹ
äºº æł¼
åį±åıĬ çĶŁåĳ½
åĮº åĪĨ
æŃ¢ çĹĴ
éĿĻèĦī æ³¨å°Ħ
åĨħ çļ®
è¿ĳ ç«¯
éĶĻ è¯¯
ä¸ĢæĹ¦ åĩºçİ°
ç¢³æ°´ åĮĸåĲĪçī©
æľĪç»ı å¤±è°ĥ
å¹³æĹ¶ è¦ģæ³¨æĦı
æł¹ éĥ¨
æ¶Ī èĤ¿
ä¿ĥ æĢ§èħº
çĸĻ çĺ©
å¹ ħ
çĻ «
çĭ Ĺ
å¤© åĲİ
çī¹åĪ« æ³¨æĦı
éĨ Ľ
å°ģ éĹŃ
m e
æĳ Ĩ
ç« Ł
å¤Ħ çļĦ
åīįåĪĹèħº çĻĮ
éķ¿æĹ¶éĹ´ çļĦ
è¿Ł éĴĿ
èĥĥèĤł çĤİ
åįģäºĮæĮĩèĤł æºĥçĸ¡
å¤ļ åıĳçĶŁäºİ
æ¸ħæ·¡ é¥®é£Ł
èĦĳ ç»Ħç»ĩ
æ¢ħæ¯Ĵ èŀºæĹĭä½ĵ
åĲĳ ä¸ĭ
éĽ ¶
èĤĮ å±Ĥ
ä¸ī è§Ĵ
èıĮ ç¾¤
åı¯ è¡¨çİ°ä¸º
æĮ «
èħº çĻĮ
æĶ¾ ç½®
æĢ§ åĬŁèĥ½éļľç¢į
çļĦæ²»çĸĹ æĸ¹æ¡Ī
åĪĨ æĶ¯
ç±» åĽºéĨĩ
èĽĭçĻ½ å°¿
çļĦ èį¯
å®«é¢Ī çĻĮçļĦ
æ ĩ
ãĢĭ ï¼ļ
åİ ķ
S A
é¡º åĪ©
æĬ¤ èĤ¤
æ¤įçī© ç¥ŀç»ı
æĸ¹ ä¾¿
in e
ä¼ļ ç»Ļ
ä¸į å®¹æĺĵ
ä»ĸ äºº
æ´Ĺ èĦ¸
è¡Ģæ¶² ä¸Ń
åĪ° æŃ£è§ĦåĮ»éĻ¢
å¹³æĹ¶ è¦ģ
å»¶ è¯¯
äºĪ ä»¥
èĥĥ èĥĢæ°Ķ
çĬ¶ æĪĸ
èĤº æ³¡
è¿Ļ æĺ¯ä¸Ģç§į
æĹł éľĢ
éħĴç²¾ æĢ§
åı °
åŃĲå®«åĨħèĨľ çĻĮ
ä¾ £
ç§į æ¤į
å¤© åĨħ
çĽ´èĤł çĤİ
ç Ĵ
å®½ æĿ¾
å¤± è´¥
éĵ ľ
çļĦ èĤ¿çĺ¤
æľ¨ èĢ³
å¾ģ è±¡
æ± Ł
æºĥçĸ¡ æĢ§
èĢħ åºĶ
äºĶ é¡¹
æĢĢåŃķ æľŁéĹ´
æĻºåĬĽ ä½İä¸ĭ
çĹħåıĺ çļĦ
è´¥ è¡ĢçĹĩ
æ»¡ è¶³
èĤĮ å¼łåĬĽ
çĮ ®
åĪ° è¾¾
èĢ» éª¨
éĿŀå¸¸ éĩįè¦ģ
ä¸įåŃķ çĹĩ
å°ĸ çĵ£
å¤ĸ åı£
ä¸Ńèį¯ æ²»çĸĹ
ç»ĵ èĨľ
çĶŁçī© åŃ¦
ç¬¦ åĲĪ
æľĢ ä¸»è¦ģ
éħ¸ ç¢±
ä½ľçĶ¨ çļĦ
èĦĳ æįŁä¼¤
åĿļ ç¡¬
è¥¿åĮ» æ²»çĸĹ
éĺ³ åħī
çĦ¶åĲİ åĨį
çı Ń
å¹³æĹ¶ æ³¨æĦı
æµĭ è¯ķ
ç§į åŃĲ
è¿ĳ è§Ĩ
10 00
éĢļ æ°Ķ
æĮĩ åĩº
åĳ¨åĽ´ ç»Ħç»ĩ
æ° ¸
åĻ¨ æ¢°
æ»¤ æ³¡
æĿ¥ çľĭ
è¿Ĳ çĶ¨
å¤§ å¤§
éļı ä¹ĭ
åĮĸ èĦĵ
æı ī
çļĦ æ°´
åı¯ä»¥ éĩĩçĶ¨
åħ¸åŀĭ çĹĩçĬ¶
çļĦ å¿ĥçĲĨ
æĤ£ äºĨ
éĹŃ éĶģ
çĦ¦èĻĳ çĹĩ
çŀ³ åŃĶ
æīĢ éľĢ
åĨ¬ åŃ£
C O
è¿ĩ å°ĳ
äº¤ æĽ¿
æĹĭ è½¬
éĽ ¾
çĹħ çŃī
åĺ ¶
ç²¥ æł·
æī §
æĹ©æľŁ è¯ĬæĸŃ
çĸ² ä¹ı
éħ Ĺ
æģ °
éĺ´ åĶĩ
çļĦ çĶŁéķ¿
åŃ¦ èĢħ
åı¯èĥ½æĺ¯ çĶ±äºİ
æİĴåĩº ä½ĵå¤ĸ
å« ©
å°ĳ éĩıçļĦ
æľĭåıĭ ä»¬
åĪ« äºº
çĹħçĲĨ æĶ¹åıĺ
ç¡® åĪĩ
éĹ¨ éĿĻèĦī
æĮĩ çļĦæĺ¯
Xçº¿ æ£ĢæŁ¥
åı¯ éĩĩçĶ¨
æ¶ ©
è¿Ļç§į çĹĩçĬ¶
åį Ī
èĽ ĩ
çĶ² åŁº
ãĢģ âĢľ
å¸¸è§ģ çĹĩçĬ¶
åĬłå¼º èĲ¥åħ»
éħĹ éħĴ
æ¶Ĥ çīĩ
ä¸į å¤ª
è´ µ
è° ¨
æ¸ħçĥŃ è§£æ¯Ĵ
åĳ ¤
æĪ¿ å®¤
æĭ į
åĮ»åŃ¦ ä¸Ĭ
æĥ¹ èµ·
æ°´ æł·
æĪĳä»¬ è¦ģ
çĹħçĲĨ æ£ĢæŁ¥
ç§¯ èģļ
æ»ĳ èĨľ
éĿ© åħ°
çª Ĵ
ä¸ĢèĪ¬ ä¸º
å¿ĥ ç»ŀçĹĽ
éĢļå¸¸ æĺ¯
å®ī éĿĻ
çĽĬ æ°Ķ
çĶŁæ´» åĴĮ
çĶŁèĤ² èĥ½åĬĽ
æª ¬
çļĦ æ°´æŀľ
ç²ĺ ç¨ł
é¤Ĳ åĲİ
ä¸į çĦ¶
ãĢĤ âĢĿ
ä¼łæŁĵ çļĦ
ç´« èıľ
ä¹Ł æ²¡æľī
åĲ¬ åĬĽ
åĨł å¿ĥçĹħ
æĹłè®º æĺ¯
ä¸Ń èĢ³
å®Į åĸĦ
æĤ£ä¸Ĭ äºĨ
çİī ç±³
æĿĤ éŁ³
æĿ¥ è¿Ľè¡Įæ²»çĸĹ
é«ĺ èĦĤ
ä¸ĵ ç§ĳ
æĹ¶ æľº
åŁºæľ¬ ä¸Ĭ
çĤİçĹĩ æĢ§
å°± æľī
åº¦ çļĦ
ä¸»è¦ģæĺ¯ åĽłä¸º
èĪĴ éĢĤ
åºĬ ä¸Ĭ
æıĲ éĨĴ
éĥ½ ä¼ļåĩºçİ°
è¿ĩåº¦ çļĦ
æĴ ĳ
çĴ ĥ
æ»¥ çĶ¨
åĹ ª
ç»Ĩèĥŀ åĴĮ
ä¼´ ä¾£
å¯» æī¾
l t
9 5
æŃ¤ ç§į
çļĦ ç»Ħç»ĩ
æŀ ¶
ä½İ èĲ½
è¥¿ èį¯
å¦ ¨
çĪ ½
r a
çªĴ æģ¯
è¾ħåĬ© æ²»çĸĹ
è¾ĥ å¤ļçļĦ
æī¿ åıĹ
ä¸Ń æĻļæľŁ
æĢ§ æł¼
åĪ° åºķ
éĢļå¸¸ åľ¨
èĲİç¼© æĢ§èĥĥçĤİ
åķ ¶
åĽł äºº
æľ¯ ä¸Ń
ä¸ ¢
ä¸ĢæĹ¦ åıĳçİ°
ä¸ĭ é¢Į
åľ¨ æĹ¥å¸¸
æĿ ı
æĺ Ķ
çİ» çĴĥ
ä¸ĭ åĿł
æĢ§ åĪ«
æ»ĳ èĨľçĤİ
æĭ Ł
éĺ» æŃ¢
å¤ª éĺ³
åŀĭ åĴĮ
ä¹Ļ éħ°
è¿ĩæķı æĢ§çļ®çĤİ
æĮ ĳ
è¡Ģå°ıæĿ¿ åĩıå°ĳ
æĹ¶ æľī
è° Ī
éľĢè¦ģ åıĬæĹ¶
å½±åĵį çļĦ
åħ¥ ä¾µ
æķ° æį®
æĹ©æľŁ åıĳçİ°
C A
çĽ¸ æ¯Ķ
èĿ ¶
æģ¢å¤į æľŁ
ä¸»è¦ģ éĢļè¿ĩ
ç»Ħ èĥº
åŃĺåľ¨ äºİ
æ°´æŀľåĴĮ èĶ¬èıľ
æīĢ æľīçļĦ
ä¼ĺ è´¨
å¤´ åŃ¢
ä¸į çŁ¥éģĵ
èĢĮ æĪĲ
åı£ å¹²
åĴ ¯
ç¼º å°ĳ
Ġ l
ä¾¿ åĲİ
å¯¹ äººä½ĵ
çº¦ æľī
æ´ ŀ
æĭ ¥
åĭ Ĵ
ä¹ °
æŁ ł
æĪĸ å¤ļ
è¤¥ çĸ®
ä¸»è¦ģ è¡¨çİ°
å¤´ çĸ¼
èĤĿ èĤ¾
æĽ´ å®¹æĺĵ
çļĦ åŃ©åŃĲ
å®ļ ä½į
æ¢ ¢
åįµå·¢ èĤ¿çĺ¤
æł¸ å¿ĥ
éĿĴæĺ¥ çĹĺ
åĲĮ ä¸Ģ
è¿ĩ åİ»
æ² ¸
æľŁ æ¢ħæ¯Ĵ
è¿Ļ ä¸¤ç§į
å¯¹ ä¾§
è¿Ļä¸ª éĹ®é¢ĺ
æĬĹä½ĵ éĺ³æĢ§
è¯¦ç»Ĩ çļĦ
ç¦ģå¿Į çĹĩ
æīĭ æ·«
åĲĳ åīį
å¿ħ éľĢ
èĨĢèĥ± çĻĮ
ç£· èĦĤ
éĢł è¡Ģ
å±Ī æĽ²
çĿ ĳ
è½» è½»
å¹½éĹ¨èŀº æĹĭ
æŁł æª¬
æ·± éĥ¨
æĺ¯ æŃ£å¸¸çļĦ
æİ¨ è¿Ł
çķ ª
è¡Ģ ä¸Ŀ
åº Ł
åıĺæĢģ åıįåºĶ
ä»¥ ä¸º
åĳ¨ åĨħ
è¯ģ æį®
æ± ł
èĦĬæŁ± ä¾§
æľĢ åĪĿ
èį §
åģļ ä¸ĢäºĽ
æ §
å¹ ¸
åĮħçļ® é¾Łå¤´çĤİ
èĢĥèĻĳ æĺ¯
æĪĲ éķ¿
åıĮ æīĭ
æĪĬ èĤĿ
ç²¥æł· ç¡¬åĮĸ
âĢĶ âĢĶ
åĪ°åĮ»éĻ¢ æ£ĢæŁ¥
äºĨè§£ äºĨ
è¯ »
å¦ĩç§ĳ çĹħ
è¾Ľè¾£ çļĦé£Łçī©
æ¯« åħĭ
è§Ĩ ç¥ŀç»ı
30 0
æĢ§ è´«è¡Ģ
4 8
åľ¨ åĮ»çĶŁçļĦæĮĩå¯¼ä¸ĭ
åŃĲå®« åĩºè¡Ģ
åĮ ¹
ä»¥ éĺ²æŃ¢
ä¸ĭ æĸ¹
æķ° æľĪ
éĩį æĸ°
æŀģ å¤§çļĦ
äº ĳ
çī¹åĪ« çļĦ
éĻį åİĭ
å¹´è½» äºº
å¤ļå°ĳ éĴ±
éĹ´æŃĩ æĢ§
èĨ³é£Ł çº¤ç»´
Ġ d
è°ĥ åħ»
éģ¿åŃķ èį¯
ä¸¥éĩį çļĦè¯Ŀ
å·® åĪ«
èħ°èĤĮ åĬ³æįŁ
ç¡« éħ¸
çĽ´ åĪ°
æĹ© åıĳçİ°
åħ¶ä»ĸ çĸ¾çĹħ
é£İ åĽ¢
ç´« çĻľ
ä½ľ åĩº
çĶ¨ æ¸©æ°´
é¥®é£Ł ä¸Ń
æ¹¿ æ¶¦
æħ¢æĢ§ åīįåĪĹèħºçĤİ
è¡Ģ å¸¸è§Ħ
ç¨Ģ éĩĬ
èį§ åħī
æĺ¯ æľĢå¸¸è§ģçļĦ
å¼Ĥå¸¸ çļĦ
æĢĢåŃķ åĲİ
èĦĬ æ¤İ
çīĽ èĤī
å¤§èĤł æĿĨèıĮ
å¹½éĹ¨èŀºæĹĭ æĿĨèıĮ
æħ¢æĢ§ å®«é¢ĪçĤİ
æ¯ ķ
çĽ¸ åıį
æµģäº§ åĲİ
æĶ¯ éħį
å® ¢
åĲ« ç¢ĺ
ä¸ªæľĪ åĨħ
åľ¨ æŃ¤
åīĸ å®«
å¹¶ ä¼´æľī
åħ± æĮ¯
æĿ ŀ
éļı æĦı
çļĦ å·¥ä½ľ
ç¬ ĳ
åİĮ æ°§
èĢĮ å®ļ
å¤ļåĲĥ æĸ°é²ľ
çī¹çĤ¹ æĺ¯
å°±åı¯ä»¥ äºĨ
ç»¼åĲĪ æ²»çĸĹ
çĶŁåŃĺ æľŁ
å» ĵ
éĽĮæ¿Ģç´ł æ°´å¹³
åħ³ å¿ĥ
Ġ ãĢĢ
ç©´ ä½į
ä½ĵ æł¼
çĽĨ åºķ
èĤ¾çĽĤ èĤ¾çĤİ
çīĽ çļ®çĻ£
çĬ¶ ä½ĵ
æĭī èĤļåŃĲ
çĿ¾ä¸¸ çĸ¼çĹĽ
çļĦ çłĶç©¶
æĬĹ æĦŁæŁĵ
å¤ļ å¹´
å¤ļ å·´
èŀ ¨
ä¸įè¦ģ å¤ª
ä¿ĿæĮģå¤§ä¾¿ éĢļçķħ
ä¿ĥæĢ§èħº æ¿Ģç´ł
å¹¶ åı¯
åĬ¨èĦī çĺ¤
åĬŁèĥ½ å¤±è°ĥ
ç»ĪæŃ¢ å¦Ĭå¨ł
æľĢ é«ĺ
å·¨ å¤§
é¥± åĴĮ
èĩª æĿĢ
ä»İ äºĭ
æºĲ äºİ
åĲ«æľī ä¸°å¯ĮçļĦ
éĺ´éģĵ åĨħ
æĭĩ æĮĩ
èĬ± ç²ī
æ»¡ æĦı
çªģ çľ¼
é£Łéģĵ çĻĮ
èĲ¥åħ» çī©è´¨
ä¸Ģ æĸ¹éĿ¢
åı¯ä»¥ å¼ķèµ·
è¿ĻäºĽ éĥ½æĺ¯
è¡¥ è¡Ģ
æ»´ åº¦
æĺ¯ å±ŀäºİ
ä¸ĢèĪ¬ è®¤ä¸º
å¹¶åıĳ çĹĩçļĦ
éĢĨ è¡Į
æĻ ¯
o p
çĻ½ èĽĭçĻ½
çĻĮ èĤ¿
é¥®é£Ł è¦ģ
åĩı æħ¢
åıĳèĤ² ä¸įåħ¨
å¤§ åīĤéĩı
ä¸įéĢĤ çĹĩçĬ¶
æ´»è¡Ģ åĮĸçĺĢ
ä¸ŃæĢ§ ç²Ĵç»Ĩèĥŀ
çŃī å¤ļç§į
çĶŁæ´» æĸ¹å¼ı
ä¿ĿæĮģ å¤ĸéĺ´
èı Ĭ
æľĢ éĩįè¦ģçļĦ
èĥ½ æ´»å¤ļä¹ħ
çļĦ çĹħä¾ĭ
çĶ² åŀĭèĤĿçĤİ
æ¸ħ å®«
èģ ĭ
æ² ³
éĺ´åĽĬ æ½®æ¹¿
ç¤¾ äº¤
æ¡¥æľ¬ æ°ı
æĤ£èĢħ ä¼ļåĩºçİ°
åĽłäºº èĢĮå¼Ĥ
ä¸įéĢĤ æĦŁ
çĽ® æłĩ
åħ³ éĹŃ
Ġ 5
éĢīæĭ© æĢ§
æŃ£è§Ħ çļĦ
è§¦ çĹĽ
ä¼ ŀ
æĬ½ è¡Ģ
çĽ¸äºĴ ä½ľçĶ¨
çļĦ ç»Ĩèĥŀ
åı¯ åıĳçİ°
é¥®é£Ł è°ĥçĲĨ
å²ģ ä»¥ä¸ĭ
èħ¹ å£ģ
æĺŁ æľŁ
è ĺ
å¿ĥ æħĮ
éĩĳ å±ŀ
çŃī å¤Ħ
å¯¹ èĥİåĦ¿
èĦ± çļ®
è½»åº¦ çļĦ
æ¸¸ æ³³
åıĳå±ķ æĪĲ
çĹħåİŁ èıĮ
åĨ² åĬ¨
é« Ĥ
åĴĮ æ²»çĸĹæĸ¹æ³ķ
åį± è±¡
çĶŁåŃĺ çİĩ
Â °
åī ²
å¿ĥçĲĨ åĽłç´ł
å¥½ äºĨ
æŀģ ä¸º
ä¼ĺ åĬ¿
é«ĺçĥŃ éĩı
åĳ¨ åĲİ
éħ Ĳ
æ²¡æľī ä»Ģä¹Ī
æģ¶ éľ²
è¿ĩæķı ä½ĵè´¨
æīĢä»¥ è¦ģ
ç« ¹
éħ¶ çļĦ
è§ģ åĪ°
æĤ£èĢħçļĦ çĹħæĥħ
èĤĿèĦı çļĦ
éĢļ ä¾¿
ä½ĵéĩį åĩıè½»
å¼Ģ å±ķ
åľ¨ ä½ĵåĨħ
éķ¿ åº¦
çĻ½ èıľ
éĢļ é£İ
çľŁ çļ®
ç£ģ åħ±æĮ¯
ä¹Ł ä¸įä¼ļ
äº¤ æµģ
å¦Ĥä½ķ æ²»çĸĹ
ä»İèĢĮ å¼ķèµ·
éĺ» ç¢į
çł´ æįŁ
æĪ· å¤ĸ
è¾ĥ å¥½çļĦ
æīĭ æİĮ
çĽ Ĺ
çļĦ æľºä¼ļ
åĮ»çĶŁ æĮĩå¯¼ä¸ĭ
å¤ļ åĬł
è¡Ģç®¡ æī©å¼ł
åľº æīĢ
åĲ ¹
ä¸º çī¹å¾ģ
ç²¾ç¥ŀ åĪĨè£Ĥ
åĲĥ èį¯
ä¹Łä¼ļ å¼ķèµ·
åı¯ çĶ±
ä¼ļ å¢ŀåĬł
åĲİ æĸ¹
æ´Ĺ æīĭ
äºĮ åįģ
çļĦ åıĳçĹħ
in g
è·Ŀ ç¦»
é«ĺ æ¸©
éĹ ¹
åı¯ä»¥ åĪĨä¸º
åĮħ èĨľ
ä¹³ æ±ģ
æĬĳåĪ¶ ä½ľçĶ¨
çĻ Ķ
éĩį çĤ¹
çª Ĺ
æĬĹçĶŁç´ł æ²»çĸĹ
çĶļèĩ³ æĺ¯
éĢı æŀĲ
éļı æĹ¶
èĦĵæĢ§ åĪĨæ³Įçī©
çĽ Ī
æľª èĥ½
èĢĮ å½¢æĪĲ
è¾Ľè¾£ åĪºæ¿ĢæĢ§çļĦé£Łçī©
éĢĢ åĮĸ
åľ¨ æĹ©æľŁ
çł ģ
èĤ¾åĬŁèĥ½ ä¸įåħ¨
çĹħ æŃ»
u r
åĨ Ļ
çĶľ é£Ł
ï¼ī ï¼Ł
æĪĸ åľ¨
èĩª çĶ±
èĬĤ å¾ĭ
çĽĳ æĬ¤
å¯¹ çħ§
æķ£ åľ¨
çĸ± çĸ®
çĹħ åŃ¦
åģ¶ æľī
éģµ åĮ»åĺ±
äººä»¬ çļĦ
åıĳèĤ² å¼Ĥå¸¸
å·² æľī
èĦĳ å®¤
çĤİçĹĩ çļĦ
çģĮ æ³¨
æ·ĭ çĲĥèıĮ
ä¹Ł éľĢè¦ģ
è®© åŃ©åŃĲ
ä¸º ä¸Ģ
è½» èĢħ
ç»ĨèıĮ çļĦ
æĺ¯ æ²»çĸĹ
çŃī è¡¨çİ°
ä¹Łå°±æĺ¯ è¯´
å®¹æĺĵ éĢłæĪĲ
å°¿ å¤±ç¦ģ
åŃĲå®« èħĶ
åĶ ¯
åºĶ ç«ĭåį³
åħī çľ¼
åĬłéĩį çĹħæĥħ
ä¼ļ å½±åĵįåĪ°
åŃĲ çļĦ
æĶ »
æĴŃ æķ£
æŁ¥ æĺİ
é«ĺ åıĳ
å¯Ĵ æĪĺ
ä¸ĭ èħĶ
ä½¿çĶ¨ èį¯çī©
çŃī åİŁåĽł
èĤ¡ çĻ£
æľī å¿ħè¦ģ
åħ¶ä»ĸ çļĦ
åĽĽç»´ å½©è¶ħ
å¸¸ æŁĵèī²ä½ĵ
å¤© çĸ±çĸ®
åįķ åıĳ
éĹ »
é»Ħ çĵľ
mm ol
æīĵ èĥİ
â Ħ
å¹¶ åľ¨
æĤ ¬
åı¯ä»¥ æĺ¯
å¥ Ī
åŁ ĥ
ç®Ģåįķ çļĦ
åĮħ èĮİ
åĪ°åĮ»éĻ¢ è¿Ľè¡Į
é©¬ ä¸Ĭ
âĦ ĥ
èĬ ¥
è¿Ļç§į çĹħ
éħ° èĥº
å®ŀ æĸ½
æĢ§ éĺ´éģĵçĤİ
åĪºæ¿Ģ çĹĩçĬ¶
åı¯ ä¸º
æŃ£å¸¸ åĢ¼
åıĹåĪ° å½±åĵį
åıĪ ç§°ä¸º
çļĦ å¦ĩå¥³
è¥¿ çº¢
éĺ² å¾¡
é¢ ŀ
çĤ ĸ
å»ºè®® æĤ£èĢħ
éħįåĲĪ æ²»çĸĹ
åįķ ä¸Ģ
å¼ºè¿« çĹĩ
é«ĺ è¾¾
æ¸© çĥŃ
ç»Ĩèĥŀ çĻĮ
æĬĹçĹħæ¯Ĵ æ²»çĸĹ
æĺ¯ å¸¸è§ģçļĦ
ç³»ç»Ł çļĦ
èµ· åºĬ
èĤĽ èĤł
æ³ ¥
åİļ åº¦
åĩı åİĭ
æ¶ĪçĤİ èį¯
é¥¥ é¥¿
åĲĥ çļĦ
3 8
ä¹³ éħ¸
åį«çĶŁ ä¹łæĥ¯
æľ µ
éĿĴ åħīçľ¼
åıĮ çľ¼
æĸĳ çĤ¹
ä¸Ģ åĪĩ
åºĶ æł¹æį®
æŀ¸ æĿŀ
çĶ²æ²Ł çĤİ
ç»´çĶŁç´ł E
H IV
æĤ£èĢħ ä¼ļ
åľ¨æĢĢåŃķ æľŁéĹ´
ä¹Łæĺ¯ éĿŀå¸¸
å° º
æľĢ å¤§çļĦ
ç»´çĶŁç´ł D
é¼» å¡ŀ
å¼º è°ĥ
çĪ Ĩ
æĭ Ń
åįķ ä¸ª
a m
Ġ æľ¬åĵģ
æĺ¯ è¦ģ
ä¸į éĢļ
éħ Į
æľ« æ¢¢
èĩ³ äºİ
çĲĥ å½¢
æĪ¿ äºĭ
è¯±åıĳ åĽłç´ł
åķ Ĭ
èĩªè§ī çĹĩçĬ¶
ä¸¢ å¤±
éĺ» åĬĽ
åħ·ä½ĵ çļĦ
å¤įæĿĤ çļĦ
çº ±
èĦĳ å¹²
çļĦçĹĩçĬ¶ æĺ¯
æ¦Ĥ å¿µ
äººä¹³å¤´çĺ¤ çĹħæ¯Ĵ
å¾Ĺ ä¸įåĪ°
ķ çĮ´
å°¿ æ½´çķĻ
çī¹ åıĳæĢ§
çĮ ķçĮ´
èħ±éŀĺ çĤİ
éĺ´éģĵ åı£
å®ŀ çİ°
çļĦ é£İéĻ©
æī ¹
èħ¹èħĶ åĨħ
æ·ĭå·´ç»ĵ è½¬ç§»
åĳ¨ çĤİ
è¿Ļ éĩĮ
æº¢ è¡Ģ
è¥¿çº¢ æŁ¿
ä»¥ åĩıå°ĳ
è¿ĩæķı èĢħ
è¿Ļç§į çĸ¾çĹħçļĦ
åįķçº¯ çļĦ
æī¾ åĩº
èĬ ¬
å¸¸è§ģ çĹħ
ç¡® å®ŀ
æ·· æµĬ
çĶŁ ç²¾
å°ı åŃ©åŃĲ
æĲı åĬ¨
çĶ¨ çļĦ
è®¾ å¤ĩ
å°¿ æ¯ĴçĹĩ
å¾Īå¤ļ å¥³æĢ§
åıĳçĶŁ æĶ¹åıĺ
è¾¨ è¯ģ
æ£Ģ åĩº
åĲĥä»Ģä¹Ī é£Łçī©
ç¡Ŀ éħ¸
æĿ¥ ç¼ĵè§£
æ¯Ķè¾ĥ ä¸¥éĩįçļĦ
åĹ Ŀ
èĹ ¤
è¿ĩ åĲİ
èĦ± èĤĽ
å¤ļ ç³ĸ
ç»ĵèĤł çĻĮ
ä¼° è®¡
æľī å¼Ĥåĳ³
ä½Ĩ å¦Ĥæŀľ
è¿ĲåĬ¨ éļľç¢į
æľī èĲ¥åħ»
ä¹ĻèĤĿ å°ıä¸īéĺ³
A L
åĹ ³
æº¶ è¡Ģ
ç»§åıĳ äºİ
åı¯èĥ½ ä¼ļæľī
ä»ĭ åħ¥
çº¢ ç³ĸ
ç±» çļĦé£Łçī©
éĴ ©
çļ Ĩ
å¥ ı
ä¿Ŀ èĥİ
åį Ĵ
åħħ çĽĪ
åĿ ¦
åį±éĻ© åĽłç´ł
ä»¥ éģ¿åħį
æ£ĢæŁ¥ çļĦ
æ¯Ķè¾ĥ é«ĺ
æĪĸ æĹł
èħ Į
äºĭå®ŀ ä¸Ĭ
èĤ¿ çĹĽ
æĿ ľ
æĨ ©
è¿Ļ å°±æĺ¯
æľĢ è¿ĳ
åĪĨæ³Į è¿ĩå¤ļ
æĢİä¹Ī æ²»
æİĴ ç©º
å¤ļ ä¼ĳæģ¯
è¢« åĬ¨
ä¸į åħ¸åŀĭ
éĹ¨ è¯Ĭ
ä¸Ĭ æĸ¹
åħįçĸ« çĲĥèĽĭçĻ½
åĲĪå¹¶ æľī
å® £
çŃī çİ°è±¡
åºĶè¯¥ æĺ¯
çļĦ çī©è´¨
æĺ¯ä»Ģä¹Ī æĦıæĢĿ
å° Ŀ
èĭ ĵ
èĽĭ ç±»
é»Ħ èĬ
æ³¢ åıĬ
å°ı ç±³
èĻ ¹
ç²¾åŃĲ çĹĩ
é±¼ ç±»
ç²Ĺ ç²®
Ġ (
æĮī åİĭ
å¤§å°ı ä¾¿
èĨ¨ åĩº
çŃ ĸ
èĥĮ çĹĽ
æļ´ åĬĽ
æĹ© ä¸Ĭ
ç»ĥ ä¹ł
ä¸ĢèĪ¬ çļĦ
åŃķå¦ĩ çļĦ
çĻ«çĹ« åıĳä½ľ
ä¸¤ ç±»
æŀģ æĺĵ
åĬŁèĥ½ åĩıéĢĢ
åľ° é»Ħ
è´¨ çļĦ
æľĢå¥½ ä¸įè¦ģ
æ»ĭ åħ»
åĴ Ģ
çĽ® çļĦæĺ¯
çĮķçĮ´ æ¡ĥ
åķ Ĩ
åīĸå®« äº§
èĩª åĬ¨
çł Ĥ
é«ĺ å³°
å®«é¢Ī åı£
é¦ĸ æ¬¡
ç¦ģæŃ¢ æĢ§çĶŁæ´»
éī´ å®ļ
å¾Ģå¾Ģ æĺ¯
æµ¸ æ³¡
åı£æľį èį¯çī©
æĬ ķ
åĬĽ éĩı
æĦŁæŁĵ å¼ķèµ·çļĦ
åĲĥä»Ģä¹Ī å¥½
å·© èĨľ
äº ı
æĦı åĳ³
å¿ĥèĤĮ æ¢ĹæŃ»
åĲ« ç³ĸ
çĹĺ åį°
æĶ¯æ°Ķç®¡ çĤİ
æĭ Ĵ
åįķçº¯ çĸ±çĸ¹
æľ¬ èįī
æ© Ļ
æĢģ åº¦
ä¼´ éļıçĿĢ
æ¼ ł
åºĶ å¯¹
å¤ļ å½¢
çĽĹ æ±Ĺ
å¤ļ åıĳçĶŁåľ¨
åŃĲå®« çļĦ
ç¡® è®¤
çªģ èµ·
çĶĺ èįī
è¿ĺ åºĶè¯¥
èĦĳ æº¢è¡Ģ
åĨħ æľį
åıĳå±ķ åĪ°
æĪĳä»¬ åºĶè¯¥
è¾ĵåįµç®¡ ç§¯æ°´
æ²»çĸĹ åĴĮ
ä¸» å¼ł
åĪĨå¸ĥ äºİ
çº¢æĸĳ çĭ¼çĸ®
åīį çĹħåıĺ
åĮĸåŃ¦ çī©è´¨
ä¹Ł åºĶè¯¥
èĥĥ æģ¯èĤī
é»Ħ è±Ĩ
åı¯ä»¥ ä½¿
æĦŁæŁĵ èĢħ
çĿ¡çľł éļľç¢į
æĿĲ æĸĻ
å°ı é¼ł
çĻĮ çĹĩçļĦ
çľ¼ åºķ
è¯Ĩ åĪ«
è¶ĬæĿ¥è¶Ĭ å¤ļ
åħ»æĪĲèī¯å¥½çļĦ çĶŁæ´»ä¹łæĥ¯
ä¸Ń çŃī
åģľ çĶ¨
éĺĳå°¾ çĤİ
æĺ¯ çĽ®åīį
éĩı å°ĳ
æīĢ å¼ķèµ·
åŃ¦ è¯´
ä¼łæŁĵ æºĲ
åĹ³ æ°Ķ
o c
é¸ Ń
åĴĢ åļ¼
å¾Īå®¹æĺĵ å¯¼èĩ´
æł½ åŁ¹
P a
åĿĲ æľĪåŃĲ
e d
èĽĭçĻ½ éħ¶
åĬ¨ æĢģ
åĲĮæĹ¶ ä¼´æľī
åľ¨ æŃ£å¸¸
åī ©
åįĬ æķ°
æŀ ¯
å¸¸è§ģçļĦ çĸ¾çĹħ
æħ¢æĢ§ çĸ¾çĹħ
åįĹ çĵľ
æ°´ çħİ
çĸ¼çĹĽ çļĦ
éĺ´ å½±
çļĦ å®Ŀå®Ŀ
å¿½ çķ¥
çĹħäºº åľ¨
æł¸ ç»Ĩèĥŀ
æľĢ å¤ļ
4 00
æĺ¯ å¯¼èĩ´
æ¡ ĳ
æħ¢æĢ§ çĽĨèħĶçĤİ
ä¸» æ²»
çĶ± æŃ¤
1 50
Ã Ĺ
ç¬¬ ä¸Ģæ¬¡
è®© æĤ£èĢħ
éķ¿ çļĦ
èĥ°èħº çĤİ
e t
HB V
çłĶç©¶ åıĳçİ°
è¡Ģ ä¾¿
æĤ£èĢħ åı¯
æľĪç»ı æĿ¥æ½®
éĴ ¡
C R
æĢ¥æĢ§ åıĳä½ľ
éĥ¨ éĹ¨
åĨħå®¹ çī©
è¡° éĢĢ
åĪĻ æĺ¯
èĦ¾ æ°Ķ
çľ ī
æ°´æŀľ èĶ¬èıľ
? ?
ä¸»è¦ģ çĶ±
æ£Ģ éªĮ
æĺİç¡® çļĦ
âĳ ł
è°ĥ åĳ³
æĹ¶éĹ´ çļĦ
æ··åĲĪ çĹĶ
å£® å¹´
è¿ĺæĺ¯ è¦ģ
HC G
æ¼ ±
èĤ¾ ç»ĵçŁ³
æ°¯ åĮĸ
çļĦ å¥½
è´Ł éĩį
å¤į åĲĪ
å¼Ĥä½į å¦Ĭå¨ł
åĳķ è¡Ģ
ä¸ĭéĿ¢ å°±
æıĴ åħ¥
å¼º åĮĸ
èĦĨ å¼±
p H
æŁ± çĬ¶ä¸Ĭçļ®
åľ¨ è¿Ľè¡Į
å°ĳ è®¸
çĿĢ åĩī
è®° å½ķ
é¥®é£Ł æ¸ħæ·¡
éĢĢ åıĺ
æĹ¢ å¾Ģ
å°¿ ä¸Ń
å¤ĸ éĥ¨
ç»Ħç»ĩ åŃ¦
èħ°éª¶ éĥ¨
é«ĺ ä½į
ä¼łæŁĵ åĲĹ
äºĴ çĽ¸
æľī è®¸å¤ļ
æĹ©æľŁ çļĦ
å°¿ å¸¸è§Ħ
æ°´å¹³ çļĦ
æĻķ åİ¥
åı¦ä¸Ģ æĸ¹éĿ¢
åĪĨ åŀĭ
èĦī æĲı
ä¾Ŀ éĿł
éĿĻèĦī æ»´æ³¨
æ±Ĺ çĸ±çĸ¹
åı¯ éĿł
å°ı åı¶
åı£ æ¸´
e c
ä¸ĭ çļĦ
éķ¿ çŁŃ
å· ŀ
åºĶ ä¸İ
åĮħ åĲ«
ä¹Łæľī åı¯èĥ½æĺ¯
å¾® æ³¢
èĥİ åģľèĤ²
æĦıåĳ³ çĿĢ
ä¸ĭ åİ»
å±ĢéĻĲ äºİ
éĴ ³
ç§¯æŀģ çļĦæ²»çĸĹ
èĹ ĵ
çĭ¬ ç«ĭ
æĹ© æĹ¥
åŀĤ çĽ´
çĶŁçĲĨ çİ°è±¡
æ´ĭ èĳ±
æ¨¡ å¼ı
åĿĲéª¨ ç¥ŀç»ıçĹĽ
çĺĺ ç®¡
çİ¯ çĬ¶
âĳ ¡
æĭĽ èĩ´
å½ĵ å½Ĵ
æİĴ æ¯Ĵ
èįī èį¯
å¿ĥçĲĨ åİĭåĬĽ
çĽĨèħĶ ç²ĺè¿ŀ
æŃ¥ æĢģ
ç¡ Ĵ
åŃĲå®«åĨħèĨľ èĸĦ
å¤ļ åıĳäºİ
åıĺ èĸĦ
æķ£ æŃ¥
æµģè¡Į çĹħåŃ¦
åģľ çķĻ
é«ĭ åħ³èĬĤ
éĩĳ é»Ħèī²
åĴ ª
éĩįè¦ģ çļĦæĺ¯
æ½ľ åľ¨
éĵ ħ
éĶģ éª¨
æĪª çĺ«
éħ ±
èĥ½ ä½¿
å¤ı å¤©
çİ«çĳ° ç³łçĸ¹
éĹ®é¢ĺ çļĦ
åı¯è§ģ äºİ
è¡Ģ éĩı
å¤§ è±Ĩ
è°ĥ æİ§
åĳ¨åĽ´ ç¥ŀç»ı
å°ļ æĹł
åİŁ çĲĨ
å·¥ä½ľ åĴĮ
æĭ ®
çĶ Ļ
å®« ç¼©
è¡Į åĬ¨
åıį éħ¸
å¡ «
ä¸» é£Ł
æīĵ åĹĿ
å¤ļ çĶ±
è½¬ å½ķ
çļĦåıĳçĶŁ çİĩ
æ°Ķ éģĵ
ç²¾ç¥ŀ åİĭåĬĽ
èĤĭ éª¨
å´ ©
æ¬ ł
åĲŀ åĻ¬
å¯» æ±Ĥ
åı¯ä»¥ éĩĩåıĸ
åı¯ çĶ¨äºİ
æİ¥ ä¸ĭæĿ¥
æľī å¸®åĬ©
åŃķ åĽĬ
èĬĤ æ®µ
æľīåħ³ çļĦ
æĺ¾ æĢ§
è´ ¯
ç»´çĶŁç´ł åĴĮ
è¿ľ å¤Ħ
åıĳ çī©
å®ļæľŁ æ£ĢæŁ¥
æĭ® æĬĹ
èĤł ç®¡
çīĩ çĬ¶
åİķ æīĢ
ä»ĸä»¬ çļĦ
æĬ¬ é«ĺ
ä¼ļ ä¸įä¼ļ
çļ® çĤİçļĦ
çī¹ æĢ§
èļ Ĭ
æĦŁæŁĵ çŃī
æ²¹èħ» é£Łçī©
éĺ² æĬ¤
äºĨè§£ä¸Ģä¸ĭ åĲ§
å¤± è¡¡
å¹²æī° ç´ł
åĬ¨èĦī ç²¥æł·ç¡¬åĮĸ
å°ıåĦ¿ éº»çĹ¹
æº¶ è¡ĢæĢ§
çļĦæ²»çĸĹ æĸ¹å¼ı
æĦı è§ģ
æŁ Ħ
åıĳçĹħ å¹´é¾Ħ
æĹ© æĻļ
æķ° å¹´
æĦŁæŁĵ åĴĮ
åĲĳ åĲİ
æ£ķ èī²
éľīèıĮæĢ§ éĺ´éģĵçĤİ
èº«ä½ĵ çĬ¶åĨµ
çĩ ķ
åĮĸ çļĦ
å¯Ĩ éĽĨ
ä¼ĺ çĤ¹
æĺ¯ ä¼ļ
å¤§ æŀ£
èħ¹ åİĭ
çŃī éĥ¨ä½į
éĿĴ å£®å¹´
åľ¨ ä¸´åºĬ
å¤ĸéĺ´ çĤİ
è£ ¹
æĹ©æľŁ æ²»çĸĹ
åľ¨ ä¸Ģèµ·
åĺ¶ åĵĳ
æıĲ åıĸ
åīįåĪĹèħº çĤİçļĦ
å¤įåıĳ çİĩ
å¹» è§ī
ä¸įç®¡ æĺ¯
é¸¡ èĤī
æĹ¥ åħī
èĤĽéĹ¨ åĳ¨åĽ´
è¾ħåĬ© æ£ĢæŁ¥
èĤ² é¾Ħ
åĽ½ éĻħ
ä¹ĻèĤĿ å¤§ä¸īéĺ³
çĶŁæ´» è§Ħå¾ĭ
æ±Ĺ èħº
èħ®èħº çĤİ
èĥĥ çļĦ
æģĲæĥ§ çĹĩ
éĩį çļĦ
èĩªéĹŃ çĹĩ
æ·¤ ç§¯
ä¸ĢèĪ¬ æ²»çĸĹ
åŃĺåľ¨ çļĦ
å¸¦æĿ¥ äºĨ
çŃī åĪ°
ä¸Ģ æĺ¯
å°¤åħ¶æĺ¯ åľ¨
Ġ t
åı¯ éĢłæĪĲ
éķ¿ å¤§
åĳ³ éģĵ
åŁ İ
ç³»ç»Ł æĢ§
èĬ± æĸĳ
é«ĵ æł¸
ä¸ŃåĮ» è®¤ä¸º
çĥ§çģ¼ æĦŁ
é£İ çĸ¹
èĤ© éĥ¨
éĢłå½± åīĤ
åı¯ä»¥ ä¿ĥè¿Ľ
èĤ© åħ³èĬĤ
çº¤ç»´ èĽĭçĻ½
æģ¢å¤į çļĦ
æĨ© å®¤
æĹł èıĮ
æĬĳéĥģ çĹĩçļĦ
çŁŃæĹ¶éĹ´ åĨħ
æľĪç»ı ç´Ĭä¹±
çı į
åıĳçİ° æľī
æľī åĪ©
éĢłæĪĲ äºĨ
çļĦ åŁºç¡Ģä¸Ĭ
è¶Ĭ å¤§
çĥ ¹
çħ§ é¡¾
èī¯ æĢ§çļĦ
æī© å±ķ
ä¸įè¦ģ çĨ¬å¤ľ
èĥ¶ è´¨
6 5
ç¬ ĭ
çĶ °
å¤į åıĳæĢ§
çļĦ ä¸į
ä¿Ŀ åŃĺ
çļ®èĤ¤ è¡¨éĿ¢
äººä½ĵ åĨħ
æĹģ èħº
é Ń
ä¸į å½±åĵį
è®© èĩªå·±
ç¾İ å®¹
é¦ Ī
çĶµ åŃĲ
âĢĿ ãĢģâĢľ
èĩ´çĹħ åĽłç´ł
æľī çĤ¹
çĶ ¾
åĪĩ æĸŃ
Ig G
æīĭ èĦļ
èĦĤ èĽĭçĻ½
çĿ¡çľł è´¨éĩı
ç¨Ģ èĸĦ
åĶ¯ ä¸Ģ
æĶ¾ åĮĸçĸĹ
å½±åĥı åŃ¦æ£ĢæŁ¥
å¸¸ ä¸İ
è¯¥ çĹħçļĦ
çļ®èĤ¤ ä¸Ĭ
è¡Į æĶ¿
CT æ£ĢæŁ¥
ç¼ºè¡Ģ æĢ§
æ·± åº¦
çļĦ ä»£è°¢
æĬ ¢
çļĦ åŃķå¦ĩ
æİĴä¾¿ æĹ¶
æľ« ç«¯
çī¹åĪ«æĺ¯ åľ¨
éº» çĥ¦
å¤į åĲĪçī©
ä¸įéĢĤ åĲĪ
åĢ¼ å¾Ĺ
å¤ª å¤§
ä¸į äºĨ
çŃī åĿĩ
e p
æ°Ķ çŁŃ
åıĳçİ° çļĦ
èĽĽ ç½ĳèĨľ
æĢ§ æ°´èĤ¿
ä¼ ¦
èĤ¿çĺ¤ ç»Ĩèĥŀ
çĹħ æĤ£èĢħ
åİ»åĮ»éĻ¢ å°±è¯Ĭ
ä¸į å¹³
è¦ģ è¿Ľè¡Į
ä¸Ń æĪĲ
èĢĮ äº§çĶŁ
æīĭ æ³ķ
è¿ĩåº¦ çĸ²åĬ³
åĬ¨åĬĽ åŃ¦
ï¼ Ĥ
åĲĦç§į åİŁåĽł
å°Ŀ è¯ķ
äº¦ æľī
èĨĿ çĽĸ
å¿ĥ è·³
çļĦ åħ³éĶ®
å¯¹ æĬĹ
èĥ¡ æ¤Ĵ
çļĦ å¿ĥæĥħ
çļĦ éĩı
èĢ³ éģĵ
çļĦ åĲ«éĩı
è¡Ģæµģ éĩı
å¾Īå¤ļ æĤ£èĢħ
èĥ ľ
æİ¥è§¦ æĢ§åĩºè¡Ģ
èĤĮèĤī èĲİç¼©
çĥ§ ä¼¤
æĿĢ çģŃ
å®«é¢Ī ç²ĺè¿ŀ
å®«é¢Ī èĤ¥å¤§
å»ºè®® ä½ł
æĢ§ é£Łçī©
æľīä»Ģä¹Ī çĹĩçĬ¶
æ´»åĬ¨ åıĹéĻĲ
è®¤ çľŁ
å¼± ç²¾çĹĩ
æĨĭ å°¿
éĢĤ åº¦
çĶŁæ´» å½ĵä¸Ń
e m
mm H
æīĭ éĥ¨
åĲĥ äºĽ
æľīäºĽ æĤ£èĢħ
çŃī éĥ½
æ¸Ĺ æ¶²
åįı åĬ©
æ²»å¥½ åĲĹ
æĤ ¦
å¸¸ åĽł
æ¸ħæ´Ĺ å¤ĸéĺ´
ä¼ļ éĢĲæ¸Ĳ
åħ¶ä»ĸ éĥ¨ä½į
çĶµ ä½į
è¿Ļç§į æĸ¹æ³ķ
æŀģ åº¦
äº¤ çķĮ
ä»İèĢĮ ä½¿
åģı å¤´çĹĽ
çĶµ èĦĳ
æľī æ¯Ĵ
åıį é¦Ī
åĪĨ å¼Ģ
æĭ Į
ä¼¤ å¯Ĵ
éĺ³ æĢ§çļĦ
åĽ½ åĨħ
åī§ çĹĽ
æĢ§èĦĳ çĹħ
P A
éĿ¢ çļĦ
åĪĻ åı¯
éģĹ çķĻ
åıĬæĹ¶ åıĳçİ°
éŁ ¦
èĤ¾åĬŁèĥ½ è¡°ç«Ń
é¼» åŃĲ
ç©º éĹ´
é»ıèĨľ ä¸ĭ
ä»¥ä¸ĭåĩł çĤ¹
å¥³ åŃ©
æ¯Ķè¾ĥ å°ı
çĹħæ¯Ĵ å¼ķèµ·çļĦ
æŃ» èĥİ
çĵ ¶
æ¶ĪåĮĸ æĢ§æºĥçĸ¡
è· Į
çĹħ åıĳ
åħĭ æľį
çļĦåİŁåĽł æľī
åı ©
æ¦ ´
åĪĿ æŃ¥
èħĭ çªĿ
æİ¢ æŁ¥
çĶļèĩ³ åĩºçİ°
è¡¨éĿ¢ åħīæ»ĳ
æĽ´ å¤§
å®ĺ èĥ½
æŃ£å¸¸ æĪĸ
åĪĩ å¿Į
å£ ¤
æ¯įä¹³ åĸĤåħ»
äºĮ å°ĸçĵ£
å¸¸è§ģ çļĦçĹĩçĬ¶
èĥİ åĬ¨
ä½Ĩ çĶ±äºİ
æŃ¥ éª¤
å¾Ī å°ı
èĤł å£ģ
åĻ¨å®ĺ çļĦ
åĬł æ·±
éĥ½ éľĢè¦ģ
åĩºæĿ¥ çļĦ
ä¸ĢèĪ¬ æĹł
è¿Ľè¡Į æīĭæľ¯
æŀķ å¤´
åĨį åĬłä¸Ĭ
åµĮ é¡¿
æł¸ éħ¸
ä¹ ĥ
åĬŁ çĶ¨
å®ĥ åı¯ä»¥
æįŁä¼¤ çļĦ
åģļ æīĭæľ¯
åĽłç´ł æľīåħ³
æĬĹ çĹħ
è¿Ļç§į çİ°è±¡
çļ® å±Ĥ
åŃĲå®«åĨħèĨľ å¢ŀçĶŁ
åħ¶ä»ĸ çĹĩçĬ¶
æĤ£èĢħ åºĶè¯¥
æ´Ĺ å¤´
ä¸ĵä¸ļ çļĦ
S T
é¢Ħéĺ² æĦŁæŁĵ
è¡¨ æĥħ
ç²¾ åĬĽ
äºļ ä¸´åºĬ
æĺİæĺ¾ çļĦçĹĩçĬ¶
æĬ½ åĬ¨
æľīæīĢ å¸®åĬ©
3 7
o d
ä¸Ģ ç±»
ä¸ª å°ıæĹ¶
å¼ ĥ
æ¸© åĴĮ
èĦī ç»ľ
ç»Ŀ ç»ıæľŁ
å¿§ éĥģ
åĨħåĪĨæ³Į ç´Ĭä¹±
åįł ä½į
å½ĵ åĩºçİ°
åŁº è´¨
æĢ§ ä¼´ä¾£
è§¦ æĳ¸
çĹħæĥħ åıĳå±ķ
åĪ°åĮ»éĻ¢ åģļ
å¿ĥ å¢ĥ
çļĦåİŁåĽł å¾Īå¤ļ
åĨ· æ·¡
æĸ ¤
å¯¹ æľ¬åĵģ
ä¿ĥ çĶ²çĬ¶èħºç´ł
å°¤ ä¸º
åĪĿ èµ·
æĬĹ çĻĮ
å·¨ åĻ¬
è§Ĩ éĩİ
èĢģ åĮĸ
æķ´ ä½ĵ
çļĦ æĹ©æľŁ
æīĢä»¥ æĪĳä»¬
éĻ¤ å¤ĸ
éĴĪ åĪº
è±Ĩ æµĨ
Ġ n
å¥½ å¥½
æĦŁè§ī éļľç¢į
ç¦ģå¿ĮçĹĩ æĺ¯ä»Ģä¹Ī
æīĢ åĲ«
æµĨ æ¶²
èĢħ ä¸º
æĺĵ å¼ķèµ·
è½¬ç§» åĪ°
åŃĲå®« åĨħ
çĹħäºº æľī
éĴĿ çĹĽ
éķ¿æľŁ æľįçĶ¨
å£° å¸¦
å¤ļç§į å¤ļæł·
åĲĪéĢĤ çļĦ
æ³¨æĦı ä¸ªäººåį«çĶŁ
ä¸į è®º
å¤ĸ ç¿»
ç½ Ĳ
ç °
ä¹Łåı¯ å¼ķèµ·
h y
æħ °
èĬĤ åĪ¶
ä½İ èĦĤ
ç¨į å¾®
èį¯ èĨı
åħ¶æ¬¡ æĺ¯
èĢĲ å¿ĥ
éĩĮ çļĦ
æĤ£èĢħ ä¸Ń
çĿ¾ éħ®
ä¸Ģä¸ª äºº
èĹ ķ
ä¸Ń åĴĮ
å¤ĸ åĬĽ
åĿĩ ä¸º
åŃĲå®«åĨħèĨľ æģ¯èĤī
è¡Ģ åĲ¸
R S
è§Ĥ å¿µ
ä¸Ń èĢģå¹´äºº
è§Ĩ è§ī
çªģ åıĳ
ä¸ĸ çºª
çļĦ æ¸ħæ´ģ
20 00
åī¥ ç¦»
æĺ¯ å¯¹
èĩ´ æķı
æ¯Ĵ çī©
èĤł ç³»èĨľ
éħĴç²¾ èĤĿ
ä¸ĭ èħ¹çĹĽ
ä»į æľī
æĪĸ åĽł
äº§ éģĵ
ç»ĵæł¸ æĢ§
åĲİ å£ģ
ä¹ĭ ä¸Ń
åľ¨ æĪĳåĽ½
èĦĤ è´¨
çļĦ çĶŁæ´»ä¸Ń
çĤİçĹĩ åĪºæ¿Ģ
çĸ² åĢ¦
çļĦ é¢ľèī²
è¡Ģ å®¹éĩı
ç¡¬ ç»ĵ
åı¯ä»¥ å¤ļåĲĥ
åı¯ ä¸İ
åıĹåĪ° äºĨ
ç²¾ç¥ŀ çĬ¶æĢģ
å¥³æĢ§ ä¸įåŃķ
åĨ· æ°´
çĶŁçĲĨ åĬŁèĥ½
ä¸ĭéĿ¢ ä¸ºå¤§å®¶ä»ĭç»į
åĹľ éħ¸æĢ§
çº± å¸ĥ
çĪ ¸
u n
8 5
çļĦ æħ¢æĢ§
3 6
èĢĮ æľī
A D
åı¯ çĸĳ
ä¹Ł ç§°ä¸º
èĤł èłķåĬ¨
è¯ķ ç®¡
å¤ĸéĺ´ çĻ½æĸĳ
æĹ¶ è¦ģ
æºĥçĸ¡æĢ§ ç»ĵèĤłçĤİ
æ³¡ æ²«
éĩĳé»Ħèī² èĳ¡èĲĦçĲĥèıĮ
è¡Ģ åĿĹ
æĪĸ çĶ¨
èĢĮ å¯¼èĩ´çļĦ
ä¹Ļ çĬ¶
è®© äºº
åı£èħĶ æºĥçĸ¡
èĮĥåĽ´ åĨħ
éģŃ åıĹ
æľī åı¯èĥ½ä¼ļ
åĴ Ļ
å°ĳé£Ł å¤ļé¤Ĳ
åı¯ èĢĥèĻĳ
èħ ĳ
è· µ
èĢĮ ä¸įæĺ¯
ä¸ĢèĪ¬ ä¸įä¼ļ
æĸ¹æ³ķ æĺ¯
çº¤ç»´ çĺ¤
æºĥ çĥĤ
åı¯ å¢ŀåĬł
æĬ ĸ
ä¸Ĭ è¡Į
èĢĮ æĹł
æĮĩ æķ°
ä¼łå¯¼ éĺ»æ»ŀ
çļĦ åİĭåĬĽ
å¸¸è§ģ çĸ¾çĹħ
çİ¯ èĬĤ
èĥ¡èĲĿåįľ ç´ł
è½¬åĮĸ ä¸º
çļĦ åıįåºĶ
æŁĲ ä¸Ģ
åĮ ¿
ä¸º æŃ¢
ç»Ī èº«
mmH g
ç»Ļ å¤§å®¶ä»ĭç»į
è¶³ éĥ¨
é£İ å¯Ĵ
æ°¸ ä¹ħ
æĤ£èĢħ æĿ¥è¯´
æ¤į åħ¥
ä¸ºä¸»è¦ģ è¡¨çİ°
å¿ħé¡» åľ¨
èİ ĵ
å°ĳæķ° æĤ£èĢħ
2 50
é£Łç®¡ çĻĮ
åı¯ äº§çĶŁ
æł ¡
ä¸į ä¾¿
åħįçĸ« åıįåºĶ
åľĨå½¢ æĪĸ
åĳ¨ è¾¹
æ¢Ĺ å¡ŀ
ti c
èĢĮ æĿ¥
æĢ§ çļ®èĤ¤çĹħ
æĺ¯ å¼ķèµ·
ä»¥ å¾Ģ
åıĳçİ° èĩªå·±
éľĢè¦ģ æł¹æį®
çĶµè§£è´¨ ç´Ĭä¹±
æ°§åĮĸ ç¢³
çĹ¢ çĸ¾
æĤ£ èĤ¢
çĮ Ľ
é³ŀ çĬ¶ä¸Ĭçļ®
ä¸Ń æĸŃ
èĢĮ ä½¿
çĽĨ æµ´
æ¡ ¡
æĴ ŀ
ä¹ĻèĤĿ çĸ«èĭĹ
å¼¯ èħ°
å¤ļåĽĬåįµå·¢ ç»¼åĲĪå¾ģ
æľī çļĦæĹ¶åĢĻ
å¯¹ èº«ä½ĵçļĦ
ç¥ŀç»ı å®ĺèĥ½
åĬł å·¥
åħ· å¤ĩ
å®«èħĶ éķľ
æ³ķ å¾ĭ
åİŁåĽł çļĦ
åĨħåĪĨæ³Į ç³»ç»Ł
èĤ¡ éª¨
æľĢ æĹ©
æ±Ĺ æ¶²
äººæµģ åĲİ
èĦĳ ä¸Ńé£İ
åħ ģ
èĤº çĻĮçļĦ
æ¬ §
èĮ ¯
éĩįè¦ģ ä½ľçĶ¨
æĿĢ æŃ»
3 9
o f
åľ¨ é¥®é£Łæĸ¹éĿ¢
è¿ĩ çĥŃ
èľ ĺ
åĳ¨ å·¦åı³
i g
æĸ Ĺ
çĶ· ç§ĳ
åĸī åĴĻ
æľ Ŀ
åĴ½ çĤİ
æıĲ åĢ¡
æ·ĭ èıĮæĢ§
äºº åıĤ
çķı å¯Ĵ
åıĳ åĩº
è¿ĺ ä¼ļå¯¼èĩ´
çĸı éĢļ
ä¸į åıĹ
æĽ´ å¿«
è§Ĵè´¨ å±Ĥ
åħ·æľī ä¸Ģå®ļçļĦ
æ³Įå°¿ å¤ĸç§ĳ
åŃ¢ åŃĲ
çĹĩçĬ¶ æĺ¯
æĪĳä»¬ çŁ¥éģĵ
å± ģ
çŃī æĸ¹æ³ķ
æĿ¥ åĪ¤æĸŃ
èľĺ èĽĽ
P R
ä¸»è¦ģ ä¸İ
é¦Ļ èıĩ
T ç»Ĩèĥŀ
æľī å¾Īå¤§
åŁº éĥ¨
å®ŀ è·µ
çĹĽ é£İ
æµģ èĦĵ
é¢Ħéĺ² æİªæĸ½
é«ĺ ç»´çĶŁç´ł
è¾ĥ é«ĺçļĦ
å²ģ çļĦ
å¯Ĵ åĩī
ä½ĵæł¼ æ£ĢæŁ¥
æīĢ è¯´çļĦ
ä¸ĭ éĥ¨
ä¸¤ å¤§ç±»
èĨ¨ èĥĢ
å¿į åıĹ
æĬ¢ æķĳ
åİ ī
åºĶè¯¥ è¦ģ
è¿Ĳ è¡Į
åĪ· çīĻ
y l
ä¸į ä¼ļæľī
å¤§ èĩ´
å®«èħĶ åĨħ
åĦ¿ç«¥ çļĦ
éģ¿åŃķ æİªæĸ½
çļĦ æľĢä½³
åĽł åħ¶
è¿Ļ å¯¹
æĳ ĩ
èĭ¦ çĵľ
ç² Ł
è¿Ľè¡Į æīĭæľ¯æ²»çĸĹ
éĿ¢èī² èĭįçĻ½
èĤĮèĤī çļĦ
æŁ ı
æĿ¡ä»¶ ä¸ĭ
ä¹ĭ ç±»çļĦ
éŁ§å¸¦ æįŁä¼¤
å±Ģ çģ¶
æ¸© å¼Ģæ°´
æĪĸ å°ĳ
åģļ äºĨ
çļĦ æ°´å¹³
å°ıæĹ¶ åĲİ
çģ° çĻ½èī²
èĻ¹ èĨľ
åĪĨ æŀĿ
æ¶² åĮĸ
æĬĹ è¿ĩæķı
éĽ ª
æĺ¯ æĢİä¹Ī
å¤ĸ çĶŁæ®ĸåĻ¨
åĬŁèĥ½ å¼Ĥå¸¸
èºģ çĭĤ
åħ» è¡Ģ
å¾ģ åħĨ
Ġ 6
èĬĤ èĤ²
èĥĥéħ¸ åĪĨæ³Į
èĩªèº«åħįçĸ« æĢ§
éģ¿åħį åĲĥ
ãĢĤ ãĢĬ
æĽ¾ ç»ı
åı¯ä»¥ éĢĤå½ĵ
æĮĽ ç¼©
åİĮæ°§ èıĮ
ä¼ ģ
è¿ĳ æľŁ
è£Ĥ ä¼¤
é«ĺ è¡ĢèĦĤ
æ»ĭ è¡¥
ç²Ĵ ä½ĵ
çİ ĭ
ä¹Ł æ¯Ķè¾ĥ
ä¹Łæĺ¯ ä¸Ģç§į
æĤ£èĢħ ä¸Ģå®ļè¦ģ
ç²¾ç¥ŀ çĹĩçĬ¶
ç¥ŀç»ı èĬĤ
çĤ¹ çĬ¶
æĦŁæŁĵ æĪĸ
æº¶ æĢ§
ä¸ŃæĪĲ èį¯
æľī å¾Īå¥½çļĦ
èº«ä½ĵ ç´łè´¨
åĳ³ çĶĺ
ãĢĤ ï¼ł
å°¿ ç´ł
å°± åĥı
ä¿Ŀ éļľ
å¤± è¯Ń
å¼ķåıĳ çļĦ
éª¨ èĤ¿çĺ¤
éĹ´ çļĦ
Ġ A
åľ¨ åıĳçĹħ
æ¯Ķè¾ĥ å¥½çļĦ
æĶ¶ è´¹
çĶŁçĲĨ çĽĲæ°´
2 7
è¿Ľ æŃ¥
é£Łçī© çļĦ
æĹ© æĻ¨
åħ³èĬĤ çļĦ
å°±ä¼ļ å¼ķèµ·
ä¿® è¡¥
å¥¹ ä»¬
çĹĩçĬ¶ åĬłéĩį
ä»£ æĽ¿
å¸¦æĿ¥ çļĦ
æ¸ħ çĲĨ
ä»ĸ çļĦ
çļĦé¥®é£Ł ä¹łæĥ¯
æ»¤ è¿ĩ
ç»Ĩèĥŀ èĨľ
åħħ æ»¡
å£°éŁ³ åĺ¶åĵĳ
å¤ļ æĺ¯
åĲĮ ä¾§
æĭ ³
å¤§å°ı ä¸įçŃī
æĬµæĬĹåĬĽ ä¸ĭéĻį
å°ı ç®¡
ç¾¤ ä½ĵ
åģ¶ è§ģ
æ· Ĩ
è¿Ľè¡Į è°ĥçĲĨ
èĸ ı
éľ į
è¾Ľè¾£åĪºæ¿Ģ é£Łçī©
èħ° éĹ´çĽĺçªģåĩº
åĵª ç§į
åĸī çĻĮ
æ·· æ·Ĩ
æļĹ çº¢èī²
åıĳ è¾¾
å¥½ åıĳ
èĹ »
çļĦ åŃĺåľ¨
éĢļ éĢı
ä½Ĩ ä¸į
è¡¥åħħ ç»´çĶŁç´ł
æĬ¤èĤ¤ åĵģ
åı¯ä»¥ éĢĤå½ĵçļĦ
ä¹Ļ éĨĩ
èĤĿ èĦ¾
åı¯èĥ½ åıĳçĶŁ
é¥®é£Ł çļĦ
äºĮ èĢħ
çŁŃæľŁ åĨħ
è½» æĿ¾
ä½¿çĶ¨ çļĦ
ä½¿çĶ¨ æľ¬åĵģ
èļ ´
åı¯ å°Ĩ
å½¢æĪĲ äºĨ
åħ¨èº« æĢ§çĸ¾çĹħ
æłĩå¿Ĺ çī©
å·¦ å¿ĥå®¤
a p
è¾ĥ å¿«
F T
æīĢè°ĵ çļĦ
æ²»æĦĪ çİĩ
å¤ļåĲĥ æĸ°é²ľçļĦ
åıĪ æľī
å®¤ æĢ§
åĨ¬ çĵľ
èĦ± ç¦»
æ±Ĺ æĸĳ
æļĤ åģľ
é¼» æ¶ķ
è¦ģ æĥ³
ä½Ĩ ä¹Łæľī
åħģ è®¸
çī¹å¾ģ æĺ¯
æīŃ ä¼¤
çĸ ³
èį¯çī© æĢ§
éĢļè¿ĩ ä¸Ĭè¿°
çļĦçĹħåĽł æĺ¯ä»Ģä¹Ī
ä¸Ĭ åĳ¼åĲ¸éģĵæĦŁæŁĵ
ä½Ĩ å¯¹
åĩº éĻ¢
éĺ³ èĻļ
éļĲ åĮ¿
èº«å¿ĥ åģ¥åº·
æĺ¯ ä¸įèĥ½
éķ¿ äºĨ
Ġ m
ä¸ªæľĪ åĲİ
ä¸Ģ æĿ¯
çŃī æĸ¹éĿ¢
ç»§ èĢĮ
ä¹³å¤´çĬ¶ çĺ¤
ç¦ ½
èıĮ ç´ł
ä¸»è¦ģ åİŁåĽł
è¾ĵåįµç®¡ çĤİ
åİĭè¿« çĹĩçĬ¶
åİĨ åı²
èĥĥ æ¶²
çī¹å¾ģ æĢ§
èĤĮ æĹłåĬĽ
æľĪç»ı æľŁéĹ´
æľī çĤİçĹĩ
ä¸Ĭ æ¶ĪåĮĸéģĵåĩºè¡Ģ
æµģ åĬ¨
ä¹³ ç³ĸ
ç»ĨèıĮ åŁ¹åħ»
åīįåĪĹèħº èĤ¥å¤§
éĥ½ ä¼ļå¯¼èĩ´
æĢ¥æĢ§ çĤİçĹĩ
è¿ĺ åºĶ
ä¿Ŀ èĤĿ
éħ¸ å¥¶
æł· åıĺ
çĿ¾ä¸¸ çļĦ
åŀĭ çĹħæ¯ĴæĢ§èĤĿçĤİ
ä½Ĩæĺ¯ åľ¨
ç ¯
äºº æ°ĳ
æģ° å½ĵ
çĿ £
åºı åĪĹ
åĮħ è£¹
èĺ ĳ
äºĭ çī©
åı¯ä»¥ ç¼ĵè§£
æĬĹ åĩĿ
åŁºåĽł ç»Ħ
åĲ ¡
æĬĹ çľŁèıĮ
5 5
åĬł å¤§
è°¨ æħİ
è¡ į
æľī å¥½å¤Ħ
å¤ļ æĻ®
åĴ¯ è¡Ģ
I C
æµ ĳ
åŃĲå®« æģ¯èĤī
å®«é¢Ī çļĦ
æĽ´ é«ĺ
éĺ¿ ç±³
èĮ¯ èĭĵ
2 6
å¥³æĢ§ åĩºçİ°
åīį çļĦ
çĺ ¾
è¶Ĭ é«ĺ
ç´§ èº«
åĩºçİ° å¼Ĥå¸¸
æĿ¾ è§£
æĶ» åĩ»
çļĦ å¢ŀåĬł
åĮ»çĸĹ æľºæŀĦ
èħº ç®¡
æģ¶ æĢ§çļĦ
è¿Ľä¸ĢæŃ¥ æ£ĢæŁ¥
2 3
åİŁ æĸĻ
èĤĮ éħĲ
å¤ª å¤§çļĦ
ä»£è°¢ ç´Ĭä¹±
è´Ł è´£
å¯¹ å¥³æĢ§
å¤ĩ åŃķ
åĴĮ éĿŀ
éģĹ ç²¾
å¯¹ç§° æĢ§
å¯¹ æŃ¤
é«ĺ çĥ§
å¤±çľł å¤ļæ¢¦
åıĺ ç¡¬
ä¾Ľè¡Ģ ä¸įè¶³
äº§ ç§ĳ
å°¿ è¡Ģ
çļĦ è¡Ģç®¡
åı¯ åĳĪ
åĩł å¹´
ç¿ ¼
ç´§ æĢ¥
æĥħç»ª æ¿ĢåĬ¨
å¤ļ é£ŁçĶ¨
éģ¿åħį åĩºçİ°
çŁ³ èĨı
å¤§å°ı çļĦ
æĺ¯ æħ¢æĢ§
ä¸į éĽĨä¸Ń
åĪĨ æķ£
å®¢ è§Ĥ
æĢ¥ åī§
éĻį æ¸©
å®¹æĺĵ å¤įåıĳ
ç²¾ç¥ŀ åĪºæ¿Ģ
å¤ļæĻ® åĭĴ
P T
å¸¸ åĩºçİ°
ä¸Ĭ éĥ¨
æħİ éĩį
è¡Ģ èį¯
å¿ĥ åĨħèĨľ
åĵ ¦
è¾ĥ å°ĳè§ģ
éª ĳ
éĿ¢ ç¥ŀç»ı
çĽ¸å½ĵ äºİ
çļĦ å¿ĥæĢģ
æĬĵ æĮł
æ¯įå©´ ä¼łæĴŃ
å¤ļ åĽł
å±Ģéĥ¨ çļ®èĤ¤
åħĭ éļĨ
å»ºè®® æĤ¨
å¹¶ ä¸įèĥ½
æį £
éª¨ èĨľ
ä½Ĩ åħ¶
æ¯ķ ç«Ł
åºĶ ä»¥
ä¿Ŀ æ¹¿
åĵģ ç§į
èĤ ±
å½© èī²
çĶŁ çļĦ
Ġ 1
å¹´ ä»£
éĻ Ĩ
æĹł ç²¾çĹĩ
çĮª èĤī
æĦī æĤ¦
æ± ī
è§Ĥå¯Ł åĪ°
ä¹Ł ç§°
å°¿ ä¸įå°½
æĹł ä»»ä½ķ
åį±éĻ© æĢ§
ä½Ļ çļĦ
è¿ĩ ä½İ
æĬĹ æ°§åĮĸ
å°½éĩı å°ĳåĲĥ
HPV æĦŁæŁĵ
çĶ¨ æĿ¥
çļ®èĤ¤ ç§ĳ
19 9
å°Ķ èĴĻ
èħ Ń
ç²Ĺ çº¤ç»´
èĦĤæº¢ æĢ§
æĢ§ åĨ·æ·¡
èĤ¿ å¤§çļĦ
çĬ¶æĢģ ä¸ĭ
åĲĥä»Ģä¹Ī æ°´æŀľ
çĸ ½
åĬ ª
ä½¿ æĤ£èĢħ
èĢ³ èģĭ
ä¸įåĲĮ ç¨ĭåº¦
æ¸© æļĸ
åĲĳ å¤ĸ
èĤĮ åĬĽ
çļĦ å½¢æĢģ
ä»»ä½ķ å¹´é¾Ħ
å¾Īå¤§çļĦ å½±åĵį
èĦļ è¶¾
çģĮ èĤł
çĹĩ çŃī
ä¸įè¦ģ çĶ¨
æİ¨ æĭ¿
æĢķ åĨ·
æħ¢æħ¢ çļĦ
åı¯ä»¥ å¯¼èĩ´
è¢« åıĳçİ°
èĪĮ å¤´
è¡Ģ çĺĢ
å®ļ ä¹ī
çĻĮ åīįçĹħåıĺ
åıĬæĹ¶ çļĦæ²»çĸĹ
åĮ»éĻ¢ çļĦ
å²ģ ä»¥åĲİ
ç»ı ç»ľ
åįĬæľĪæĿ¿ æįŁä¼¤
å¸¸ è¡¨çİ°ä¸º
çĶŁèĤ² è¦ģæ±Ĥ
æľīåĵªäºĽ åĳ¢
å¿ĥ è¡°
åı¯ æł¹æį®
ä¸º å¤§å®¶
çŃī çļĦ
çķ¸ èĥİ
D S
èµ· æºĲäºİ
åĽĽ åĳ¨
ç£º èĥº
èĢħ æħİçĶ¨
éª¨ è½¬ç§»
ä¸ī å¤©
é»ĳ ä¾¿
æīĢ éĢłæĪĲçļĦ
å¾® å¾ªçİ¯
é£Ł çĽĲ
èĥĥ åĨħ
èĦĳ ç¥ŀç»ı
åħī æ³½
é¢ħåĨħ åİĭå¢ŀé«ĺ
çĬ ¬
æ°Ķ æ»ŀ
è½¬ åıĺä¸º
éķ¿æľŁ ä½¿çĶ¨
èĽĭçĻ½è´¨ åĴĮ
åħ¶ä¸Ń ä»¥
åĮ¹ æŀĹ
çļĦ åŁºæľ¬
en t
èĦĳ çĶµåĽ¾
æ¯Ķè¾ĥ å¤§çļĦ
ä»Ĭ å¤©
çļ®èĤ¤ åĴĮ
èį· å°ĶèĴĻ
äº¤ éĢļ
çģ¼ çĹĽ
é¥± èĥĢ
4 9
èĬĤ å¥ı
èĥ¸èħĶ ç§¯æ¶²
éĿŀå¸¸ å¤§
åį±å®³ æĢ§
ç½ĳ çĬ¶
çº¤ç»´ ç»Ħç»ĩ
åĮħçļ® åŀ¢
èĥĥéħ¸ è¿ĩå¤ļ
äºĮ æĺ¯
å¥³æĢ§ æĤ£èĢħ
å³ ¡
åĵŃ éĹ¹
æ¹¿ åº¦
æŁĵèī²ä½ĵ å¼Ĥå¸¸
è¦ģ çľĭ
èĦ ĺ
åį³ ä¸º
åĽłæŃ¤ åľ¨
å¿Į åı£
è·ĳ æŃ¥
ç» Ģ
æĹ¥ æľ¬
ç¬¬ ä¸Ģä¸ª
ä¼łæŁĵ æĢ§çļĦ
è¡Ģåİĭ ä¸ĭéĻį
ç»Ĵæ¯Ľ èĨľ
èĤĽéĹ¨ çĽ´èĤł
åı¯ æĺ¯
å¢ŀåĬł äºĨ
äº¤ å¾Ģ
åĮ» åĬ¡
è¡Ģæ¸ħ ä¸Ń
åĴĮ èĥĥ
æľī ä¸¤ç§į
æŁ ļ
æīĭæľ¯ æĸ¹å¼ı
å¤§ çĸ±
ä»Ģä¹Ī çĹĩçĬ¶
æ¶ĪåĮĸ åĲ¸æĶ¶
åĲ ¯
çŃī åĪºæ¿ĢæĢ§é£Łçī©
åīį èĩĤ
éĤ£ æł·
æĹ¥å¸¸ æĬ¤çĲĨ
æĦŁæŁĵ æĹ¶
æ»ŀ çķĻ
éļıçĿĢ å¹´é¾ĦçļĦ
èĥ½ åĲ¦
é» ĺ
ä¼ļ åĪºæ¿Ģ
âĳ ¢
æĺ¯ çĶ·æĢ§
é³ŀ çĬ¶
ä½İ çĽĲ
çļĦ æĢ§çĶŁæ´»
åı¯ æĮģç»Ń
è¾ĥ å¼º
å¢ŀ ç²Ĺ
åĮ»çĶŁ ä¼ļ
å¤ļ æ³¨æĦıä¼ĳæģ¯
åĳ¼ æ°Ķ
å½»åºķ æ²»æĦĪ
è¯¯è¯Ĭ ä¸º
æĤ£èĢħ éľĢè¦ģ
éĽ ¨
çĵľ æŀľ
åľ¨ å®¶
è¡¥åħħ èĲ¥åħ»
æĿ¥æºĲ äºİ
åĪ°åĮ»éĻ¢ å°±è¯Ĭ
å½±åĥı åŃ¦
å¡ ĳ
Ġ C
ä¸ĢäºĽ èį¯çī©
æī ¶
æĸ°é²ľ èĶ¬èıľ
æĦŁæŁĵ æĢ§çĸ¾çĹħ
ä¼ł éĢĴ
è¿Ļ æĺ¯çĶ±äºİ
ç³ĸ ç±»
åĪĩ åĭ¿
Ġ I
ä¸į å½»åºķ
ä¸ºä¸» çļĦ
èĩªä¸» ç¥ŀç»ı
çĸ Ł
æŃ£ ä¸Ń
åħ¨ çĲĥ
èıľ èĬ±
èĢĮ éĢłæĪĲ
éĨĭ éħ¸
çļĦ çĹħçĹĩ
ç½ĳ ç»ľ
èĭĶ èĹĵ
æ·ĭå·´ çĻĮ
æĺĵ æĢĴ
å¾Īå¤ļäºº éĥ½
ä¹Ł å¾Ī
æµĵ ç¼©
çĹħæĥħçļĦ åıĳå±ķ
è¦ģ æľī
çĶ¨ èį¯çī©
æ± ĩ
æĢĢåŃķ äºĨ
èľ ķ
åı¯ä»¥ æł¹æį®
ä¹³ çĻ½èī²
æ©ĺ åŃĲ
å°± èĥ½å¤Ł
ä¸ĢèĪ¬ éľĢè¦ģ
æ·± åħ¥
è¿ĩ å¿«
èħ¿ éĥ¨
èµ· çĿĢ
æĬĹ æĬĳéĥģ
å½±åĵį äºĨ
çĶŁçĲĨ æĢ§çļĦ
å¯¹ è±¡
å¾®åĪĽ æīĭæľ¯
å¯¹ åħ¶
å¹¶ æĹł
åģļ æ³ķ
åīįåĪĹèħº åĽĬèĤ¿
åĲ¬ åĪ°
H L
ä½İ èĦĤèĤª
éĴĻ è´¨
é¥ ¼
è¿ĩåº¦ ç´§å¼ł
åİ» æŃ£è§ĦåĮ»éĻ¢
å°¿éģĵ æĦŁæŁĵ
ä¼¸ çĽ´
å¤ĸ çĶ¨èį¯
èĲ¥åħ» ä¸°å¯Į
åı¯ä»¥ åħĪ
å¿ĥ èıľ
å°± æľīåı¯èĥ½
çĶ²çĬ¶èħº æľºèĥ½
æ¢ Ń
æĹ¶ åĩºçİ°
çĿ «
å®¹æĺĵ è¢«
å·¨ ç»Ĩèĥŀ
çĬ¶ çļĦ
æĪĸ èį¯
åı¯ä»¥ å¤ļåĲĥä¸ĢäºĽ
åħįçĸ« æĢ§
çļĦåİŁåĽł æĺ¯
é²ľ çº¢èī²
a g
i r
åĪĩ çīĩ
æľĢ ä½İ
èĦ¾ èĦı
æĸĳ çīĩ
åı¦ ä¸Ģç§į
o t
çŃī çĹĩ
å°± ä¸įä¼ļ
æĲ ĵ
åĻ¨è´¨æĢ§ çĹħåıĺ
å¼ Ħ
é¡¹ æ£ĢæŁ¥
æģ ĭ
è¯Ĭ çĸĹ
æĤ£çĹħ çİĩ
å¼Ĥçī© æĦŁ
åħįçĸ« ç¼ºéĻ·
æļ ĳ
é¢ħ éª¨
çĶ²çĬ¶ æĹģèħº
ä»ħ ä»ħ
åİī å®³
ç»´ æĬ¤
èº« æĿĲ
åĬł æ°´
åį¡ åĽł
éĩı å¤ļ
å®«é¢Ī çĤİçļĦ
æĶ¯ æĴĳ
è¦ģ åģļ
è¡Ģ éĴĻ
åī§çĥĪ çĸ¼çĹĽ
æĸĩ çĮ®
19 8
è¦ģ åģļå¥½
åĪĨ æµģ
æĺ¯åĲ¦ åŃĺåľ¨
M P
åıĳ éŁ³
çĽ´ ç«ĭ
å°½éĩı åĩıå°ĳ
è¡Ģèį¯ æµĵåº¦
æĬĹçĹħ èĥ½åĬĽ
å¾Ĺ ä»¥
è½¬ è¿Ĳ
ç¿» èº«
æį¢ èį¯
åľ¨ è¿Ļä¸ª
å¼ºçĥĪ çļĦ
L D
éŁ³ ä¹Ĳ
ä¸»è¦ģæĺ¯ éĢļè¿ĩ
çĻ£ èıĮ
ç²¾ç¥ŀåĪĨè£Ĥ çĹĩ
åľ¨æ²»çĸĹ æľŁéĹ´
æĶ¾æĿ¾ å¿ĥæĥħ
ä¿ĿæĮģå¿ĥæĥħ èĪĴçķħ
äº§çĶŁ äºĨ
éļı åĲİ
åı¯ä»¥ èµ·åĪ°
å¹³ çīĩ
ä»Ģä¹Ī æĺ¯
èĦĬé«ĵ çĤİ
æīĢ åľ¨
å¸¸è§ģçļĦ æľī
è¡Ģ éĴ¾
åıĺ å¤§
èĦĳ æ°´èĤ¿
çĽ¸åħ³ æ£ĢæŁ¥
å¯¼èĩ´ äºĨ
è¡Ģç®¡ çļĦ
ä¸»è¦ģæĺ¯ çĶ±
è¯ķ çº¸
èħĭ ä¸ĭ
éħĮ æĥħ
åĪºæ¿Ģ æĢ§çļĦ
éĺ´èĮİ å¤´
çĸ£ ä½ĵ
åľŁ å£¤
æĹł åħ³
æ± Ģ
æĢĢåŃķ åĪĿæľŁ
ä¹ĻèĤĿçĹħæ¯Ĵ æĲºå¸¦èĢħ
çķª èĮĦ
æ¯Ķè¾ĥ éķ¿
ç»Ī æľ«
æ²»çĸĹ æĹ¶
u c
åı ®
äº «
ç²ĺèĨľ ä¸ĭ
åİ»åĮ»éĻ¢ è¿Ľè¡Į
ä¸įåı¯ éĢĨ
èĥ½ ä¿ĥè¿Ľ
æĺİç¡® çĹħåĽł
a tion
æĪĲ åĳĺ
å®«èħĶ ç²ĺè¿ŀ
è¿ĺ åİŁ
åĭ¤æį¢ åĨħè£¤
ç¡®è¯Ĭ ä¸º
åł ķ
ä¸Ģå®ļç¨ĭåº¦ ä¸Ĭ
åĩºè¡Ģ æĢ§
åŃķ å¦Īå¦Ī
åħ¶ ä¸»è¦ģ
ç»Ĩèĥŀ å¤ĸ
éĴĪå¯¹ æĢ§çļĦ
ä»¥æ¸ħæ·¡ ä¸ºä¸»
é« Į
éķ¿ åľ¨
æĺ¯éĿŀå¸¸ éĩįè¦ģçļĦ
æĢ§èĦĳ èĨľçĤİ
ï¼ļ âĢľ
éĿ¢ å®¹
ä¸ī åıī
æĽ´åĬł ä¸¥éĩį
æľº çĲĨ
è® ¨
çĥ¦ æģ¼
å·¨ å¤§çļĦ
ä¸º æŃ¤
å¤§ é¼ł
èįī èİĵ
ä¸į æİĴåįµ
é¥®é£Ł ç»ĵæŀĦ
å¤´ æĺı
æ°Ķ èĻļ
æŀģ å°ĳ
æľĢå¸¸è§ģçļĦ æĺ¯
ä½ĵ éªĮ
èį¯ çļĦ
åİŁ èĻ«
çĶ¨äºİ æ²»çĸĹ
èĤ¾ä¸Ĭèħº çļ®è´¨
çĥ« æ´Ĺ
çļĦ è¡Ģæ¶²
éļ¾ åıĹ
åħįçĸ« æĬĳåĪ¶åīĤ
çļĦä¸Ģç§į çĸ¾çĹħ
èĺĳ èıĩ
å¹¶ä¸Ķ åľ¨
çļĦ çĹħçĲĨ
æ¶ ¤
åºĶ è¿Ľè¡Į
ç³ ķ
èį¯çī© çĽ¸
åĺ Į
å¤ļ å°¿
å¼ķ å¯¼
èĤĽéĹ¨ çĺĻçĹĴ
å¥³æĢ§æľĭåıĭ ä»¬
æīĭæľ¯ æĸ¹æ³ķ
æıĲ åįĩ
é² ģ
ä¹ĻçĬ¶ ç»ĵèĤł
A g
åĲİ éĩį
ä¸Ń èĢģå¹´
æłĩ è®°
H S
P D
é¥®é£Ł å®ľ
éģĹ å°¿
æ¸Ĳ æ¸Ĳ
æĸ½ è¡Į
Ġ f
å¿ Ļ
éĺ´éģĵ çļĦ
èĢ³ æľµ
çĸ¾çĹħ çļĦæ²»çĸĹ
æľī è¿ĩ
çļĦ ä¸¥éĩį
åĴĮ çĸ¼çĹĽ
ä¸ī é¤Ĳ
ç¥ŀ å¿Ĺ
æŀģ å¤§
è¿ĩ æ°§åĮĸ
éĶ Ģ
çļĦ æįŁå®³
1 20
æ°´ åĴĮ
å¾Ī æľīåı¯èĥ½
è§£ çŃĶ
çĹĶ æł¸
æ¼± åı£
ä¸»åĬ¨èĦī çĵ£
å°ı ç¼ĸ
åıĳçĹħ çļĦ
åĬŁèĥ½ äº¢è¿Ľ
åħ± çĶ¨
ä»° åį§
èĥİ å¿ĥ
éĶĻ è¿ĩ
åĨħ åı£
æĹł æİĴåįµ
åŁºåĽł çªģåıĺ
åĴĮ å¿ĥçĲĨ
æģ Ĵ
å¹³ éĿ¢
å¤ļåĲĥ èĶ¬èıľ
éª¨ çĻĮ
æ²»çĸĹ åİŁåĪĻ
åŀĭ é¢Īæ¤İçĹħ
å¹³ åį§
çĿ¾ä¸¸ éŀĺèĨľç§¯æ¶²
åĽ¾ åĥı
åı¯ä»¥ è¾¾åĪ°
çĽ¸ è¿ŀ
åº ľ
ä»ĭ å¯¼
å¤ļåĲĥ èĶ¬èıľæ°´æŀľ
çļĦ éĢŁåº¦
åħ´å¥ĭ æĢ§
ä»¥ä¸ĭåĩł ç§į
åı¯ä»¥ æľįçĶ¨
åĪ¶ æĪĲ
ç¬¬ äºĶ
çļĦæĳĦåħ¥ éĩı
çĶ²çĬ¶èħºåĬŁèĥ½ ä½İä¸ĭ
ç¡¬ èĨľ
ä¸ª æĸ¹éĿ¢
æ¯Ķè¾ĥ æĺİæĺ¾
é¦ĸ åıĳ
ä¸į æŃ¢
èĥ½ æ²»å¥½åĲĹ
éĩį å»º
ä¸ī åįģ
å¢ŀçĶŁ æĢ§
çŃī æ£ĢæŁ¥
åĩĿè¡Ģ éħ¶
åĲį ç§°
åĩı éĩı
è¸Ŀ åħ³èĬĤ
æľī å¤ļç§į
æĪĳä»¬ å°±
æ³¨å°Ħ çĶ¨
æĵ¦ æĭŃ
çģ° è´¨
å¤ļ åĳĪ
åħ» èĥĥ
æ¯Ķè¾ĥ å®¹æĺĵ
ä»£è°¢ äº§çī©
é«ĺåį± åŀĭ
) ;
ä¸¥éĩį çļĦæĤ£èĢħ
å¤ª è¿ĩ
æ³ ¼
èĩª éĻĲ
å¤ļåĬ¨ çĹĩ
æµģè¡Į æĢ§
æĹłæĺİæĺ¾ çĹĩçĬ¶
èĦĳ å¤ĸä¼¤
æĺĵ æĤ£
åĩĿ åĽº
ç´« èī²
äºº åľ¨
è¾ĵ åħ¥
ç½ ª
åįĴ ä¸Ń
åŃķ æĹ©æľŁ
çĸ¼çĹĽ çŃī
åŁºåĽł çļĦ
çĻĶ çĹĩ
éħ ·
æ²ī æ·Ģ
æĸĩ ç«ł
åıĳ éħµ
çĤİ åĴĮ
çŃī èį¯çī©
åĩºçİ° éĹ®é¢ĺ
å°±æĺ¯ å¯¹
è¡¥ ä½ĵ
æİ§åĪ¶ çĹħæĥħ
åĪĻ éľĢè¦ģ
äºĮ æ¬¡
æĹłçĹĽ æĢ§
æĪĲåĬŁ çİĩ
ç³ĸ åİŁ
éħµ æ¯į
ç»Ħç»ĩ ä¸Ń
æµ· äº§åĵģ
éĥ½ æ²¡æľī
çģ ¯
çĺĢ è¡Ģ
èį¯çī©çĽ¸ ä½ľçĶ¨
çĤ¹ æ»´
èĦ¾ èĻļ
éĺ¿ åı¸
æľīä»¥ä¸ĭåĩł ç§į
åıĺ å°ı
é¡¶ ç«¯
éĥ½ åºĶè¯¥
èĤĮ çļĦ
è½¬ æį¢
ä¹³ ç´ł
çĮ Ŀ
æĪĲ å½¢
æ¿Ģ éħ¶
åĿļ æŀľ
åĳĬ è¯ī
åłķ èĥİ
å¹´é¾Ħ å¢ŀéķ¿
èĥ½ å¼ķèµ·
åħ·æľī ä¼łæŁĵæĢ§
æ·¡ çº¢èī²
éķľ æ£Ģ
å¹ħ åº¦
3 2
ä¹Ł åºĶ
éķ¿ çº¦
èĦĳ èĤ¿çĺ¤
åĽ½ å¤ĸ
å¥ ¥
åĨħ æ³¨å°Ħ
å¤ļ äºĨ
éĩĮ æĢ¥
å°ļ æľī
å¹² ç»Ĩèĥŀ
ç§¯ ç´¯
çī ¡
åĴĮ ç¥ŀç»ı
åĪĨä¸º æĢ¥æĢ§
æľīæīĢ äºĨè§£äºĨ
éĹ´ æĸŃ
è¿Ļ å°±
æĮĩ å¾ģ
éķ¿ åĩº
çļĦæ²»çĸĹ æİªæĸ½
äº¤åıī æĦŁæŁĵ
ä¹ĭ åĵģ
åĪĻ ä¸º
ä¼¸ å±ķ
éĽ¶ é£Ł
æĺ¯ æĪĳä»¬
çĤİçļĦ åıĳçĶŁ
ä¿ĿæĮģ ä¹Ĳè§Ĥ
æ¸Ĺåĩº çī©
å®ī ç¥ŀ
åĪĨå¨© åĲİ
ç»ĵ å©ļ
æ¢ ģ
ä¹łæĥ¯ æĢ§
èĦĬæŁ±ä¾§ å¼¯
ä½¿ ä¹ĭ
æĬĹ ç»Ħèĥº
é»Ħçĸ ¸åŀĭ
å·¨åĻ¬ ç»Ĩèĥŀ
æŁ¥ ä½ĵ
åīįåĪĹèħº ç´ł
çķ¸èĥİ çĺ¤
æľ¨ çĵľ
çĹħæŃ» çİĩ
ä¼ļ å¼ķåıĳ
çĹĩçĬ¶ æĹ¶
çĶµ è§Ĩ
èĩªèº«åħįçĸ« æĢ§çĸ¾çĹħ
èĤ¾ è¡°ç«Ń
ä¸įä»ħ ä»ħ
è¿ĩäºİ æĭħå¿ĥ
æĤ² è§Ĥ
åıįå¤į çļĦ
å¤ĸ æķ·
å°±ä¼ļ æľī
æ´» åĮĸ
çĽ¸ ç»ĵåĲĪ
æīĭ èħķ
çĪ ¬
ä¹Ł ä¸įåĲĮ
æ¡Ĥ åľĨ
æ°´ æĿ¨
ä¸į æ²»çĸĹ
æ¹ ĸ
åıĳçĹħ åĲİ
åĲĦ ç±»
ä¸ĢæĹ¦ åıĳçĶŁ
ä¸ĭ æ®µ
å¤ĸ èĢ³éģĵ
æ°Ķ èĤ¿
è¢ ľ
åľ¨ åºĬä¸Ĭ
éģĹä¼ł çĹħ
é»ĳ ç´ł
åĲ¸ å¼ķ
åĽłç´ł å¼ķèµ·çļĦ
è¾ĵåįµç®¡ ç²ĺè¿ŀ
æĢ§ æįŁä¼¤
ä¸Ńæ¯Ĵ çĹĩçĬ¶
æ³¨æĦı ä¿Ŀæļĸ
èĶ Ĺ
çļĦ çĹħ
éĢļéĢı æĢ§
ä¸ĭ ç«¯
æ¿Ģç´ł åĪĨæ³Į
åİĮé£Ł çĹĩ
éĩĮæĢ¥ åĲİéĩį
åĲĦç§į åĲĦ
åĴĮ ç»§åıĳæĢ§
åĬł çĶ¨
éĿ¢ æĿ¡
è¡¥ æ¶²
çŃī å¾ħ
èĤł çĻĮ
d i
æĢ¥æĢ§ èĤłèĥĥçĤİ
æ²»çĸĹ çļĦæĸ¹æ³ķ
åı¯èĥ½ åľ¨
éª¨ çļĦ
å¤± ä»£åģ¿
èĬ± åºı
å©´åĦ¿ çļĦ
ä»¥åħį å¼ķèµ·
çĹħçĲĨ æĢ§çļĦ
æĢ§ èį¨éº»çĸ¹
çĶ¨ çĥŃæ°´
éģ ®
å¹³æĹ¶ åºĶè¯¥
åįı åĲĮ
æ°´ ä¸Ń
ä½Ĩ æĹł
æŀģ å°ĳæķ°
æµĨ èĨľ
âħ ¡
èĤĮ èĲİç¼©
åİŁ æĿ¥
çģ¼çĥŃ æĦŁ
æĪĲ åĥı
å¤± è¡Ģ
å¿ħ çĦ¶
åĺĮ åĳ¤
æľ Ĺ
èĤĿ åĬŁ
æľīåĵªäºĽ çĹĩçĬ¶
éĿŀ æīĭæľ¯æ²»çĸĹ
æ¶¦ æ»ĳ
ä¹ĻèĤĿè¡¨éĿ¢ æĬĹåİŁ
çļĦ è°ĥèĬĤ
çĶŁ çĹħ
åī Ĭ
åı¯ ä¿ĥè¿Ľ
éĹ´ æľŁ
åĪĩ æľ¯
åĬª åĬĽ
Ġ g
ä¸ī æ¬¡
ç»Ĩ å°ı
è§¦ è¯Ĭ
çĻ« çĸ¯
åĮ» æĤ£
è¶Ĭ å¤ļ
åħįçĸ«åĬĽ ä½İä¸ĭ
æĻº èĥ½
èµ· å±ħ
çļĦ åĲĦç§į
çĶ· åŃĲ
è¡Ģç®¡ åĨħ
æĺ¯ä»Ģä¹ĪåİŁåĽł å¼ķèµ·çļĦ
å£ģ çļĦ
æĪĸèį¯ å¸Ī
èĤĿåĬŁèĥ½ å¼Ĥå¸¸
åľ¨ åĩºçİ°
ä¸į å¹²åĩĢ
åĲĥ ä¸ľè¥¿
æģ¢å¤į åĪ°
ä¸İ äºº
åı¦ ä¸Ģä¸ª
åĨħ åĲ«
éĽĦ æĢ§æ¿Ģç´ł
æ¯ıä¸ª äººçļĦ
ä½¿çĶ¨ æĬĹçĶŁç´ł
åĴ¨è¯¢ åĮ»å¸Ī
èĬ±æĸĳ çĻ£
çĶŁ æ°Ķ
åĹ ħ
å°ļ ä¸į
å¤ĸç§ĳ æīĭæľ¯
ç§ĭ åŃ£
æ·¡ æ¼ł
èĤ© åĳ¨çĤİ
åħ Ķ
å°ı åīĤéĩı
è¡Ģ è¡Į
éĺ¿åı¸ åĮ¹æŀĹ
èį¯ æ²»çĸĹ
è¾ĥ çŁŃ
éķ¿ çĹĺ
æ£ĢæŁ¥ æĸ¹æ³ķ
æ¢ ¯
åİŁ å§ĭ
çĳ Ł
æģ ©
N a
åı¯ä»¥ æľīæķĪ
é»ĦèĬ ª
d ro
æŀ ļ
è¿ĺ ä¼´æľī
æ³¨æĦı åį«çĶŁ
ç»Ĩèĥŀ æµ¸æ¶¦
å¾® å°ı
æ¶ĪåĮĸéģĵ çĹĩçĬ¶
ä» Ļ
åľ¨ å¦Ĭå¨ł
å¢ŀå¤ļ çĹĩ
åı¯è§ģ åĪ°
å° ¸
åİ» æ²»çĸĹ
æ¬¡æķ° å¢ŀå¤ļ
æĪĲ ä»½
æ¡ Ķ
æģ¶ èĩŃ
åįĬ èº«
çļĦ åĮºåĪ«
äº§ è¤¥
æİĴ æ°Ķ
åĩºè¡Ģ åĴĮ
éļ¾ æ²»
åħ³èĬĤ çĸ¼çĹĽ
as e
è®°å¿ĨåĬĽ åĩıéĢĢ
æĮ ½
ä¸İ åħ¶
æĪĴçĥŁ æĪĴéħĴ
å¤ļå·´ èĥº
æĤ£åĦ¿ çļĦ
åĬł åĩı
çļĦåİŁåĽł ä¹ĭä¸Ģ
çļĦ æĢ§è´¨
åºķ éĥ¨
åīĤéĩı ä¸º
/ (
åı¯ éĢīçĶ¨
å¹¿æ³Ľ çļĦ
ç° ĩ
æķ° å°ıæĹ¶
ä¼¤åı£ æĦĪåĲĪ
æĺĵæ¶ĪåĮĸ çļĦé£Łçī©
æ¤İ éĹ´çĽĺçªģåĩº
çĹĩ åĢĻ
y s
è¯´ æĺ¯
ä¹ĻèĤĿ äºĶé¡¹
ä¸į æĦ¿
åľ¨ è¿Ļ
å¿ĥçĲĨ éļľç¢į
éĺµ æĮĽ
æľĪç»ı è¿ĩå¤ļ
çº¿ ç²Ĵä½ĵ
æľª ç»ı
åļ ı
ä¸Ģ è¿ĩ
ä¹Łåı¯ä»¥ éĢļè¿ĩ
ä¹Ł èĥ½å¤Ł
æ¶¦ èĤł
å¤ļ è¡¨çİ°ä¸º
éĩı å¢ŀåĬł
èĬ į
æīĭæľ¯ ä»¥åĲİ
åŃĺåľ¨ çĿĢ
ä»Ģä¹Ī ç§ĳ
ä¸ĭ çĸ³
æ£ Ĵ
å¤ļå½¢ æĢ§
ä½ł åı¯ä»¥
ä¸Ń èįīèį¯
è¿ĻäºĽ çĸ¾çĹħ
ä¸į å¿ħè¦ģçļĦ
èĤ¾ä¸Ĭèħº çļ®è´¨æ¿Ģç´ł
4 2
çī Ī
åı¯èĥ½æĺ¯ åĽłä¸º
åı£èħĶ çĻĮ
æĿı ä»ģ
ä» ¿
åĨħ éļľ
ç¥ŀç»ı æĢ§çļ®çĤİ
çĽ¸ä¿¡å¤§å®¶ å¯¹
ä¸ŃèĢ³ çĤİ
æ¿Ģ åıĳ
éĺ»å¡ŀ æĢ§
o x
æĶ¾å°Ħ çº¿
el l
å¦Ĥ ä»Ĭ
ç» ·
ç¢ Ĺ
çİ¯å¢ĥ ä¸Ń
çī©çĲĨ çĸĹæ³ķ
æļĹ ç¤º
å¤ļ æ¯Ľ
æ»ĭ éĺ´
è®² ç©¶
ï¼ļ ï¼Ī
é¸ Ł
ä»¤ äºº
é«ĺèĦĤ è¡ĢçĹĩ
çļĦ å¤§
è¦ģ åľ¨
éķ¿æľŁ åĪºæ¿Ģ
æİ Ī
èľ ¡
çļĦ çĶ·æĢ§
æĹ¶ çĸ¼çĹĽ
å¤ĸ åĩº
æĪĳä»¬ åı¯ä»¥
æ·¡ é»Ħèī²
çĥ¦èºģ ä¸įå®ī
è¿¹ è±¡
éļı ä¾¿
çľĭ ä¸Ģä¸ĭ
åı¯ çĽ´æİ¥
ä¸į å»ºè®®
åĲĪçĲĨ é¥®é£Ł
åĸ· åļı
æĪĸ åĩºçİ°
æĹ© èµ·
æ°´æĿ¨ éħ¸
æķ ¢
éĥ½ä¼ļ å¼ķèµ·
å¼ §
åı¯ æĢķ
å°¤ ä»¥
00 0
æĭĸ å»¶
è¿ĩ çļĦ
çĿ¡çľł æĹ¶éĹ´
å®Įåħ¨ æĢ§
ä¸į é«ĺ
çŃī åľ°
æħ¢æĢ§ çļĦ
ç½ ©
è½¬ç§» æĢ§
èĥ Ľ
I L
ç¼ĸ çłģ
ç§ģ å¤Ħ
åı¯ åĩıå°ĳ
æķ Ľ
èĥĥ éķľ
è®¸å¤ļ äºº
ä¼¦ çĲĨ
äº ¬
åı¯ä»¥ æľīæķĪçļĦ
çļ®è´¨ ç±»åĽºéĨĩ
èİ² åŃĲ
çĻ½èī² å¿µçıłèıĮ
çĹīæĮĽ æĢ§
ç³ĸ åĪĨ
çľ¼ çľ¶
Ġ b
çĻ½ åĨħéļľ
ä¹ĻåŀĭèĤĿçĤİ çĹħæ¯Ĵ
çĶ²çĬ¶èħºåĬŁèĥ½äº¢è¿Ľ çĹĩ
åı¯ä»¥ åı£æľį
ä¸Ģ æĿ¡
ä¸»è¦ģ å°±æĺ¯
çĸ¼çĹĽ çļĦçĹĩçĬ¶
èĲ¥åħ» ç´ł
äºļ åŀĭ
èħ¹èħĶéķľ æīĭæľ¯
èĲ¥åħ» åĿĩè¡¡
åĪ¤ å®ļ
H A
çª ¥
çĥ§ å¿ĥ
ä½ĵ è¡¨
åĲ¸ æ°Ķ
æł¹æį® çĹħæĥħ
å°½éĩı çļĦ
è¯ķéªĮ éĺ³æĢ§
èĩªçĶ± åŁº
çĶŁ åĲİ
åĬ¨ éĿĻèĦī
æķ° æĹ¥
è¿Ļä¸ª çĹħ
éĺ Ķ
èĤ© èĥĽ
æĦŁæŁĵ å¼ķèµ·
é¥ ²
ç»Ħç»ĩ çĹħçĲĨ
ç©¿ éĢı
å¤ĸçĶ¨ èį¯çī©
æļĤæĹ¶ æĢ§
è¿ĩæķıèĢħ ç¦ģçĶ¨
Ġ å¦Ĥ
å¸¸ ä¼´
èį Ķ
åĪ° æŃ£è§ĦçļĦåĮ»éĻ¢
æİĴåįµ éļľç¢į
èħ ĵ
çŃī æľīåħ³
å¤ĸ éĿ¢
ä¹³èħº çĻĮçļĦ
æŀľ ç³ĸ
æľīå¾Īå¤ļ ç§į
ä¸į åıĬæĹ¶æ²»çĸĹ
èĥĥ éķľæ£ĢæŁ¥
æ¸ħ éĨĴ
å®ŀ æĢ§
ç¼º éĵģ
èħĲ èļĢ
èĥ« éª¨
åĨħ éķľ
åŃĲ å¥³
ç»Ĩèĥŀ å¢ŀçĶŁ
é»Ħ ç´ł
å®ļæľŁ çļĦ
è¯ĬæĸŃ çļĦ
éĺ¿ç±³ å·´
HC V
ç¥ŀç»ıå®ĺèĥ½ çĹĩ
éĴĪå¯¹æĢ§ çļĦæ²»çĸĹ
åĨħåĪĨæ³Į çĸ¾çĹħ
åħĥ å·¦åı³
ä¾Ŀèµĸ æĢ§
æĤ£èĢħçļĦ èº«ä½ĵ
è¶ħå£° æ³¢
èµ· å§ĭ
åı¯ä»¥ æľī
çļ®èĤ¤ åĩºçİ°
éģ¿åħį é£ŁçĶ¨
éĻĲ äºİ
èĬ Ĵ
å§ Ķ
è¡Ģç³ĸ é«ĺ
è¤ ¶
åıĪ åĲį
æľīæĹ¶ åı¯
èµĺ çĶŁçī©
çī© ä½ĵ
åħ¶ ä¸ŃçļĦ
æīĭ èĩĤ
åĲĮæĹ¶ åŃĺåľ¨
æŃ ª
é²ľ çº¢
åº ĵ
æģ¢å¤į åģ¥åº·
é¥®é£Ł ä¸įå½ĵ
æ½® çĥŃ
ä¿ĿæĬ¤ ä½ľçĶ¨
ä¸į åĬ¨
æĪĸ åĬłéĩį
ä»ĭç»į äºĨ
HPV çĹħæ¯Ĵ
æīĭæľ¯ æĹ¶
å²ģ å·¦åı³
åĬ¨çī© çļĦ
ç»ĵ èĨľçĤİ
çļ®èĤ¤ é»ıèĨľ
è¶Ĭ å¥½
éĢĤåºĶ è¯ģ
åħ³ç³» çļĦ
åĪ¶ éĢł
éĿĴ èıľ
Ġ 7
åħ ¸
åĪĽ éĢł
æ¸ĹéĢı åİĭ
æī ĳ
ä½ĵ å¼±
æ²»çĸĹ æİªæĸ½
éĢłæĪĲ å½±åĵį
çķĮ éĻĲ
æĤ ī
çļĦ åĦ¿ç«¥
è¯ ¾
çī¹ æķĪ
çĮ «
è¿Ļæł· æīįèĥ½å¤Ł
ä¹Ł ä¸įæĺ¯
è½¬ éĺ´
ç¼º å¦Ĥ
éģµ å¾ª
æīĭæľ¯ åīį
åı³ å¿ĥå®¤
æľīäºĽ çĹħäºº
éĩį ä½ĵåĬĽåĬ³åĬ¨
æĽ´ æĺ¯
ç²¾ç¥ŀ çĸ¾çĹħ
åģļå¥½ é¢Ħéĺ²
ä¸į çŁ¥
å¢ŀ å¿«
æħ¢æĢ§ èį¨éº»çĸ¹
å¯¹çĹĩ å¤ĦçĲĨ
ç±»ä¼¼ äºİ
ä¸į ä¹ħ
èĩ´ æŃ»
åİŁåĽł ä¹ĭä¸Ģ
åĪĨæ³Į åĩıå°ĳ
éĩį å¤§
éĻį ç³ĸ
èĵ Ħ
è´£ ä»»
ä¸įä¸Ģæł· çļĦ
çĶ· åŃ©
åĮ»åĬ¡ äººåĳĺ
ç¼ ł
å¹´ çļĦ
åĿĲéª¨ ç¥ŀç»ı
åģı é£Ł
å°ĳæķ° çĹħäºº
ç¾Ĭ çĻ«çĸ¯
ç¼º çĤ¹
éĥ½ åı¯
æ»´èĻ« æĢ§éĺ´éģĵçĤİ
æŁ¥ åĩº
éģ¿åħį æİ¥è§¦
èĪ ŀ
å½¢ æĪĸ
çĻ½å¸¦ åıĳé»Ħ
æĥħç»ª æ³¢åĬ¨
åĬł ä¹ĭ
å¹´ åĨħ
çĽ¸ éĤ»
æ£ĢæŁ¥ ä¸Ģä¸ĭ
æľĢ å¤ļè§ģ
æĥ³ æ³ķ
æ³¨æĦıåĬĽ ä¸įéĽĨä¸Ń
v e
çļĦ æĦĪåĲĪ
èĦ ²
ä¸į éľĢ
çĸ¾çĹħ å¼ķèµ·çļĦ
åĽ Ń
åİŁ ä½į
å¤ļåĬł æ³¨æĦı
æī ª
å¤± æĺİ
èĤ¿çĺ¤ çŃī
çİ¯ ç´ł
æīį æĺ¯
åĨ¬ å¤©
ç»ĨèıĮæĢ§ åīįåĪĹèħºçĤİ
å¥Ī çĳŁ
æĬĹ çĶ²çĬ¶èħº
è¿· èµ°
Ġ in
æ¸ ¡
éĿŀå¸¸ å¤§çļĦ
ä¿Ŀè¯ģ åħħè¶³çļĦçĿ¡çľł
èĤĿ èĥĨ
Ig M
æŀľ å®ŀ
èĤĿ æĢ§èĦĳçĹħ
å®«é¢Ī çĤİçĹĩ
éĿĻèĦī åĽŀæµģ
èĥĥ çĻĮçļĦ
å·² çŁ¥
çļĦä½ľçĶ¨ ä¸ĭ
é¢ľ éĿ¢
ä¸Ģå®ļçļĦ å½±åĵį
åĨħ åľ¨
çħ® æ²¸
i m
èħº åŀĤä½ĵ
ä¸ªæľĪ å·¦åı³
éĺ ħ
å°ĳ çļĦ
æĮ º
éĴĪ å¤´
å¦¨ ç¢į
éĢļè¿ĩä¸Ĭè¿° çļĦä»ĭç»į
åĨħ æºĲæĢ§
ä¹³ çªģ
æ´»åĬ¨ çļĦ
æĢİä¹ĪåĬŀ åĳ¢
ä¸į åĩº
æŃ£å¸¸ çİ°è±¡
åħħåĪĨ çļĦ
o g
åı¯èĥ½ éĢłæĪĲ
èĩª åıĳæĢ§
è¿ĺ èĥ½å¤Ł
ç¾ ½
çĶŁ æ´¥
å¤ļ è¿ĲåĬ¨
åı¯ä»¥ åĩıå°ĳ
éĢļ è·¯
å¯¹äºİ ä¸ĢäºĽ
åī§çĥĪ çļĦ
ä½¿çĶ¨ ä¸ĢäºĽ
çĹħåıĺ éĥ¨ä½į
èħ¹èĨľ åĲİ
è¦ģ ç´ł
ç§ ĥ
èĤĿ çĻĮçļĦ
è¿ĩæķı æºĲ
è¯· åĴ¨è¯¢åĮ»å¸Ī
ä¸» è§Ĥ
åĪ¶ ä½ľ
å¼± ç²¾
çŃī ä¸įèī¯
ä¸»è¦ģ ä»¥
ä¸Ģç§į çĸ¾çĹħ
æ¨ ±
æł¹æľ¬ ä¸Ĭ
æł¹ éĻ¤
åĮº çļĦ
åĢŁ åĬ©
ç»Ļå¤§å®¶ä»ĭç»į ä¸Ģä¸ĭ
a b
ä¸º å¥½
å¤ĸ åľ¨
äº§ ç¨ĭ
æ¸Ĳ è¿Ľ
å¯¹ å¥³æĢ§çļĦ
çķ ´
æŃ£å¸¸ çĶŁæ´»
é½¿ çĬ¶
ä¹ĭ åĪĨ
3 3
æŀľ æ±ģ
èĽĭ é»Ħ
åĨį çĶ¨
è¡Ģåİĭ åįĩé«ĺ
é¼»çª¦ çĤİ
éģ¿åħį åĬ³ç´¯
æİ§åĪ¶ çļĦ
ç² ³
ç»ĵæł¸ çĹħ
çĶŁæ´»åĴĮ å·¥ä½ľ
é»ı ç¨ł
ä¸Ń æľĢå¸¸è§ģçļĦ
æıĴ ç®¡
å¿ĥ èĦĳè¡Ģç®¡
èĽĭçĻ½è´¨ çļĦ
ä¸ªä½ĵ å·®å¼Ĥ
å°ĳ äºİ
èĤº æ°´èĤ¿
å°½éĩı å°ĳ
ç©º æ´ŀ
çļĦ è´¹çĶ¨
éĺ Ł
éĻ Į
ä¸Ĭ é¢Į
å°± å®¹æĺĵ
å¢ŀ å¤§çļĦ
ä¸įè¦ģ æľī
æĢ¥æĢ§ èĤĿçĤİ
Ġ h
è´ Ń
å¤ļæķ° æĤ£èĢħ
æ²Ļ æĺŁ
èĩ³ ä»Ĭ
çŃī å¹¶åıĳçĹĩ
éĹ´ è´¨æĢ§
m ol
åĴĮ ä½ĵå¾ģ
è¯¥ å¦Ĥä½ķ
é¢¤ åĬ¨
ç²³ ç±³
é¥®é£Ł åĴĮ
è¾ĵåįµç®¡ å¦Ĭå¨ł
é»Ħä½ĵ éħ®
çĶĺæ²¹ ä¸ī
H D
åľ¨ åģļ
æ²» å¥½çļĦ
èĥĥ çĤİçļĦ
æ²»çĸĹ ä¸įåıĬæĹ¶
çĸ¼çĹĽ æĪĸ
èĥļèĥİ åıĳèĤ²
åĩº åı£
èĦı èħĳ
åĳ½ åĲį
ç¨³å®ļ æĢ§
åįĬ å°ıæĹ¶
èĮĥ çķ´
ä¹ ĺ
æłĳ ç«ĭ
ä¼ļ è¢«
æ¿Ģç´ł çļĦ
æ¤İ åĬ¨èĦī
èĢģå¹´ çĹ´åĳĨ
åĪ°åĮ»éĻ¢ è¿Ľè¡Įæ£ĢæŁ¥
é¢ĦåĲİ èī¯å¥½
ç»ĵ æĻ¶
æķ° åĢ¼
éĺ² æĻĴ
è¡Ģæ¶² ä¾ĽåºĶ
åľŁ è±Ĩ
æĢ» ä½ĵ
ä¸į æ²»
åĮĸ çĹ°
åıª éľĢè¦ģ
çĶŁ äºİ
æľĢä¸º å¸¸è§ģ
æĹ¶ åĪ»
è¿ľå¤Ħ è½¬ç§»
ä¹Ł åı«
è¾ĥ å¼±
è´® èĹı
ä¸Ģ åĪ°
å¢ŀ å®½
å¥½ èĩªå·±çļĦ
åİŁ æľī
æ²¡æľī çĹĩçĬ¶
éĤ£ å°±
éĿĻ æŃ¢
èŀį åĲĪæĪĲ
æĺ¯ é¢Ħéĺ²
å¾Ī å¼ºçļĦ
æİĴä¾¿ ä¹łæĥ¯
é¥Ń åīį
èħĮ åĪ¶
ä»¥ èĩ³
éĢĤå½ĵçļĦ è¿ĲåĬ¨
éĩĮéĿ¢ çļĦ
æĹ¶éĹ´ å»¶éķ¿
çĹħåĽł æĺ¯ä»Ģä¹Ī
èĤ¡ éª¨å¤´
èİ·å¾Ĺ æĢ§
è¿ĩ éĩį
éĢĲæ¸Ĳ åĬłéĩį
æķ° åĳ¨
ä¾µ èļĢ
ä¸įè§ĦåĪĻ çļĦ
çļ® çĹħ
æº¢ åĩº
å¤ļ éķ¿æĹ¶éĹ´
èĤĿ ç´ł
éª¨ åĪº
ä¸¥ å¯Ĩ
å·© åĽº
ç§¯ èĦĵ
åįģ äºĶ
çļĦ æ¬¡æķ°
æ¸ħæ´ģ å¹²çĩ¥
åĮ»å¸Ī æĮĩå¯¼ä¸ĭ
æµ·ç»µ ä½ĵ
æŁ ĳ
ä¸Ń åıĳçİ°
é¢Ĩ åŁŁ
çĶŁéķ¿ åľ¨
åı¯ä»¥ ä»İ
éĩı åĩıå°ĳ
ä¸ºäºĨ éģ¿åħį
ä¸įéľĢè¦ģ æ²»çĸĹ
æĺ Ĩ
å°Ħ çº¿
åº·å¤į æ²»çĸĹ
å¿ĥè¡Ģç®¡ ç³»ç»Ł
å¿ĥ çĥ¦
èĥļèĥİ åģľèĤ²
éħ¸ç¢± å¹³è¡¡
åı¯ å½¢æĪĲ
åĤ¨ åŃĺ
ä¾¿ æĺ¯
æŃ¢ åĴ³
æ¶ İ
æĸľ è§Ĩ
è¯·åĴ¨è¯¢åĮ»å¸Ī æĪĸèį¯å¸Ī
c t
y n
é»ı è¿ŀ
æ³¡ èĦļ
åĩĿ éĽĨ
ä¸ĢèĪ¬ ä¼ļ
éĻ¤ åİ»
éĶ °
æĢ» çļĦ
éŀ į
ä¹ĭ æīĢä»¥
åĨłçĬ¶ æ²Ł
b è¶ħ
æĿ¥ åĨ³å®ļ
æµģ åħ¥
èĪĮ èĭĶ
åı¯èĥ½ éľĢè¦ģ
èĦ± å¤±
æĢ§ èĤĿç¡¬åĮĸ
çĶ² åĬŁ
çŁ ®
çļĦ åĬŀæ³ķ
åĩ ĭ
åı£ åĶĩ
æ´Ĺ æ¶¤
èĩªçĦ¶ æµģäº§
åı¯ èĩªè¡Į
éĩį çī©
åĬł çĥŃ
çĶ²çĬ¶èħº çļĦ
æľī å¤ļ
æľī åĬ©
åĩł æ¬¡
A C
ä¸į å¦Ĥ
å¯¹ æ²»çĸĹ
èĽ Ķ
è®© å®Ŀå®Ŀ
çģ° èī²
çĽĨèħĶ çĤİçĹĩ
æĺ¾ çĿĢ
çĹħæĥħ æģ¶åĮĸ
æĿ İ
é¾ ĭ
ç¼ĵè§£ çĸ¼çĹĽ
åĨħ å¿ĥ
å¤ļä¹ħ èĥ½
A B
G F
æĢ ª
ä¼ļ æĦŁåĪ°
åıįåºĶ æĢ§
æľī æ°§
åı¯ åıĳçĶŁäºİ
æĸĳ çĸ¹
ç¾İ è§Ĥ
åı¯èĥ½ ä¸º
åĩºè¡Ģ æĪĸ
æ± ½
æİ§åĪ¶ åľ¨
ä¸ĭ èį¯
å¥¶ ç²ī
èĥĨåĽĬ çĤİ
èĬĤ é£Ł
ç»Ļ èĩªå·±
éħį æĸ¹
èĴ ²
è±ĨèħĲ æ¸£
çĹħ æįŁ
ä¼ļ åıĳçİ°
æ²¡æľī æĺİæĺ¾çļĦ
æĪ¿ éĹ´
åĲĪå¹¶ çĹĩ
èļ ķ
æ²» æ³ķ
å¤ļ ä¸İ
å·¥ åħ·
ç©¿ è¿ĩ
èħ¹æ³» çŃī
çª¦ æĢ§
ä½Ĩ æľī
èįĶ æŀĿ
åĲĥ å¾Ĺ
åİĭ æĬĳ
æŀģ åħ¶
æľºä½ĵ æĬµæĬĹåĬĽ
éĢĴ è´¨
æīĢä»¥ å¯¹äºİ
æĪĲçĨŁ çļĦ
æ³ µ
æ°´ çļĦ
æĪ ı
æ³ ī
åı¯ä»¥ åĲĥä¸ĢäºĽ
åĪĻ åºĶ
éĵ ĥ
éľĢè¦ģæ³¨æĦı çļĦæĺ¯
åħ¶æ¬¡ ä¸º
çĩķ éº¦
èĲ Ŀ
ä»¥åħį éĢłæĪĲ
è¹ Ħ
åĩº äºĨ
é¦ĸåħĪ æĺ¯
è¾ħ ä»¥
çļĦ æľĢ
ä¸Ģ é¡¹
æ°Ķ èĥ¸
è¯ĬæĸŃ æłĩåĩĨ
æĢ¥æĢ§ èĥĥèĤłçĤİ
èĭ¥ æľī
æĺ¾å¾® éķľä¸ĭ
åı¯ éĻįä½İ
æħ¢æĢ§ çĹħ
å°ıèĦĳ èĲİç¼©
èĽĽç½ĳèĨľ ä¸ĭèħĶ
çļĦ èĤĮèĤī
åľ¨ åĮ»çĶŁæĮĩå¯¼ä¸ĭ
å°½å¿« çļĦ
çĶ¾ ä½ĵ
é±¼ èĤī
æ²»çĸĹ æĸ¹å¼ı
éĿĻèĦī ä¸Ľ
ç¼º ç¢ĺ
èĦĤèĤª åĴĮ
å¤ĸéĺ´ éĥ¨
æ¶Ī çģŃ
å¤´ é¢ħ
åıįåºĶ è¿ŁéĴĿ
å¸ĮæľĽ å¯¹
çĹħæĥħ ä¸¥éĩį
æ¯ ģ
ç¡¬ åº¦
æĶ¯ æŀ¶
åºĶçĶ¨ äºİ
å®¶æĹı æĢ§
çĭĹ èĤī
åŃ¦ çĶŁ
çļĦ æľīæķĪ
åĳ¼åĲ¸ ç³»ç»Ł
æĻ¶ çĬ¶ä½ĵ
åĴĮ çļ®èĤ¤
è¥¿ æŀĹ
æ² ¾
è· ¨
èĬ ĭ
æıĲé«ĺ åħįçĸ«åĬĽ
R H
æ²»çĸĹ ä¸Ĭ
èĦĳ ç§¯æ°´
æĽ´ å¤§çļĦ
æ¥ ¼
åľ¨ æĪĳä»¬
è¡Ģ è±¡
é«ĺ ç³ĸ
åĻ »
å¾Īå®¹æĺĵ å¼ķèµ·
éĺ´éģĵ çĤİçļĦ
éħį åģ¶
æĪĬ åŀĭèĤĿçĤİ
ä½Ĩ ä¸įèĥ½
éĿŀå¸¸ éĩįè¦ģçļĦ
æ¼ ĵ
ä¹ĭ å¤Ħ
é»Ħ æĸĳ
æĪĸ åıĮä¾§
æł¸ ç³ĸ
çĽĳ çĿ£
åħ¨èº« ä¸įéĢĤ
ä½ĵéĩį å¢ŀåĬł
ä¸Ńæŀ¢ ç¥ŀç»ı
å¿µçıł èıĮæĢ§
çĶŁæ´» çİ¯å¢ĥ
ç»ıæľŁ å»¶éķ¿
æĺ¯æĮĩ åľ¨
æĬ¤çĲĨ å·¥ä½ľ
Ġ of
åįĬ æµģè´¨
å¤§å¤ļæķ° äºº
çıį çıł
åĵ Į
å¦Ĥæŀľ å¥³æĢ§
å¯ĨåĪĩ è§Ĥå¯Ł
èĤĭ éĹ´
3 4
æ·ĭ æ¼ĵ
èħ° èĥĮ
ä¹ĻèĤĿ æĤ£èĢħ
æĽ´ ä¸¥éĩįçļĦ
ä¸ī åĪĨ
å¤ļ åįĬ
æ¸ į
äº§ æ£Ģ
åĪĿ æ¬¡
a d
åİŁ æ°¨éħ¸
åĩı ç¼ĵ
èī¾ çģ¸
é¥±åĴĮ èĦĤèĤªéħ¸
æĬ «
èħ¹ åĨħ
å¥³ çĶŁ
ä¸ĵ éĹ¨
ä¾µ åıĬ
åĩºçĶŁ æĹ¶
ä¸Ģ ä¸¤
åĲİ æľī
ä¸Ń è¥¿åĮ»
åĺ §
ä¼łç»Ł çļĦ
çŃī å¼ķèµ·
ä¸»è¦ģ åıĳçĶŁåľ¨
ä»Ģä¹Ī åİŁåĽł
çľ¼ åİĭ
æĽ² çº¿
èĤ¥ èĤī
åģļ ä¸ª
ä¿ĥçĶ²çĬ¶èħºæ¿Ģç´ł åģıé«ĺ
åĬŁèĥ½ éĶ»çĤ¼
æ¿Ģåħī æ²»çĸĹ
é¹ ħ
Ġ B
çĽ ¾
å¿ĥ éŁ³
æķ° åįģ
èĲ¥åħ» çļĦ
åĽĽ ç§į
æ®ĭ ä½Ļ
å¥³ æĸ¹
æĳĦåħ¥ éĩı
ä¼ģ ä¸ļ
å¹¶ ä¸įä¼ļ
æŃ¢ æ³»
åĪ© æ¹¿
çĽ®åīį è®¤ä¸º
ç»¿ åı¶
çļ®èĤ¤ çĸ¾çĹħ
éĢĲæ¸Ĳ å¢ŀåĬł
æľī éĻĲ
åĲİ èĥĮ
ä¸ĭ åºĬ
åĿĲ çĿĢ
åĮ»çĶŁçļĦ å»ºè®®
åį· å¿ĥèıľ
è¡Ģ ä¾Ľ
æ¶ĪåĮĸ åĬŁèĥ½
æķıæĦŁ çļĦ
è¦ģæ³¨æĦı ä¼ĳæģ¯
E B
åŃĲ çŃī
æ± ŀ
è®© æĪĳä»¬
ä¸»è¦ģ çĶ¨äºİ
ä¸įéĶĻ çļĦ
ä» ĺ
éĢļè¿ĩ æīĭæľ¯
çľĭ èµ·æĿ¥
ç´§ å¯Ĩ
çĺ¤ ä½ĵ
çĥ§ çĥ¤
å¸¸ åĳĪ
L H
åı¯ å½±åĵį
æĥħ å½¢
æĳĨ èĦ±
çļĦ æ³¨æĦıäºĭé¡¹
åľ¨ å¥³æĢ§
èĦīç»ľ èĨľ
èľĺèĽĽ çĹ£
çº¢ èĸ¯
é»ĳ æľ¨èĢ³
è¡¨éĿ¢ çļĦ
ä¹Łä¼ļ éĢłæĪĲ
ä¸ĭèħ¹ çĸ¼çĹĽ
çĹħçĲĨ åıĺåĮĸ
å¹³ åĴĮ
è¯´ æ³ķ
å®ĥ æĺ¯ä¸Ģç§į
æ¤İç®¡ çĭŃçªĦ
å¯¹çĹĩ ä¸ĭèį¯
ä¸ĢèĪ¬ éĥ½
æĹ© é¤Ĳ
æĶ¾ çĶµ
èĸĦ èį·
é¡½åĽº æĢ§
æĢ§ åĪºæ¿Ģ
åı¯ éĢĨ
ä¸Ģ åįĬ
æ°´ è§£
åĬł åİĭ
æĽ´ æĺİæĺ¾
ä»£è°¢ å¼Ĥå¸¸
åħ¶ ä½Ļ
éķ¿æľŁ å¤Ħäºİ
èº« è¾¹
çĶ± åįĥ
åħĪ è¿Ľ
æľī æĿ¡ä»¶
å¤ĸ å±ķ
æĺĵ å¤įåıĳ
åĬłå¼º éĶ»çĤ¼
åīį å£ģ
åķ ī
å±ħ å¤ļ
åı® åĴ¬
å¤ļ é¥®
çŃī éĹ®é¢ĺ
æĺĵ è¢«
ä¹³èħº å¢ŀçĶŁ
æ¶ ¨
ä¹Łåı¯ä»¥ éĢīæĭ©
åŁİ å¸Ĥ
åı¯ ä½ľä¸º
ç»Ħç»ĩ åĴĮ
ä¹ħ ä¹ĭ
çĤİ çĥŃ
çĿ¾ä¸¸ èĲİç¼©
æīĢä»¥ å¤§å®¶
å®Įåħ¨ æģ¢å¤į
---- ----
ãĢĤ âĢľ
ä¼ļ åĽłä¸º
åĪ¶ åº¦
çº¢ éľīç´ł
æİĴä¾¿ åĽ°éļ¾
æ±¡æŁĵ çļĦ
ç»¼ä¸ĬæīĢè¿° å°±æĺ¯å¯¹
ç®Ģ ä¾¿
éĺ´éģĵåĪĨæ³Įçī© å¢ŀå¤ļ
éĻ¤ éĿŀ
æĺ¾ å¾Ĺ
éĿ¶ åĲĳ
åĪ° çļĦ
å¤ļåĲĥ å¯ĮåĲ«
ï¼Į âĢľ
13 1
éĤ£ä¹Ī å°±
é«ĵ éŀĺ
åĪ©å°¿ åīĤ
åŃķ æĻļæľŁ
è¥ ŀ
æ£ī è´¨
æľī å¯ĨåĪĩ
åŃķ åīį
ç§¯ è¡Ģ
æīĢä»¥ åºĶè¯¥
å¿ĥ èĤº
å¤§ éĿ¢ç§¯
åįķ æł¸ç»Ĩèĥŀ
éĴĪå¯¹ çĹħåĽł
çªģçĦ¶ åĩºçİ°
èĤĮ æ³¨
å¢ŀåĬł èĲ¥åħ»
ä½ĵéĩį ä¸ĭéĻį
ä»¥ è¾¾åĪ°
æĢ¥æĢ§ èĨĢèĥ±çĤİ
å»¶ ä¼¸
å°±ä¼ļ éĢłæĪĲ
ç²¾åŃĲ æ´»åĬĽ
ä¼ Ĭ
ä½ľ ä¸ļ
çĻ½ æ²«
å¹´ çĶŁåŃĺçİĩ
ç¬¬äºĮ å¤©
åĪĨå¸ĥ åľ¨
æľī åİĭçĹĽ
å±Ģéĥ¨ æ²»çĸĹ
æĸĩ åĮĸ
äºī åıĸ
æĿľ ç»Ŀ
% ~
æĹ¥ ä¹ħ
æľº çİĩ
è¡Ģç®¡ å£ģ
ä¸Ļ éħ¸
çļĦ æ£Ģæµĭ
è¿ĺæľī ä¸Ģç§į
å¦Ĥæŀľä¸į åıĬæĹ¶æ²»çĸĹ
è¿ĲåĬ¨ æĢ§
ä»£è°¢ æĢ§
æ³Įå°¿ç³»ç»Ł æĦŁæŁĵ
åĴĮ åĪĨæ³Į
ä¸º å¤ļ
åī¥ èĦ±
ä»ª åĻ¨
åĨħçļ® ç»Ĩèĥŀ
çº¤ç»´ çİ¯
è¡Ģ ç»Ĩèĥŀ
èĩ´ å¯Ĩ
çĤ Ń
ç»ĨèıĮ åĴĮ
ç»Ŀ å¤§éĥ¨åĪĨ
èį¯çī© åĴĮ
åŁ ĭ
ä»¥ æĿ¥
å°ĳéĩı åĩºè¡Ģ
å®ŀéĻħ æĥħåĨµ
æ¯Ľç»Ĩè¡Ģç®¡ æī©å¼ł
è¯¦ç»ĨçļĦ äºĨè§£ä¸Ģä¸ĭåĲ§
äºĮ æ°§åĮĸç¢³
å¤ļåĲĥ åĲ«
æµħè¡¨ æĢ§èĥĥçĤİ
è¾ĥ å¼ºçļĦ
å¾Ī ä¸¥éĩį
ç¼ĺ çĶ±
ä¸įè§ĦåĪĻ åĩºè¡Ģ
æ²»çĸĹ å¥½
è¿ĺ éľĢ
ï¼ī ï¼Ľ
åĿĲ ä½į
å°ļ ä¸įæ¸ħæ¥ļ
éĿł è¿ĳ
å¹½éĹ¨èŀºæĿĨèıĮ æĦŁæŁĵ
ä½ľçĶ¨ ä¸ĭ
Ġ S
åı¯ è§¦åıĬ
ä½İ èĽĭçĻ½
åĵª ä¸ª
æ²»çĸĹ æĹ¶éĹ´
æĺ¯éĿŀå¸¸ å¤§çļĦ
C M
äºº åı£
æĭ Ĩ
èĻ İ
çĸ ĸ
åĮĸ çī©
èĥ¸ æ¤İ
æ¯ĽåĽĬ çļ®èĦĤèħº
æ²»çĸĹçļĦ æķĪæŀľ
èµ·çĹħ æĢ¥
çļĦ è¡Įä¸º
ä¸ī é¡¹
åĪĻ æľī
èħ° çĸ¼
çĻ¾ åĲĪ
çĻ »
ä½İ å¯Ĩåº¦
åģļ ä¸Ģä¸ª
ä¸Ģå®ļè¦ģ åıĬæĹ¶çļĦ
éħ¶ æ´»æĢ§
ä¸į å®ļ
åĮ» æºĲæĢ§
æĥħç»ª ä½İèĲ½
çĸ ¥
æĹ¶ å¸¸
æµģ å¤±
çĽ¸å¯¹ æĿ¥è¯´
åģ¶ çĦ¶
è¡Ģç®¡ æĶ¶ç¼©
èĤĽéĹ¨ åĿłèĥĢ
å¹¿ è°±
æ²¹ èıľ
èĦļ æ°Ķ
è¡Ģæłĵ æĢ§
å¤§ ç±³
åŃķ å¦Ī
ä»ĭ è´¨
ä¸Ģä¸ªæľĪ åĨħ
æ¹¿çĸ¹ çļĦ
éĻĮ çĶŁ
ä»¥ åĩıè½»
æµ¸æ¶¦ æĢ§
æĬĹèıĮ èį¯çī©
åģľèį¯ åĲİ
è¯¸ å¤ļ
æĪĳä»¬ä¸Ģèµ·æĿ¥ è¯¦ç»ĨçļĦäºĨè§£ä¸Ģä¸ĭåĲ§
B ç»Ĩèĥŀ
å¤ĸ æºĲæĢ§
è¾ĵåįµç®¡ çļĦ
èĢģå¹´ æĢ§
å¤«å¦» çĶŁæ´»
è¦ģ çĤ¹
æķ° åĪĨéĴŁ
æĬ½ çŃĭ
å¼ĵ å½¢
åĴĮ é«ĺ
æ£ĢæŁ¥ åĩº
åĪºæ¿Ģ å¾ģ
åıĬæĹ¶ å°±åĮ»
åºĶ çŃĶ
æľĢ ä¸»è¦ģçļĦ
åĲĦ é¡¹
ç»Ĩèĥŀ åŃ¦æ£ĢæŁ¥
æ¸ħ æĻ¨
çĹ Ī
å°¿ æµģ
åĪĨå¨© æĹ¶
åŃ¤ ç«ĭ
æĢ ł
é»Ħ ç»¿èī²
è£Ĥ åı£
å¹¶ èĥ½
èĦĳ ç»Ĩèĥŀ
è¡¥ æ°Ķ
éĢĢè¡ĮæĢ§ åıĺ
è¿ĺ åı¯èĥ½
è¿ĺä¼ļ å¼ķèµ·
åį ĳ
å¦Īå¦Ī ä»¬
éĻĪ æĹ§
å¼ºçĽ´ æĢ§
è ²
çĽ¸åħ³ æĢ§
æ·± å±Ĥ
åĨ² åĩ»
æł¹æ²» æĢ§
éĩį éĩı
æľ¬ äºº
æľĪç»ı æİ¨è¿Ł
çľŁ çļĦ
ä¾µ å®³
è¿ĩ é¥±
æİĴå°¿ æĹ¶
èĸĦ å¼±
æĦŁ æĥħ
çĲĨ æ°Ķ
æ¹ ¾
éĿ¢ èĨľ
åĲĮæĹ¶ è¦ģ
æľª è§ģ
é»ĳ è±Ĩ
è¿Ľä¸ĢæŃ¥ çļĦ
åıįå¤įåıĳä½ľ çļĦ
çĹĩåĢĻ ç¾¤
éĺ´éģĵ çĤİçĹĩ
æĺ¥ åŃ£
on e
å°ı åĬ¨èĦī
é¢ ĩ
æĤ£ çĹħçļĦ
æĺ¯ä»Ģä¹Ī çĹĩçĬ¶
è¡Ģç®¡ çĤİ
æľīæķĪ çļĦæĸ¹æ³ķ
åĽº éħ®
æ²»æĦĪ åĲĹ
æŃ» äºİ
æĢ» æķ°
å°ıåĦ¿éº»çĹ¹ çĹĩ
è¶Ĭ æĹ©
ç»ıå¸¸ åĩºçİ°
çĶ²çĬ¶èħºåĬŁèĥ½åĩıéĢĢ çĹĩ
æĶ¿ åºľ
å¹´ èĢģ
åĨ· æķ·
çĮĿ æŃ»
éļ¾ å¿į
è¿ĲåĬ¨ çļĦ
æ¸ħæ·¡ çļĦé£Łçī©
çļĦ çĹħæ¯Ĵ
çľ¼ éķľ
åħ³èĬĤ çĹĽ
äºĳ åįĹ
èº« é«ĺ
åħ¶ä»ĸ åİŁåĽł
ç³ĸå°¿çĹħ èĤ¾çĹħ
ä¸ĭ ä¸Ģ
éļıçĿĢå¹´é¾ĦçļĦ å¢ŀéķ¿
ä¸į åºĶè¯¥
åı¯ å¹¶åıĳ
æĤ£èĢħ å¯¹
èĦĳ åĨħ
é¢Ħéĺ² åĴĮæ²»çĸĹ
åıĹåĪ° åĪºæ¿Ģ
éģŃ åĪ°
å¤ļ åģļ
è§ģ æķĪ
çīĻ åĳ¨
å¦ Ļ
è¢« æĦŁæŁĵ
çĿ¡çľł ä¸įè¶³
ç¼º éĴĻ
ä½ĵ çİ°
ä»İ æł¹æľ¬ä¸Ĭ
çļ ²
è¿Ļ ä¸İ
æľ¬ èį¯
å¯¹äºİ å¥³æĢ§
è´Ł åİĭ
åŃĲå®«åĨħèĨľ çļĦ
çļĦ å©´åĦ¿
å¤ľ å°¿
æģ¶æĢ§èĤ¿çĺ¤ çļĦ
çļ² è£Ĥ
èĩª ä½ĵ
æ»ĳ èĦ±
ä¸Ńæ¯Ĵ æĢ§
åĩĭ äº¡
7 2
éĺ Ĳ
çŃī å¼ķèµ·çļĦ
æĳĦ çīĩ
ä¸įä»ħ èĥ½
è®¾ è®¡
æŃ¢çĹĽ èį¯
éĩį åĲ¸æĶ¶
å¤§å°ı ä¸įä¸Ģ
äºļæĢ¥æĢ§ çĶ²çĬ¶èħºçĤİ
è¡Ģæ¶² ä¼łæĴŃ
å¤ļ æĹł
æľŁ åĴĮ
ç¥Ľ çĹĺ
ä¿ĿæĮģèī¯å¥½çļĦ å¿ĥæĢģ
è¦ģ åıĬæĹ¶çļĦ
åı¯ä»¥ æĶ¹åĸĦ
è¿ĳ å¹´
æµ· åıĤ
ï¼ ŀ
çļĦ åĨħè£¤
å¹´ ä»¥ä¸Ĭ
æķ° æ¬¡
è¢« è®¤ä¸ºæĺ¯
åıª éľĢ
åħ³éĹŃ ä¸įåħ¨
ä¸Ģ å±Ĥ
èĩª åįĳ
èĽ İ
åĻ¨ è´¨
åĳ¼åĲ¸ è¡°ç«Ń
åĲĲ çĻ½æ²«
p er
Â µ
æģ¶æĢ§ ç¨ĭåº¦
åı¯ä»¥ åĸĿ
å¾Ī å¸¸è§ģ
å¾Ī éĩįè¦ģçļĦ
çĸ« æĥħ
çľŁ æĢ§
è¿Ļ ä¸ĢçĤ¹
å¦Ĥæŀľ çĹĩçĬ¶
å¤Ħ åľ¨
çĩ ĥ
èĤ½ éħ¶
æĿ ĳ
éĺ´ éĺ³
æ´»åĬ¨ æĢ§
åıĬæĹ© æ²»çĸĹ
æĺ¯ åĽł
çī©è´¨ çļĦ
å¿ĥèĤĮ çĤİ
æľī ä¸Ģç§į
èħ°æ¤İéĹ´çĽĺçªģåĩº çĹĩ
æĪĸå¤ļ æĪĸå°ĳ
åı¯ è¿Ľè¡Į
å¤ļ åıĳçĹħ
åİŁåĽł ä¸įæĺİ
å¨ ±
åİĭåĬĽ å¤§
åĳ Ľ
æ¹¿ æ°Ķ
åīĤ çŃī
è¿Ļæł· çļĦæĥħåĨµ
ä»İèĢĮ è¾¾åĪ°
çŃ ¾
åīį åħĨ
åĲĥ çĤ¹
å°± ç®Ĺ
å°¤åħ¶ åľ¨
åĳķåĲĲ çŃī
èĻ« åįµ
æĽ´ ä¸¥éĩį
éĢĤå½ĵ è¿ĲåĬ¨
å¾Ģå¾Ģ ä¼ļ
èĲİç¼© æĢ§
å°ĳ å°¿
åıĳèĤ² è¿Łç¼ĵ
çĥ« ä¼¤
å¾Ī ä½İ
æĹł æľº
éģĹä¼ł æĢ§çĸ¾çĹħ
çĹ° æ¶²
ti s
è¿Ļ ä¹Ī
çĽ¸ éĢļ
é¢Īæ¤İ çĹħçļĦ
çļĦ æİªæĸ½
çļĦ èĮĥåĽ´
åĲĮæĹ¶ æľī
èĦĲ å¸¦
èıĬ èĬ±
ç« ŀ
å¸¦ åŃ©åŃĲ
åİĭåĬĽ è¿ĩå¤§
è¡Ģ åŀĭ
åįµå·¢ å·§åħĭåĬĽåĽĬèĤ¿
éĥ½æĺ¯ åĽłä¸º
éĢīæĭ© åĲĪéĢĤ
ç§¯æŀģ éħįåĲĪåĮ»çĶŁ
æĢ§æ¬² åĩıéĢĢ
ç²Ł ç²Ĵ
åĴĮ ç¤¾ä¼ļ
æĪĸ åħ¶
éļľç¢į çŃī
æĶ¶ éĽĨ
æĥħ å¿Ĺ
åīį æĸ¹
æĺ¯ä¸Ģç§į éĿŀå¸¸
ä»ħ åľ¨
è° Ĳ
è¿Ľè¡Į äºĨ
ä¸įèī¯ å½±åĵį
çĨŁ æĤī
çĶ¨ ä¸ĢäºĽ
çº¢ çĤ¹
è§£ çĥŃ
ä¸įèī¯çļĦ çĶŁæ´»ä¹łæĥ¯
æ¯Ķè¾ĥ ä½İ
åŁº äºİ
åħ¬ æĸ¤
Ġ ï¼Į
æĢ§çļĦ çĸ¾çĹħ
ç¦» å¼Ģ
èĦĬé«ĵ çģ°è´¨
çĹĩçĬ¶åĴĮ ä½ĵå¾ģ
æľī ä¸įåĲĮç¨ĭåº¦çļĦ
æīĭ æľº
æīĭæľ¯ è´¹çĶ¨
å¹³ è¡Į
çĽ´æİ¥ å½±åĵį
å³¡ éĥ¨
çĥ ·
é«ĺåº¦ éĩįè§Ĩ
æĢ§ éª¨æĬĺ
åĩºè¡Ģ çļĦ
ä¸Ģä¸ª æĺ¯
Ġ ,
çĶ² æĿ¿
è§Ĩ ä¸º
äº¤ æį¢
ä¹ħ ç«Ļ
æľ¬åĵģ ä¸º
å¯ĨåĪĩ æİ¥è§¦
æĻĴ å¹²
åĹľéħ¸æĢ§ ç²Ĵç»Ĩèĥŀ
Ġ e
ä¸į èµ·
ç±³ æ±¤
æľºä½ĵ åħįçĸ«åĬĽ
æ£ĢæŁ¥ åĴĮ
éª¨ åħ³èĬĤ
æİ§åĪ¶ é¥®é£Ł
æº¶ éħ¶
çī¹çĤ¹ ä¸º
æĻļä¸Ĭ çĿ¡è§ī
ä¸Ń çº¿
åıĹ å¯Ĵ
åĿĩ åı¯å¼ķèµ·
æľ¬èº« çļĦ
éĥ½ åľ¨
ä¼¤ é£İ
ç±» çļĦèį¯çī©
å¯¹ æ¯Ķ
ä¸ĭåĿł æĦŁ
æĢ¥ æķĳ
ä»¥ ä¿ĥè¿Ľ
çĻ½ç»Ĩèĥŀ è®¡æķ°
æľĢç»Ī å¯¼èĩ´
æľī å°ı
åı¯ è¯±åıĳ
èĤĿ çĹħçļĦ
P H
ãĢĤ ï¼»
æĺ¯ ä¸´åºĬ
çĶŁ æĢģ
å¿ĥ éĩĮ
éķ¿ è¾¾
è¿Ľè¡Į æĢ§çĶŁæ´»
åı£ æ°´
æĻ¨ èµ·
æĹ¶éĹ´ è¾ĥéķ¿
è§Ĩ çī©
ç½ ¹
æł¸ ç´ł
è¦ģ ç»ıå¸¸
åıĳçĶŁ åıĺåĮĸ
é¥®é£Ł ä¸į
åı¯ éĢĤå½ĵ
é±¼ èĻ¾
å¸ĮæľĽ ä»¥ä¸ĬçļĦ
ä¹Ł ä¸İ
åĽłä¸º å®ĥ
è² Į
çĽĨèħĶ åĨħ
åĪļ å¼Ģå§ĭ
èĢĮ å¯¹äºİ
æĦı å¿Ĺ
éĩĩ éĽĨ
çħ® çĨŁ
ä¸įéĢĤ çļĦçĹĩçĬ¶
è¡Ģç³ĸ åįĩé«ĺ
å¾Īå®¹æĺĵ åĩºçİ°
èĢĮä¸Ķ åľ¨
äº² å±ŀ
åħ¶ åıĳçĹħ
èĤ¢ ç«¯
åħ¶ çĹħåĽł
åĪĩéĻ¤ åĲİ
ç©º èĤł
æĢ§äº¤ åĲİ
æĢ¥ èºģ
çº¢èī² æĪĸ
æĮ ĸ
ä¹ĭ ä¸ĭ
æĹ© çĿ¡
æ¯Ķè¾ĥ å¸¸è§ģ
é¡º åºı
an d
èĥ½ æľīæķĪ
å£ ¶
åįµå·¢ çļĦ
æīį è¡Į
å¢ŀçĶŁ çļĦ
å®ļæĹ¶ å®ļéĩı
èĬ ³
éĿ¢ çĺ«
ä»»ä½ķ éĥ¨ä½į
éª¨è´¨çĸıæĿ¾ çĹĩ
åĸ ¹
éĵ Ŀ
èĽĭçĻ½è´¨ çļĦé£Łçī©
éħ® çĹĩ
èį¯æµģ åĲİ
æĺİæĺ¾ åĩıå°ĳ
åľĨ éĶ¥
æ¸ħæ¥ļ çļĦ
å°± ä¸į
åıĺ åºĶ
çĶ¨ æ¸ħæ°´
é«ĺ çº¤ç»´
ä¸»è¦ģ åĪĨä¸º
åĪĨæ³Įçī© å¢ŀå¤ļ
ä¹³å¤´çĬ¶ çĻĮ
æ¨± æ¡ĥ
çĹħ åĲİ
ä¹Ł å®¹æĺĵ
æł· æĶ¹åıĺ
æĺ¯ è¯ĬæĸŃ
èĥ¸ çīĩ
åĬ¨çī© åĨħèĦı
å¤ĸ å½¢
ä¹ĻèĤĿçĹħæ¯Ĵ çļĦ
A TP
é¢Ī åĬ¨èĦī
å½ĵ ä¸ŃçļĦ
çĹħ åĴĮ
å¯¹ çļ®èĤ¤
èĩ´ åĳ½
åĩł ä¸ªæľĪ
å¼¥ æķ£
å®ī æħ°
éĽ Ģ
å·² æĪĲä¸º
åĽĽ åįģ
æĺ¯åĲ¦ æŃ£å¸¸
äºº éĻħ
åģļ çļĦ
åıĮ ä¸ĭèĤ¢
çİ¯å¢ĥ çļĦ
çķ ľ
åĲ¸ éĻĦ
éĢĤå½ĵ ä¼ĳæģ¯
è¡¥åħħ æ°´åĪĨ
ä¼ļ åıĺå¾Ĺ
åŃ¦ æł¡
çĳ ŀ
æīĢ è§ģ
éĢĤ çĶ¨
å®ļæľŁ è¿Ľè¡Į
èĭ Ħ
åı¶ çīĩ
çĹĩçĬ¶ åĩºçİ°
çĥŃ æĢ§
æ´»åĬ¨ åº¦
æİ§åĪ¶ å¥½
ä¹ħ æ²»
ä¸»è¦ģæĺ¯ æĮĩ
çİ»çĴĥ ä½ĵ
Ġ 8
Xçº¿ çīĩ
çļĦ åºĶçĶ¨
åĲĮæĹ¶ åĩºçİ°
å¤ª å¤ļçļĦ
æħ¢ è·ĳ
çļĦ å¤ĦçĲĨ
ä¸ĭ è¹²
åīį é©±
² éĹ¨
çļĦ æİĴåĩº
æĢ ĸ
æµģ é£Ł
ç©¿ çĿĢ
èĲ½ åĲİ
æĻ¶ ä½ĵ
å¼Ģ èħ¹
è¿·èµ° ç¥ŀç»ı
åİĭ ç¼©
ä¸ī å¤§
æī ¯
ç± ½
æ¶Ī æŀģ
åĿĩ åºĶ
åı ¥
è¿Ļæł· çļĦè¯Ŀ
èĤĿç¡¬åĮĸ èħ¹æ°´
èŀ¨ èĻ«
Î ¼
æī £
èĤ¤ èī²
ä½İ åį±
åıĸ ä»£
åıĳçĶŁæĶ¹åıĺ æĹ¶
èĲ ¨
æľ¬ è´¨
èĩ³ åħ³
èįī éħ¸
åıĳ é»ĳ
çĹħæ¯ĴæĦŁæŁĵ å¼ķèµ·çļĦ
å±Ģçģ¶ æĢ§
åĪĨ è¾¨
ç© ¹
éĢļå¸¸ æĥħåĨµä¸ĭ
åĳ¨åĽ´ æľī
åĺ§ åķ¶
éĻį è§£
çļĦ ä½¿çĶ¨
æĪĲ çĺ¾
åıĪ åı«
è¡Ģæ¶² çļĦ
ç½ĳ çĲĥ
æŃ£å¸¸ èĮĥåĽ´
ä¸¥éĩįçļĦ çĸ¾çĹħ
ä¸º éĺ³æĢ§
æģĲ æĢĸ
çļĦ åĬ¨ä½ľ
è¡Ģæ¶² ä¸ŃçļĦ
åĲĪçĲĨ çļĦé¥®é£Ł
è¶ĬæĿ¥è¶Ĭ ä¸¥éĩį
ç¯ ĩ
å¾Ī æľīåı¯èĥ½æĺ¯
0 2
æĺ¯ ä»İ
å¼ķ äº§åĲİ
æĹ¶éĹ´ è¿ĩéķ¿
æħ¢æĢ§ ä¹ĻåŀĭèĤĿçĤİ
åĿł çĹĽ
å®¹æĺĵ æ¶ĪåĮĸ
éĿŀå¸¸ é«ĺ
æľ¬ æĿ¥
å§ ĳ
çĶ¨èį¯ æ²»çĸĹ
åı¯èĥ½ çļĦ
è¯ķç®¡ å©´åĦ¿
éĥ¨ åĴĮ
ç»ıå¸¸ ä¼ļ
éĻį èĩ³
èĥ¸ èħº
çŃī æ²»çĸĹ
ä¸Ĭ çıŃ
åı¯ä»¥ è®©
è¶³ åºķ
æİ§åĪ¶ è¡Ģç³ĸ
æĹ©äº§ åĦ¿
èĩª åıĳ
æħ¢æĢ§ æľŁ
æīģæ¡ĥä½ĵ çĤİ
Ġ r
æĬ ļ
å°± åı¯
ç®¡ éģĵ
éĺ´åĽĬ åĨħ
C a
ä¸ĻèĤĿ çĹħæ¯Ĵ
âħ ¢
å¯¹ èĥĥ
çļĦæĸ¹æ³ķ è¿Ľè¡Įæ²»çĸĹ
é¢ħåĨħ åİĭ
æĽ´å¥½ åľ°
çļĦ æ¤įçī©
ä½ Ĳ
èĩª çĲĨ
é¥®é£Łå®ľ æ¸ħæ·¡
èıĮ å±ŀ
éħ¸ éĴł
çªģ è§¦
ç£·éħ¸ éħ¶
ä¸ĭ æ¬¡
çĸ¼çĹĽ çĹĩçĬ¶
å¤įåıĳ çļĦ
ä½ĵåĬĽ æ´»åĬ¨
å¦Ĥæŀľ è¯´
éĩĩåıĸ æİªæĸ½
æĸ ¥
è§Ħå¾ĭ çļĦ
ï¼ħ ï¼Į
çĶļèĩ³ ä¼ļ
æĢ» èĥĨçº¢ç´ł
æĽ¿ä»£ æ²»çĸĹ
åº Ĺ
æĤ£èĢħ æľĭåıĭ
ä¼¤ åĲİ
ä¸ĢèĪ¬ æľī
åĪĩ æĪĲ
å¤ļä¹ħ åı¯ä»¥
å ª
çļ®ä¸ĭ ç»Ħç»ĩ
çĹĩçĬ¶ ä¸º
åİŁåĽł æľī
å¯¹äºİ æľī
éĩįè¦ģ æĦıä¹ī
éĺ³æĢ§ çİĩ
æ¢ħæ¯Ĵ çļĦ
èį ł
çī¡ èĽİ
R A
æĪĸ ç»ı
å¯¹ åģ¥åº·
èĤł èħĶ
åĽłä¸º åľ¨
è¾ĵ åĩº
çº¤ æ¯Ľ
ç«ĭ åĪ»
æĢĿ èĢĥ
çļĦ åĪĨæ³Įçī©
å¯¹ èĤĿèĦı
è´ ²éĹ¨
æĮĤ ä»Ģä¹Īç§ĳ
ä¸įèĥ½ æİ¥è§¦
åº· åĶĳ
åį±éĻ© çļĦ
éĩį åıł
è¿ĺ åĲ«æľī
çĶ²çĬ¶èħº åĽĬèĤ¿
æĶ¹åĸĦ çĹĩçĬ¶
æº ´
æīģå¹³ çĸ£
æĬĹæĦŁæŁĵ æ²»çĸĹ
åĴĸåķ¡ åĽł
è¡Ģ æ²ī
åĲ¬ è§ī
å¤ļåĽĬåįµå·¢ ç»¼åĲĪçĹĩ
æĺ¯ å¦ĩç§ĳ
åİ ¿
éª¨ åĮĸ
èıł èĲĿ
èį¯çī© æĪĸ
æĺ¯ åįģåĪĨ
æ¯ı æĻļ
æµģäº§ æĪĸ
çĶŁåĨ· é£Łçī©
æĩ Ĵ
è¡Ģ èĻļ
åĪĨ çº§
åı¯ä»¥ æıĲé«ĺ
åĲĦ ä½į
æĺ¯ä»Ģä¹Ī åĳ¢
éģĹä¼ł åŃ¦
å®īåħ¨ æĢ§
ä¸į æŃ£å¸¸çļĦ
éļ¾ äº§
æĢ» ç®¡
é»Ħçĸ¸åŀĭ èĤĿçĤİ
ä¹ĭ çī©
èĽĭçĻ½ çļĦ
é¹ ¿
çĥ¹ è°ĥ
èĥŀ è´¨
å¡ŀ ç±³
ç½® äºİ
å¿ĥè¡Ģç®¡ çĸ¾çĹħ
è¾ĵ æ³¨
éľĢè¦ģ åľ¨
èĥ¸ å£ģ
çŁ³ æ¦´
äº§åĲİ æĬĳéĥģçĹĩ
Ġ P
ä¸įè¦ģ è¿ĩäºİ
æĳ¸ åĪ°
çļĦé¢Ħéĺ² åĴĮæ²»çĸĹæĸ¹æ³ķ
æ¿Ģ æĥ¹
èĥİ èĨľ
è½¬ åıĺ
æł¼ å¤ĸ
HB s
æĿ¥ ç¡®å®ļ
éĥ½ å¾Ī
èĤ¥ å¤§çļĦ
ä¸Ģ å°ı
ç»Ĩ åļ¼
ä¹Łåı¯ æľī
å¿§ èĻĳ
ä½İ éĴ¾
ä¿ĿæĮģ ä¸Ģä¸ª
æĥ³ åĪ°
åıªæľī åľ¨
èĬĴ æŀľ
åı¯ä»¥ æ²»çĸĹ
æ© ¡
ä¸»è¦ģçĹĩçĬ¶ æĺ¯
è¿ĺ åĮħæĭ¬
ä¸»è¦ģ è§ģäºİ
æĬĹ èĤ¿çĺ¤
é¢Ħ æµĭ
åĳĪ éĺ³æĢ§
ä¸į è§ģ
åĲİ å°¿éģĵ
ç§¯æŀģ åľ°
æİĴå°¿ æ¬¡æķ°
æ² Ĳ
ç³ ¯
ç¥ŀç»ı æįŁä¼¤
çĿĢ æĢ¥
ç»Ł ä¸Ģ
èħ± åıįå°Ħ
åĴĮ èĦĳ
æĺİæĺ¾ å¢ŀå¤ļ
æ·ĭ æµ´
æİ¥è§¦ åĪ°
Ġ å¯¹
æĢ§ å¾ģ
æ¯ı ä¸Ģ
åħĪ ç«¯
åĲ«ç³ĸ éĩı
åĴĮ èį¯çī©
åı¯èĥ½ä¼ļ éĢłæĪĲ
æľī å½±åĵį
å¿Į éħĴ
æ³Įå°¿ çĶŁæ®ĸç³»ç»Ł
åı° æ¹¾
å¾Ī åı¯èĥ½
æīĭæľ¯ ä¸Ń
åĮ»éĻ¢ è¿Ľè¡Į
åħ¨ åĽ½
æĺİæĺ¾ åįĩé«ĺ
æĺ¯ä»Ģä¹Ī çĹħ
ãĢĭ )
çĹĩçĬ¶ æĺİæĺ¾
éĿŀ çĶ¾ä½ĵ
åŃ¤ çĭ¬
é£Łçī© ä¸Ń
æľīæķĪ æ²»çĸĹ
éĢĲæ¸Ĳ å¢ŀå¤§
å¸¸æŁĵèī²ä½ĵ æĺ¾æĢ§
çļĦ åıĳä½ľ
éĢļå¸¸ ä¼ļ
åĴ½ çĹĽ
èĪĴ ç¼ĵ
å° Ĭ
è¦ģ å°ĳåĲĥ
çļ± çº¹
Ġ i
éĻ ª
åĩī è¡Ģ
ï¼ħ ãĢĤ
å¤« å¦ĩ
æ²Ļ çľ¼
ä¸ ½
åı£ è§Ĵ
éģ¿åħį è¿ĩåº¦åĬ³ç´¯
æĤ£çĹħ åĲİ
è¡¨ æµħ
ç¬¬äºĮ ä¸ª
åĮĹ äº¬
çļĦ ç±»åŀĭ
çĸĿ æ°Ķ
A T
Ġ M
çļĦ ç»ĨèıĮ
åĲĮ çĶ¨
åı³ ä¸Ĭèħ¹
èĢĥèĻĳ åĪ°
è´Ł éĿ¢
æ²¹çĤ¸ é£Łåĵģ
æ¯ı æľĪ
çĹħçĲĨ åŃ¦
éŀ Ń
åľ¨ è¿Ļç§įæĥħåĨµä¸ĭ
éª¨ éª¨æĬĺ
ç»ıå¸¸ åĲĥ
éĢı è¿ĩ
ç¢ĺ çĽĲ
æĢ§çĬ¶ åıĳçĶŁæĶ¹åıĺæĹ¶
æ·ĭèıĮæĢ§ å°¿éģĵçĤİ
è¿ĩ åĨ·
ç»Ħç»ĩ ç»Ĩèĥŀ
æĪĳä»¬ éľĢè¦ģ
å°ı ç»Ĩèĥŀ
çŁ Ľ
çļĦ æľĭåıĭ
å¾Ī éķ¿
æĺİæĺ¾ å¢ŀåĬł
ç¡¬ ä¸ĭçĸ³
æĶ¶ æķĽ
åĤ¬ çľł
è¾ĥ æ·±
æµģ éĢļ
æīĵ å¼Ģ
åĲ Ĭ
æ³ °
æħ¢æĢ§ èĤłçĤİ
è¿ĺæĺ¯ æ¯Ķè¾ĥ
åı¯ä»¥ çľĭåĪ°
åıį ä¹ĭ
æĦŁè§ī å¼Ĥå¸¸
åı¯ æĺ¾ç¤º
ä¸ī åº¦
éĺ´èĮİ åĭĥèµ·
HL A
ä¸į å¦¨
å¦Ĥæŀľ æĤ¨
æ³¨æĦı åĬ³éĢ¸ç»ĵåĲĪ
èĥİ å¤´
å¤§å¤ļæķ° æĤ£èĢħ
æĺ¯ä¸į ä¸Ģæł·çļĦ
åºĶ ç»ĻäºĪ
æĶ¾ å¿ĥ
éĿŀå¸¸ å¤ļ
å¤ª æŀģ
ç²¾åŃĲ è´¨éĩı
çĶ²çĬ¶èħºæľºèĥ½ äº¢è¿Ľ
æĢ§ çļ®èĤ¤
èĤĮ åĴĮ
å¿Į åĲĥ
ç¼ºä¹ı çĹĩ
èĥ½ åľ¨
æħ¢ åĴ½
å¼¹ åĬĽ
ä¸įè¦ģ è®©
å¤ĸç§ĳ æ²»çĸĹ
çļĦ è¥¿åĮ»æ²»çĸĹ
åĨħ åĩºè¡Ģ
éľĢ ä¸İ
èĥ½åĬĽ ä¸ĭéĻį
çī¹æ®Ĭ æ²»çĸĹ
èĤ¾å°ıçĲĥ èĤ¾çĤİ
åħ¬åħ± åį«çĶŁ
æĮĳ é£Ł
èĤĮ çĤİ
è¡¥ éĴĻ
ä¸Ģå®ļè¦ģ åģļå¥½
å¯»å¸¸ çĸ£
ä¸Ģè¿ĩ æĢ§
ç»Ĩèĥŀ æł¸
åŃĺæ´» çİĩ
èĤ¾çĹħ ç»¼åĲĪå¾ģ
çĻ½ å¼Ģæ°´
æģ¶æĢ§ å¾ªçİ¯
çĹħçĲĨ çĶŁçĲĨ
èĥĥèĤł èłķåĬ¨
éĺ»æ»ŀ åīĤ
åĲİ éĿ¢
åįĬ ä¸ªæľĪ
çĹĩçļĦ åıĳçĶŁ
åı¯ä»¥ é¢Ħéĺ²
çĻ½ ç³ĸ
åįĥä¸ĩ ä¸įèĥ½
æŃ¤ çĹħçļĦ
éģĵ å¾·
æīĢ äº§çĶŁçļĦ
åĮħ æīİ
éĢĢ çĥŃ
æ¦ ¨
çĶŁäº§ çļĦ
æĶ¾åľ¨ åĦ¿ç«¥
è¡Ģ ç²¾
ä¸Ķ æľī
çļĦçĹĩçĬ¶ æľī
å·´ æ¯Ķ
åıįå¤į åĩºçİ°
æ¯Ķè¾ĥ å·®
çł´è£Ĥ åĩºè¡Ģ
å¸ķéĩĳæ£® çĹħ
å¦Ĥ åĩºçİ°
èº«ä½ĵ åĩºçİ°
é±¼ çŃī
éĺ´åĽĬ æ¹¿çĸ¹
çĹ «
èĭ ĭ
åĽłç´ł çļĦå½±åĵį
é»Ħ çĻ½èī²
æĭĴ ç»Ŀ
åı¯ æĬĳåĪ¶
å¯¹ èĩªå·±
å¤į è§Ĩ
çĶŁæ®ĸ ç»Ĩèĥŀ
å¿ĥåĬ¨è¿ĩ ç¼ĵ
åĴĮ è°Ĳ
ç»ı éĩı
è¯¥ çĸ¾çĹħ
ä¸įæĸŃ çļĦ
éĥ½ å±ŀäºİ
ç»ĵæł¸ æĿĨèıĮ
å¤ļ ä¼´æľī
å¹¶ åŃĺ
éħ¸ éĴ¾
åħ ļ
çĹĩçĬ¶ æľī
çĽĨèħĶ çĤİçļĦ
æĹ¥å¸¸ é¥®é£Ł
å°¾ éĥ¨
åĴĮ è¡Įä¸º
å½ĵ æĹ¶
è¯ĬæĸŃ æĺ¯ä»Ģä¹Ī
åıįå°Ħ æĢ§
ç»ĻæĤ£èĢħ å¸¦æĿ¥
æ³Įå°¿ç³» æĦŁæŁĵ
é£Łæ¬² ä¸ĭéĻį
èº«ä½ĵ æĬµæĬĹåĬĽ
ä¸ī ç¢ĺ
æ°§ æ°Ķ
Ġ T
åĵ Ī
å¼ķèµ· æ³¨æĦı
æĸ¹æ³ķ æľī
ä¹ħæ²» ä¸įæĦĪ
å¤ĸ æ¶Ĥ
æĢ¥ è¯Ĭ
ä¸ī çĶ²
Ġ ac
æľĢ éĩįè¦ģçļĦæĺ¯
æ²¡æľī å¾ĹåĪ°
äºĮ æľŁæ¢ħæ¯Ĵ
è¢« çł´åĿı
è¯· å°Ĩ
åºĶåľ¨ åĮ»å¸ĪæĮĩå¯¼ä¸ĭ
æĢ§ æ²»çĸĹ
ä¼ ¯
è¿Ľè¡Į çļĦ
çĽ´èĤł çĻĮçļĦ
ä¹Łä¼ļ å½±åĵį
åĬłå¼º ä½ĵèĤ²éĶ»çĤ¼
ç¿ ĺ
èĬĤèĤ² åĻ¨
çŃī åħ¨èº«çĹĩçĬ¶
ç®¡ å£ģ
åĿ ¡
çİ¯ å½¢
åĲĮæĹ¶ ä¹Ł
å¸®åĬ© æĤ£èĢħ
åĬ¨çī© èĤĿèĦı
éĢĨ è½¬
éĥ½ åı¯èĥ½
æīĭæľ¯ çĸĹæ³ķ
å¹³ ç¨³
æ¯Ķè¾ĥ å°ĳ
æ¯ı ä¸Ģä¸ª
åį«çĶŁ å·¾
ä¸į æĥ³
åĲİ éĥ¨
æ³Į å°¿éģĵ
å®¹ ç§¯
ä¸ī æľŁ
æ¯ı éļĶ
å»ºè®® å¤§å®¶
ä¸įè¦ģåĲĥ è¾Ľè¾£
è¿Ľ é¤Ĳ
ç»Ĩèĥŀ åĽłåŃĲ
åĩı å°ı
èĤ¾ ç§¯æ°´
å®¶ éĩĮ
an s
æ²Ĳ æµ´
åı¯ ä¼´
åĳ¨ èº«
è½¬ èĤ½éħ¶
èĥ¸ å»ĵ
éģ¿åŃķ å¥Ĺ
æŁ¿ åŃĲ
æĭ¥ æľī
AL T
æĤ£èĢħ å¸¸
çĶŁéķ¿ æ¿Ģç´ł
æİ¨ ç§»
èľķ èĨľ
r i
æīĢ éľĢè¦ģ
æīĭè¶³ çĻ£
çŃī ä¸Ģç³»åĪĹ
ä¿ ¯
ç±» çŃī
çº¢ èĬ±
æĽ´ éķ¿
èĳ µ
Ig A
ä¸ ²
åĩ ¶
è¡¨çİ° åľ¨
åİ» çĶ²
åıĮ çĲĥèıĮ
ä¸į çķĻ
è¿ĻäºĽ æĥħåĨµ
ä»£è°¢ éļľç¢į
å°½æĹ© çļĦ
éľĢ æ³¨æĦı
åĪĨæ³Į ä¸įè¶³
é»Ħ éħ®
äºĭ æķħ
å±ŀäºİ ä¸Ģç§į
åº·å¤į è®Ńç»ĥ
äº§è¤¥ æľŁ
å·´æ¯Ķ å¦¥
I U
çĹħäºº åĩºçİ°
æ¦ Ħ
æ¢Ĺéĺ» æĢ§
æľŁ åīį
ä¸» è¯ī
éĿ¢ éĥ¨çļĦ
æĢ¥æĢ§ èį¨éº»çĸ¹
éĩįè¦ģ çļĦä½ľçĶ¨
ç»Ī çĶŁ
æĬĢ èĥ½
çļĦ æķıæĦŁæĢ§
æ¯Ķ æĸ¹
å¿Į çĥŁéħĴ
id e
çĭĤ èºģ
æĢ§ å¿ĥèĦıçĹħ
æ²»çĸĹ è´¹çĶ¨
æķĪæŀľ çļĦ
çĶŁæ´»ä¸Ń çļĦ
è¡Ģæ¸ħ åŃ¦
ç»Ĩåļ¼ æħ¢åĴ½
æĺ¯ å¾Īå¤§çļĦ
æĹ ħ
åĴĮ éĺ´éģĵ
çĶŁæ´» çļĦ
c e
æ¯Ķ æĭŁ
æ¯Ķè¾ĥ è½»
è¡¨éĿ¢ æľī
ä¸į å¯¹ç§°
æĪĸ æħ¢æĢ§
éĿ¢ åĮħ
æīĢä»¥ æĤ£èĢħ
ä¸ĺ çĸ±çĸ¹
A I
è¡Ģç®¡ éĢłå½±
æľīæīĢ ä¸įåĲĮ
æĺİæĺ¾ å¢ŀé«ĺ
åħĭ ç½Ĺ
ç«ŀ äºī
3 1
èĭ¯ ä¸Ļ
æ³¼ å°¼
Ġ åľ¨
ä¸į ä¸¥éĩį
åĴĮ é¥®é£Ł
äº§ æ°Ķ
å¿ĥèĤĮ çĹħ
ä½ľä¸º ä¸Ģç§į
èĤļ èĦĲ
çļ± è¥ŀ
T T
ï¼ ĭ
çļĦ è¶ĭåĬ¿
ä¼ ª
ä¸Ń éĥ¨
æ¸Ĺåĩº æ¶²
è¸ ª
ä¹ĻèĤĿè¡¨éĿ¢ æĬĹä½ĵ
èį¯çī© è¿Ľè¡Įæ²»çĸĹ
äºĶ åįģ
è¿Ľé£Ł åĲİ
æĳ Ķ
ä¹Łåı¯ åĩºçİ°
Â· Â·
çĶĺæ²¹ä¸ī éħ¯
ä½ĵèĤ² è¿ĲåĬ¨
è¿Ĳ è¾ĵ
åĸ· å°Ħ
æŁĲäºĽ èį¯çī©
äººæµģ æīĭæľ¯
åŁºåºķ èĨľ
åı¯ä»¥ çĽ´æİ¥
éħª æ°¨éħ¸
æĺ¯ åıĳçĶŁåľ¨
å¹¶ çĶ¨
ç¥ŀç»ı åĴĮ
ä½¿çĶ¨æľ¬åĵģ åīį
èį¯ æķı
åĲ ī
å¸¦ å¤§å®¶
èĬ± æ¤Ĵ
ä¹ħ èĢĮ
åĨ· é¥®
ç²¾åŃĲ çķ¸å½¢
è®° å¾Ĺ
å¯»å¸¸ åŀĭ
åı¯ éĢīæĭ©
ä¸Ģ ä¸Ģ
æł¹æį® æĤ£èĢħ
CT æī«æıı
åŃĲå®«é¢Ī çĻĮ
è¦ģ æ¯Ķ
å°¿ èĽĭçĻ½
é«ĺ æ½®
åħĪ çĶ¨
æĮģç»Ń çļĦ
åĪĨåĪ« ä¸º
æĺ¯ ä¸´åºĬä¸Ĭ
å¤ļ ä½ĻçļĦ
çĶļèĩ³ æľī
åįĬ çĲĥ
æīĢéľĢ çļĦ
çĹĴ æĦŁ
éĺ´åĽĬ çļ®èĤ¤
d l
çļĦ åĨħå®¹
ä¸¤ ä¸ªæľĪ
ä¼ļ ä¼łæŁĵåĲĹ
é«ĺ éĴĻ
æľĪç»ı çļĦ
çº ²
åŃķ èĤ²
ä½İ æ¸©
æ°Ķ æ¸©
ä¹Łæĺ¯ æ¯Ķè¾ĥ
å»¶ é«ĵ
èĤĿåĮº çĸ¼çĹĽ
åŁĥ å¸Į
æ£ĢæŁ¥ é¡¹çĽ®
æ¯Ķ åĢ¼
éĥ¨åĪĨ çĹħä¾ĭ
æī©æķ£ åĪ°
Ġ 10
èĤº æ°ĶèĤ¿
æĬ¤ èĤĿ
ç¢İ çīĩ
ä¼ ½
æ¯Ĵ åī¯ä½ľçĶ¨
åĥı æĺ¯
éĶĻè¯¯ çļĦ
çļĦ çĸĹæķĪ
çļĦ çĹħæĥħ
æĢİä¹Ī æł·
å¥ĪçĳŁ èıĮ
æĪĸ è®¸
ç¥ ¸
åįµ å½¢
æľĪç»ı åīį
ä¸Ĭ åİķæīĢ
èĲ¥åħ» æĪĲåĪĨ
ä¿ĥçĶ²çĬ¶èħºæ¿Ģç´ł åģıä½İ
åį ļ
æŁ ¯
åĪºæ¿Ģ çļĦé£Łçī©
åĪĻ éľĢ
èĤł é¸£
ä¿ĥ æİĴåįµ
çĶ »
ä¸Ń æŃ¢
çļĦ æľī
è¾ĥ å°ıçļĦ
è¶³ éĩı
å¿Į çĶ¨
èħ¹éĥ¨ çĸ¼çĹĽ
äººç¾¤ ä¸Ń
èĥĨ ç»ĵçŁ³
ä»İèĢĮ å½±åĵį
é»ĳ èĬĿéº»
æĺ¯ä¸Ģ ç»Ħ
éĺħ è¯»
ç²¾ ç¡®
æķ° å¤©
ä¹Łæľī ä¸Ģå®ļçļĦ
åıĳ ç»Ģ
éľĢè¦ģ æ²»çĸĹ
èº«ä½ĵ èĻļå¼±
éļ¾ åħį
åīįåĪĹèħº çļĦ
æļ´ æĻĴ
âħ ł
çŃī éĥ½æĺ¯
è¡¨çİ° æĺ¯
è¡¨çİ° æľī
å·² è¢«
æµ· æĭĶ
æĭħ å¿§
çİ°ä»£ åĮ»åŃ¦
åĲİå¤© æĢ§
æĶ¾åľ¨åĦ¿ç«¥ ä¸įèĥ½æİ¥è§¦
çļĦ åİŁåĪĻ
æĩ Ĥ
çļĦ èĶ¬èıľ
åŀ ĥ
æ¯Ķè¾ĥ å¤įæĿĤ
åħįçĸ« åŃ¦
è¦ģæ³¨æĦı é¥®é£Ł
çļĦæĸ¹æ³ķ æĿ¥
æīĵ åĩ»
å°ĳéĩı å¤ļé¤Ĳ
çļĦä¸Ģ éĥ¨åĪĨ
è¡ĢæĢ§ çĻ½å¸¦
åľ¨ åŃĲå®«
ä¼ļ å½¢æĪĲ
åı¯ä»¥ å¢ŀåĬł
æ¤ ħ
å¿ħ ä¸įåı¯
çľĭ åĩº
å¢ĥ çķĮ
k Pa
ä¸į çĹĽ
çĥŃ å¸¦
èĥ¸éª¨ åĲİ
çļĦ çī¹å¾ģ
çļĦ æµĵåº¦
åľ¨ æĪĳä»¬çļĦ
ä¸įä¼ļ å½±åĵį
åħĪå¤© æĢ§çļĦ
æľīä¸Ģå®ļçļĦ åħ³ç³»
çļĦ ä¸Ńèį¯
å¦Ĥæŀľ åŃ©åŃĲ
çĦ¦èĻĳ åĴĮ
æĻºåĬĽ éļľç¢į
åı¯ ç»ı
åı¯ ä½¿çĶ¨
è£Ĥ åŃĶ
çĪĨ åıĳ
æł· æĪĸ
ç»Ļ å¤§å®¶
ç³ĸå°¿ çĹħäºº
èľ Ĺ
èħĲ è´¥
æĶ¯æĮģ æ²»çĸĹ
) ,
åĬ ²
ä½İ ç³ĸ
æľ¬ çĹĩ
å±Ģéĥ¨ çĸ¼çĹĽ
ä¸ĸçķĮ åį«çĶŁ
æ´ĭ åľ°é»Ħ
çĽĳæĬ¤ ä¸ĭ
ãĢĤ "
ä¸į åĿĩåĮĢ
æ´Ĺ æ¶²
æĢ» éĩı
ç³ľçĥĤ æĢ§èĥĥçĤİ
åľ ¾
æ£ĢæŁ¥ æ²»çĸĹ
ç²¾ ç»Ĩ
ä¸»è¦ģ åľ¨
åı£ åĲĲçĻ½æ²«
çļ®èĤ¤ æįŁå®³
åı£èħĶ åį«çĶŁ
è´¨ ç¡¬
è¡Ģç®¡ çĹħåıĺ
åĩĨç¡® çļĦ
åıĤåĬł ä¸ĢäºĽ
æĶ¾åľ¨åĦ¿ç«¥ä¸įèĥ½æİ¥è§¦ çļĦåľ°æĸ¹
çļĦçĹĩçĬ¶ æľīåĵªäºĽ
åĸľæ¬¢ åĲĥ
èĤĺ åħ³èĬĤ
æĹł èıĮæĢ§
ä½į çĤ¹
åı£ åĳ³
ä¸ī çº§
è½¬ç§» éħ¶
å¤§èĦĳ çļ®å±Ĥ
at e
å¹¶ æ³¨æĦı
é»ĳ å¤´
æĢ§ åĻ¨å®ĺ
å¤ĸ åĽł
å¯¼èĩ´ ä¸įåŃķ
å¾Īå¤ļ æĹ¶åĢĻ
æĶ¶ç¼© æľŁ
å® ¡
è¿ĩ éĩıçļĦ
å¢ŀå¼º åħįçĸ«åĬĽ
åĴ³ çĹ°
çķħ éĢļ
ç»Ĩ èĬĤ
éĹ¨ èĦī
çļĦå¥³æĢ§ æľĭåıĭ
é¦ĸåıĳ çĹĩçĬ¶
å¦Ĥ æĹł
æĬĹ ç»ĵæł¸
çĹħçĲĨ ç±»åŀĭ
ä¹Łåı¯èĥ½ ä¼ļå¯¼èĩ´
åĨ Ľ
åħī çº¿
æĺ¯åĲ¦ æĺ¯
hpv çĹħæ¯Ĵ
è¿ĲåĬ¨ éĩı
çĹķ è¿¹
çŃīåĽłç´ł æľīåħ³
ç³»ç»ŁæĢ§ çº¢æĸĳçĭ¼çĸ®
çļĦ çĽ¸åħ³
ä½ ©
å¤§ä¾¿ å¹²çĩ¥
æĪĳä»¬ éĥ½çŁ¥éģĵ
æ¡¥æľ¬æ°ı çĶ²çĬ¶èħºçĤİ
å¤§ äºº
ä¸Ĭ åĳ¼åĲ¸éģĵ
æıĲ èĤĽ
åŀĥ åľ¾
ç½® æį¢
åı£èħĶ é»ıèĨľ
æ¨ª çº¹
å½©èī² å¤ļæĻ®åĭĴ
å°ĳ ç²¾
æ²»æĦĪ åĲİ
æīĢåĲ« çļĦ
ç½¹ æĤ£
Ġ H
èį Ł
æģ¶ çĹħ
åį³ä½¿ æĺ¯
Q RS
çĻ½å¸¦ å¸¸è§Ħ
é¤Ĳ åħ·
çº¢èī² çļĦ
èĢĲèį¯ æĢ§
æ²»çĸĹ æĺ¯
ä¸İ åĲ¦
åıĳä½ľ æĢ§
æ²»çĸĹçļĦ åĲĮæĹ¶
èĤĿ å¤§
æİĴåįµ åĲİ
æĬĢæľ¯ çļĦ
é¢Ħéĺ² åĴĮ
å¾ĹåĪ° ç¼ĵè§£
åĸī éĥ¨
æĪĴçĥŁ éħĴ
åĢ¦ æĢł
çļĦ æ¯Ķä¾ĭ
ä¸ĢèĪ¬ æĥħåĨµ
çļĦ æĹ©æľŁçĹĩçĬ¶
è¦ģ çĶ¨
çĻ½ çĤ¹
çŁ ¢
æĢ§çĶŁæ´» çļĦ
ä¸¥éĩįçļĦ å½±åĵį
åĮħçļ® çİ¯
åİ»åĮ»éĻ¢ è¿Ľè¡Įæ£ĢæŁ¥
æľī éĹ®é¢ĺ
æ´Ĺ åīĤ
èį ¤
ä¸Ĭ éķ¿
å¹´ çºª
æīŃ æĽ²
ç»ĵèĬĤæĢ§ çĶ²çĬ¶èħºèĤ¿
åĩº åİ»
é« ģ
çª ĺ
å±Ģéĥ¨ åį«çĶŁ
ç©º æ³¡
åĵºä¹³æľŁ å¦ĩå¥³
æ£ ±
æĶ¾ å¼ĥ
ä¸Ĭè¿° çĹĩçĬ¶
çļĦ çĶŁçĲĨ
å®«é¢Ī å¤ĸåı£
åºŁ çī©
åĲ¯ åĬ¨
èĦĬé«ĵçģ°è´¨ çĤİ
ä½ĵ ç³»
éĿ ¡
éĩį ç»Ħ
åıĺ çªĦ
é£Łç®¡ çĤİ
éĢĨ æµģ
çĶŁ èıĮ
éģ¿åħį çĨ¬å¤ľ
ä¸Ģæ¬¡ æĢ§
ä¸ºå¤§å®¶ è¯¦ç»Ĩ
è® ¢
ç¥ŀç»ı çļĦ
ç¥ŀç»ı çĹĩ
éĤ»è¿ĳ åĻ¨å®ĺ
æĬ½çĥŁ åĸĿéħĴ
è¿ĩ æ¸¡
æķ´ å½¢
èº«ä½ĵ æģ¢å¤į
çĶ· æĸ¹
å¯¹ æľī
ä¾¿ æĦı
ä¿ĥè¿Ľ è¡Ģæ¶²å¾ªçİ¯
æľĢå¥½ åľ¨
ä¹Ł è®¸
å½ĵ ä½ł
åĻ ª
æķ£ åıĳ
æī§ è¡Į
ä¸Ń éĿĴå¹´
å¤§èĤł åŁĥå¸Į
u t
ä¿ĿæĬ¤ æĢ§
äºİ æĺ¯
åĲİ æĿ¥
å¤§ çīĩ
èį¯ çĶ¨
åħ¶ åİŁåĽł
èĥĥ çª¦
æįŁ å¤±
å®īåħ¨ çļĦ
åıĳçĶŁ çĤİçĹĩ
ç©¿ ç´§èº«
æ°¸ä¹ħ æĢ§
9 9
ä¸ Ī
ä¸į åľ¨
åºĶè¯¥ åľ¨
ä¹Łæĺ¯ åı¯ä»¥
åĽŀ èĤł
; (
èĥ½ æĬĳåĪ¶
æľĢ å¿«
èĬ± è´¹
èĤĿèĦı çĸ¾çĹħ
çĽ´æİ¥ æİ¥è§¦
åĪļ åĪļ
é¼ĵ èĨľ
åĮĸ çĶŁ
æīĢä»¥ ä¸Ģå®ļè¦ģ
ç»Ħç»ĩ æ£ĢæŁ¥
æ®ĭ æ¸£
en s
ä½ľæģ¯ æĹ¶éĹ´
åįķçº¯çĸ±çĸ¹ çĹħæ¯Ĵ
è¾ĥ æĹ©
èĩªèº« æĬĹä½ĵ
å¹¿ ä¸ľ
ä¼ŀ ç«¯
åĳ ĭ
åĴĮ çĽ´èĤł
èĤĿ æİĮ
å¦Ĭå¨ł ç³ĸå°¿çĹħ
åĿĲ å§¿
èĢģå¹´ äººçļĦ
æ·Ģç²ī æł·
å¯¹æľ¬åĵģ è¿ĩæķıèĢħç¦ģçĶ¨
æīĭ èĥĮ
è¿Ľä¸ĢæŃ¥ åıĳå±ķ
æĹ¶ æīį
çĶŁéķ¿ åĽłåŃĲ
é±¼ èħ¥
æĢ§ èĤºçĤİ
æĪ·å¤ĸ æ´»åĬ¨
I D
åľ¨ æ²¡æľī
æ¬ł ä½³
å¦Ĥæŀľ å®Ŀå®Ŀ
âĢ Ĥ
ä¸įèī¯ ä¹łæĥ¯
æĢ» ç§°
çļĦ æģ¶æĢ§èĤ¿çĺ¤
æ¿Ģ çĥĪ
ç¥ ĸ
éĵ¶ èĬ±
çĭ¬ çī¹
æµģ æ³ª
åħ¬ åĪĨ
æº¶è¡ĢæĢ§ è´«è¡Ģ
æĺĨ èĻ«
æ¤įçī© æ²¹
6 00
éª¨ ç§ĳ
åĪĩå¼Ģ å¼ķæµģ
æĹ©åıĳçİ° æĹ©æ²»çĸĹ
çļĦ ä¸´åºĬçĹĩçĬ¶
é«ĺ èĥĨåĽºéĨĩ
èħº æ³¡
ç»ıå¸¸ çĨ¬å¤ľ
çĸ±çĸ¹ çĹħæ¯Ĵ
æĹ©åŃķ åıįåºĶ
ç³¯ ç±³
åīįåĪĹèħº çĸ¾çĹħ
éĿĴ ç´«
èĮ¶ ç¢±
ç¥Ľ é£İ
èĬ¦ èįŁ
ä¸ĢäºĽ çĸ¾çĹħ
æıĲä¾Ľ äºĨ
ä¼Ĺ å¤ļ
çŃī åĿĩåı¯
æ°´ æ¸©
éĻį è¡Ģç³ĸ
ç¬¬äºĮ ç§į
æĪĳä»¬çļĦ èº«ä½ĵ
ä¸Ģ ä¼ļ
èĤ¿çĺ¤ æłĩå¿Ĺçī©
å¤§éĩı åĩºè¡Ģ
æ»ĭ æ¶¦
é¢Ŀ åı¶
åı¯ä»¥å¸®åĬ© å¤§å®¶
P E
æ²»çĸĹ èµ·æĿ¥
æĪĸ å¤ļä¸ª
èĥĥ çĸ¼
æľįçĶ¨ ä¸ĢäºĽ
ç³ĸå°¿çĹħ è¶³
éĨĴ æĿ¥
G H
åºĶ ç§¯æŀģ
æµ· èĹ»
çĹħ æĢģ
æĿ¥ äºĨè§£ä¸Ģä¸ĭ
çļĦæĥħåĨµ åıĳçĶŁ
å°¿éģĵ çĤİçļĦ
åħħè¡Ģ æĢ§
èĢĲåıĹ æĢ§
æ²»çĸĹ ä¸Ń
éĿŀ åħ¸åŀĭ
çļĦæ²»çĸĹ åİŁåĪĻ
5 2
æĢ§ åıĳä½ľ
ä¸Ģ çĶŁ
è½» æĺĵ
æĲ ħ
éĴĪå¯¹æĢ§ æ²»çĸĹ
åħįçĸ«åĬĽ ä¸ĭéĻį
èģļ åĲĪ
æĪĸ åĳĪ
ä¼ļ ä¼´æľī
æİ ©
ä¸¥éĩį åĲİæŀľ
èµ ¶
æĴŀ åĩ»
æł Ĺ
çĶŁæ´» ä¸Ĭ
åĽĽ ä¸ª
åŃĲå®«é¢Ī ç®¡
åĩĿè¡Ģ åĽłåŃĲ
4 6
è¾ĥ æħ¢
ç³ľçĥĤ éĿ¢
æ²ī éĩį
é¢Ŀ å¤´
çļĦ éĥ¨åĪĨ
åŃĲå®«åĨħèĨľ å¢ŀåİļ
éĻĲ åº¦
æĢ» ç»ĵ
èįī æľ¬
èķ Ĭ
åĺ´ åĶĩ
å¼ Ĭ
ä½İ ä½į
æĹ¶éĹ´ çŁŃ
èĥĨ æĢ»ç®¡
çªĺ è¿«
å°± æ²¡æľī
æĤ£èĢħçļĦ çĶŁåĳ½
æ§ ½
åħ¶ä»ĸ èį¯åĵģ
èĤĮ çº¤ç»´
æ°´æŀľ çŃī
è¯¸ å¦Ĥ
è¯ĬæĸŃ åĴĮæ²»çĸĹ
éĢĢ çĥ§
åį«çĶŁ è¡ĮæĶ¿
åĴ½ ä¸ĭ
è½¬ç§» èĩ³
æĬĺ ç£¨
çĦ¶åĲİ çĶ¨
çº¯ æ£ī
èĤļåŃĲ çĸ¼
æĺ¯å¾Ī éĩįè¦ģçļĦ
æ¼ı è¯Ĭ
æĥ «
è¦ģ èĢĥèĻĳ
è¿ĻäºĽ åĽłç´ł
å£° éĹ¨
æģ¶çĹħ è´¨
é¼» åŃĶ
ï¼Ľ ï¼Ī
å®ľ åĲĥ
èĤĽéĹ¨ æ¹¿çĸ¹
èĥ½ ä¸įèĥ½
éĹ ²
æ¶Ī èŀį
ä¸¥ ç¦ģ
æĮģç»Ń åŃĺåľ¨
ç¨į æľī
ä¸İ æŃ¤
çĮª èĤĿ
åĨ° ç³ĸ
èĩª ä¿¡
èī² æĸĳ
éĤ£ ç§į
éĿĻ æ»´
æĲ ŀ
çļĦçĶŁæ´» æĸ¹å¼ı
å¦Ĥæŀľ æĪĳä»¬
èĤ¾ éĺ³èĻļ
è½¬ä¸º æħ¢æĢ§
B åŀĭ
y c
æľī æĬ¥éģĵ
è¦ģ éĢīæĭ©
åĩĿè¡Ģéħ¶ åİŁ
åĮĸ çº¤
æĺİ çĻ½
æİĴ æ¶²
åľ° ä½į
å¤įæĿĤ æĢ§
çĽ¸åĲĮ çļĦ
è° µ
å¹³ æĹ¥
ä¿Ŀ éĻ©
å±Ģéĥ¨ ç»Ħç»ĩ
åĩł åĪĨéĴŁ
åĽĽ å·Ŀ
è¾ĵåįµç®¡ éĢļ
æľī å°ĳéĩı
åĴĮ ç²¾ç¥ŀ
âĢ ¦
éĥ½æĺ¯ çĶ±äºİ
çľ¼çĲĥ çªģåĩº
ç±»é£İæ¹¿ æĢ§åħ³èĬĤçĤİ
æĺ¯æĮĩ çĶ±äºİ
å¤ĸçķĮ åĪºæ¿Ģ
ç¼ºéĵģ æĢ§è´«è¡Ģ
æľīæ°§ è¿ĲåĬ¨
å¸¸ åĲĥ
å°¿ å´©
å®ļ åĲĳ
è¢« ä¼łæŁĵ
éħ¶ æĬĳåĪ¶åīĤ
åĪĿ æ½®
èģĶåĲĪ åºĶçĶ¨
ä¸Ń åĲ«
åıĹ å½±åĵį
è½¬ åĬ¨
åĽĽ çİ¯ç´ł
å¼Ģå§ĭ æĹ¶
æ¯« æĹł
æ°ĳ éĹ´
çŁĽ çĽ¾
è¡¨ å±Ĥ
èĤĮèĤī çĹīæĮĽ
æĺĵæĦŁ æĢ§
ç»¿åı¶ èĶ¬èıľ
L E
åĮ Ļ
è½» åŀĭ
éĤ£ å°±æĺ¯
èĥ½å¤Ł å¸®åĬ©
ä¹ħèĢĮ ä¹ħä¹ĭ
ä¸į ä¼ļåĩºçİ°
äºº ä¸º
æĢ¥æĢ§ éĻĦçĿ¾çĤİ
ç»ĵèĬĤ çĬ¶
åĪĿ å§ĭ
ä½¿çĶ¨æľ¬åĵģåīį è¯·åĴ¨è¯¢åĮ»å¸ĪæĪĸèį¯å¸Ī
èĦ± æ°¢
è¿Ļæł· å°±
ä»ħ ä¸º
åıĺ è´¨
åĩł åįģ
è¡¨éĿ¢ æĬĹåİŁ
å¯¹ äººçļĦ
æĺ¯ ä¸įåĲĮçļĦ
çĻ½ éħĴ
å¹´ åĲİ
æľīå®³ çī©è´¨
æľī çĽ´æİ¥
ä¸į çĿĢ
æĹ¶ åĪĨ
å°¿ é»Ħ
çĸ² æĥ«
åĴĮ åįµå·¢
ä¹Ł åľ¨
çĿ¾ä¸¸ æīŃè½¬
èĪĮ è´¨
æ© Ħ
ç»Ĵæ¯ĽèĨľ ä¿ĥæĢ§èħºæ¿Ģç´ł
æĺ¯ä¸Ģç§į æ¯Ķè¾ĥå¸¸è§ģçļĦ
å®Įæķ´ çļĦ
èĦĬæŁ±ä¾§ åĩ¸
åıĺ çļĦ
æĹ¥ çĽĬ
èĥ± æ°¨éħ¸
çīĽ ç¾ĬèĤī
ä¸¹ åıĤ
èĥİ åģľ
è¿ĺæĺ¯ éľĢè¦ģ
åĪĽ åı£
çº§ åĪ«
o b
åĴĮ ç»´çĶŁç´ł
çĶ²çĬ¶èħº åİŁæ°¨éħ¸
ç§» è¡Į
åĲ¬ è¯Ĭ
æľīä»¥ä¸ĭåĩł çĤ¹
æĬ« éĴĪ
å¼ ¦
å¸¸ è¢«
è¿ĺ çº³
æĻļæľŁ çĹĩçĬ¶
æĢ§çĬ¶åıĳçĶŁæĶ¹åıĺæĹ¶ ç¦ģæŃ¢
èĢĮ éĿŀ
ä½¿ äºº
èĦĳèĨľ çĺ¤
ç¨ĭåº¦ ä¸Ĭ
ä¾Ŀ çĦ¶
çĶŁèĤ² åĬŁèĥ½
èħ°æ¤İ éª¨è´¨å¢ŀçĶŁ
æĪ¿å®¤ ä¼łå¯¼éĺ»æ»ŀ
å¤§ æĦı
èį¯çī© çŃī
å½ĵ å¤©
æ¤ °
ä¼łæĴŃ çļĦ
ç²ĺèĨľ çļĦ
ç£¨ çīĻ
çĹħ åĦ¿
æĺĵ å¯¼èĩ´
åħ³èĬĤ åĽĬ
è£Ĥ éļĻ
æĺ¯æĮĩ çĶ±
å½»åºķ æ²»çĸĹ
çĶŁåĨ· çļĦé£Łçī©
é¡¶ éĥ¨
åĩºçİ° çĸ¼çĹĽ
æ¸ħ æī«
å¤Ħ å¥³
åĨłçĬ¶ çĹħæ¯Ĵ
F SH
éĵ ¬
åĪĨéĴŁ å·¦åı³
åīį åĮº
å¾Ī å¸¸è§ģçļĦ
ä¾¿ ä¼ļ
çĻ½å¸¦ å¤ļ
åģľ æ»ŀ
åħŃ ä¸ªæľĪ
çĶ²çĬ¶èħº çĻĮçļĦ
æ¯Ľ çĹħ
éķ¿æľŁ å¤§éĩı
åĿı çĸ½
çķĻ ç½®
è¾ĥä¸º å¸¸è§ģ
åľ¨ æŃ£å¸¸æĥħåĨµä¸ĭ
çĹħæĥħ è¿Ľå±ķ
æ°¨ éħ°
æĹ©çĿ¡ æĹ©èµ·
æľī è½»åº¦
éĺ Ī
åı¯ä»¥ å°Ĩ
å¿« ä¹Ĳ
å²ģ ä»¥ä¸ĬçļĦ
åĳķåĲĲ çī©
è·Į åĢĴ
å¤ļåĲĥ æ°´æŀľ
éĺ¿ èĥ¶
åĸĤ å¥¶
ä¸ĭèħ¹éĥ¨ çĸ¼çĹĽ
åĪºæ¿Ģ æĪĸ
æĢ¥æĢ§ åĴĮæħ¢æĢ§
æĶ¯æ°Ķç®¡ æī©å¼ł
è´®èĹı æĸ¹æ³ķ
èĽĶ èĻ«
èĲ ¼
è¢« åĲ¸æĶ¶
æ®ĭ çĸ¾
æĻ®éĢļ çļĦ
æľī å¼Ĥå¸¸
å¤ļ è¡¥åħħ
âĢ ¢
å®Ŀ å¦Ī
ä¸įèĥ½ å®Įåħ¨
ä¹Łæľī åı¯èĥ½
âĳ £
å¿ĥåĮħ çĤİ
æĮ« æĬĺ
HS V
åģ¥ å¿ĺ
åĲĦ åľ°
æ´»åĬ¨ æĹ¶
è§Ĥ çĤ¹
æīª åıĬ
e æĬĹåİŁ
ä¸Ń åįİ
è¯ĬæĸŃ åĴĮ
åıĳèĤ² éļľç¢į
æĹ¶éĹ´éķ¿ äºĨ
æ©Ħ æ¦Ħ
èĩ ¼
æŀľ èĥ¶
ä¹ĻèĤĿ çļĦ
èĢģå¹´ æĤ£èĢħ
åĿļæĮģ æ²»çĸĹ
ä¸įæ´ģ æĢ§çĶŁæ´»
å¤ĸåĳ¨ è¡Ģ
å¤ļ éĩĩçĶ¨
èĤł åĨħ
åı£ èĭ¦
éĥ½æľī åı¯èĥ½
èĵĿ èī²
å°¿ å¸ĥ
åĪĨæ³Į æĹºçĽĽ
ä»İ ä¸ĬéĿ¢
éħĴç²¾ ä¸Ńæ¯Ĵ
åıį è·³
å°ĳæķ° çĹħä¾ĭ
çĽ² çĽ®çļĦ
è¡ĢåĲ¸ èĻ«çĹħ
å¸ĮæľĽä»¥ä¸ĬçļĦ åĨħå®¹
åı¯ä»¥ åİ»
æľ¯åĲİ çļĦ
ç²ī å°ĺ
æĢķ çĥŃ
éĨĽ åĽºéħ®
åı¯ åĩıè½»
çĶ¨ éĢĶ
èĥĥ åºķ
æ¿Ģç´ł æ²»çĸĹ
èĦļ éĥ¨
å°ĳ éĥ¨åĪĨ
ä¸¥éĩįçļĦ åĲİæŀľ
çĥŁ èįī
æĪĺ èĥľ
ï¼ī ï¼ļ
åĿıæŃ» æĢ§
è¿Ļä¸Ģ çİ°è±¡
æĺ ¼
åľ¨ äººä½ĵ
åı¯ä»¥ è¯´
ä¸´åºĬ åºĶçĶ¨
æļ´ åıĳ
å¦Ĥ è¾£æ¤Ĵ
æŃ¤ æ³ķ
éĢĤåºĶ çĹĩ
ç¥Ľ éĻ¤
C H
èĤĮ ç¾¤
10 9
çĿ¾ä¸¸ çĻĮ
æľīä¸Ģå®ļ åħ³ç³»
æľīå¾Īå¤§çļĦ åħ³ç³»
æ©Ļ åŃĲ
åħĭç½Ĺ æģ©
h c
å¸¸ åı¯
åĲİ ä¼ļ
æĺ¯ å¤ļå°ĳ
è¿ŀ æľį
ä¸ª æĢ§
æł¹æį® æĤ£èĢħçļĦ
çļĦæĤ£èĢħ åľ¨
èĦĳè¡Ģç®¡ çĹħ
ä¸ªä½ĵ åĮĸ
æŁ¥ çľĭ
ç»Ĩèĥŀ ä¸Ń
æį® ç»Łè®¡
åĤ¬ åĮĸ
åı¯ä»¥ åıĳçİ°
ä½¿ çļ®èĤ¤
ä½Ĩæĺ¯ å¯¹äºİ
è¿ĻäºĽ èį¯çī©
çīĩ æĪĲåĪĨæĪĸå¤Ħæĸ¹
æĿĤ ç²®
èĥĨæ±ģ æ·¤ç§¯
å¤ļæł· åĮĸ
ä¼ į
æķ Į
åıĺ ç»Ĩ
ä¾Ŀ æ¬¡
éĹ¨éĿĻèĦī é«ĺåİĭ
æĪĸ ä¼´æľī
æĹł ç²¾
èĤ¾ æ°Ķ
çĶŁéķ¿ äºİ
ç»ĦæĪĲ çļĦ
æ² ¥
æ²»çĸĹ ä¸įå½»åºķ
å°ı éº¦
çļĦçĹĩçĬ¶ å°±æĺ¯
æĢ¥æĢ§ çļĦ
éĢļå¸¸ ä¸º
æĺ¾èĳĹ çļĦ
Î ²
åĦ¿ èĮ¶
çļ®èĤ¤ çĻĮ
å®¹æĺĵ æ¶ĪåĮĸçļĦé£Łçī©
çĽ´èĤł æĮĩ
æĤ£çĹħ æľŁéĹ´
æ²Ļ éĹ¨
åŃ¦èĢħ è®¤ä¸º
ä¸Ī å¤«
èĤĿ æ°Ķ
åħ¶ åıĳçĶŁ
æ£ĢæŁ¥ åĲİ
ä¹ĭåĲİ åĨį
èĢ³ åĲİ
ä¸Ńè¥¿åĮ» ç»ĵåĲĪ
èĢĮ æŃ»äº¡
åĩºè¡Ģ åĢ¾åĲĳ
èī²ç´ł èĦ±å¤±
åĲ¬ ä»İ
å±ħ ä½ı
D A
åŃ¦ ç§ĳ
ä¸ŃåĮ» ä¸Ńèį¯
ç»¿ èĮ¶
åĳĬ çŁ¥
åĴĮ è½¬ç§»
åıĬ æ²»çĸĹ
çª į
ç²Ĺ å¤§
æĺ¯æ¯Ķè¾ĥ å¸¸è§ģçļĦ
æīĺ åĵģ
åĢ¡ è®®
Ġ v
çĬ¶ çī©
æį ı
å¤į åİŁ
ä¸įèĥ½ æŃ£å¸¸
èĥİåĦ¿ åıĳèĤ²
è¡Ģæµģ åĬ¨åĬĽåŃ¦
å¾Ī åı¯èĥ½æĺ¯
åįµ åľĨå½¢
åĪĨåŃĲ éĩı
è¿½ æ±Ĥ
i p
ä¼ļ éļıçĿĢ
çĹħåİŁ å¾®çĶŁçī©
çŃī ä½ľçĶ¨
çĻ½ æľ¯
æĿ¥ éĢīæĭ©
å¼Ģ æľĹ
èĤĽéĹ¨ æĭ¬çº¦èĤĮ
æ¼ Ĥ
è¾ĥ ç¡¬
çļĦæĥħåĨµ åĩºçİ°
ä»¥åħį å½±åĵį
æľīä¸Ģ éĥ¨åĪĨ
çļĦ åħ·ä½ĵ
éĺ´ èĴĤ
äºĮ éĨĩ
æŁļ åŃĲ
Ġ ä¸İ
å¾Ĺ å½ĵ
ç»Ł ç§°ä¸º
å¯¹ äººä½ĵçļĦ
åĽłç´ł çļĦ
åıĮ éĩį
åģı æĸ¹
ä¹Łåı¯ä»¥ æĺ¯
ä½ıéĻ¢ æ²»çĸĹ
éĿ©åħ° éĺ´æĢ§
åĪĨæŀĿ æĿĨèıĮ
å¤ļ çļĦé£Łçī©
å¯¹ åŃķå¦ĩ
çīĩ çļĦçĶ¨æ³ķçĶ¨éĩı
æĲĶ çĹĴ
èĵĦ ç§¯
èį¯ æķĪ
æ·ĭ çĹħçļĦ
èķ ´
ä¸įçĶ¨ æĭħå¿ĥ
æĬĹçĤİ èį¯
æĤ£èĢħ å¹³æĹ¶
æ¡ ¶
åĽº æľī
å¤´ çĻ£
èĤĮ çĹīæĮĽ
æĢ¥æĢ§ èĥĥçĤİ
å·¦ æĹĭ
æĿŁ æĶ¯
åĬĽ çļĦ
å¤ļç§į ç»´çĶŁç´ł
åİŁåıĳæĢ§ åĴĮç»§åıĳæĢ§
ä¸į ä½ı
å¯¹ èĩªå·±çļĦ
å¹¶ è¿Ľè¡Į
æľĪç»ı å¹²åĩĢ
èĥĢ æ»¡
æ¸¸ æĪı
éĻĪ çļ®
èĤĮ åĨħæ³¨å°Ħ
æīĢä»¥ å½ĵ
åıĳä½ľ çļĦ
çļĦ è¡£æľį
åĴĮ åĬŁèĥ½
å¯¹ åŃ©åŃĲ
åĩºçİ° å°¿é¢ĳ
å¾Ī é«ĺçļĦ
éľ² åĩº
åıĬæĹ© åıĳçİ°
å¯ ¸
å¤§ åŀĭ
ä¼ļæľī æīĢ
åĲĦç§į åİŁåĽłå¼ķèµ·çļĦ
C P
æ¬¡ äºİ
è¶³ æľĪ
é»ı éĻĦ
çĹħç¨ĭ è¾ĥéķ¿
2 9
éĺ´éģĵ å£ģ
çĸ¼çĹĽ åıĬ
åĪĨæ³Į å¢ŀå¤ļ
èĤĽéĹ¨ æģ¯èĤī
æľī æĢ§çĶŁæ´»
çĤ Ļ
è¾ĥ å¤ļè§ģ
éª¨ æĢ§
èī² èĥº
é»Ħ è¿ŀ
ä¼¼ ä¹İ
ä¸ĸçķĮåį«çĶŁ ç»Ħç»ĩ
çļĦ åħ¶ä»ĸ
ä¸į éļ¾
èĢĮ éĢłæĪĲçļĦ
é«ĺ åĩº
å®ŀ è´¨æĢ§
è· Ľ
è¿Ļæł· æīį
æį¢ æ´Ĺ
å¿ĥèĤĮ ç¼ºè¡Ģ
çģµ æķı
éĢ ĥ
ä¸ĭ å·´
åĩºçİ° çĹĩçĬ¶
åĩıå°ĳ æĪĸ
çĶ¨èį¯ éĩı
å¤§èĦĳ çļ®è´¨
ç§ĳåŃ¦ çļĦ
åĮĸ éħ¶
è¿ Ŀ
ä»¥ æŃ¤
ä¹Ļ åŀĭ
æĥ³ åĲĲ
åĿĲ åľ¨
èħ°æ¤İ éĹ´çĽĺ
éŀĭ åŃĲ
å¦Ĥ ä¸º
æº ı
åĪĩ éĿ¢
è¾ĵåįµç®¡ éĺ»å¡ŀ
å¹¿ å¤§
å°¿è·¯ æ¢Ĺéĺ»
é¢ĳç¹ģ çļĦ
æľīäºº è®¤ä¸º
ç¨ĭ åºı
åıĳçĹħ åīį
æĲ ¬
åĦ¿ç«¥ æľŁ
åķ ¤
å¾Īå®¹æĺĵ éĢłæĪĲ
ç¡®è¯Ĭ åĲİ
å¹¼ èĻ«
ä¿ĿæĮģ çļ®èĤ¤
ä¼łæŁĵ æĢ§çĸ¾çĹħ
è¶Ĭ éķ¿
ä½ĵæ¸© åįĩé«ĺ
å°½æĹ© æ²»çĸĹ
çĹĩçĬ¶ æľīåĵªäºĽ
æĹ¥ åĲİ
èĥİåĦ¿ åľ¨
ä¸¥æł¼ çļĦ
åīį éĿ¢
èĲİ éĿ¡
æ±¤ çŃī
çŁŃæļĤ çļĦ
ä¸Ń éļĶ
è¿ĩ åĬ³
åĲ«æľī å¤§éĩıçļĦ
æĺ¯ä¸į éľĢè¦ģ
å¯¹ è¯ĬæĸŃ
åĿłèĥĢ æĦŁ
å°ıç±³ ç²¥
ä¸Ģ ç»Ħ
è½» æŁĶ
éĻĦ å±ŀ
å¥¶ æ²¹
æľīçļĦ çĹħäºº
il l
æĭī ä¼¤
èħ¹ èĤĮ
éª¨ åħ³èĬĤçĤİ
ç¥ŀç»ı çº¤ç»´
ä¸¤ æĢ§
æķĪæŀľ å¥½
èĤĿçĤİ çĹħæ¯Ĵ
ç´¯ ç§¯
çļ®æįŁ ä¸º
çļĦ éĿĻèĦī
æĹł ç²¾åŃĲçĹĩ
å¿ħé¡» æ³¨æĦı
çłĶç©¶ æĺ¾ç¤º
å½©è¶ħ æ£ĢæŁ¥
æ¡¥æľ¬ çĶ²çĬ¶èħºçĤİ
åĴĮ åŃĲå®«
è¿Ľè¡Į ä¸ĢäºĽ
åł ª
å°ĳåĲĥ è¾Ľè¾£
åħ³éĶ® çļĦ
èī¾æ»ĭ çĹħçļĦ
èħ¹ ä¸»åĬ¨èĦī
é¢Ħ ç¤º
å°±æĺ¯ åľ¨
åħįçĸ« æ²»çĸĹ
åįĬ è¡°
å¹´é¾Ħ æ®µ
çĹħç¨ĭ éķ¿
ç®¡ çĭŃçªĦ
èĦĳ çĺ«
èĦĵ è¡Ģ
ç²¾åŃĲ åĴĮ
æĺ¯ èĥ½å¤Ł
å¦Ĥ åľ¨
éĿ¢ ä¸´
çİ°åľ¨ çļĦ
åĪĽä¼¤ æĢ§
ç¢³éħ¸ æ°¢
ä¹ĥ èĩ³
ä¸į å¼Ģ
çĹĽ çŃī
å®« åı£
èĤĿèĦ¾ èĤ¿å¤§
ä½İèĽĭçĻ½ è¡ĢçĹĩ
ä¸į åģļ
åĲİ ä»£
åıĳçĶŁ æĦŁæŁĵ
è¡¥ æ°´
æľīèĲ¥åħ» çļĦé£Łçī©
æĪĸ å°ı
æĺĵ åıĹ
åĽĬ å£ģ
çľĭ åĮ»çĶŁ
å©´åĦ¿ æ¹¿çĸ¹
n e
æ°´çħİ æľį
æĢ¥ èħ¹
è¢« è¤¥
ãĢĤ( ãĢĬ
æŁĲ ä¸ª
çļĦ ç»ĵæŀĦ
åĲ ®
åī ĳ
æľĪç»ı å¼Ĥå¸¸
å¾Īå¥½ åľ°
æł¸å¿ĥ æĬĹä½ĵ
æľī ä»¥ä¸ĭ
ä¹Łä¸į ä¸Ģæł·
åĴ¬ ä¼¤
èĤĿ æįŁå®³
ä¸ī åĪ°
èĻļ å¯Ĵ
æµĵåº¦ çļĦ
çĻĮ ç»ĨèĥŀçļĦ
ä½Ĩæĺ¯ çĶ±äºİ
é¦ĸ è¦ģ
èĥİåĦ¿ çķ¸å½¢
ä»¥åıĬ åħ¶ä»ĸ
çĽĨèħĶ åħħè¡Ģ
èĬ± æľŁ
æ¯į ç»Ĩèĥŀçĺ¤
èī¯å¥½çļĦ å¿ĥæĢģ
å±Ī ä¼¸
çĳ ľ
M A
P CR
æ¶ Į
ä¹ħ äºĨ
éĴĻåĮĸ çģ¶
åª Ĵ
æķ£ ç»ĵ
es s
æ´Ľ å°Ķ
æĪĳä»¬çŁ¥éģĵ äºĨ
Ġ 9
çļĦ ç§įç±»
åľ¨ æŁĲäºĽ
ç¬ Ķ
åħ³èĬĤ è½¯éª¨
åıĳå±ķ çļĦ
éĵ¶ èĢ³
ä»¥ ç¡®å®ļ
çĹĽ æĦŁ
èĢĮ ä¸įèĥ½
è¿Ļ å¯¹äºİ
åĪĩ ä¸įåı¯
æīĵ åĸ·åļı
åģĩ è®¾
å¸ĮæľĽä»¥ä¸ĬçļĦåĨħå®¹ åı¯ä»¥å¸®åĬ©å¤§å®¶
çļĦ æ¶²ä½ĵ
åıĳçĶŁ æĹ¶
åĲ« éĴĻ
æ¯ĽåĽĬ çĤİçļĦ
çļĦéĩįè¦ģ åİŁåĽł
èµĦ æºĲ
é¡¾ èĻĳ
æ°ĶåĢĻ åıĺåĮĸ
å°¿ æĦı
ä¾¿ äºİ
ä½İ éĴł
çĹħæ¯Ĵ å¤įåĪ¶
çĶ¨æīĭ åİ»
åı¯ ä½ľ
åĪĨ æĪĲ
ä¸´åºĬ çī¹å¾ģ
æ¢ ³
ä¸ŃåĮ» èį¯
çļĦçİ¯å¢ĥ ä¸Ń
ä¼ļ åıĹåĪ°
æķĪ çİĩ
ç»Ħç»ĩ åĻ¨å®ĺ
å² ©
ä¸įä»ħ åı¯ä»¥
æĮ« ä¼¤
å¯ ¡
æŁ ´
ä¸Ĭ åİ»
èĤĿ ç»ĨèĥŀçļĦ
èĤĽ çª¦
å¼± æĻº
éĩį åŀĭ
ç® ±
æ£ĢæŁ¥ åīį
éĩĩ æĶ¶
å»ºè®® åľ¨
çģŃ æ´»
æĮģä¹ħ çļĦ
è¡Ģç®¡ ç´§å¼ł
æ´Ĺ å¹²åĩĢ
è¡Ģæ¶² åĴĮ
å§ĭ ç»Ī
è¦ģå¤ļ æ³¨æĦı
æĦŁæŁĵ åĽłç´ł
ä¸įè¦ģ åĸĿéħĴ
å¦Ĥæŀľ éķ¿æľŁ
èħĶ éļĻ
é»ıèĨľ çļĦ
èĦ¾ å¤§
ç»ĵæŀĦ çļĦ
æµģæĦŁ çĹħæ¯Ĵ
ä¸ĵç§ĳ åĮ»éĻ¢
åķ¤ éħĴ
å°ı ä½ĵ
å¼ķèµ· æĦŁæŁĵ
çĸ²ä¹ı æĹłåĬĽ
çľŁæŃ£ çļĦ
æĺ¯æĢİä¹Ī å¼ķèµ·çļĦ
B æĹı
æĪĳä»¬ ä¸Ģå®ļè¦ģ
ç§¯æŀģ éħįåĲĪæ²»çĸĹ
ç»ĵæł¸ èıĮ
æĿ¥ çľĭçľĭ
æĶ¹ è¿Ľ
åħįçĸ« èĥ½åĬĽ
å¿ĥåĨħèĨľ çĤİ
åıĳçĶŁ éļľç¢į
å¹² ç»ĵ
çł´ ä¼¤é£İ
æķ£ çĥŃ
æľīäºĽ å¥³æĢ§
çħİ çĤ¸
MRI æ£ĢæŁ¥
éķ¿ ä¹ħ
æĪĳä»¬ åľ¨
é£İ çĥŃ
é»Ħä½ĵ åĬŁèĥ½ä¸įåħ¨
æµĨæ¶² æĢ§
è¿Ļ æ®µæĹ¶éĹ´
é¥ °
ç»Ħ åĲĪ
å¹² åĴ³
çļĦæĤ£èĢħ æĿ¥è¯´
åĹ ĵ
åįĬè¡° æľŁ
èį ļ
æĥ Ł
æł· æľ¬
è¿Ľä¸ĢæŃ¥ åĬłéĩį
åĨħ åĽł
éģ¿åħį ä½¿çĶ¨
è¿ĲåĬ¨ ç¥ŀç»ıåħĥ
åıĺå½¢ æĿĨèıĮ
èĩªéĻĲ æĢ§
E R
åº §
è¡Ģ çĹĩçļĦ
ç¼º æ°´
æľª å©ļ
ä¸Ńæŀ¢ æĢ§
åħ¬åħ± åľºæīĢ
ä¸į åĲĪ
ä¸Ĭ èĩĤ
å°±æĺ¯ åĽłä¸º
ä¸įéĢĤ æĪĸ
èĦ±èĲ½ çļĦ
æ¨¡ åŀĭ
åħļ åıĤ
å¯¹ åºĶ
åİ» æŃ£è§ĦçļĦåĮ»éĻ¢
å·¦ å®¤
æģ¶æĢ§ æ·ĭå·´çĺ¤
ä¸Ŀ çĬ¶
èĸı ç±³
èį¯çī© è¿ĩæķı
åħ» çĶŁ
æİ§åĪ¶ æĦŁæŁĵ
ç»ıå¸¸ çļĦ
çĶ²çĬ¶èħºæ¿Ģç´ł åĲĪæĪĲ
åĭ¤ æ´Ĺæ¾¡
éĹ´éļĶ ç¼ºæįŁ
å¨± ä¹Ĳ
çļĦ èį¯çī©æ²»çĸĹ
èº«ä½ĵ æľºèĥ½
å·® ä¸įå¤ļ
æŁĳ æ©ĺ
ãĢģ ãĢģ
éĴ »
åħįçĸ« æĬĳåĪ¶
çĸı å¯¼
çļĦ æĿ¾
åıĺ çĻ½
è¯¦ç»Ĩ çļĦæ£ĢæŁ¥
è¦ģ æľīè§Ħå¾ĭ
æĹł èī²
èĳ¡èĲĦ èĥİ
ä»¥ è½»
çĸ¾çĹħ çŃī
åĴĮ å·¥ä½ľ
åīį å¾Ģ
åĬŁèĥ½ ä¸ĭéĻį
è¾ĵ éĢģ
æĿĢ ä¼¤
å®¶éķ¿ ä»¬
é«Į éª¨
ç³» å¸¦
åĨį æľī
åħ³ç³» å¯ĨåĪĩ
è¶ħå£° å¿ĥåĬ¨
åıĬæĹ¶çļĦ è¿Ľè¡Įæ²»çĸĹ
om a
Ġ ï¼Ī
çĻ½ è´¨
åı³ å¿ĥ
ä½ķ ç§į
å¯¼ å°¿ç®¡
çĤİçĹĩ å¼ķèµ·çļĦ
åıĳçĹħ æĹ¶
ä¹Łæľī ä¸ĢäºĽ
å¦ĩå¥³ çļĦ
% )
Ġ L
åĩºçİ° è¿Ļç§įæĥħåĨµ
èĨľ çļĦ
éĺ´ æĢ§çļĦ
åĪĩ è®°
éĿŀå¸¸ ä¸¥éĩį
æ¥ Ķ
äººç±» ä¹³å¤´çĺ¤
çĿ¡è§ī æĹ¶
æİĴåįµæľŁ åĩºè¡Ģ
s on
çļĦ æĤ£åĦ¿
åı¯ æıĲé«ĺ
çŃī äºİ
ç§į æĹı
äºĨè§£ ä¸ĢäºĽ
æĬ½ åĩº
è¿ĺä¼ļ ä¼´æľī
è¿ĩæķıä½ĵè´¨ èĢħæħİçĶ¨
æľŁåīį æĶ¶ç¼©
Ġ D
åı¯ æľīæķĪ
æ¶Ī é£Ł
æĸ¹éĿ¢ çļĦçĸ¾çĹħ
èĤĽéĹ¨ å¤ĸ
èī¯å¥½çļĦ çĶŁæ´»ä¹łæĥ¯
èĢ½è¯¯ çĹħæĥħ
å·² å©ļ
ä¸įæĺİ åİŁåĽłçļĦ
åĨľ èį¯
äº¤çķĮ å¤Ħ
çļĦ åĻ¨å®ĺ
æľĢ å¸¸
åŃķå¦ĩ åľ¨
ç©º è°ĥ
åľ¨æ²»çĸĹ ä¸Ĭ
æ··åĲĪ æĢ§
åĸ ĥ
ä¹³ èĨı
ä¸įåĲĮ ç±»åŀĭçļĦ
æĵ ħ
è¡Ģ åıĭ
èį¯ æ¶²
éĴ ī
è®© èº«ä½ĵ
æīĭæľ¯æ²»çĸĹ çļĦ
æļ´ èºģ
åĽºå®ļ çļĦ
å¿ħéľĢ çļĦ
è°ĥåĳ³ åĵģ
çļĦ åľ°åĮº
ä¸ĭ è¡Į
æķ° åŃĹ
å¾® è¡Ģç®¡
ä¼ļæľī ä¸ĢäºĽ
ç³Ĭ çĬ¶
å¼ķèµ· äºĨ
ç¡ ħ
èĶ ½
åĪ°åĮ»éĻ¢ åİ»
èĢĲ éĩı
çĶŁåŃĺ æĹ¶éĹ´
æĺ¯æľĢ å¥½çļĦ
èĤºåĬ¨èĦī é«ĺåİĭ
M I
èį¯ æĿĲ
ä¸´åºĬ è¯ĬæĸŃ
éħĴ ç±»
æľª åĪĨåĮĸ
æ¯į ç»Ĩèĥŀ
èŀ ĥ
å¤§èĤł çĻĮ
æ¤İç®¡ åĨħ
ç§Ĵ éĴŁ
æĻĴ å¤ªéĺ³
æĽ´ä¸º æĺİæĺ¾
çļĦ ä¸¥éĩįç¨ĭåº¦
å¸ ½
åľ¨ åĮ»åŃ¦ä¸Ĭ
å½ĵ æĤ£èĢħ
åįµå·¢ çĤİ
åģ¥åº· åĴĮ
æµĨ ç»Ĩèĥŀ
åįłä½į æĢ§çĹħåıĺ
çļĦ éľĢè¦ģ
é¢Ī åĨħ
èĤĿåĬŁèĥ½ æįŁå®³
è°· ç±»
çĹĤ çļ®
å¿Įé£Ł è¾Ľè¾£
èŀĥ èŁ¹
ä¸į åıĬ
å¦Ĥæŀľ çĹħäºº
è¶ ģ
åĬŁèĥ½ è¡°ç«Ń
æľĪ ä»½
è§Ĵ èĨľçĤİ
å¹¿ è¥¿
åħ³èĬĤ çĤİçļĦ
ä¹Łåı¯ å¯¼èĩ´
ç¾Ł åŁº
åį Ł
æħ¢æĢ§ æ¹¿çĸ¹
çĿ¾ä¸¸ ä¸ĭéĻį
å¤«å¦» åıĮæĸ¹
çļ± è¤¶
èĤīçľ¼ è¡Ģå°¿
æĢ§ çĸ¼çĹĽ
èĥĥ èĦĺ
ç±» çĸ¾çĹħ
ä»ħ æ¬¡äºİ
å¤ļç§į åĽłç´ł
èĥĮ æĻ¯
è½»åº¦ èĦĤèĤªèĤĿ
æº¶ äºİ
ç¨Ģ çĸı
çº³ å·®
å°ı éĺ´åĶĩ
åħ¥ æīĭ
éĿĴæĺ¥æľŁ åĲİ
æ³¼å°¼ æĿ¾
çļĦ åĩºè¡Ģ
æĺ¯ å®Įåħ¨
é«ĺ ä½İ
åįķ èĥŀ
ç±³ ç²Ĵ
éĽĮ æĢ§æ¿Ģç´ł
é¢ħåĨħ èĤ¿çĺ¤
ä¸Ģåĳ¨ å·¦åı³
E P
èĢĮ å½±åĵį
æ³¨æĦı ä¸įè¦ģ
çĺĻçĹĴ æĦŁ
å¿Į è¾Ľè¾£
çľŁèıĮ æĢ§
å¹¼ å¹´
ç¨Ģ å°ĳ
åľ¨ ä¸Ģå®ļç¨ĭåº¦ä¸Ĭ
å¤ļ æĺ¯çĶ±äºİ
å¤§ éĻĨ
èµ· æĲı
æĢ§ åĳ³
å¤§ åŃ¦
é¢Ī éĥ¨çļĦ
çľ¼ çļ®
ä¼ļåĩºçİ° ä¸ĢäºĽ
å¸¸ è¯´çļĦ
çĹĩçĬ¶ æ¶Īå¤±
èĲ Į
ä¸Ģå®ļ ä¸įè¦ģ
åıĬæĹ¶ è¿Ľè¡Į
h e
çļĦ æĸ°
æĤ£ éĥ¨
åı¯ä»¥ å¤ļ
æĽ´ å¸¸è§ģ
æĤ£èĢħçļĦ é¥®é£Ł
åĩ¹ åĩ¸
èº¯ä½ĵ çĸ¾çĹħ
å·¥ä½ľåĴĮ çĶŁæ´»
æŃ §
èĲ ĺ
èħĶ éĿĻèĦī
å®ĥ ä¼ļ
æľºä½ĵ å¯¹
çĻ½èī² çļĦ
æģĲ æħĮ
ä¹³æĪ¿ èĥĢçĹĽ
æ²¿ çĿĢ
åħ»æĪĲèī¯å¥½çļĦ åį«çĶŁä¹łæĥ¯
éĢıæ°Ķ æĢ§
æİĴåĩº çļĦ
åĨħ ç¿»
èĥĥ çĹħçļĦ
ä¸ĢèĪ¬ èĢĮè¨Ģ
èĻ« ä½ĵ
èı ±
å¹¶ ä¸İ
æĺĵ éĢłæĪĲ
ç§ĳ å®¤
èµ° åĬ¨
è¿Ľè¡ĮæĢ§ åĬłéĩį
æĹ¥å¸¸çĶŁæ´» å½ĵä¸Ń
ä¿ĿæĮģå¤ĸéĺ´ æ¸ħæ´ģ
åĲİ è¦ģ
ä¸ī èģĶ
è¿Ļç§į çĬ¶åĨµ
æĢ¥æĢ§ åĮĸèĦĵæĢ§
çŁ¥ è§ī
ä½ Ŀ
ä¸Ń å¸¦è¡Ģ
æīĭæľ¯ åĴĮ
èĦĤèĤª çļĦ
é¡º çķħ
ä½¿ èº«ä½ĵ
å¦Ĥæŀľ åıĳçĶŁ
æĲ ½
èĤĮèĤī æ³¨å°Ħ
ä»¥ æıĲé«ĺ
ä¸İ éģĹä¼ł
åĽĬ åĨħ
åħįçĸ« å¤įåĲĪçī©
æĦ ¤
å·¥ ä¸ļ
çĶ·æĢ§ æĤ£èĢħ
å¿ĥçĲĨ åŃ¦
æµ Ļ
çī¹ æľīçļĦ
çŁŃ å°ı
ä¸Ģä¸ªæľĪ å·¦åı³
çļĦ ç¬¬
æĺ¯ ä¸»è¦ģ
ä¸į åģľ
èĤº çĤİçļĦ
åĸĿ ä¸ĢæĿ¯
åĶ ®
åıĳçĥŃ çŃī
æĬµ å¾¡
æ²Ļçľ¼ è¡£åİŁä½ĵ
çļĦ èĽĭçĻ½è´¨
åĲİ åıĳçĶŁ
æ¶ µ
åģ »
è¾ĥ æĺİæĺ¾
è¿ĩç¨ĭ ä¸ŃçļĦ
æ¯ĽåĽĬ åı£
C G
å½¢ è±¡
è¾ħ é£Ł
æĿĢ èĻ«
åľ°æĸ¹ æĢ§
å¹¶åıĳçĹĩçļĦ åıĳçĶŁ
C l
çļĦ å¹³è¡¡
åĴĮ ä¸ĢäºĽ
æİ¥ çĿĢ
ä¾§ ä½į
ç¬¬äºĮ æĢ§å¾ģ
åı¯ è¢«
å¤ļ çĶ±äºİ
èĭ¥ ä¸º
æº¶ æłĵ
æľįèį¯ æľŁéĹ´
å£® éĺ³
é£Ł æĮĩ
å°ĳ ç²¾çĹĩ
è®° è½½
åĲ»åĲĪ æľ¯
çĶ ³
æĺ¯ éĢłæĪĲ
ä¸Ģ å²ģ
æī¾ ä¸įåĪ°
ä½Ŀ åģ»
H b
éĺ² çĻĮ
èĩªèº« åħįçĸ«åĬĽ
èĢ»éª¨ ä¸Ĭ
éĿ©åħ° æ°ı
åıĺ åİļ
çĶŁæ´» ä½ľæģ¯
èĩªè¡Į è½¦
æĥĬ æģĲ
çģµ æ´»
ä¸ĭä¸Ģ ä»£
ä¸´åºĬ æĦıä¹ī
al l
ç½ĳçĲĥ èĤĺ
æĢ§ èĤłæ¢Ĺéĺ»
å®ļ çļĦ
æľº ä½ĵåĨħ
çļĦæĹ¶åĢĻ ä¸Ģå®ļè¦ģ
ãĢĭï¼ļ "
åı¯ åģļ
æĤ£èĢħ å¾Ģå¾Ģ
èĤĮ éº»çĹ¹
å®¹æĺĵ äº§çĶŁ
æĥ³ è±¡
æŁĶ æ¯Ľ
åĶĲæ°ı ç»¼åĲĪçĹĩ
è¿ İ
ä¸į é¥±åĴĮèĦĤèĤªéħ¸
æ²»çĸĹ ä»¥
åĲİ åºĶ
å¥½ å¥½çļĦ
å¾Ī éķ¿æĹ¶éĹ´
åŃķ åįµ
æĬĹ ç²¾ç¥ŀçĹħ
æĿ¾ åĬ¨
çĮ ©
å¯¼ èģĶ
çĹħæ¯Ĵ çĸ£
äºĮ åº¦
å¼Ģ èĥĥ
èĶ¬ æŀľ
èĥ½åĬĽ å·®
æİ¨ æµĭ
ä¸į èĩªä¸»
å¯¹ æĸ¹
ç¤¾ åĮº
çī¹å¼Ĥ æĢ§çļĦ
æ¬§ æ´²
HBs Ag
è·Ľ è¡Į
ä½ Ľ
åı¯ ç»ĻäºĪ
ä¸ĢèĪ¬ ä»¥
ä¾§ åĪĩ
å®Įåħ¨ æ¶Īå¤±
åħ¨éĿ¢ çļĦ
è´® åŃĺ
å¤ļ ä»¥
é«ĺ å¯Ĩåº¦
éĥ½ èĥ½å¤Ł
éĢł åı£
ç²¾ç¥ŀ ä¸įæĮ¯
è¯¦ç»Ĩ æ£ĢæŁ¥
èĩªæĦĪ åĲĹ
ä¸į æŃ£
åĬ £
åįµ ç£·èĦĤ
å¡ Į
æ·± åĳ¼åĲ¸
æ·· æľī
åħħè¡Ģ æ°´èĤ¿
ä»¥ä¸Ĭå°±æĺ¯ åħ³äºİ
çĽĳæĬ¤ä¸ĭ ä½¿çĶ¨
è¡Ģ çĥŃ
çī© çļĦ
åĲĥ å®Į
åĬŁèĥ½ ä½İä¸ĭ
éķ¿æľŁ åºĶçĶ¨
ä»¥ä¸ĭ çļĦ
æĶ¶ç¼© åİĭ
è¶ĬæĿ¥è¶Ĭ å¤§
æİī ä»¥è½»
åºĶåľ¨åĮ»å¸ĪæĮĩå¯¼ä¸ĭ æľįçĶ¨
ç²¾ æ°¨éħ¸
ä¼ł åħ¥
æŃ£å¸¸ äººçļĦ
çº¢ æĻķ
æĹ¥ æĻĴ
æĬĬ å®ĥ
èĤºéĥ¨ æĦŁæŁĵ
å¹³æ»ĳ èĤĮçĺ¤
éļĲæĢ§ éģĹä¼ł
è¶ħå£°å¿ĥåĬ¨ åĽ¾
èĻ ±
å¼Ĥ åŀĭ
çĿ¾ä¸¸ èĤ¿çĺ¤
å¿ĥåĮħ ç§¯æ¶²
éħ®çĹĩ éħ¸ä¸Ńæ¯Ĵ
å§ĳ æģ¯
åĲ ĵ
éģ Ĥ
çĸ¾çĹħ ä¹ĭä¸Ģ
èħ° èĥĮéĥ¨
åĲĳ åĨħ
è¾ĵåįµç®¡ ä¸įéĢļ
éĺ²æŃ¢ æĦŁæŁĵ
å¸ĮæľĽ å¤§å®¶
èľĤèľľ æ°´
éķĩçĹĽ èį¯
ä¸Ģ æĸ¹
åĴĮ è¿ĲåĬ¨
è´¨ éĩıçļĦ
è¿ĺ åı¯åĩºçİ°
æ²¡æľī æĺİæĺ¾
ä¸¤ å¤©
éļıçĿĢ æĹ¶éĹ´çļĦ
é¢ħ åºķ
åĲĪçĲĨ å®īæİĴ
æİīä»¥è½» å¿ĥ
åİĭåĬĽ å¢ŀé«ĺ
ä¸ĭéĿ¢ ç»Ļå¤§å®¶ä»ĭç»įä¸Ģä¸ĭ
æľīå¾Īå¤ļ çļĦ
çĺĢ æĸĳ
è¿Ļç±» é£Łçī©
å°ļæľª å®Įåħ¨
ä¼ĺè´¨ èĽĭçĻ½
åİ»çĶ² èĤ¾ä¸Ĭèħºç´ł
ä»£åģ¿ æĢ§
äºı èĻļ
n g
30 00
åĴĮ åĲ¸æĶ¶
ä¸Ń èµ·
åĬŁèĥ½ æģ¢å¤į
ç¡¬ åĿĹ
çĶŁæĪĲ ç´ł
åĭĥèµ· åĬŁèĥ½éļľç¢į
è¡į çĶŁçī©
ä¸įè¦ģåĲĥ ä¸ĢäºĽ
ç»ĵç¼Ķç»Ħç»ĩ å¢ŀçĶŁ
ç©ºèħ¹ è¡Ģç³ĸ
è¡Ģç®¡ç´§å¼ł ç´ł
åı¯ åıĳçĶŁåľ¨
çĶŁ åŃ©åŃĲ
æĦŁæŁĵ ä¸Ĭ
æİĴ æĸ¥
åħĪ æľī
èħ° èĨĿ
è¿Ł æ»ŀ
åĹħ è§ī
ä¼ļ æ¯Ķè¾ĥ
è¾ĥ æĻļ
ä¸ĭèħĶ éĿĻèĦī
éĴ¡ é¤Ĳ
è¦ģ åģļåĪ°
åİ Ĥ
èĢĮ å½¢æĪĲçļĦ
æĺĵ åĩºçİ°
èĭ ¡
ä¾§ æĶ¯
åķ ¥
æĬĹèıĮ ç´ł
èĤĿ å¤ĸ
çĹħäºº åºĶ
é² «
çļ®ä¸ĭ æ³¨å°Ħ
é¾Ļ çľ¼
å®«åĨħ èĬĤèĤ²åĻ¨
èĤ± éª¨
ä¸Ģ çº§
åı¯ä»¥ åĩıè½»
èĤĿ èĤ¾åĬŁèĥ½
æ³¨æĦı çļĦæĺ¯
çĹħæĥħ ç¨³å®ļ
èĢĮä¸Ķ è¿ĺ
çŃĽ éĢī
çŃĶ æ¡Ī
è°µ å¦Ħ
i on
ä¸į çĽ¸åĲĮ
åģļ ä¸Ģæ¬¡
ç¥ŀç»ı ç»Ĩèĥŀ
çļĦéĩįè¦ģ åĽłç´ł
åı¯ ä¹Ĳ
çĶ¨ åħ·
ç»ı å°¿éģĵ
åħ¶ çĹĩçĬ¶
çĶ² æ°§
æł¹æį® çĹħåĽł
æł¹æį® ä¸´åºĬè¡¨çİ°
èľĤ çªĿ
ä¸įåĲĮ äºİ
å¤ļåĲĥ èĶ¬èıľåĴĮæ°´æŀľ
èĩªå·±çļĦ é¥®é£Ł
çļĦ äºĭ
èį ŀ
å±Ģéĥ¨ è¡Ģæ¶²å¾ªçİ¯
éĢĨè¡Į æĦŁæŁĵ
æ¶¦èĤł éĢļä¾¿
Ġ re
æĤ£èĢħ è¦ģæ³¨æĦı
åīį æıĲ
èĥĥ åı£
åĦ¿ç«¥ åĴĮ
çĻĮçļĦ åıĳçĶŁ
éħµæ¯į èıĮ
u g
å¯¹ åįĬ
å¾Ī å¼º
ä½¿ åŃĲå®«
åĪ¶ åĬ¨
ä¸įèĥ½ çĶ¨
èĦ± æķı
ç¾ ŀ
æįŁä¼¤ åĴĮ
ä»¥åħį åĬłéĩį
éĥ½ æ¯Ķè¾ĥ
ç³ĸ èĽĭçĻ½
é»Ħ æŁĵ
H T
è¡Ģ èī²
å±Ĥ çļĦ
æĢ§ å¤´çĹĽ
åĩº éĹ¨
æĿ¥ æĶ¹åĸĦ
åģ¥ ä¾§
æĦĪ åĲİ
åĦ¿ç«¥ å¿ħé¡»åľ¨
çĹħ æĤ£
äºĮ çº§
çľŁèıĮ çĹħ
å¤§å¤ļ æĺ¯
C o
æł¹ æºĲ
èĦĵ åĮħ
å¯Ł è§ī
å¤ĸä¼¤ åı²
çļĦä¸Ģä¸ª éĩįè¦ģ
æ¤įçī©ç¥ŀç»ı ç´Ĭä¹±
è¡ĢåĲ¸ èĻ«
äº ¿
è¿Ľåħ¥ åĪ°
19 7
è½¬æ°¨éħ¶ åįĩé«ĺ
P G
çĶŁ å®Į
ä¹³ æĻķ
ç¼© çªĦ
çĽ¸åħ³ çļĦæ£ĢæŁ¥
åı£æľį éģ¿åŃķèį¯
çĸ£ çĬ¶
ï¼į ï¼į
å±Ī åħī
èĬ³ é¦Ļ
å® Ĺ
æĹ¶ ä¼ļ
åºĶ åħĪ
èĤĿ è½¬ç§»
å¿ĥ æºĲæĢ§
çļĦçĹĩçĬ¶ ä¹ĭä¸Ģ
æĪĸ ä¸İ
çĶ² é±¼
ç±» æĬĹçĶŁç´ł
å¤± æ°´
èĽ ¤
ç»Ħç»ĩ åĿıæŃ»
åį³ ä¾¿
ä¸įä¼ļ å¼ķèµ·
èĸĦ èĨľ
ä¸į åĲ¸çĥŁ
æ²»çĸĹ çĸ¾çĹħ
ç»ĵ è®º
ç¥ŀç»ı æľ«æ¢¢
å¹² æĢ§
åĴ¨è¯¢ åĮ»çĶŁ
è¡Ģ å¾ªçİ¯
åĲĥ æ°´æŀľ
çĶ²çĬ¶èħº ç»Ħç»ĩ
çĬ ¹
æĪĲ èĻ«
é¼» åĩºè¡Ģ
æĶ¶ç¼© åĬĽ
åıĤèĢĥ åĢ¼
Ġ th
èħ Ĭ
ä¸Ĭ åĩºçİ°
åĲĮæĹ¶ æľįçĶ¨
æķĳ æ²»
æ·»åĬł åīĤ
ä¸Ģ åĿĹ
è¾ĵåįµç®¡ çĤİçĹĩ
çĹĩçĬ¶ è¾ĥè½»
æŃ£ æ¯Ķ
éļĲ çªĿ
ç¬¬äºĮ æ¬¡
çĿ¡è§ī åīį
åīĸèħ¹ äº§åĲİ
æ°¯åĮĸ éĴł
è¦ģ ä¿Ŀè¯ģ
è¶ħ åĩº
æ·ĭå·´ æ¶²
è¯ķ çĶ¨
æİ¨ åĬ¨
åĮĸåŃ¦ æĪĲåĪĨ
äºī è®®
C S
Ġ ãĢĤ
ä¸į å¼ł
åı¯ éļı
ä¼¤ åıĬ
ä¸¥éĩį çļĦæĹ¶åĢĻ
ä¸¥éĩį çļĦæĥħåĨµä¸ĭ
æľīçļĦ å¥³æĢ§
å¿ĥ åĬŁèĥ½ä¸įåħ¨
çīĩ é¡»æ³¨æĦıçļĦäºĭé¡¹
çĹħçļĦ åıĳçĶŁ
åĪĨéĴŁ åĲİ
åħ³éĶ® åľ¨äºİ
éĢĲ å¹´
åı¯èĥ½ä¼ļ åıĳçĶŁ
å®£ ä¼ł
æħ¢æĢ§ èĤĿçĹħ
åıĳçİ° äºĨ
éĥ¨ä½į åĩºçİ°
æ´»åĬ¨ æľŁ
ä¸ªæľĪ ä»¥ä¸Ĭ
æĸ½ æ²»
çħİ æ±¤
éĶ° éħ¸éĴ¾
ç»ı ä¹ħ
åĦ¿ ç§ĳ
éĢłæĪĲ ä¼¤å®³
ç»ıå¸¸ é£ŁçĶ¨
çĵ ·
æĬĳéĥģçĹĩ æĤ£èĢħ
èıĮç¾¤ å¤±è°ĥ
åĴĮ èĤº
è¿ĩ æľŁ
åıĬæĹ© çļĦ
ä¸Ĭ ç«¯
ç±³ é¥Ń
èĳ¡èĲĦ èĨľçĤİ
è¡Ģ åĩĿ
æ°´ æºĲ
æģ¢å¤į å¿«
ä»¥åĲİ çļĦ
è´ ª
åŃĲå®« èĤ¥å¤§
å¹² çĪ½
ä¸įæ´ģ æĢ§äº¤
è¿ĩ åī©
èĤĿ çģ«
å°¿è·¯ ç»ĵçŁ³
æĮ¥ åıĳ
å¾Ĺ å¤ļ
çļĦ æ¦Ĥçİĩ
è¡¥ çĽĬ
å¿« æĦŁ
çĻ½å¸¦ å¸¦è¡Ģ
åĳ¼åĲ¸ æļĤåģľ
ä¹Łåı¯ä»¥ çĶ¨
12 5
æľī çĹĩçĬ¶
ä»¥ åĪ©
æĤ£èĢħ ä½ĵåĨħ
åı¯èĥ½ çĶ±äºİ
ä½Ĩ å®ĥ
ä½İ çļĦ
å·¥ä½ľ ä¸Ń
åĨ² çªģ
çļĦ è´Łæĭħ
èµ Ľ
åīį é¢Ŀ
è¥ Ħ
çĶŁéķ¿ çļĦ
æ¸¸ èµ°
è¾¨ åĪ«
æľī ä¸įå°ĳ
è¿Ľ ç¨ĭ
èıĮ ä¸Ŀ
ä¸į çĹĴ
ä¸º åİŁåĪĻ
ç»Ĩèĥŀ åŃ¦
èº«ä½ĵ éĶ»çĤ¼
çĿ¡ ä¸įçĿĢ
ä¸įåħ¸åŀĭ å¢ŀçĶŁ
æŁ ³
æ²»çĸĹ éļ¾åº¦
æĺİæĺ¾ éĻįä½İ
éĢīæĭ© éĢĤåĲĪ
åŃ£èĬĤ æĢ§
æĪĸ åĩıå°ĳ
è¿ĩ é¢ĳ
èĢĮ åıĪ
ç¾Ĭ èĨľ
åħĪå¤©æĢ§ å¿ĥèĦıçĹħ
é¥± æ»¡
ä½ĵç§¯ å¢ŀå¤§
æĦıå¤ĸ æĢĢåŃķ
åĳĽ åĴ³
ä¸į åĲ«
è¿ĩ é£Ł
æ¸ ¯
æĿ¥ å¸®åĬ©
æķħ åºĶ
æıĲç¤º æľī
æµĳ èº«
çŁ® å°ı
æĢ§ çĺ«çĹª
åľ¨ ä½¿çĶ¨
æ²»çĸĹ æĹłæķĪ
ç¨ ļ
è£Ĥ å¼Ģ
ä½ł åºĶè¯¥
ä¸ŃåĮ» çļĦ
u b
åĩ Ń
ä¸Ĭ èħ¹çĹĽ
çļ®èĤ¤ ç²ĺèĨľ
éļĲ éļĲ
å¯¹ é¢Ħéĺ²
æ¶Ī çĤİçļĦ
åģļ æ£ĢæŁ¥
è®° ä½ı
æģ¶æĢ§èĤ¿çĺ¤ ä¹ĭä¸Ģ
èī¯æĢ§ çĹħåıĺ
g en
å¤§ä¾¿ æĹ¶
æ´»æĢ§ çī©è´¨
æ·ĭçĹħ å¥ĪçĳŁèıĮ
ä¸Ģæ®µæĹ¶éĹ´ åĲİ
å¦Ĥæŀľ æĤ£æľī
æŃ¤ åŀĭ
éħ¸ èĥĢ
å»ºè®® åıĬæĹ¶
éĺ¿ æīĺåĵģ
åħįçĸ«åĬŁèĥ½ ä½İä¸ĭ
è¾¹çķĮ æ¸ħæ¥ļ
çļĦ æłĩåĩĨ
çĹħ çĹĩçļĦ
ä»¥ ä¿Ŀè¯ģ
ä½ĵ èĻļ
è¿Ľè¡Į è¯ĬæĸŃ
ä»Ģä¹Ī æĹ¶åĢĻ
éĥ½æĺ¯ åı¯ä»¥
ç©¿ å®½æĿ¾
ç²ī çº¢èī²
5 8
çļĦ åĮ»çĸĹ
ä¸Ģ æ®µ
å¤ĸ è¡¨
èī °
æīĭæľ¯ æĵįä½ľ
æĢ¥æĢ§ çĽĨèħĶçĤİ
åĽŀ ç¼©
æ°´å¹³ åįĩé«ĺ
éħĴç²¾æĢ§ èĦĤèĤªèĤĿ
å¤ļ ä½įäºİ
æĽ ¼
çĽ¸ å¯¹äºİ
èĦĵ è¡Ģä¾¿
åĬ¨çī© å®ŀéªĮ
ä¸ĵå®¶ æĮĩåĩº
ç£¨ æįŁ
åĭ¤æį¢ æ´Ĺ
çļĦ æİ§åĪ¶
çļĦ ä¼¤å®³
ä¸įèĥ½ åıĬæĹ¶
è¶³å¤ŁçļĦ éĩįè§Ĩ
æĺ¾ éľ²
æ´»åĬ¨ éĩı
çĶŁéķ¿ ç¼ĵæħ¢
è¿Ļæĺ¯ ä¸Ģä¸ª
éĥ½ä¼ļ éĢłæĪĲ
çĤİçĹĩ åĴĮ
ä¸įèī¯ çĶŁæ´»ä¹łæĥ¯
æĥħç»ª ç¨³å®ļ
åĩ¹åĩ¸ ä¸įå¹³
+ +
å¤§ ä½ĵ
è¿ĩ äºĨ
éĢļ ç»ľ
çĶ²çĬ¶èħº åį±è±¡
çª¦ æĪ¿
æ²¡æľī åĬŀæ³ķ
æ·± éĿĻèĦī
éĺ´èĮİ çļĦ
å¾ĹåĪ° æİ§åĪ¶
åįģåĪĨ éĩįè¦ģ
åĪ® çīĩ
çľĭçľĭ ä¸ĭéĿ¢
éª¨éª¼ èĤĮ
è¿Ķ æµģ
ä¸Ĭé¢Į çª¦
ä¸į æķ¢
åı¯ ä»İ
ç³ Ł
èĴ ¿
å¸Ĥ åľº
è´Ń ä¹°
çŃī å¼Ĥå¸¸
å¤´ é¢Īéĥ¨
æĢ¥æĢ§ æĦŁæŁĵ
èħ¹éĥ¨ ä¸įéĢĤ
æĶ¯åİŁä½ĵ æĦŁæŁĵ
çĳľ ä¼½
è¡Ģ æ°§
ä¸İ æŃ£å¸¸
ä½Ĩ ä»¥
è¶³ çĻ£
å°¿éģĵ åĨħ
çªģçĦ¶ åıĳçĶŁ
ä¸į åı¯èĥ½
åº Ĩ
é£Łçī© åĴĮ
æł¸ ç£ģåħ±æĮ¯
ç¦ģ æ¬²
è¿ĩæ°§åĮĸ çī©
åįŁ åķī
è¿Ľè¡Į é¢Ħéĺ²
ä»İèĢĮ åĩºçİ°
ä¸Ńèį¯ è°ĥçĲĨ
è¹ Ī
èĦĳ å®ŀè´¨
éĿĻ æ³¨
ä¸įèī¯ æĥħç»ª
ä¸įèĤ² çĹĩ
ä½ľçĶ¨ çļĦé£Łçī©
æĶ¹ çĶ¨
æł¹æį® åħ¶
æľª åıĳçİ°
éĢĲæ¸Ĳ çļĦ
å¤±ä»£åģ¿ æľŁ
é«ĺ é¾Ħ
ä¸¥éĩį åį±å®³
èĤ²é¾Ħ å¦ĩå¥³
åĲĦç§įåĲĦ æł·
I åŀĭ
åīį éĥ¨
çĪ ª
å¦Ĥæŀľ çĹħæĥħ
çªģ åıĳæĢ§
èĳ ¡
æİĴä¾¿ åĲİ
åĲĪå¹¶ æĦŁæŁĵ
æīģ è±Ĩ
çĹħåİŁä½ĵ æĦŁæŁĵ
Ġ ï¼ļ
å¤§ è¡Ģç®¡
ä¸ĭ è¿Ľè¡Į
çĶ² çĻ£
åĲĦ æĸ¹éĿ¢
åĢ¾ æĸľ
è§ĴåĮĸ çĹħ
æĭ®æĬĹ åīĤ
æĺ¯ åħ¶
å¸¸ å¼ķèµ·
æĶ¹ ä¸º
è¿Ļæł· å°±åı¯ä»¥
ç¡Ŀ åĶĳ
¼ éħ¸
åľ £
åľ¨ ä¸ŃåĽ½
è¡¨çİ° çļĦ
ä½İ æ°§
åį³ å°Ĩ
å®ļæĹ¶ æİĴä¾¿
ãĢĤ .
èį ¡
å°¿ å¸¸è§Ħæ£ĢæŁ¥
ç©¶ ç«Ł
åĿļ éŁ§
å¦Ħæĥ³ çĹĩ
èĬ¥ æľ«
åĬŁèĥ½ åĴĮ
å¤´ èĤĮ
åĩºè¡Ģ çĤ¹
äº¦ ç§°
æĹłçĹĽ åĪĨå¨©
åĨ Į
çŃī æľī
æĸĳ ä¸ĺçĸ¹
ä¸´åºĬ è¯ķéªĮ
åĲ« éĵģ
æĺİæĺ¾ ä¸ĭéĻį
å¼ķèµ·çļĦ ä¸Ģç§į
èĩªèº«åħįçĸ« æĢ§èĤĿçĤİ
æľīå¯ĨåĪĩ åħ³ç³»
Ġ æľī
ä¸į æķıæĦŁ
è¾ ©
æĤ£èĢħ åĴĮ
éĻį è¡ĢèĦĤ
æĸ° åŀĭ
èĩ´çĹħ æĢ§
è¦ģ åıĬæĹ¶æ²»çĸĹ
éĥ½ ä¸įèĥ½
èĤ¾ åĬ¨èĦī
å°Ħ é¢ĳ
åĿĲ ç«ĭ
åĲ«æľī çļĦ
æ¸ħæ´Ĺ å¹²åĩĢ
ä¸įå®ľ åĲĥ
ä»¥ä¸ĭåĩł ä¸ªæĸ¹éĿ¢
åºĶ è¡Į
åĲĪ ä½ľ
çĶļèĩ³ åıĳçĶŁ
çĦ¶åĲİ åľ¨
æ³Ľ åıĳ
èĨ¨ å¤§
éĺĲ æĺİ
åħ³ èģĶ
éĿ¢ ä¸Ĭ
è§£ çĹī
æĪĸèĢħ æľī
éļľç¢į åĴĮ
å¤ļåĲĥä¸ĢäºĽ æĸ°é²ľçļĦ
æİ¢ éĴĪ
å¤ªæŀģ æĭ³
ä¸ª çĸĹç¨ĭ
ä½İ çĥ§
é¦ Ĵ
åĸĿ çīĽå¥¶
èĨĢèĥ± ç»ĵçŁ³
çĽ´èĤł æģ¯èĤī
å¤§éĩı ç¹ģæ®ĸ
æĶ¯æ°Ķç®¡ åĵ®åĸĺ
ä»ĭåħ¥ æ²»çĸĹ
ä¸Ļéħ¸ æĿĨèıĮ
èī² æ³½
50 00
åĲĪæĪĲ çļĦ
åŁ¹åħ» åŁº
åį° åº¦
æĹł å¼Ĥå¸¸
èĥ½å¤Ł æľīæķĪçļĦ
äººä½ĵ è´¨
ä¹Łåı¯ çĶ¨
èĮ¶ åı¶
çģ° å°ĺ
å»¶è¯¯ çĹħæĥħ
ä¸į ä¼´æľī
æīĭæľ¯ æĪĸ
çĻ«çĹ« çĹħ
æľĪç»ıéĩı å°ĳ
åĪĨæ³ĮçļĦ æ¿Ģç´ł
èĥĨç¢± èĥ½
ä¸Ĭè¡Į æĦŁæŁĵ
å±ģ èĤ¡
é¾ĭ é½¿
æĬ«éĴĪ å½¢
è¡Ģ è¿Ĳ
çŃ Ĵ
çĹĽ è§ī
çļ® å±ĳ
èĤĿ èĤ¿å¤§
åħįçĸ« åºĶçŃĶ
çĽ¸åħ³ çŁ¥è¯Ĩ
ç¾İ çĻ½
æĤ² ä¼¤
æ³¨ è§Ĩ
å°±ä¼ļ ä½¿
åĬŀ åħ¬
çļ®è´¨ éĨĩ
åĲİ çĹĩçĬ¶
ä»İèĢĮ éĢłæĪĲ
ä¸Ĭçļ® åĨħ
çĶŁåĳ½ ä½ĵå¾ģ
å¹¸ ç¦ı
å½ ¼
è¿ĩ ä¹ħ
å°± ä¸įèĥ½
åģ¥ èº«
æ°´èĤ¿ åĴĮ
ä¸ºä¸Ģ çĸĹç¨ĭ
ä¸º å¤ļè§ģ
çĻ½ å¤´
æĴŃ ç§į
ç»ĦæĪĲ éĥ¨åĪĨ
å¦» åŃĲ
èı ²
åĩĿ èĥ¶
éĶ¥ ä½ĵ
åľĨå½¢æĪĸ æ¤ŃåľĨå½¢
èº«ä½ĵ åĨħ
ä¸¥éĩįçļĦ å¹¶åıĳçĹĩ
å°ĳæķ° äºº
éĢ ¼
å¤ĸ æĿ¥
çľ¼ å¤ĸ
èĢĮä¸Ķ è¿ĺä¼ļ
èĦ¸ ä¸ĬçļĦ
æĳĦåħ¥ ä¸įè¶³
åģľæŃ¢ åıĳèĤ²
ç¦ģå¿Į è¯ģ
åįµæ³¡ åıĳèĤ²
èĬ¦ ç¬ĭ
æµ ĩ
èĭ ŀ
å¤ļåĲĥ çĤ¹
å¤ĸéĺ´ æºĥçĸ¡
æĺ¯çĶ± å¤ļç§į
äººç±» çļĦ
æĦŁåıĹ åĻ¨
èĶĹ ç³ĸ
è¾ĥ å¸¸è§ģ
éĶ ¯
æ¹¿ æķ·
çľ¼ çĹħ
æ´Ĺ æµ´
æŃ» ç²¾
åĲĹ åķ¡
æĮģç»Ń æĢ§çļĦ
åĵª éĩĮ
å¨© åĩº
å¹¿æ³Ľ æĢ§
éĢļå¸¸ éľĢè¦ģ
æĦıè¯Ĩ ä¸§å¤±
æĢ¥èħ¹ çĹĩ
åľ¨ åĮ»éĻ¢
ç¥ŀç»ı éĢĴè´¨
åħ¥ åı£
èĥĮ ä¾§
æ»´ çľ¼
D IC
æ²»çĸĹ è¿ĩç¨ĭä¸Ń
å®ŀ è¡Į
çİ¯å¢ĥ æ±¡æŁĵ
å¼Ģå§ĭ åĩºçİ°
æĻ® åıĬ
è¿ľ æľŁ
éĥ½æľī åĵªäºĽ
é¦Ĵ å¤´
ä¸İ æĤ£èĢħ
é¥®é£Ł åºĶ
çĻ½å¸¦ åĳĪ
å¹¶ä¸Ķ è¦ģ
çĩ¥ çĥŃ
è¡Ģå°ıæĿ¿ èģļéĽĨ
èĤ¾å°ıçĲĥ æ»¤è¿ĩ
o w
å¤§ é»Ħ
éķ¿æľŁ åį§åºĬ
èĢģ æĺ¯
çļĦä¸Ģ ç»Ħ
åĲĪçĶ¨ æĹ¶
è± Į
èİ· åıĸ
5 3
æĪĸ å±Ģéĥ¨
éĩį åŀĭèĤĿçĤİ
åĲĮæĹ¶ æ³¨æĦı
éĢĶå¾Ħ ä¼łæĴŃ
è§ĨåĬĽ ä¸ĭéĻį
é«ĺåį± åĽłç´ł
H O
ä¸ĢèĪ¬ åĪĨä¸º
åĪĨæ³Į å¢ŀåĬł
èĦ¸ èī²
ä½© æĪ´
çļĦ åĨħ
æ²¹ çħİ
å¥¶ åĪ¶åĵģ
äº² åĴĮ
å¸¸ åıĳçĶŁäºİ
åīį æĪ¿
æīĢ å¯¼èĩ´
åıĪ åĪĨä¸º
å®ī å®ļ
æĻļæľŁ æĤ£èĢħ
å¼ĢæĶ¾ æĢ§
èį¯ æ°´
å®«é¢Ī åĩºè¡Ģ
åį³ æľī
ä¸Ģå®ļè¦ģ éĩįè§Ĩ
æ¶¦ èĤº
èī²ç´ł åĩıéĢĢ
çļĦ å¤ļ
ä¸Ģ åº¦
åľ¨ æľī
çĻ ĸ
å°±è¦ģ åıĬæĹ¶
èħ¥ èĩŃåĳ³
çŃī çĹħçĹĩ
ç»Ĩ èĩ´
éħ¸ è½¯
åħ¶ä»ĸ éĥ¨ä½įçļĦ
æİ§åĪ¶ ä½ĵéĩį
ä¸ĩ äºº
è±Į è±Ĩ
çĶŁ åĲĥ
å¦Ĥ æħ¢æĢ§
ä¸įæĺ¯ çī¹åĪ«
åĵª ä¸Ģç§į
åİ» çļ®
å¿ħè¦ģ çļĦæĹ¶åĢĻ
è°ĥèĬĤ ä½ľçĶ¨
ä»ĭç»į ä¸Ģä¸ĭ
åģĩ åįķèĥŀ
å°¿æ¶² ä¸Ń
åĭ¤ æ´Ĺ
å®¶åºŃ æĪĲåĳĺ
èĭ¦ æģ¼
æıĲåıĸ çī©
èĢĮ è¯±åıĳ
æĽ´ æľī
å¼Ģ åıĳ
æ·ĭå·´ç»ĵ çĤİ
å¤±åİ» äºĨ
ä¸į åįıè°ĥ
ä¸ĢèĪ¬ æĿ¥è®²
æķ´ é½Ĳ
çĽ¸åºĶ çļĦæ²»çĸĹ
çĹħæ¯ĴæĢ§ èĦĳçĤİ
æĹ¶ éĴĪ
æŃ£å¸¸ åıĳèĤ²
éĺ³ æ°Ķ
ç¬¬ åįģ
çĿ¾ä¸¸ èĤ¿å¤§
æĴ Ĵ
éĢĲæ¸Ĳ åĩıå°ĳ
LD L
8 00
çĸı èĤĿ
å¦Ĥä½ķ é¢Ħéĺ²
æĺ¯åı¯ä»¥ æ²»æĦĪçļĦ
ç»ĵæĿŁ åĲİ
ä¸Ģ æĹ¶
åı¯ä»¥ è¡¨çİ°ä¸º
æ³Į ä¹³ç´ł
éģ¿åħį è¿Ľé£Ł
å°±æĺ¯ æĮĩ
åħ¨èº« çļĦ
å¥½å¤Ħ çļĦ
ç§į ç§į
ä¹Ł åı¯èĥ½ä¼ļ
å¼ł åı£
çĶ¨èį¯ åĲİ
é²« é±¼
æĸ¹ åı¯
ç±» çī©è´¨
åħ¨èº« ä¹ıåĬĽ
æ·· ä¹±
è°ĥæķ´ å¥½
æŃ£åľ¨ ä½¿çĶ¨
P S
åºĶ å°½éĩı
æľ¯ å¼ı
è¿ĺ åħ·æľī
é¢Ħéĺ² åĴĮæ²»çĸĹæĸ¹æ³ķ
è§¦ ä¹ĭ
åıįå¤į åıĳçĶŁ
åħ¬ è®¤
ä¸Ģ è¾¹
åĴĮ æĬĹ
ç»ı éĺ´éģĵ
ç±» é£Łåĵģ
èĤĽ ä¹³å¤´
çīĩ æ®µ
åĸĿ ä¸ĢäºĽ
æ³¨å°Ħ åĻ¨
èĤº åĨħ
è¶³ è·Ł
åıĪ èĥ½
ä»¥åħį åıĳçĶŁ
æ£Ģæµĭ åĪ°
p l
åĴĮ çĸ¾çĹħ
åı¯ä»¥ æ²»æĦĪ
åģ¥ åħ¨
æĶ¶ åĪ°
æľīå¾Īå¤ļ äºº
åı¯ ç´¯åıĬ
çŃī æĸ¹å¼ı
çĶ² ä¸ĭ
æĦŁæŁĵ è¿ĩ
å½ĵ åīį
å°±ä¼ļ äº§çĶŁ
å¸®åĬ© çļĦ
æ¶¦ èĤ¤
æ··åĲĪ åŀĭ
çļĦåīį æıĲ
éŃ Ķ
æľī ä¸įåĲĮ
æŃ¤ æľŁ
çļĦçĹĩçĬ¶ åĩºçİ°
çļĦä¸»è¦ģ çĹĩçĬ¶
n m
å¤į è¯Ĭ
èĦĳ çĹħ
çļ®èĤ¤ æľī
æįŁ åĿı
èĥ°èħº çĻĮçļĦ
éĩĬæĶ¾ æ¿Ģç´ł
æ¼ı æĸĹ
é³ŀçĬ¶ ç»ĨèĥŀçĻĮ
æ´» æĢ§çļĦ
g l
èĽĭ æ¸ħ
å®ŀ åľ¨
æľĪç»ı åĲİ
æĪ¿ é¢¤
èĦĬ èĨľ
åĽ¢ åĿĹ
å¥ĩ éĩĳ
è½® çĬ¶
çļĦ åīĤéĩı
åľ¨ èĤĿèĦı
èĥ½ æ²»æĦĪåĲĹ
åĮħ ç»ķ
åħĪ å°Ĩ
éĺ²æŃ¢ å¤įåıĳ
æĺı çĿ¡
åĪ°äºĨ æĻļæľŁ
æĭĨ çº¿
BæĹı ç»´çĶŁç´ł
èº«ä½ĵ ä¸įéĢĤ
éģĹ å¿ĺ
å¥ĩ çĹĴ
èĮĦ åŃĲ
éľį å¥ĩéĩĳ
æīĭ ä¸Ĭ
è£ ¸
åį³ åĩºçİ°
åĽ½ åĨħå¤ĸ
å¿ĥçĲĨ çĬ¶æĢģ
å¾Ģå¾Ģ åľ¨
èĤłéģĵ åĨħ
q u
åıĳ åĩī
æľĢ å®¹æĺĵ
åģ¥åº· çĬ¶åĨµ
æł¹æį® æ£ĢæŁ¥ç»ĵæŀľ
ä»¥ä¸Ĭ ä»ĭç»įäºĨ
å¸¸ æĺ¯
ä¸ĭ ç¼ĺ
å¹¶ åĩºçİ°
è¯¥ èį¯
åĨį å°±æĺ¯
çľĭ è§ģ
æĻļ é¤Ĳ
åĽŀ çŃĶ
æĬ½ åĲ¸
çĶŁæ®ĸåĻ¨ çĸ£
ä¸į åĿĩ
çŃī å¤ļ
èĦĤèĤª çĺ¤
çĹħåĽł ä¸įæĺİ
åĲĦç§į çĸ¾çĹħ
èĤłéģĵ èłķåĬ¨
ä¸Ŀ çĵľ
è¡Ģ æ°Ķ
åºĶ å°½æĹ©
å¹² æ¶©
æł¹æį® ä¸įåĲĮ
èĦ¾ èĤ¿å¤§
åĪºæ¿ĢæĢ§ é£Łåĵģ
èħ¹èħĶ ç§¯æ¶²
æĢ§äº¤ çĹĽ
æĢ§çĬ¶åıĳçĶŁæĶ¹åıĺæĹ¶ç¦ģæŃ¢ ä½¿çĶ¨
ç´§å¼ł åĴĮ
æĬĹçĤİ æ²»çĸĹ
æ²»çĸĹ ä¸įå½ĵ
æĺ¾ å½±
æİ¥è§¦ æĢ§çļ®çĤİ
æĢ§ çĶ²çĬ¶èħºçĤİ
åħ¶ åıĳçĹħçİĩ
çİ¯ ç£·
æķ´ å¤©
èĨĪ èĤĮ
çļĦ çĿ¾ä¸¸
æĥ ĳ
èĢĮ å·²
åĩºè¡Ģ çŃī
æķ£ å¯Ĵ
æĬĹçĹħæ¯Ĵ èį¯çī©
hc g
çļĦ éĿŀ
ç»Ħç»ĩ åĨħ
æĲ ľ
åĸī è¿Ķ
èĩªè¡Į æ¶Īå¤±
çī ¢
ä¹Ł å¾Īéĩįè¦ģ
èĢĮ åĲİ
æŃ¥ è¡Į
åĪĩéĻ¤ æľ¯åĲİ
ç²ī æľ«
èĤĿç¡¬åĮĸ æĤ£èĢħ
åĹľ è¡Ģ
å¯¹ çĹħæĥħ
èĢĮ è¢«
æ¯Ķè¾ĥ å¤ļè§ģ
è¡Ģç®¡ çł´è£Ĥ
æ¶ĪéĢĢ åĲİ
æŀ¸æĿŀ åŃĲ
åľ¨ ä¸Ģä¸ª
é£Ł åĲİ
éģ¿ å¼Ģ
æĥħç»ª ä¸įç¨³å®ļ
çªģåĩº çļĦ
åĪĿæľŁ çĹĩçĬ¶
é½¿çĬ¶ çº¿
å¤Ħå¥³ èĨľ
l O
è¿ĩ æĿ¥
éĺ´ æ¯Ľ
å²ģ æĹ¶
æŁ¯ èĲ¨
ç¥ŀç»ı çĹĩçĬ¶
ä¸įèĥ½ åĲĥä»Ģä¹Ī
åĪ© ç¦ı
åĽ´ ç»ķ
ç©¿ çł´
çģ« é¾Ļ
æ®ĭ åŃĺ
æĭĶ éĻ¤
çļĦ åįĩé«ĺ
å°± å¥½
çĸ¾çĹħ åĴĮ
çĽ´ èĤĮ
éº¦ èĬ½
åĴĸåķ¡ çŃī
ä¸ĢèĪ¬ä¸į è¶ħè¿ĩ
A R
å°ĳ çĶ¨
æĵ¦ ä¼¤
æī¿ æĭħ
åĶĲæ°ı ç»¼åĲĪå¾ģ
å¤§å°ıä¸įçŃī çļĦ
çĸ¥ çĸ®
äº§ æľŁ
èıĮ æłª
ä½İ å¤´
åĲ¸ æ°§
åĨ· çĥŃ
æľĢå¸¸è§ģçļĦ å°±æĺ¯
å¹¶ä¸į ä¸Ģå®ļ
è¶ĬæĿ¥è¶Ĭ å¤ļçļĦ
åĤ¨ å¤ĩ
åľ¨ æľ¯åĲİ
ä¸Ĭ çĿĳ
å¦Ĥæŀľ åŃķå¦ĩ
éĴ ¢
ä¸ĢèĪ¬ æĮĩ
çĽĬ çĶŁèıĮ
çŁ¢ çĬ¶
ç®¡ åŀĭ
åīį ç½®
ä¸ĢèĪ¬ éĩĩçĶ¨
éĻ¤ æ¹¿
ä¹Łæľī å¾Īå¤ļ
ä¸ŃçļĦ ä¸Ģç§į
æµħ å±Ĥ
åıĬæĹ¶ å¤ĦçĲĨ
ä¹Łåı¯ è§ģäºİ
å½»åºķ çļĦ
å¤ĸ æĦŁ
çĲĨ åĮĸ
å®«é¢Ī éĶ¥
æ´Ĺ éĿ¢
åıĪ åı¯
å°¿éģĵ åĪĨæ³Įçī©
çļĦ åŁºç¡Ģ
åĨħ æĶ¶
åı¯èĥ½ åŃĺåľ¨
åĨį è¿Ľè¡Į
æĬ¤çĲĨ æİªæĸ½
é»Ħèī² æĪĸ
å¼ķäº§ æīĭæľ¯
èĥİåĦ¿çļĦ åıĳèĤ²
æĺ¯ ä¸ª
å¾ Ĳ
èĢĮ å¼ķåıĳ
æ¯Ķè¾ĥ å°ĳè§ģ
ç»´çĶŁç´ł K
åıįæµģ æĢ§
å¸¸ çĶ±
åģļ è¿ĩ
çħ® ç²¥
èĤ¾ ç´ł
åĪĻ ä¼ļ
éĩĳ éĵ¶èĬ±
ä¼ĺè´¨ èĽĭçĻ½è´¨
ä¸į é½Ĳ
å®ļ æĢ§
çļĦçĹĩçĬ¶ åĴĮä½ĵå¾ģ
èĲ¥åħ» ä»·åĢ¼
å¾ª åºı
æĬĹ ç²¾åŃĲ
è¿Ļç§į çĸ¼çĹĽ
äºĨè§£ ä¸ĭ
åıĹåĪ° æįŁä¼¤
è¿ģå»¶ ä¸įæĦĪ
éĺ²å¾¡ åĬŁèĥ½
å¡ĳ æĸĻ
l g
è¿ĩ æĢ§çĶŁæ´»
åħ¬ èĭ±
è£¤ åŃĲ
1 500
èµ· æķĪ
æ¬ £
èĦĤèĤª åĲ«éĩı
è¦ģ åĲĥ
åŃķ åĳ¨
åģı åĲĳ
ç´« çº¢èī²
åİĮ æ²¹
å±ħ æ°ĳ
çļĦ å½¢å¼ı
æĺ¯ å°Ĩ
åĽŀ åĪ°
æĺ¯ä¸Ģ ä»¶
èĦ¾èĥĥ èĻļå¼±
è¿Ľåħ¥ äººä½ĵ
æ¼Ķ åıĺ
æĢ»çļĦ æĿ¥è¯´
ç±» èį¯
éļı æľº
ç¬¬ åħŃ
åĪĿ åıĳ
Ġac id
æ²¡ ä»Ģä¹Ī
çĹħåĽł æĺ¯
åİļ çļĦ
ä¸ĭéĿ¢ æĪĳä»¬
ä¹Ļéħ° èĥĨç¢±
åĲĥä»Ģä¹Īé£Łçī© å¥½
åĴĮ èĲ¥åħ»
æ¯ı ä¸ªæľĪ
èĮ ´
åĽ´ ç»Ŀç»ıæľŁ
èİ ±
ç²¾ç´¢ éĿĻèĦī
åŁºåºķ éĥ¨
åľ¨æľĪç»ı æľŁéĹ´
åĩºçİ° ä¸ĢäºĽ
æĺ¯ä¸Ģç§į çĶ±
çĶŁåĳ½ çļĦ
æľĢä½³ æĹ¶éĹ´
æĹłæľº çĽĲ
æĢ§ åħ±æµİå¤±è°ĥ
éĹ ª
åı¯ä»¥ éĻįä½İ
éĽĨ ä½ĵ
è¿ĺåı¯ä»¥ éĢļè¿ĩ
éĶħ åĨħ
æĢ§æİ¥è§¦ ä¼łæĴŃ
æľĢ éĩįè¦ģ
æĥ³ çŁ¥éģĵ
å¤§å°ıä¾¿ å¤±ç¦ģ
çļĦ æķ°éĩı
æĢ§ å¢ŀåĬł
ä¸º åŁºç¡Ģ
ä¸¤ å¯¹åįĬ
è¿ĲåĬ¨ æĹ¶
æĬĬ æı¡
19 6
ä¼ĺ äºİ
çļĦ ç¼ºä¹ı
å¢ ¨
ä¸¤ æĿ¡
èħ° èħ¿
çĭŃçªĦ æĪĸ
ä¸įåı¯ éģ¿åħį
èĥ°å²Ľç´ł æĬµæĬĹ
ä¸į åģ¥åº·
åĪ« äººçļĦ
æīĢä»¥ å¦Ĥæŀľ
ä¹Łæĺ¯ å¯¼èĩ´
åĩºçİ°äºĨ éĹ®é¢ĺ
ãĢĤ [
çĤ ī
å¢ŀ åĩı
å°ĳ å¥³
éľĢè¦ģ éĢļè¿ĩ
ç»Ł ç§°
ä¹Łæĺ¯ æľī
ä»» åĬ¡
çī¹å®ļ çļĦ
åħħè¡ĢæĢ§ å¿ĥåĬĽè¡°ç«Ń
d e
åŃĲå®« èħº
ä½İ éĴĻ
åģļ ä¸Ģä¸ĭ
ä¸¤ å¹´
åĲĲ è¡Ģ
å¿Į çĥŁ
å¾ĹåĪ° æĶ¹åĸĦ
åĲİéģĹ çĹĩçļĦ
éĺ³åħī ä¸ĭ
åľ¨ çĸ¾çĹħ
åĪ° æŃ£è§Ħ
æ³¨æĦı è§Ĥå¯Ł
çº¢ çĸ¹
ä¸īç¢ĺ çĶ²çĬ¶èħºåİŁæ°¨éħ¸
ä¸İ ä»ĸäºº
æģ¶æĢ§ é»ĳèī²ç´łçĺ¤
åĮĸåŃ¦ æĢ§
å¤ ¸
èĢĮ åĳĪ
æ°Ķ ä¿ĥ
åĮħçļ® åĨħ
é«ĺåį± äººç¾¤
å®«é¢Īç®¡ ç§¯æ¶²
èĤ ¼
å°± åı¯èĥ½
èĬ İ
ä½Ĩ ä»į
è®© æĪĳä»¬ä¸Ģèµ·æĿ¥
ä¹ħ çĹħ
çĿ¡çľł æĹ¶
å¹¼ ç¨ļ
æĪĲäºº çĽĳæĬ¤ä¸ĭä½¿çĶ¨
T I
W I
å°± è¡Į
å°± å¿ħé¡»
åıĳçĶŁ åĲİ
æĹł æ¯Ľ
èĦĳ åĬĽ
ä¸įè¦ģ åľ¨
ç³ĸå°¿çĹħ çŃī
å°½éĩı ä¸įè¦ģåĲĥ
åıĳçĹħçİĩ é«ĺ
ä¼¸ ä¾§
æĻºåĬĽ åıĳèĤ²
æĪĲ çº¤ç»´
åĪ° å½ĵåľ°
çº¢ å¤ĸçº¿
éĨ ļ
éĺ²æŃ¢ ä¾¿ç§ĺ
é©¬ æĭī
èĤ¢ä½ĵ éº»æľ¨
éħļ èĥº
é¥®é£Łè¦ģ æ¸ħæ·¡
å°± å¾Īå®¹æĺĵ
åĪºæ¿Ģ çļĦ
è§Ĩ çĽĺ
æľīæķĪ çļĦæ²»çĸĹæĸ¹æ³ķ
çĸ¾çĹħçļĦ åĩºçİ°
çĶŁåĳ½ åį±éĻ©
4 7
æĻ ¾
ç¼ĵè§£ çĹħæĥħ
çĸ¾çĹħçļĦ äº§çĶŁ
åĲ¸æĶ¶ ä¸įèī¯
èĦļ åºķ
è·ĸ çĸ£
åīĤ åĴĮ
ç»Ļ çĹħäºº
æĬ¤ åŀ«
åĽŀ éģ¿
éĥ½ åºĶ
è¯ĬæĸŃ æĸ¹æ³ķ
åģ¥ èĥĥ
åĬ¨èĦī çĤİ
éĴĻ ç¦»åŃĲ
æµĳ æµĬ
èĪŀ è¹Ī
åı¯ éĢĲæ¸Ĳ
çĶ² åºĬ
èĨľ æĢ§
å°Ĩ ä¼ļ
ä¸į çĽ¸
è¡¨çİ° åĩºæĿ¥
æĥħç»ª çļĦ
æĶ¾å°Ħ çĹĽ
åħ¬ åı¸
åĴĮ æŃ»äº¡çİĩ
çļ®èĤ¤ æĪĸ
çĽĨèħĶ èĦĵèĤ¿
ç¢± ä¸Ńæ¯Ĵ
æĻ® é²ģ
éļ¾ä»¥ å¿įåıĹ
å¯¹çħ§ ç»Ħ
æĢ§ ç´«çĻľ
åĴĮ åĳķåĲĲ
è¿ĩ åĴ¸
åŃĲå®« ä½ĵ
æģ¢å¤į æŃ£å¸¸çļĦ
æ´»åĬ¨ åĲİ
ä¸ºä¸»è¦ģ ä¸´åºĬè¡¨çİ°
äº¤æĦŁç¥ŀç»ı åħ´å¥ĭ
ä¸Ģ å¤§
ç§ ķ
åĴĮ åıĳå±ķ
è¿Ļ ä¸¤ä¸ª
çĶĺ éľ²
ç¢±æĢ§ ç£·éħ¸éħ¶
æĵħ èĩª
æĬĢ å·§
æĭĶ ç½Ĳ
æ£ĺ çªģ
åīįåºŃ å¤§
è¿ĺ éľĢè¦ģæ³¨æĦı
äº§çĶŁ å¤§éĩı
ç²¾ç¥ŀ èĲİéĿ¡
ä¹Łæľī äºº
æľĢå¸¸è§ģçļĦ åİŁåĽł
éĽĮæ¿Ģç´ł åĴĮ
èº«ä½ĵçļĦ æģ¢å¤į
é»Ħä½ĵ åĬŁèĥ½
éĽĢ æĸĳ
è¿ Ħ
åı¯ åĪºæ¿Ģ
ä¸įåĲĮ ä¼ģä¸ļ
çĹĽèĭ¦ çļĦ
èĦ±æ°¢ éħ¶
ç µ
å¾Ī å°ĳè§ģ
èĥ¸ èĨľçĤİ
æľīæĹ¶ ä¼ļ
åĴ½åĸī çĤİ
é«ĺ é¢ĳ
éĩı åĴĮ
åĲĪ åŃĲ
æĢ¥æĢ§ èĤłçĤİ
æįŁä¼¤ åĲİ
éº» é»Ħ
ä¹Łæĺ¯ ä¸įä¸Ģæł·çļĦ
æĪ¿ æĢ§
åı£æľį æ¶²
çļĦä¸įåĲĮ æľīä¸įåĲĮçļĦ
çĹħæ¯Ĵ çŃī
èĩªå·±çļĦ çĹħæĥħ
è°· æ°¨éħ°
è¡ĢæµĨ èĽĭçĻ½
éĽĨä¸Ń åľ¨
èĤīèĬ½ ç»Ħç»ĩ
èĥ ³
æīĭ å¥Ĺ
è¿Ľè¡Į å¤ĦçĲĨ
æł· çĻĮ
ä¸įè¦ģ ä½¿çĶ¨
åįģ åŃĹ
éª¨é«ĵ çĤİ
åĩĨç¡® æĢ§
çĶ¨æ³ķçĶ¨éĩı åıªä¾ĽåıĤèĢĥ
æľ¬æĸĩ çĶ¨æ³ķçĶ¨éĩıåıªä¾ĽåıĤèĢĥ
åĮħè£ħè§Ħæł¼ çļĦä¸įåĲĮæľīä¸įåĲĮçļĦ
åĲĮç§įèį¯åĵģåı¯çĶ±äºİ åĮħè£ħè§Ħæł¼çļĦä¸įåĲĮæľīä¸įåĲĮçļĦ
çĶŁäº§çļĦ åĲĮç§įèį¯åĵģåı¯çĶ±äºİåĮħè£ħè§Ħæł¼çļĦä¸įåĲĮæľīä¸įåĲĮçļĦ
çģ«é¾Ļ æŀľ
ä¸įåĲĮä¼ģä¸ļ çĶŁäº§çļĦåĲĮç§įèį¯åĵģåı¯çĶ±äºİåĮħè£ħè§Ħæł¼çļĦä¸įåĲĮæľīä¸įåĲĮçļĦ
ä¸įåĲĮä¼ģä¸ļçĶŁäº§çļĦåĲĮç§įèį¯åĵģåı¯çĶ±äºİåĮħè£ħè§Ħæł¼çļĦä¸įåĲĮæľīä¸įåĲĮçļĦ çĶ¨èį¯éĩı
i b
ä¹ĭ ç±»
å½±åĵį çĶŁèĤ²
åĳ³ ç²¾
åī§çĥĪ çĺĻçĹĴ
çļĦå¸¸è§ģ åİŁåĽł
T N
æŁ¥ æī¾
åħįçĸ« åĽłç´ł
è¿ĺæľī ä¸Ģä¸ª
çĪ± å¥½
è¡Įèµ° æĹ¶
èĭ± åĽ½
åĦ¿ç«¥å¿ħé¡»åľ¨ æĪĲäººçĽĳæĬ¤ä¸ĭä½¿çĶ¨
åĹľè¡Ģ æĿĨèıĮ
4 1
r an
ä¸ĭ ç§»
å¹¶ å¼ķèµ·
é¼» ä¸ŃéļĶ
å·¦åı³ çļĦ
å°ıèħ¹ çĸ¼çĹĽ
çĪ¸ çĪ¸
) -
å°¿ ç³ĸ
åĬŁèĥ½ åıĹæįŁ
ä¸»è¦ģ åıĸåĨ³äºİ
æĢ¥ ä¿ĥ
æľĢå¥½ ä¸įè¦ģåĲĥ
çĽ´èĤł èĦ±åŀĤ
é¢ħ èĦĳ
åħ¬ ç«ĭ
èħ¹èĥĢ çĹĽ
æĦīå¿« çļĦå¿ĥæĥħ
t a
åİŁ æľ¬
ä¸ī å°ĸçĵ£
å¼Ĥå¸¸ çŃī
æ¼Ķ åıĺæĪĲ
å°ı åħ³èĬĤ
è¿ĩæķı çļĦé£Łçī©
æľīçļĦ æĺ¯
å°ĳåĲĥ å¤ļé¤Ĳ
è¦ģ çŁ¥éģĵ
å¾Ī æĺİæĺ¾
è½» çĹĩ
èĤĽ ä¹³å¤´çĺ¤
éģĹä¼ł åĢ¾åĲĳ
ä¸īåıī ç¥ŀç»ı
è¿Ħ ä»Ĭ
u re
çļĦ è¡¥åħħ
åĲİ ç»Ń
åĩł çĤ¹
éħ¸ç¢± åº¦
å¸¸ è¯Ĩ
ç§ĳ æĬĢ
éĥ¨åĪĨ çļĦ
èĦĤèĤª ç»Ħç»ĩ
éļĲ çĲĥèıĮ
åİĭè¿« åĪ°
åħĪå¤©æĢ§ çķ¸å½¢
æľºæ¢° æĢ§
ãĢĤ ï¼Į
ä¸į æĺİç¡®
ä¸Ģ ä»¶
çĶ² èĥİ
çī¹å¼ĤæĢ§ æĬĹä½ĵ
) (
æĹ ±
èĤĽ åŀ«
åı£èħĶ ç²ĺèĨľ
çĸŁ çĸ¾
æĬĹæĬĳéĥģ èį¯
H E
ãĢĤ ãĢĤ
çŃī åĪºæ¿Ģ
æ£ĢæŁ¥ åĩºæĿ¥
å°±æĺ¯ è¯´
çªģ çł´
èĥĨ çŁ³
å°ĳåĲĥ ä¸ĢäºĽ
çĻ½ç»Ĩèĥŀ åĩıå°ĳ
æĺ¯ çĶ¨
ç»ĨèıĮ æĪĸ
æİĴåįµ æĹ¥
èĤ© èĨĢ
éĻĦè¿ĳ çļĦ
ç®¡ çĬ¶
ä¸İ æ²»çĸĹ
èĢĥèĻĳ ä¸º
éĴĪçģ¸ æ²»çĸĹ
QRS æ³¢
ä¸Ģ æľŁ
å¸¸ åıĳçĶŁåľ¨
æ·ĭå·´ ç»Ħç»ĩ
æĴ ¤
çħ ¤
çĿ¡çľł ä¸įå¥½
å¤įæŁ¥ ä¸Ģæ¬¡
ä¿ ŀ
çĶ² éħ¸
çĹħæ¯Ĵ åĴĮ
å¼Ģ èĬ±
åĪĩéĻ¤ æīĭæľ¯
è¾ĵç²¾ç®¡ åłµå¡ŀ
é«ĺ éĶ°éħ¸éĴ¾
å¦ĩ äº§ç§ĳ
çĹħåĽł åĴĮ
çĽ®åīį å°ļæĹł
åīĤéĩı çļĦ
æ¡ĥ ä»ģ
s e
ä¸Ĭ èį¯
æĤ£èĢħ ä¼ļæľī
ä¸»è¦ģ è¿ĺæĺ¯
åŃ¦ é¾Ħ
æħ¢æĢ§ ä¹ĻèĤĿ
åĲĦ èĩª
å°Ĩ æĿ¥
ä¸įèī¯ åĪºæ¿Ģ
å¤ļæķ° ä¸º
åī§çĥĪ çļĦè¿ĲåĬ¨
æĺ¯éĿŀå¸¸ å¤ļçļĦ
æľĢä½³ çļĦæ²»çĸĹ
çĶ¨ æ°´
æīĢ å½¢æĪĲçļĦ
å¸¦æĿ¥ å¾Īå¤§çļĦ
çī©çĲĨ åĽłç´ł
èĩªæĦĪ çļĦ
åıĮçľ¼ çļ®
å¸¸æŁĵèī²ä½ĵæĺ¾æĢ§ éģĹä¼ł
æŁ¯èĲ¨ å¥ĩ
ä¸į å¹³è¡¡
è¦ģ ç§¯æŀģ
ä¸Ĭ æµ·
æİ© çĽĸ
4 4
Î ±
åĴ Ĳ
åľ¨ åħ¶
æĪĸ éĥ¨åĪĨ
å¤ĸ å±Ĥ
ä¸ĢèĪ¬ æĺ¯çĶ±äºİ
å±ķ å¼Ģ
æĢİä¹Ī è°ĥçĲĨ
å¤ļç§į åİŁåĽł
æīĵ éĴĪ
éª¨æĬĺ åĲİ
è¶ħè¿ĩ äºĨ
æĺ¯ ä¸İ
é«ĺ æ¸Ĺ
å¤´ éĿ¢éĥ¨
èĥ½å¤Ł èµ·åĪ°
åıĮ çĽ¸
åĳ¨åĽ´ èĦĵèĤ¿
èħ¹éĥ¨ çļĦ
æłĵ åŃĲ
ä¸ŃåĮ» åŃ¦
æŃ£ç¡® å¯¹å¾ħ
å¤ļåĸĿ ä¸ĢäºĽ
çĭĤ çĬ¬
æ²»çĸĹ çļĦè¯Ŀ
æĸ¹ èį¯
å¹¶ åĲĳ
å¦Ĥæŀľ åıªæĺ¯
è¯ĬæĸŃ ä¾Ŀæį®
å¹³æĹ¶ çļĦ
ä»İèĢĮ å¼ķåıĳ
èĤ¿èĥĢ åĴĮ
åľ¨æŃ¤ æľŁéĹ´
ç» ³
è¡Į æ°Ķ
æĢ¥ çĹĩ
å®¹æĺĵ è¯±åıĳ
æľª æĿ¥
çļĦäºº æĿ¥è¯´
å¿ĥèĤĮ æ¢Ĺå¡ŀ
æ¶ĪåĮĸç³»ç»Ł çĸ¾çĹħ
æľī èĩŃåĳ³
åľ¨ æĤ£èĢħ
æĦŁ åħ´è¶£
åľ° è¿Ľè¡Į
åºĶçĶ¨ æĬĹçĶŁç´ł
èĪĮ çº¢
è¦ģ å¤ļåĲĥ
åĪ©å°¿ èį¯
èĢ½è¯¯ äºĨ
pH åĢ¼
éªĳ èĩªè¡Įè½¦
å¾ªåºı æ¸Ĳè¿Ľ
åıĳ éº»
åĴĮ çĶŁæ´»
åŃĲå®« æīĺ
âĢ Ļ
æĽ´ æĸ°
è¢« è®¤ä¸º
éļı è¯Ĭ
å¹´è½» å¥³æĢ§
éħ± æ²¹
èĴ² åħ¬èĭ±
åĪ° æŃ£è§ĦçļĦ
æ´» ä½ĵ
çĶ²çĬ¶èħº ä¹³å¤´çĬ¶çĻĮ
éĥ¨åĪĨ æĪĸ
é¦ĸ ä½į
èħ°æ¤İ çĹħ
ä¸ĭ åĬ¨èĦī
çĶ·æĢ§ åľ¨
èĦĤèĤª åłĨç§¯
é© ¾
ä½ĵè´¨ èĻļå¼±
ï¼ ľ
è¿ŀ çĶ¨
éĿĴå¹´ äºº
A S
é¥®é£Ł ç¦ģå¿Į
çĤİçĹĩ æĦŁæŁĵ
åİĮ æģ¶
æļ´éľ² åľ¨
æİĪ ç²¾
P C
èĥ½ èµ·åĪ°
æµģ æ¶İ
æĽ´ æĺĵ
ç»§ ä¹ĭ
âĢĶ ãĢģ
åİŁåıĳ çĸ¾çĹħ
æĦ¤ æĢĴ
è¿ĺ ä¸İ
èĤ¾ éĺ´èĻļ
äºĮ æľŁ
çīĩ èį¯çĲĨä½ľçĶ¨
æ¸ħéĻ¤ çİĩ
ç³ł ç§ķ
å¹´èĢģ ä½ĵå¼±
éĥ¨ ä»½
å»¶ ç»Ń
ä¹Łæľī ä¸Ģå®ļ
èĦļ è¸Ŀ
æĢ§äº¤ æĹ¶
ä¸Ģ å¼Ģå§ĭ
åľ¨ çĶŁæ´»å½ĵä¸Ń
èĦĳ åŀĤä½ĵ
ç§¯ åŃĺ
æīĢä»¥ å»ºè®®
åĽŀ å®¶
è¿ĩæķıæĢ§ é¼»çĤİ
éĢĢè¡ĮæĢ§ æĶ¹åıĺ
åĴĮ åĲĦç§į
ä¸º ä¸Ģç§į
åħ¶ ä¸´åºĬè¡¨çİ°
éħ¸ è¾£
ç¥ŀç»ı åĬŁèĥ½
è¿ŀ éĶģ
è®© çĹħäºº
ç»ıå¸¸ æĢ§çļĦ
ç¾Ł èī²èĥº
å¥½åıĳ éĥ¨ä½į
v er
ä¹Ł ä¸įè¦ģåĲĥ
åı¯ä»¥ éģ¿åħį
åĪ° æĿ¥
äº§ çĥŃ
èıľ çŃī
ç»¼åĲĪ çĹĩçļĦ
çķĻ æľī
é¸¡ æ±¤
çĹ¤çĸ® ä¸Ļéħ¸æĿĨèıĮ
åŁºåºķ å±Ĥ
ä¸įæ³¨æĦı åį«çĶŁ
æŃ ¦
ä¸Ĭ ç¿»
åĲĮ é¾Ħ
ä¹Ļ åŀĭçĹħæ¯ĴæĢ§èĤĿçĤİ
è½¬ç§» çĺ¤
é»ĦèĬ ©
æİ¥ åĲ»
ä¹Ļ éħ¸
ç»ĨèıĮ ä¾µåħ¥
æłĵ åīĤ
é¢Ī éĿĻèĦī
çĶ²çĬ¶èħº çĤİçļĦ
å¨ ĩ
å¦Ĭå¨ł åĲĪå¹¶
æĬ¤çĲĨ ä¸Ĭ
çº¤ç»´èĽĭçĻ½ åİŁ
çµ ®
ä¹ ¡
é¢ ł
æĤ£èĢħ åı¯åĩºçİ°
éĩį éĩĳå±ŀ
éĻį èĦĤ
æĽ´ èĥ½
Xçº¿ å¹³çīĩ
åĺ´ å·´
æĢ§ çļĦé£Łçī©
å¢ŀ è¿Ľ
ä¸ĢèĪ¬ æ²¡æľī
çĸ¼çĹĽ åī§çĥĪ
çº¢ è±Ĩ
è½¬ åıĺæĪĲ
èĤĽéĹ¨ éĥ¨
é¦ĸåħĪ éľĢè¦ģ
å©´åĦ¿ æľŁ
åħ¶å®ŀ æĺ¯
ä¸į åĩºæĿ¥
èĤ¾ æįŁå®³
å¤Ħ ç½®
å°±æĺ¯ è¦ģ
åįµå·¢ çĻĮçļĦ
åĳ³ è§ī
éĻįä½İ äºĨ
åıĹåĪ° æĦŁæŁĵ
è®² è¯Ŀ
çļĦä¸Ģ ç³»åĪĹ
å·Ŀ èĬİ
çļĦ è®¤è¯Ĩ
åŃķ ä¸ŃæľŁ
æĥħç»ª åıĺåĮĸ
ä¾¿ç§ĺ çŃī
æĬ¥ éĶĢ
åŃĺæ´» æĹ¶éĹ´
æĢİæł· æ²»çĸĹ
è¯·å°Ĩ æľ¬åĵģ
ä¸įè¦ģ åģļ
åħįçĸ« èį§åħī
èĤ¥ èħ»
èģ Ĭ
ä¼łæĴŃ æĸ¹å¼ı
è§ĨåĬĽ åĩıéĢĢ
å¯¹ äºº
é¢Ī é¡¹
ä¸ĢèĪ¬ äºº
éľĢè¦ģ æīĭæľ¯æ²»çĸĹ
èħ° éĥ¨çļĦ
åģĩ éĺ³æĢ§
ä¸ĸçķĮ ä¸Ĭ
çļĦ åŁºåĽł
æĪĲ æľ¬
çĺ¤ ç»Ĩèĥŀ
å®¹æĺĵ å¼ķåıĳ
è¿Ļç§į çĹħæ¯Ĵ
éĺ´éģĵ éķľæ£ĢæŁ¥
èĩªæĪĳ è°ĥèĬĤ
æ¡¡ éª¨
æĹ¶ éĩį
è¿Ļæł· æīįåı¯ä»¥
å¤ļæķ° çĹħäºº
åĲĪçĲĨ çļĦæ²»çĸĹ
åĹľ éħ¸
æĽ´åĬł æĺİæĺ¾
åĳĪçİ° åĩº
å¥Ĺ åıł
H p
å¦Ĥ ä¸į
ä¸»è¦ģ çĶ±äºİ
éģ¿åħį è¿ĩåº¦
çĶŁéķ¿ ç¹ģæ®ĸ
çĶ¨èį¯ æľŁéĹ´
ä¸ºäºĨ éĺ²æŃ¢
ä¸¥éĩįèĢħ åı¯
T CT
æĹ¶ ä»£
æĺ¾ åĥı
çĹħåĽł æ²»çĸĹ
å°½éĩı éĢīæĭ©
æĪĴ éĻ¤
ä¸ŃåĲ«æľī ä¸°å¯ĮçļĦ
åĴĮ å°ı
å½ĵ æĪĳä»¬
æīĢä»¥ å¹³æĹ¶
åıĳçĹħ éĥ¨ä½į
çº¢èī² ä¸ĺçĸ¹
åİŁåıĳæĢ§ èĤĿçĻĮ
åľ¨æ²»çĸĹ è¿ĩç¨ĭä¸Ń
çĹĩçĬ¶ åıĬ
éļĲçĿ¾ çĹĩ
æ¤įçī©ç¥ŀç»ı åĬŁèĥ½ç´Ĭä¹±
åĦ¿èĮ¶ éħļèĥº
æĪĸ åħ¨èº«
å¯¹ çĸ¾çĹħçļĦ
åİ»åĮ»éĻ¢ æ²»çĸĹ
DNA çĹħæ¯Ĵ
å¤§çº¦ æľī
% ;
ä¸į åıĺ
è¾ĥ éķ¿æĹ¶éĹ´
æĦŁæŁĵ æīĢèĩ´
æ¯Ķè¾ĥ å¿«
ç§ĳ æ¤įçī©
èĤº ä¸įå¼ł
è¡Ģç®¡ æĢ§
æīį å¥½
æıĲé«ĺ èŃ¦æĥķ
i f
ä»¥ å¢ŀåĬł
ä¸º åħ¶
å½¢ çļĦ
å¹´é¾Ħ åľ¨
å°ĸ ç«¯
åħ»æĪĲèī¯å¥½çļĦ é¥®é£Łä¹łæĥ¯
åľ¨ æīĭæľ¯
åľ¨ äº§åĲİ
éĿ¢ é£Ł
æľīåı¯èĥ½ å¯¼èĩ´
æĽ´åĬł çļĦ
yn dro
æŃ£åľ¨ä½¿çĶ¨ åħ¶ä»ĸèį¯åĵģ
åīįåºŃå¤§ èħº
0 5
çŃī åĬŁæķĪ
æĪĲ äºĨ
æĪĲ æŃ£æ¯Ķ
éģ¿åħį æĢ§çĶŁæ´»
æ¡ Į
çŃĭ éª¨
åħ¼ æľī
ä»£è°¢æĢ§ éħ¸ä¸Ńæ¯Ĵ
æľĢ å¸¸çĶ¨
åŀĭ æĪĸ
ä¸ĢèĪ¬ è¡¨çİ°ä¸º
è¯Ĭ æīĢ
å®ĥ èĥ½
è´¹ åĬĽ
ç¹ģ å¤ļ
éĽĦ èķĬ
åľº åĲĪ
åºĶ ä¿ĿæĮģ
è¶³ è¶¾
å²ģ ä»¥åīį
å¤§ä¾¿ åĩºè¡Ģ
åł Ĥ
å¿ħè¦ģæĹ¶ åı¯
åıĹç²¾åįµ çĿĢåºĬ
çļĦ éĺ¶æ®µ
è¦ģ çī¹åĪ«æ³¨æĦı
é¼ ¾
å¹³æĹ¶ å¤ļ
åıĪ æĺ¯
éĥģ ç»ĵ
åĨħè¡£ è£¤
æ¦´ èİ²
å°¤ä¸º éĩįè¦ģ
æī ĩ
é«ĺ æķĪ
çĶ²çĬ¶èħº çĺ¤
åľ° å¡ŀç±³
ä»İèĢĮ äº§çĶŁ
è¡Ģç³ĸ æİ§åĪ¶
äºļ ç¡Ŀ
å¥³æĢ§çļĦ èº«ä½ĵ
éľį ä¹±
ä¸İæŃ¤ åĲĮæĹ¶
çļĦ åĪĨå¸ĥ
éĺ² å¯Ĵ
å¼Ľ ç¼ĵ
èĴ¸ åıĳ
ä¸Ĭèħ¹éĥ¨ ä¸įéĢĤ
æī¹ åĩĨ
â ī
Ġ E
ä¸į åłª
åľ¨ è¾ĵåįµç®¡
å¸¸ ä»¥
ä¸Ĭ æĸĩ
å°± å¼Ģå§ĭ
èĤ¾ è¡°
éģ¿åħį æĦŁæŁĵ
æĺİæĺ¾ é«ĺäºİ
èĦ± é«ĵéŀĺ
çĶ·æĢ§ åĩºçİ°
èĤĿåĬŁèĥ½ æ£ĢæŁ¥
èĮ´ é¦Ļ
çļĦ æĪĲåĪĨ
åĴĮ èĥİåĦ¿
æĪĸ åĩºè¡Ģ
æĤ£èĢħ çļĦçĹĩçĬ¶
ä½ľ çĹĽ
ä¾§ éĿ¢
å±ŀ ä¸ĭ
å®ī çľł
åħ¥çĿ¡ åĽ°éļ¾
çĶ²èĥİ èĽĭçĻ½
åĲİ åı¯ä»¥
èĥĥ å£ģ
åħ¨ ä¸ĸçķĮ
çĸ¹ åŃĲ
ç¬¬ ä¸Ģç§į
æł¹æį® çĹħåı²
åŃ©åŃĲ åľ¨
èĥ½å¤Ł ä¿ĥè¿Ľ
è£ħ ç½®
è§ĨåĬĽ éļľç¢į
çİ¯ç£· éħ°èĥº
ä¸Ģ æľŁæ¢ħæ¯Ĵ
åĴĮ èº«ä½ĵ
æĬĹ éħ¸
æĢĢåŃķ åĲĹ
ç»´çĶŁç´ł c
ä¸ŃåĽ½ å¤§éĻĨ
æľīåħ³ç³» çļĦ
è¿ Ĥ
ä»¥ åĨħçļĦ
æµ ª
èī º
éķ¿ æķĪ
æĹ© çĨŁ
æŃ» ç²¾çĹĩ
å¸¸è§ģçļĦ æĺ¯
æį¢ æ°Ķ
ä½ĵæ£Ģ æĹ¶
åľ°å¡ŀç±³ æĿ¾
ä¸į åĲĪçĲĨ
æ²»çĸĹ çŃī
å¥ İ
æĤ£èĢħ æĺ¯
ç»Ĩ éķ¿
ä½ľçĶ¨ æĺ¯
å®ĥ ä¸İ
çľĭ çĶµè§Ĩ
éº» é£İ
ç²Ĺ ç»Ĩ
å°ĳåĲĥ æ²¹èħ»
åĲ¬ è¯´
èĭı æīĵ
ç¦ı å»º
åĲİ å½¢æĪĲ
çŃī çī¹çĤ¹
éľĢ æ°§
åĲĮæĹ¶ ä¹Łè¦ģ
è§Ĩ ä¸ĭ
äº§åĲİ æĬĳéĥģ
åį³åı¯ è¯ĬæĸŃ
åŁºç¡Ģ ä½ĵæ¸©
æİĴæ³Ħ çī©
çľ¼çĲĥ éľĩé¢¤
å°ĳ åĸĿ
çĥŃ èĥ½
æºĥçĸ¡ çĹħ
è¯¯ åĮº
çī¹æ®Ĭ å¤ĦçĲĨ
åıªè¦ģ æĺ¯
éĢĤå½ĵçļĦ ä½ĵèĤ²éĶ»çĤ¼
A b
D M
åĴĮ åħ³èĬĤ
èĽ ²
ä¸įè¦ģ åĸĿ
ç§ĳ å°±è¯Ĭ
ä¸¤ å¤§
è¶³ éĩıçļĦ
å¦Ĭå¨ł çļĦ
é¸ ½
èĥĥèĤł åĬŁèĥ½ç´Ĭä¹±
é¢ħåĨħ åĩºè¡Ģ
ç£·éħ¸ åĮĸ
åĴ½åĸī éĥ¨
R h
ä¼ Ĳ
åĮ» æĬ¤
åŃĲå®« å£ģ
åĨħåĪĨæ³Į åĽłç´ł
çĶŁèĤ² å¹´é¾Ħ
æĶ¯æĮģ çĸĹæ³ķ
çľĭçľĭ åĲ§
è¯·å°Ĩæľ¬åĵģ æĶ¾åľ¨åĦ¿ç«¥ä¸įèĥ½æİ¥è§¦çļĦåľ°æĸ¹
ä¹Ł æĹł
èĢĮ åĬłéĩį
èĥİ ä½į
ç¨ĭåº¦ ä¸įåĲĮ
åĽ°éļ¾ çļĦ
èĩªå·±çļĦ æĥħç»ª
æİĮ è·ĸ
å¯¹èº«ä½ĵ éĢłæĪĲ
å°ıç»Ĩèĥŀ èĤºçĻĮ
æīĢ ä¸įåĲĮ
æ³» èį¯
æ²»çĸĹ æīĭæ®µ
å¦Ĥ åıĳçİ°
æĤ£èĢħ å¸¸æľī
åıĺ è½¯
åİŁ æľīçļĦ
å¤± è¡ĢæĢ§
åį± éĩį
èĬ± æŀľ
ç»ıå¸¸ æľī
éĢĤå½ĵ å¢ŀåĬł
æĺ¯åĲ¦ ä¸º
åĳķåĲĲ åĴĮ
äº² å¯Ĩ
åĩıå¼± æĪĸæ¶Īå¤±
ä¸į å®¹
æ´ģ åĩĢ
é£Łç®¡ åıįæµģ
èĶĵå»¶ åĪ°
åĲİ ç¼ĺ
æ¶Ī æķ£
èĩªå·± æľī
è¾¾ ä¸įåĪ°
çĥŁ éĽ¾
äºļ æ´²
éħ¸æĢ§ çī©è´¨
æĺ¯ æĹłæ³ķ
å¤§ å¤ļä¸º
æĦŁ çŁ¥
åºĶ å°½å¿«
åħ¨ ç¨ĭ
çľ¼ åĨħ
å°±ä¼ļ åıĳçĶŁ
åľ¨å¹³æĹ¶ çĶŁæ´»ä¸Ń
ä¸Ĭä¸ĭ ç§»åĬ¨
t or
æĺĵ èĩ´
éĺ² èħĲ
ç³»ç»Ł çĸ¾çĹħ
èĤ¥ çĶĺ
æĬ½ åıĸ
ä¸ĭèĤ¢ æ°´èĤ¿
è°· ä¸Ļ
æĺ¾å¾® éķľ
æľī å¤§éĩı
åľ¨ åŃķæľŁ
å¹ ķ
å¯¹ çĹħäºº
æĪĲ åĽł
è¿Ľ èĢĮå¯¼èĩ´
åĲĮ ä¸Ģä¸ª
çĽĨèħĶ çĸ¼çĹĽ
åħ¨èº« æĥħåĨµ
æ¯ıå¤© åĿļæĮģ
æµ´ å·¾
åĨł èĦī
è½® å»ĵ
ä½İåį± åŀĭ
èħº èĭ·
å¿ĥ å°ĸ
æ£ĢæŁ¥ åĴĮæ²»çĸĹ
èĤĮ çĹħ
ä¸¥éĩį å¨ģèĥģ
æ¿Ģç´ł ç±»èį¯çī©
æħ¢æĢ§ èĤ¾çĤİ
ä¸įè¦ģ æļ´é¥®æļ´é£Ł
éĤ£ ä¸ª
æºĥ çł´
ç¾Ĭ è§Ĵ
è¿Ļ æĸ¹éĿ¢
ä¸ī ä½ĵ
åįĬ å¤ľ
ç²ªä¾¿ ä¸Ń
éª¨éª º
åĴĮ å®«é¢Ī
ä¸ĢäºĽ æĤ£èĢħ
åĪºæ¿Ģ åĴĮ
éĻįä½İ è¡Ģç³ĸ
èĨı èį¯
æĹģ è·¯
çĶµè§£è´¨ å¹³è¡¡
5 6
åı¯ è¾¾åĪ°
æĪĸ éĹ´æİ¥
åºĶ éĩĩåıĸ
ç®¡ çļĦ
æ¯Ķ æŃ£å¸¸
èĤº éĹ¨
é¦ĸåħĪ åºĶè¯¥
ä¸įæĺĵ æ¶ĪåĮĸ
è¯º éħ®
æ²»çĸĹ åīį
æ²»çĸĹ æĹ¶æľº
å¤§ å¤«
èĨĢèĥ± çĤİçļĦ
çĺĻçĹĴ çĹĩçĬ¶
éĥ½åı¯ä»¥ å¼ķèµ·
0 3
N S
åĴĮ èĤĽéĹ¨
å¦Ĥ èĥ½
åºĶ æĢ¥
å¢ Ļ
åĲĮ æĦı
å¸¸è§ģ åİŁåĽł
ä¸¤ æĸ¹éĿ¢
è¯Ńè¨Ģ éļľç¢į
ç»Ļ èº«ä½ĵ
æ´Ĺ åıĳ
ä¿ĿæĮģ å±Ģéĥ¨
å·¦ å¿ĥ
èĳ Ľ
è¿ĩç¨ĭ å½ĵä¸Ń
ä¸ºäºĨ é¢Ħéĺ²
æĽ´å¹´æľŁ ç»¼åĲĪå¾ģ
Ġd is
æµĻ æ±Ł
åºĶ éĢīæĭ©
ç¥ŀç»ı èĤĮèĤī
ä»ĸ åĳ½
ç»Ħç»ĩ èĥº
æĬĳ èıĮ
å§ »
çŁŃ æ³¢
éħ¶çļĦ æ´»æĢ§
åı© åĩ»
éĹ¨èĦī é«ĺåİĭ
è¿ĺ åºĶæ³¨æĦı
è¡Ģç®¡ çķ¸å½¢
è¿ĻäºĽ éĥ½
åħ¨èº« åĲĦ
æº¢ æ¶²
åĪĨç¦» åĩº
èĦĲ åĳ¨
æĹ©æĹ¥ åº·å¤į
èĢħ åľ¨
å¤§ éĺ´åĶĩ
åĪĩ åī²
é¼» éĥ¨
åıĮ èħ¿
äºļ ç¡Ŀéħ¸
æ¸ħçĥŃ åĪ©æ¹¿
yndro me
å¤ĸ çļĦ
èº«ä½ĵ åħįçĸ«åĬĽ
å®Į ç¾İ
çħ ²
èĻ½çĦ¶ è¯´
è°· æ°¨éħ¸
å¦Ĥ çīĽå¥¶
åºĶ äºĪ
æĪĲ æ´»
èĥŀ æµĨ
è§£åīĸ åŃ¦
åįķçº¯æĢ§ çĶ²çĬ¶èħºèĤ¿
èºº åľ¨åºĬä¸Ĭ
éĹ» åıĬ
p ro
çĻ½ èĬį
èĤł é»ıèĨľ
æ¬¡ ä»¥ä¸Ĭ
æīĢä»¥ éľĢè¦ģ
æħ¢æĢ§ éĿŀ
å¤ļåĲĥ æ°´æŀľèĶ¬èıľ
è¿ĺæľī åı¯èĥ½
éĢĲæ¸Ĳ åĩºçİ°
ä¸ĻèĤĿ æĬĹä½ĵ
å¸¦çĬ¶çĸ±çĸ¹ çĹħæ¯Ĵ
ä¸īçĶ² åĮ»éĻ¢
æĺ Ĥ
å¯¹ æľºä½ĵ
æ³Į ç´ł
è¯ĬæĸŃ ä»·åĢ¼
åħ³èĬĤ éĿ¢
å¹³æĹ¶ çĶŁæ´»ä¸Ń
åĪĿèµ· ä¸º
é¥¼ å¹²
æĪĸ èį¯çī©
ä¸Ń æĮĩ
å°ı è±Ĩ
æľ¯ çŃī
å¤į èĭı
ç¡¬ èĦĳèĨľ
ä¾¿ç§ĺ ç»ĵ
å¿ĥæĥħ èĪĴçķħ
è¡¨çļ® ç»Ĩèĥŀ
åħĭç½Ĺæģ© çĹħ
C h
è¦ģ éĩįè§Ĩ
å¦ ¹
çļ®èĤ¤ çĹħåıĺ
èĦī ç»Ĩ
åĲĦ å¼Ĥ
å¢ŀçĶŁ åĴĮ
é«ĵ è´¨
èĭ¥ åĩºçİ°
åľĨ æŁ±
éģµ å®Ī
åĤ¬ ä¹³ç´ł
çĸ¼çĹĽ çļĦæĦŁè§ī
æ¶ĪåĮĸ æ¶²
å®īåħ¨ æľŁ
èĭ¯ å¦¥
çĽĨåºķ èĤĮèĤī
W HO
åĴĮ éĩįåº¦
æ·ĭå·´ è½¬ç§»
è§Ĩç½ĳèĨľ çĹħåıĺ
æĺ¯ å¤ļ
åı¯ æĶ¹åĸĦ
çĹĩçĬ¶ æĹł
æ¯ı åĪĨéĴŁ
ä»¥ä¸Ĭ æĺ¯
äºĶ åĳ³
ä»° åį§ä½į
æĢ§ å°¿å¤±ç¦ģ
ä¸į åı¯ä»¥åĲĥ
åı¯ åħĪ
åľ¨ æĢ¥æĢ§æľŁ
æ° Ľ
å¿ĥ åīįåĮº
é¢Ħéĺ² æĦŁåĨĴ
çĭ Ĳ
æĵ¦ å¹²
é¢ĦåĲİ è¾ĥå¥½
ãĢĢ ãĢĢ
æ°Ł æ²ĻæĺŁ
ä¸ĭåºĬ æ´»åĬ¨
A CT
çŃī åĲĦç§į
çŃī ä¸įéĢĤ
çŃī çº§
èĩ´ æ®ĭ
éļı å¹´é¾Ħå¢ŀéķ¿
éĵ º
å¼± è§Ĩ
éĵ¶å±ĳ çĹħçļĦ
åģĩåįķèĥŀ èıĮ
A F
åı¯ çļĦæĿ¾
è¿ĩ æ»¤
ä¸ī ç»´
æ¯Ľ çĻ£èıĮ
ç©ºæ°Ķ ä¸Ń
å¯¹ çĸ¾çĹħ
èĤĿ è¡°ç«Ń
ç±» åĴĮ
å¸¦ ä¸ĭ
çļĦä¸»è¦ģ åĽłç´ł
en d
ä¸Ģç³»åĪĹ çļĦ
ç®¡ åĨħ
å¤© çļĦ
å¼Ĥå¸¸ æĥħåĨµ
å±Ģéĥ¨ çĹĩçĬ¶
èĤłéģĵ çļĦ
ç»´æĮģ æŃ£å¸¸
æħ¢æĢ§ èĲİç¼©æĢ§èĥĥçĤİ
éĿŀå¸¸ å¥½çļĦ
è¿Ļæł· åģļ
çĻ½èī² æĪĸ
æ°Ķ æĢ¥
å±Ģéĥ¨ éº»éĨī
è¿Ľè¡Įæ²»çĸĹ çļĦ
æľ¬åĵģ ä¸»è¦ģ
% )ï¼Į
ä¸į åĴĮ
æ´Ĺ å®Į
éĢļå¸¸ çĶ±
è§Ĵ èī²
æŃ£å¸¸çļĦ çĶŁæ´»
æīĵ çł´
éĶĻ ä½į
ä¸įæĸŃ åľ°
ç» ©
åĨħ çĶŁ
åŃĲå®« åĪĩéĻ¤æľ¯
ä¼ĳ åħ»
åıĳèĤ² æĪĲçĨŁ
ä¸´åºĬä¸Ĭ ä»¥
åĲį æĢĿ
å®«èħĶ éķľæ£ĢæŁ¥
å©ļ å§»
L I
æĺĵ æ¿Ģæĥ¹
æĬĹ çĻ«çĹ«
åı¯èĥ½ä¼ļ å½±åĵį
ä¿ĿæĮģå¿ĥæĥħ æĦīå¿«
( ãĢĬ
åľ¨ åįµå·¢
èĥ½ å¸®åĬ©
å¤ļ æİĴå°¿
éª¨ çĹĽ
åıĹ åĪºæ¿Ģ
ç¥ŀç»ı çĤİ
å¼Ģ çªĹ
çĶ²äº¢ æĤ£èĢħ
éĻ· åħ¥
èįŀ éº¦
çļĦ é¥®æĸĻ
ä¼ļ æħ¢æħ¢
å¥½ å¤ļ
å¯¹äºİ æ²»çĸĹ
ç¼º éĶĮ
å°±ä¼ļ å½¢æĪĲ
å¤§å®¶ éĥ½çŁ¥éģĵ
æĻº åķĨ
é«ĺçĥŃ æĥĬåİ¥
ä¸Ģ çīĩ
åĳ¨ ä»¥ä¸Ĭ
ä¸Ģä¸ª æĺŁæľŁ
å±Ģ éº»
çª¦ éģĵ
æ¦Ĥ è¿°
ä¸»è¦ģçĹĩçĬ¶ ä¸º
æį ķ
æ¯Ĵ è¡ĢçĹĩ
éģ¿åħį ä¹ħåĿĲ
é¢Ħ æľŁ
é²ľ è¡Ģ
èĥ½åĬĽ çļĦ
ä¹Łåı¯èĥ½æĺ¯ çĶ±äºİ
è®¡åĪĴ çĶŁèĤ²
çŃĸ çķ¥
- (
æĺ¯ åħ·æľī
æł· åŃĲ
æ¤İ éĹ´
ä»¥ åĪ©äºİ
çĹĩ åĴĮ
åıĬ åĳ¨åĽ´
æĸ¹ éĴĪ
æĹł åĪĽ
èĦĳ åįĴä¸Ń
åıĳå±ķ æĪĲä¸º
çĻ½ç»Ĩèĥŀ å¢ŀå¤ļ
èĤ¾åĬŁèĥ½ æįŁå®³
é£İæ¹¿ æĢ§
ä½ľæģ¯ ä¹łæĥ¯
é¡¾ åĲįæĢĿ
åĳ¨ ä»¥åĲİ
è¿ĲåĬ¨ åĴĮ
åİĭè¿« ç¥ŀç»ı
é«ĺåº¦ æĢĢçĸĳ
ç»ıä¹ħ ä¸įæĦĪ
ä¼ļ ä¼łæŁĵ
åĩºçİ° çļĦçĹĩçĬ¶
æħ¢æĢ§ éĻĦçĿ¾çĤİ
åı¦ ä¸Ģç§įæĺ¯
èļ ģ
å¿ĥçİĩ åĬłå¿«
æĢ§ ä½İè¡Ģåİĭ
ä¸į çĪ±
åĨį åıĳ
çĶļèĩ³ å¯¼èĩ´
éĢŁ çİĩ
çĶŁéķ¿ éĢŁåº¦
çĥŁ éħ¸
åıĳçĹħçİĩ ä¸º
åĿıæŃ» åĴĮ
ç¥ŀç»ıç³»ç»Ł çĹĩçĬ¶
å¤§èħ¿ åĨħä¾§
éķĩéĿĻ åīĤ
èĥ¶åİŁ çº¤ç»´
èĪĴå¼ł æľŁ
åĨľ æĿĳ
ä¸īè§Ĵ å½¢
è¡Ģåıĭ çĹħ
éĿĻèĦī çĤİ
å·¥ä½ľ åİĭåĬĽ
æİĴä¾¿ æ¬¡æķ°
åŃĲå®«åĨħèĨľå¼Ĥä½į çĹĩçļĦ
å¤´åŃ¢ èıĮç´ł
é¡¾åĲįæĢĿ ä¹ī
æĢ§ éĹŃç»ı
åı¯ äºİ
ä¼ļ éĢļè¿ĩ
ä¸´åºĬ çī¹çĤ¹
ä¹Łåı¯ åıĳçĶŁ
èĤ¢ä½ĵ çĺ«çĹª
åİŁåĪĻ ä¸Ĭ
åı¯ è§Ĩ
åľ¨ ä¸įåĲĮ
ä¸º ä½³
ä¹Ł åı¯èĥ½ä¼ļå¼ķèµ·
ä¸ī ä¸ĥ
ç¡¬ çļĦ
æĸ°é²ľ æ°´æŀľ
åı· æŁĵèī²ä½ĵ
éª ¼
èĤī ä½ĵ
åĩıå°ĳ äºĨ
çīĽå¥¶ çŃī
æĬĹèıĮ ä½ľçĶ¨
æĢ§ æ¸©
åľ¨ ä¸ĢäºĽ
è¡Į ç»ı
å¹¶ å°Ĩ
åĪĻ ä»¥
ä¸įåĪ© çļĦ
ç¢° åĪ°
æĬĹç²¾åŃĲ æĬĹä½ĵ
ä¸į åŃĺåľ¨
åĨħ éķľä¸ĭ
æ¯Ķè¾ĥ åĽ°éļ¾
å¦Ĭå¨ł åıįåºĶ
éħĴç²¾ æĢ§èĤĿçĤİ
çª¦æĪ¿ ç»ĵ
èĢĮ å¯¹
èĢĮ åıĳçĹħ
ç¼ĵ éĩĬ
te in
å¤§ ä¾¿ç§ĺç»ĵ
ä»£è°¢ çļĦ
è¿ĺæĺ¯ æľī
åĢ¼å¾Ĺ æ³¨æĦıçļĦæĺ¯
èĩ³åħ³ éĩįè¦ģ
ç¢³éħ¸æ°¢ éĴł
N O
R T
åıĳ çĻ½
ä¸Ń æľĢ
çº ·
ä¹³ åĪ¶åĵģ
æĶ¯ åħ·
åįĬ éĢıæĺİ
æķ· æĸĻ
å¤§éĥ¨åĪĨ çļĦ
åİĭçĹĽ çĤ¹
éª¶ éª¨
æĢ§ é«ĺæ½®
æľī ä¸ª
åĲİ çĶ¨
é£Ł æĿĲ
åıĳçĶŁ çĹħåıĺ
çĬ¶åĨµ ä¸ĭ
åı¯ä»¥éĢīæĭ© ä½¿çĶ¨
çŀ ¬
çļĦ ç»ĵåĲĪ
èħ ĺ
æħ¢æĢ§ ç»ĵèĤłçĤİ
é¢Ħéĺ² ä¾¿ç§ĺ
æ´»åĬ¨ åĴĮ
å¦Ĭå¨ł æĹ©æľŁ
åĹ ¤
æ¤į æłª
ä¸įåı¯ ç¼ºå°ĳ
æĺı åİ¥
ä¸¥éĩįèĢħ åı¯åĩºçİ°
é ¬
èĤ ĥ
åħ¶ çī¹çĤ¹æĺ¯
èĦī åĨ²
æĹ¶éĹ´ åĴĮ
ä¸įèĥ½ èĢĲåıĹ
è§Ħ æ¨¡
ç¦ģ éħĴ
éļıçĿĢ çĹħæĥħçļĦ
çĶ²çĬ¶èħºåĬŁèĥ½ å¼Ĥå¸¸
èĬĤæ®µ æĢ§
èħ¹åİĭ å¢ŀåĬł
çļĦ åİĨåı²
å¯¹ åŃĲå®«
èĤĿ ç»Ħç»ĩ
å¾Ĺ åĩº
å®¶ åĬ¡
åĽłä¸º è¿ĻäºĽ
éĢļè¿ĩ èį¯çī©
å¤ª é«ĺ
é² ¤
ä¸¥éĩįçļĦ åį±å®³
åĿĲ åį§
æķıæĦŁ åº¦
å¤§ æ±Ĺ
ä¾§ å¼¯
è¯ĬæĸŃ æĢ§
æİ§åĪ¶ ä½ı
ä¸įä¼ļ ä¼łæŁĵ
åĮħçļ® çĤİ
æ»´ è¡Ģ
é©¬ éĵĥ
å¹½éĹ¨ æ¢Ĺéĺ»
éĩįåº¦ èĦĤèĤªèĤĿ
åĩ¸ èµ·
æĺ¯ æĢ¥æĢ§
åĲĮæĹ¶ è¿ĺè¦ģ
çļĦæĹ¶åĢĻ è¦ģ
ç´§ ç»·
ç»¼åĲĪå¾ģ çŃī
ä¸ĵ çĶ¨
ç¿ ħ
èĢĮè¨Ģ ä¹ĭ
ç«Ļç«ĭ æĪĸ
æĪĲå½¢ æľ¯
åĴĮ åĽĽèĤ¢
ä¸İ åĳ¨åĽ´
ä¸ī ç±»
èĦ± æ°§
çľĭ ä¹¦
ä¼ĳæģ¯ åĲİ
è°ĥæķ´ åīĤéĩı
çº¹ çĲĨ
å¸¸è§ģçļĦä¸Ģç§į çĸ¾çĹħ
éĻĪæĹ§ æĢ§
æľī åıĳçĥŃ
å¤ļ çĸĳ
æĪĸ çĶ±äºİ
æĪĲ äººçļĦ
éĩı å¢ŀå¤ļ
æ¬ ¾
èĤº ç»Ħç»ĩ
åĲĮæĹ¶ åıĳçĶŁ
åı¯èĥ½æĺ¯ çĶ±
å¤ļç§į çĸ¾çĹħ
éĵģ è´¨
å®¤æĢ§ å¿ĥåĬ¨è¿ĩéĢŁ
æĪĸ ä¸º
ä½Ĩ ä¹Ł
ä¸ĢèĪ¬ è¦ģ
åĪ« åĲį
æģ¶ å¯Ĵ
é¢Īæ¤İ éĹ´çĽĺçªģåĩº
ç¬¬ä¸Ģ æĹ¶éĹ´
èĥ¶åİŁ èĽĭçĻ½
ä¸¥å¯Ĩ è§Ĥå¯Ł
åıĳ åĨ·
åĴĮ è¡Ģç®¡
å¿ĥ åĬŁèĥ½
é£Łçī© è¿ĩæķı
çļĦæ²»çĸĹ æīĭæ®µ
å¹² éħª
åºĶè¯¥ åıĬæĹ¶çļĦ
æŃ»äº¡ çļĦ
èĤĿåĬŁèĥ½ æŃ£å¸¸
åıĹä½ĵ éĺ»æ»ŀåīĤ
çļĦåį±éĻ© æĢ§
åĴª åĶĳ
åĲĦç§įåĲĦ æł·çļĦ
çº² çĽ®
åīį èĥ¸
è¡¨ åŀĭ
èĦĳ çĸĿ
éĢļå¸¸ è¡¨çİ°ä¸º
åĳ¨åĽ´ çĤİ
åĿıæŃ» ç»Ħç»ĩ
ç»ıè¿ĩ æ²»çĸĹ
% ãĢģ
çļĦ æİ¥è§¦
ä¸į åĸĿéħĴ
åĴĮ çĿ¾ä¸¸
ä¼ļ éĻįä½İ
åĲİ ä½į
æ´ Ĵ
èµ· åĪĿ
å°±æĺ¯ ä¸Ģç§į
æĽ² åº¦
æĵ¦ æ´Ĺ
en e
å¿«éĢŁ çļĦ
æ·Ģç²ī æł·åıĺ
çļĦä¸»è¦ģåİŁåĽł æĺ¯
çļĦ æĮĩæłĩ
ä¼ļ è¯±åıĳ
çŃ ·
åĲĮæĹ¶ æ²»çĸĹ
an g
æĥŁ ä¸Ģ
6 7
çļĦ å¤įåıĳ
çļĦ åħ¸åŀĭ
åĪĨ åıī
å°ı æ¢ģ
ä¸ĢèĪ¬ æĺ¯åľ¨
ä½ł ä»¬
ä»¥åĲİ åĨį
è°ĥæķ´ é¥®é£Ł
é¼»åĴ½ çĻĮçļĦ
æľī ä¸¤ä¸ª
è¿Ļ å°Ĩ
å®ĥ æĺ¯çĶ±
ä¼ĺ çĶŁ
äºļä¸´åºĬ çĶ²åĩı
åĻ¨è´¨ æĢ§çĸ¾çĹħ
é©¬éĵĥ èĸ¯
åĴĮ è¡Ģæ¶²
ä¸ª äººä½ĵè´¨
èĥĥ ä¸Ń
çĺĻçĹĴ åī§çĥĪ
èĤ¾èĦı çĸ¾çĹħ
èĤ¢ä½ĵ çļĦ
çļĦ è´¨éĩı
é£Łçī© ä¸Ńæ¯Ĵ
æĢ¥æĢ§ å°¿éģĵçĤİ
æ·¡ çĽĲæ°´
èĪĮ ä¸ĭ
ä¹Łåı¯èĥ½ å¯¼èĩ´
ä¹łæĥ¯æĢ§ æµģäº§
ä¸į å®ģ
å®«é¢Ī æŁ±çĬ¶ä¸Ĭçļ®
å½¢æĪĲ ä¸Ģä¸ª
æł¸ èĭ·
èĤłèĥĥ èłķåĬ¨
èħ°éĥ¨ çĸ¼çĹĽ
T æ·ĭå·´ç»Ĩèĥŀ
ä¼ļ çĽ´æİ¥
å¥ Ķ
ä¸ĭ åįĪ
æ£ĢæŁ¥ åıĳçİ°
åŃ©åŃĲ åĩºçİ°
æľĢå¥½ è¿ĺæĺ¯
åĺ± åĴĲ
åĴĮ æľī
ä¸Ń æ®µ
çģ ¾
éļľç¢į æĢ§è´«è¡Ģ
ç²¾åŃĲ æķ°éĩı
çīĻ åĪ·
èĥĥèĤł åĬŁèĥ½
éĻĦçĿĢ äºİ
å°¿ åºĬ
åŃĲå®« èĤĮå±Ĥ
åİŁåĽł å¯¼èĩ´
åľ° å¹³
åıĪ åı¯åĪĨä¸º
çº¿ çĬ¶
å¹¿ ä¹ī
æ´ĹéĿ¢ å¥¶
æĻ®é²ģ åį¡åĽł
Ġ G
çļĦ æĢģåº¦
ä»¥ ä¿ĿæĮģ
æĥħç»ª ç´§å¼ł
æĬĵ çł´
æŀķ éĥ¨
åµ ´
è®°å¿ĨåĬĽ ä¸ĭéĻį
è®¨ è®º
ç¡¬èĨľ å¤ĸ
ç»ı çļ®
ä¹Ł éĿŀå¸¸
éĢļè¿ĩ å¯¹
æ·ĭå·´ ç³»ç»Ł
è¿ĺæĺ¯ åı¯ä»¥
çĹĩçļĦ è¡¨çİ°
é¦Ļ çļĤ
è§Ħå¾ĭ æĢ§
åī§çĥĪ èħ¹çĹĽ
ä¸ºä¸»è¦ģ çĹĩçĬ¶
åıĳçĶŁçİĩ ä¸º
èį¯ æĢ§
åı¯ä»¥ è¡¥åħħ
éĺ´éģĵ æİĴæ¶²
æµ· é±¼
å¾Īå®¹æĺĵ è¢«
éĥ½æľī ä¸Ģå®ļçļĦ
ç¨Ģ é¥Ń
æľīæīĢ äºĨè§£
é«ĺèĽĭçĻ½ é£Łçī©
å±ŀä¸ĭ çļĦä¸Ģä¸ª
åºĶ åĬĽ
åºĶ åıĬæĹ©
å°± è¶Ĭ
å°ı ä¸ĺçĸ¹
å¹³ åĿ¦
åĲ¸ æ¯Ĵ
å¾Ģå¾Ģ æľī
å¤ĦçĲĨ ä¸įå½ĵ
èļķ è±Ĩ
æĺ¯ çĶ²çĬ¶èħº
ä½ľ èĢħ
æīĭ æĬĸ
åĲĮæĹ¶ è¿Ľè¡Į
å¹³æĹ¶ çļĦé¥®é£Ł
çĶµ çģ¼
éĥ½æĺ¯ åľ¨
åĮħçļ® åĴĮ
å¾Īå°ĳ æľī
è½»éĩį ä¸įä¸Ģ
åįıåĲĮ ä½ľçĶ¨
åĩ Į
åī Ķ
åĬŁèĥ½ æĺ¯
çľ¼ ç§ĳ
è¯¢éĹ® çĹħåı²
å¯ĮåĲ«ç»´çĶŁç´ł çļĦé£Łçī©
å¯¹ åĳ¨åĽ´
éĿ¢ é¢Ĭ
ä½İ è¡ĢéĴ¾
åºĬ åįķ
ä¸įè¦ģ è¿ĩåº¦
é¢ĦåĲİ ä¸įèī¯
èĥĨç®¡ ç»ĵçŁ³
æĥ¹èµ· çļĦ
è¡Ģå°ıæĿ¿åĩıå°ĳ æĢ§ç´«çĻľ
éĶģéª¨ ä¸Ĭ
ä½ĵ åŀĭ
æĤ£èĢħ åı¯æľī
å¾Ī å·®
ä¸ĢäºĽ çĹĩçĬ¶
æ²¡æľī åıĬæĹ¶
è¿ĲåĬ¨ åĲİ
å®¤ æ¸©
åĩıè½» æĪĸ
æ²¹èħ» çļĦ
é¢Ĺç²Ĵ çĬ¶
çĶ±æŃ¤ åı¯è§ģ
åľ¨ ä½ĵå¤ĸ
æĪĸ åıĳçĶŁ
åĪ¶ çļĦ
å®¹æĺĵ æĦŁæŁĵ
ä¸Ģå®ļè¦ģ å¼ķèµ·éĩįè§Ĩ
èĨĢèĥ± é¢Ī
å²ģ ä¹ĭéĹ´
å®Įåħ¨ æ²»æĦĪ
çģ« æĹº
ä¸įä»ħ æĺ¯
æµħè¡¨ æĢ§
æ²¡æľīä»»ä½ķ çĹĩçĬ¶
1 80
ä¸įè¦ģ çĽ²çĽ®
ä¸¤ èĻļ
åĬ¨èĦī çļĦ
éĢĲæ¸Ĳ å¢ŀå¤ļ
çī¹å¾ģ ä¸º
æĿ¥ç¼ĵè§£ çĹħæĥħ
æŃª æĸľ
) ï¼Ľ
l l
èĦ ¯
åĴĮ æ°´
èĢĮ è®º
æķ° ä¸ª
åħ» éĺ´
çĶµ æµģ
å¿ĥçĲĨ è´Łæĭħ
åĨħåĪĨæ³Į åĬŁèĥ½
æĬµæĬĹ èĥ½åĬĽ
æľīåı¯èĥ½ ä¼ļå¯¼èĩ´
åĲ¸çĥŁ åĸĿéħĴ
è§ĨåĬĽ æ¨¡ç³Ĭ
è®¤è¯Ĩ åĪ°
çİĩé«ĺ è¾¾
å¯¼èĩ´ æĤ£èĢħ
çļ®èĤ¤ çĹħçļĦ
åħ¥ éĻ¢
å¾Ĺ å¿«
æķ£ åıĳæĢ§
è¿ĺä¼ļ å½±åĵį
å¸¸ åĲĪå¹¶
ç»Ĩ å¾®
ä½Ĩ å¯¹äºİ
å¼Ĥ çĥŁ
æĪĳä»¬ å¿ħé¡»
æĬ¤ å£«
å¹³æĹ¶ ä¸Ģå®ļè¦ģæ³¨æĦı
è¡Ģæ¶² çĹħ
åĿĹ çĬ¶
å¦Ĭå¨łæľŁ ç³ĸå°¿çĹħ
å°¿é¢ĳå°¿æĢ¥ å°¿çĹĽ
èĤĿ èĦĵèĤ¿
æľĢ å°ı
çª ¿
å¯Ĩ éĹŃ
é³ŀ çĻĮ
èĥĥèĤłéģĵ çĹĩçĬ¶
å¤ļäºİ å¥³æĢ§
å°ļä¸į æĺİç¡®
åıįè·³ çĹĽ
èĭ¡ ä»ģ
ä½¿ çĹħäºº
åģļ ä»Ģä¹Ī
éĢļå¸¸ æľī
èĿ¶ åĳ¤
åĽ Ł
æ£ĢæŁ¥ æĺ¯
æĺ¯ä¸Ģç§į æħ¢æĢ§
éĢļå¸¸ åıĳçĶŁåľ¨
ç±³ ç²¥
è¿ľ è¿ľ
ç»ı åīį
å®« å¯Ĵ
ç¥ŀç»ı éº»çĹ¹
åıĤ æķ°
åľ¨å¹³æĹ¶ çļĦçĶŁæ´»ä¸Ń
ç»¿èī² èĶ¬èıľ
å¯¹ å®Ŀå®Ŀ
å¤ĸ èĨľ
èº«ä½ĵ æĥħåĨµ
åĪºæ¿Ģ çļ®èĤ¤
åıĸ æ±ģ
å¤§å®¶ æľīæīĢå¸®åĬ©
æŃ£å¸¸çļĦ çĶŁçĲĨçİ°è±¡
çĤİæĢ§ çĹħåıĺ
çĲĨæĥ³ çļĦ
æµģè´¨ é¥®é£Ł
ä¾§æĶ¯ å¾ªçİ¯
m an
æĢ§ åħ´å¥ĭ
è¡Ģ å¸¸è§Ħæ£ĢæŁ¥
åĴĮ å±Ģéĥ¨
ä¸Ĭ æ¶ĪåĮĸéģĵ
é«ĺ èĽĭçĻ½è´¨
ä¾¿ åı¯
æİĴ æŁ¥
éĿŀ æ´²
ä¸įå®ľ é£ŁçĶ¨
çĹħæĥħçļĦ æģ¢å¤į
æ°Ķè¡Ģ ä¸įè¶³
æ´Ľ éŁ¦
m RNA
åľ¨ åıĳçĶŁ
æĤ£èĢħ çĹħæĥħ
èī² é»Ħ
ç´§ è´´
æķ´ åĲĪ
æıĲé«ĺ äºĨ
å¾ĹåĪ° äºĨ
è¿ĩæķıæĢ§ ç´«çĻľ
çĻ½è¡Ģ çĹħçļĦ
èıľèĬ± çĬ¶
Ġ ãĢģ
è¦ģ è§Ħå¾ĭ
ç±» çĻĮ
æľ¬åĵģ ä¸İ
éĹŃåĲĪ æĢ§
çİ© åħ·
ä¸īè§Ĵ åĮº
çĶŁæ´» èĬĤå¥ı
éħį ä¼į
åĲ«æľī å¤§éĩı
çļĦæ²»çĸĹæĸ¹æ³ķ æľī
å¸¸å¸¸ ä¼ļ
æĽ¿ ä¸ģ
çĥŃæ°´ çĥ«æ´Ĺ
åı¯ å¸®åĬ©
åı¯ä»¥ å¢ŀå¼º
çĶŁæ´» åİĭåĬĽ
éĿĻ æģ¯
åĮĸçĸĹ èį¯çī©
ä¸»è¦ģè¡¨çİ° åľ¨
c o
æľī èī¯å¥½çļĦ
åĴĮ å°¿éģĵ
è¾ĥ ä¸¥éĩį
åİ» æİī
çīĩ çļĦåī¯ä½ľçĶ¨
ä¹Łæľī åĬ©äºİ
éļĲ èĹı
æ¢Ń å½¢
èĭ¯å¦¥ èĭ±
Ġ R
ä¸į ä¸ĭ
åĪ° ä¸Ģå®ļç¨ĭåº¦
æĿ¥ è°ĥçĲĨ
ä½Ĩ åĽł
åıįåºĶ çļĦ
è§ĴåĮĸ è¿ĩåº¦
ä¸įæĦ¿ æĦı
çļĦ å§¿åĬ¿
æĪĸ åıįå¤į
ç»Ĩ å¿ĥ
çļ®èĤ¤ åıĳçº¢
çĹħäºº ä¸Ń
çĻ½å¸¦ æĺ¯
I F
åĲİ åľ¨
èĤĿ éĥģ
èĤº æłĵå¡ŀ
æĺ¯å¾Ī å¸¸è§ģçļĦ
åİ»éĻ¤ çĹħåĽł
.. ..
æŁ´ èĥ¡
çļĦ é¢ĳçİĩ
åľ¨ åĦ¿ç«¥
æĪĸ ä¸įåĲĥ
ä¸Ĭ ç¼ĺ
æ¶² ä¸Ń
éľĢè¦ģ æīĭæľ¯
å¾ģ éĺ³æĢ§
æģ¶æĢ§ çĹħåıĺ
ä¹Łåı¯ä»¥ å¼ķèµ·
é«ĺè¡Ģåİĭ çĹħ
åıªæľī å½ĵ
æĤ¨ çļĦ
åĲĮæĪ¿ åĲİ
çļĦæľĢä½³ æĹ¶éĹ´
C L
ä¸º ä¸Ńå¿ĥ
æĪĸ ä¸¤ä¾§
æ°Ķ æľº
å§ ĵ
ä¹ĻèĤĿ çĹħæ¯ĴæĦŁæŁĵ
çªģåĩº äºİ
æŁ¥æĺİ åİŁåĽł
æĸĩçĮ® æĬ¥éģĵ
Ġ çĶ±äºİ
æľī éĥ¨åĪĨ
å¸¸ æĹł
æ°´ æĪĸ
æį ·
æ²¡ äºĭ
è£Ĥ çīĩ
ä½İéĴ¾ è¡ĢçĹĩ
ACT H
åĴĮ æĦŁæŁĵ
æĤ£èĢħ æľĭåıĭä»¬
èħ¹èħĶ éķľæ£ĢæŁ¥
èħ°éħ¸ èĥĮçĹĽ
ç¢³éħ¸ é¥®æĸĻ
æľĪç»ı è¿ĩå°ĳ
åĲĮæĹ¶ ä½¿çĶ¨
èħ¹èħĶ éķľä¸ĭ
åĪĨå¸ĥ çļĦ
ar y
æ¯įäº² çļĦ
èĩ´çĻĮ çī©è´¨
åĲ ²
åı¯ éĩĩåıĸ
å¤ļ å¤§
çĶ² ç¡ĿåĶĳ
å°¼ åı¤
è¿Ļ ä¹Ł
è¡Į çļĦ
è½» æĹ¶éĩį
åĪĻ åĩºçİ°
åĽłæŃ¤ è¦ģ
ç²¾ç¥ŀ ç§ĳ
çĵ ¦
çīĻ çĹĽ
é»Ħçĸ ½
åĸĺ æģ¯
os is
ä½ľåĩº è¯ĬæĸŃ
) ãĢĤ(
åĴĮ ç»Ĩèĥŀ
ç»ı åħ¸
æı Ń
ä¸Ģä¸ª çĸĹç¨ĭ
å¾Īå¤ļ ç§į
è¡¥ ä¸Ń
åģ¥åº· äºº
æ¼ Ĩ
çļĦæ£ĢæŁ¥ æĸ¹æ³ķ
ç»§åıĳ æĢ§çļĦ
èĥĨæ±ģ éħ¸
æĽ¾ æľī
åħ¶ä»ĸ åĽłç´ł
çĦ¶åĲİ å°Ĩ
éŀ £
èĦĬé«ĵ æįŁä¼¤
è´´ èº«
æľīä¸Ģä¸ª å¥½çļĦ
åıĳæĮ¥ ä½ľçĶ¨
é¢ŀ åı¶
?? ??
S S
åĨħ çĥŃ
è¾ĥ æŃ£å¸¸
åĿ ĳ
æķĪæŀľ è¾ĥå¥½
ä»¥ä¸Ĭ åĨħå®¹
è¡Ģæ¸ħ åŃ¦æ£ĢæŁ¥
éĥ½ä¼ļ å½±åĵį
æĢİä¹Īæ²»çĸĹ åĳ¢
ul ar
çĨı æ´Ĺ
åı¯ ç¼ĵè§£
èĤł çĤİçļĦ
ç»´ ä»ĸåĳ½
ä¹³ ç³ľ
åı¶ æŁĦ
åīįåĲİ å£ģ
æ¥¼ æ¢¯
å¤© å¤©
çĥŃ æ¯Ĵ
èº«ä½ĵ åĨħçļĦ
åĪĹ ä¸º
åįķ æł¸
æ¶¦ çĩ¥
ä¸ĭéĿ¢ å¸¦å¤§å®¶
æĬ¬ èµ·
æĺĶ æ´ĽéŁ¦
P P
åĲİ æīį
è¯¥ æĢİä¹ĪåĬŀ
åįķ åħĭéļĨ
åĨ· æ±Ĺ
ä¿ĿæĬ¤ å¥½
æĺĶ éħ¸
åŀĤçĽ´ ä¼łæĴŃ
ç»Īæľ« æľŁ
Â ±
åĴĮ ä¸į
æĤ£èĢħ ä¸ĢèĪ¬
çĶ²çĬ¶èħº èĤ¿çĺ¤
éĺ´éģĵ ä¸įè§ĦåĪĻåĩºè¡Ģ
é¾Łå¤´ çĤİçļĦ
æŃ£è§Ħ æ²»çĸĹ
çĻ½ èĲĿåįľ
æľĢ æĺİæĺ¾
åħ¶ä»ĸ äºº
æĺ¯ä»Ģä¹Ī å¼ķèµ·çļĦ
åĪ© æ°´
ä¸ĢæĹ¦ ç¡®è¯Ĭ
åº·å¤į çļĦ
å®«èħĶ ç§¯æ¶²
é©¬ æ¡¶
é¼»åĴ½ éĥ¨
ä¸ĻåŀĭèĤĿçĤİ çĹħæ¯Ĵ
ä¸ªäººçļĦ åį«çĶŁ
åıĺåºĶ åİŁ
ä¼ł ç»Ļ
å¦ĩç§ĳ çĸ¾çĹħçļĦ
å¤ĩ çĶ¨
èģļ ç³ĸ
åıĳ èĥĸ
åľ¨ è¯ĬæĸŃ
æĪĲ åĪĨä¸º
å¹³ éĿĻ
æ¸ħ åĪĽ
é¥®é£Ł æ³¨æĦı
èĮ ¸
èĤº åĬŁèĥ½
è¦ģæ³¨æĦı ä¸ªäººåį«çĶŁ
åİĭè¿« æĦŁ
è¯¯ è®¤ä¸º
æ¡Ī ä¾ĭ
ç»¿ èĦĵ
çļĦ åĪĨç±»
åı¯ åĬłéĩį
åĴĮ èĦĤèĤª
é£Ł åħ¥
åĨħ åĽºå®ļ
å¹³æĹ¶ ä¸Ģå®ļè¦ģ
çĽ®åīį æ²»çĸĹ
æĺ¯ä»Ģä¹ĪåİŁåĽł éĢłæĪĲçļĦ
æĺ¯æĢİä¹ĪåĽŀäºĭ åĳ¢
æ²¹çĤ¸ é£Łçī©
éħĴç²¾æĢ§ èĤĿç¡¬åĮĸ
èĤĮ çĹĽ
åºĶè¯¥ è¿Ľè¡Į
ç»Ļ æĤ£èĢħçļĦ
ä¼ĳæģ¯ åĴĮ
å°¼åı¤ ä¸ģ
I N
ï¼Į ï¼Į
ä¸į å°ıå¿ĥ
å¼ķèµ· çļĦçĹĩçĬ¶
åıį åıįå¤į
åīįåĪĹèħº çĹĽ
éĿĻèĦī åİĭ
çķ¸å½¢ çŃī
æ°§åĮĸ éħ¶
çļĦçī¹çĤ¹ æĺ¯
ç©¹ çª¿
è¦ģ åĿļæĮģ
ä¸º éĺ´æĢ§
é¥ ª
æĻ ĥ
åĶ ¤
åĩĿ è§Ĩ
æĶ¯æĮģ ç»Ħç»ĩ
T æ³¢
y m
Ġ a
Ġ mg
æĢ§ çĪ±
åĨħ éħ¯
è¿ĺ ä¸į
èĲ¥åħ» çĬ¶åĨµ
è¿ĩæķı çļĦ
é©¬ å°¾
çī©çĲĨ éĻįæ¸©
ç²¾æ¶² ä¸Ń
éĢĤåĲĪ äºİ
æĥĬ æħĮ
æĶ¶è´¹ æłĩåĩĨ
é»ĳç´ł ç»Ĩèĥŀ
å¡Į éĻ·
çļĦ è°ĥçĲĨ
çĻ½ åĸī
åıĳçĶŁ å¼Ĥå¸¸
é¥®é£Ł ä¸įè§Ħå¾ĭ
èĦĵ ç»Ĩèĥŀ
è®© ä½ł
åĮĸåŃ¦ åĲį
åħħè¶³ çĿ¡çľł
å°¿éĩı å¢ŀåĬł
çļĦ æ¦Ĥå¿µ
åī ĥ
çĶ² æ°¨
æĹ© çĤ¹
å®ĥ åľ¨
èĤº è½¬ç§»
ç¾ §
åħ³èĬĤ èĤ¿èĥĢ
æŁĲäºĽ çĸ¾çĹħ
å¾ĹåĪ° å¾Īå¥½çļĦ
æĺ¯ æľ¬çĹħçļĦ
ä¸į åĸĿ
å¦Ĥæŀľ ä¸įèĥ½
åıª æĺ¯åľ¨
æĺ¯åĲ¦ æĤ£æľī
è®º æ²»
çº³ æ°ı
èĥĨæ±ģ æĢ§èĤĿç¡¬åĮĸ
ä»İä¸ĬéĿ¢ æĪĳä»¬çŁ¥éģĵäºĨ
è¿Ĥ æĽ²
åĴĮ æīĭæľ¯æ²»çĸĹ
ä¹Ł éļıä¹ĭ
å¦Ĥæŀľ å·²ç»ı
å¦Ĥæŀľ æĥ³è¦ģ
æĹł æ¯Ĵ
æµģ åı£æ°´
æł¹ èĮİ
è¿Ĳ åĮĸ
è¢« åŃĲ
é¼» ç¿¼
æµ¸ æ¸į
ä¸įå°ĳ äºº
é£İçĸ¹ åĿĹ
æĺ¼ å¤ľ
æĺ¯ æĪĳåĽ½
èĥ½ éĩıçļĦ
æ²»çĸĹ æĪĸ
åĳ µ
è¿Ľ åİ»
å¹¶ å¯¼èĩ´
ç¥ŀç»ı çĹħåıĺ
æŃ¢ æ¸´
èĥİ åĽĬ
åı³ æīĭ
å°¿éģĵ çĭŃçªĦ
æµģäº§ çļĦ
æĪĲåĪĨ çļĦ
åİŁåĪĻ æĺ¯
1 60
æĹ ¬
æĹ¶ åıĳçĶŁ
èį¯ çĸ¹
åıĺ å·®
ä¸¤ æīĭ
äº§çĶŁ å½±åĵį
èĥ¶ ä½ĵ
åĹľ å¥½
èį¯æķı è¯ķéªĮ
çļĦ åĽĬèĤ¿
æĢ§ å¹³
åľ¨ æĢ§çĶŁæ´»
çĶ¨ çľ¼
çŃī å¯¹
åı¯ä»¥ æĬĬ
åľ° éĿ¢
è¥¿ æĸ¹
ä¸»è¦ģæĺ¯ ä»¥
éĩįåº¦ çļĦ
æľĢå¤§ éĻĲåº¦
åĲĮ æŃ¥
çļĦæĹ¶åĢĻ ä¼ļ
åĴ½ å¹²
å·¥ä½ľ çļĦ
éģĹä¼ł çļĦ
æĿĤ äº¤
é© ¼
èĦĳè¡Ģç®¡ çĸ¾çĹħ
çĥ¹ é¥ª
èĢĮ æ²¡æľī
åı£ ç½©
åŃĲå®« èħĶåĨħ
åģļ äººæµģ
ä¸´åºĬ æ²»çĸĹ
åĭ º
çĶ²çĬ¶èħºæ¿Ģç´ł çļĦ
ä¸¤ç§į ç±»åŀĭ
åıĤåĬł ä½ĵèĤ²éĶ»çĤ¼
éĴ¡ åīĤ
åģľçķĻ åľ¨
ä¼ļ æĮģç»Ń
äºº æķ°
çĽ´èĤł ç²ĺèĨľ
æĿ¡ ç´¢
æľºä½ĵ ä»£è°¢
æļĹ çº¢
éľīèıĮ æĦŁæŁĵ
éĶħ ä¸Ń
èĤłé¸£ éŁ³
æĢ§ çº¢æĸĳ
åĴĮ æĢ¥æĢ§
æŃ Į
å¦Ĭå¨ł æľŁéĹ´
åįĬ ä¹³ç³ĸ
è¡¨éĿ¢ æĬĹä½ĵ
éĩį åĬĽ
è¾ĥ éļ¾
è¿ĺ åºĶè¯¥æ³¨æĦı
å¥³ åŃĲ
çĽ´èĤł åĨħ
æĹłæ³ķ æŃ£å¸¸
é¢ĦåĲİ è¾ĥå·®
èħķ åħ³èĬĤ
è´µ å·ŀ
æµģè¡ĮæĢ§ èħ®èħºçĤİ
A A
åľ¨ æ£ĢæŁ¥
åľ¨ ç¾İåĽ½
åĴĮ èĽĭçĻ½è´¨
æ· ĺ
åĢ ĺ
æĸ¹æ³ķ æ²»çĸĹ
çº¢ çĥŃ
è¡¥ åĵģ
ä¿ĿæĮģ èī¯å¥½
ä¹Łæĺ¯ ä¸Ģä¸ª
åı¦ ä¸Ģä¾§
æ²»çĸĹçļĦ çĽ®çļĦ
å¡« å¡ŀ
ä¸į éĢĢ
çĶŁ èĴľ
é£Ł è°±
åºĶ éĩĩçĶ¨
ä¸įåĲĮ èĢĮ
éĺ¿ å°Ķ
èĥĥéĥ¨ ä¸įéĢĤ
èĩªå·±çļĦèº«ä½ĵ çĬ¶åĨµ
æľīå¾Īå¤§ åħ³ç³»
è¾© è¯ģ
æĪĸ ä»ħæľī
èĩª ä¿¡å¿ĥ
çĶ· çĶŁ
éĢĤå½ĵ è¿Ľè¡Į
åıįåıįå¤į å¤į
å¤ļ å¤ļ
èĽ Ļ
åģ¥åº· éĹ®é¢ĺ
å¤ļæķ° æĺ¯
çīĻ é«ĵ
æ³Įå°¿ æĦŁæŁĵ
æ¶Īæ¯Ĵ åīĤ
åĮ»çĶŁçļĦ æĮĩå¯¼
ä¼ļä½¿ å¾Ĺ
åĿĩåı¯ åıĳçĶŁ
å¤ļåĲĥæĸ°é²ľ èĶ¬èıľ
å¤įåĲĪ ä½ĵ
çļĦ æİĴæ³Ħ
è¡ Ħ
èĥ½ åĲĥ
åģļ æ¢¦
åĩºè¡Ģ çļĦæĥħåĨµ
éģ¿åħį éķ¿æĹ¶éĹ´
æľº åĻ¨
èĦĵ èħĶ
åĽĽ ä¸ªæľĪ
å¿ĥçĲĨ ä¸Ĭ
è¯ķ è¯ķ
åī§çĥĪ æ´»åĬ¨
éŁ§å¸¦ çļĦ
åı¯ å¢ŀå¼º
å¤§ åĮ»éĻ¢
åı¯ä»¥ éĺ²æŃ¢
é«ĺ å°¿éħ¸
åħ» èĤĿ
åĲ¸ åĲ®
èĬ± çĵ£
åĳĨ å°ı
è¢ľ åŃĲ
åħ¶ ä½ľçĶ¨
çł ·
çļĦæĤ£èĢħ ä¸Ń
èĢ³ éĥ¨
çļĦæĸ¹æ³ķ æĺ¯
åĩıè½» çĹĩçĬ¶
ä¸ĥ å¤©
ä¸Ńå¹´ äºº
æĹ¶ åı¯åĩºçİ°
åĵ ļ
æĢ¥ æħ¢æĢ§
è¶ħ æķı
çļ®èĦĤ åĪĨæ³Į
ä¸įä¸Ģ èĩ´
æĶ¾å°ĦæĢ§ æł¸ç´ł
åŃ¢åŃĲ èıĮ
å®«é¢ĪçĤİçļĦ ä¸Ģç§į
4 3
D R
éĻ ¶
åº¦ æķ°
å½¢æĪĲ æºĥçĸ¡
åīįåĪĹèħº ç»ĵçŁ³
çĶļèĩ³ ä¼ļåĩºçİ°
å¤ª éķ¿
æµ· é»ĺ
èľ ĩ
é³ŀ çīĩ
ä¿® åīª
çĶĺ èĶĹ
çĹħç¨ĭ ä¸Ń
ä¸ĵä¸ļ çļĦåĮ»éĻ¢
çļĦå¸¸è§ģ çĹħ
æĿ¨ æ¢ħ
å§Ķ åĳĺ
å¯ °
ä½ĵ å¾ªçİ¯
æĪĸ åħ¨
ä¸ĭ å°¿è·¯æĦŁæŁĵ
è½ ¨
æĹł çĹĩçĬ¶çļĦ
ä¸ĢäºĽ äºº
å®ľ é£Ł
éĢĤå½ĵ åľ°
æīĭæľ¯åĲİ çļĦ
é«ĺåº¦ çļĦ
åīįç½® èĥİçĽĺ
åĨħ éķľæ£ĢæŁ¥
çĹĩçĬ¶ ç¼ĵè§£
èĨ Ĭ
åĸĿ çĤ¹
é¦Ļ æ¸¯
éĽĮ äºĮéĨĩ
çŁ¥éģĵ èĩªå·±
æī ¬
è¿ĩ ç´§
æĥħåĨµ çļĦ
åĵģ è´¨
ä¸¤ çľ¼
è¿Ĳ éĢģ
è¿Ļä¸ª æĹ¶æľŁ
åįĬ å¤ı
ä¹Łä¼ļ å¢ŀåĬł
ç¼ºè¡Ģ ç¼ºæ°§
æ°¯ éľīç´ł
æ¨¡ ä»¿
èµ·çĹħ ç¼ĵæħ¢
è¡ĢæµĨ ä¸Ń
åĪºçĹĽ æĦŁ
æľīå¸®åĬ© çļĦ
æĢ§ èĥ½
çİ° åľº
çĹħæ¯Ĵ ç§ĳ
é»Ħ æŁı
æĸ°çĶŁåĦ¿ çļĦ
åįĹ æĸ¹
æľĢä¸º å¤ļè§ģ
ç±»é£İæ¹¿ åħ³èĬĤçĤİ
æ°´æł· ä¾¿
æ£Ģåĩº çİĩ
éŀŃ æ¯Ľ
æĺ¯ æł¹æį®
çĤ ®
å°ı èĢĮ
æĺĵ æ¿ĢåĬ¨
çļ®èĤ¤ æįŁä¼¤
æĽ´ è¦ģ
å¼º å£®
å±Ģéĥ¨ çĶ¨èį¯
è¿ĩæķı æĢ§çĸ¾çĹħ
ä¹Łæĺ¯ éľĢè¦ģ
ç»´çĶŁç´ł ç¼ºä¹ı
åĳ¼åĲ¸ æĢ¥ä¿ĥ
åĽ° åĢ¦
èĨĢèĥ± åĨħ
ä¸Ĭèħ¹éĥ¨ çĸ¼çĹĽ
ä¸į ä¸Ĭ
æĦŁæŁĵ æ¢ħæ¯Ĵ
ä¸¥éĩį å¹¶åıĳçĹĩ
å®ĥ å¯¹
çĹħåıĺ èĮĥåĽ´
éª¨æĬĺ æĦĪåĲĪ
è¯Ħ åĪĨ
ä¸¤ä¸ª æĸ¹éĿ¢
éª¶ é«Ĥ
åĪĩå¼Ģ æľ¯
e æĬĹä½ĵ
åıĳ çĸ¹
åºĶ æĢ§
æľĢ éķ¿
æĺİ çĽ®
è½¯ å¼±
è¡ĢèĦĤ å¼Ĥå¸¸
å¹» æĥ³
å¸ĮæľĽä»¥ä¸ĬçļĦåĨħå®¹åı¯ä»¥å¸®åĬ©å¤§å®¶ åľ¨çĶŁæ´»ä¸Ń
çļĦ æĳĦåıĸ
æ° °
èį¯ åĴĮ
æ¯Ķè¾ĥ éĩį
æĢ¥æĢ§ å®«é¢ĪçĤİ
äººä½ĵ åĨħçļĦ
çĺĻçĹĴ åĴĮ
èħ¹çĹĽ åĴĮ
å¹³åĿĩ ä¸º
çļ ¿
æĢ§ èĤ¿çĺ¤
èĥ½ å¢ŀå¼º
èĢħ æľī
è¿ĩ ç¡¬
çļ® æ¯Ľ
å°± å·²ç»ı
æĹł èĬ±æŀľ
éĺ² èĮĥ
éĻį åĪ°
çĶ· å£«
æ±¡ åŀ¢
çīµ æī¯
o us
é«ĺ èĲ¥åħ»
çľ¼ è¢ĭ
çł´åĿı äºĨ
åĪ® éĻ¤
è½½ ä½ĵ
æĪĲ ç»©
æĿ¥ è¾¾åĪ°
æ» ļ
å¼º åĪ¶
åĪĻ è¡¨çİ°ä¸º
å°±æĺ¯ æĪĳä»¬
çľ¼ åīį
å¯Ĩ å°ģ
å®ļæľŁ éļıè®¿
æŁĶè½¯ çļĦ
åİŁåĽłä¸įæĺİ çļĦ
è¿Ļæł· æľīåĪ©äºİ
æľª æĺİ
çĶŁèĤ² çļĦ
éª¨é«ĵ çĺ¤
èĿ ĩ
èĶĵå»¶ èĩ³
èĤĽèĤł ç§ĳ
% ï¼Ľ
ä¸į æĺ¯ä¸Ģç§į
æĿ ·
æĪĸèĢħ åľ¨
é»Ħ è¤Ĳèī²
é¢Ħéĺ² æĢ§
å°¿éģĵ å¤ĸåı£
åĽŀ å¿Ĩ
çı Ģ
è±ĨåĪ¶åĵģ çŃī
æĪĸ åħ¶å®ĥ
å°¿ èī²
å®ļ æ¤į
è¿ĲåĬ¨ åĳĺ
éķ¿æľŁ æħ¢æĢ§
é«ĺè¡Ģåİĭ æĤ£èĢħ
èĥĥèĤłéģĵ åıįåºĶ
æ·¤ æ»ŀ
æĺ¯å¾Ī éļ¾
çĲĨè®º ä¸Ĭ
åĻ» åĹª
é©¬æĭī èī²
å° ¬
å° ´
åıĳ èĥĢ
ä¸º åº¦
éĵ µ
æľīæĹ¶ æľī
åĲ¸çĥŁ åĴĮ
é£İæ¹¿ çĥŃ
è¶ĭ äºİ
ä½İäºİ æŃ£å¸¸
äººæł¼ éļľç¢į
éĽ¾ åĮĸ
è¡ ¬
ç»Ĩ å°ıçļĦ
æ´» ç»Ħç»ĩæ£ĢæŁ¥
å¹¶ ä½¿
çļĦé£Łçī© æľī
æĤ£èĢħçļĦ çĶŁæ´»è´¨éĩı
åı³ å¿ĥæĪ¿
çļĦä¸Ģç§į è¡¨çİ°
èĤĿç»Ĩèĥŀ åĨħ
Ġ F
åĴĮ è¡Ģ
èĢĮä¸Ķ è¦ģ
åıĹåĪ° æįŁå®³
éŁ§å¸¦ åĴĮ
éĨĴ åĲİ
åĢĴ ç½®
å°´ å°¬
çļĦ åĮ»åŃ¦
é¢ ĸ
éĩı ä¸º
æĹł çĸĳ
å½±åĵį å¾Īå¤§
è¡Ģæ¶² éĢıæŀĲ
ä¼łæŁĵ éĢĶå¾Ħ
é¦Ļ æĸĻ
å°ĳæķ° ä¸º
å®«é¢ĪçĻĮ çŃĽæŁ¥
çĶŁåŃĺ è´¨éĩı
è¿ŀç»Ń æĢ§
è¿Ľè¡Įæ£ĢæŁ¥ åĴĮæ²»çĸĹ
çļ®èĦĤèħº åĪĨæ³Į
é«ĺèĽĭçĻ½ é¥®é£Ł
æµ·ç»µ çĬ¶
åĮ»æĬ¤ äººåĳĺ
æĦ ģ
èĢħ ç§°ä¸º
æ¶Ī è´¹
å®«é¢Ī èħºä½ĵ
å¤Ħ æľī
è§¦ åıĳ
è®© åĮ»çĶŁ
ä»£è°¢ çİĩ
åıĳçĹħçİĩ è¾ĥé«ĺ
è¶ĬæĿ¥è¶Ĭ é«ĺ
æĿ¥èĩª äºİ
å°¿å´© çĹĩ
è¿ĩæ°§åĮĸçī© éħ¶
çļĦ è§Ĵåº¦
æĪĸ çĶ±
èµ· åĽł
åīį åı¶
çĻĮ åŁºåĽł
éĥ½ ä¸įä¼ļ
çľ¼ åľĪ
çĻ½æĸĳ çĹħ
æº¶è¡ĢæĢ§ éĵ¾çĲĥèıĮ
m a
ä¸Ģ æ¦Ĥ
åĨħ çª¥
è´¨ è½¯
æİĴ èĦĵ
èº«ä½ĵ ä¸Ĭ
è¯´ åĪ°
çĹħåĽł å¤įæĿĤ
æ²»çĸĹçļĦ è¿ĩç¨ĭä¸Ń
ä¾Ŀ çħ§
âĢĶ )
å¤ļå¹´ çĶŁ
èĽĽç½ĳèĨľä¸ĭèħĶ åĩºè¡Ģ
æŃ£å¸¸çļĦ çİ°è±¡
å¤§å¤ļæķ° çĹħäºº
åįĥ åħĭ
è¾ħ éħ¶
åĬŁèĥ½çļĦ æģ¢å¤į
æ¯Ķè¾ĥå¸¸è§ģçļĦ ä¸Ģç§į
æĪ·å¤ĸ è¿ĲåĬ¨
Ġ 0
ä½ĵ æĵį
æĭ ¾
çĶ±äºİ åħ¶
ä¸¤ ç«¯
èĦĤæº¢æĢ§ çļ®çĤİçļĦ
èµ· æºĲ
å°ı è¡Ģç®¡
ä¸ĢèĪ¬ ä¸įéľĢè¦ģ
èĤĿåĬŁèĥ½ è¡°ç«Ń
åĨįæ¬¡ æĢĢåŃķ
II I
ä¸įéĶĻ çļĦéĢīæĭ©
ç¾½ æ¯Ľ
åį«çĶŁè¡ĮæĶ¿ éĥ¨éĹ¨
è°·æ°¨éħ° è½¬èĤ½éħ¶
èĥ½ éĻįä½İ
ä¼ļ å¾Ĺ
æŀģ é«ĺ
ç½ ļ
èĦĵ å°¿
å¹¿è°± æĬĹçĶŁç´ł
c l
å¤ º
æĮ ¡
å¼ķèµ· çĸ¼çĹĽ
èĦī å¼¦
ä¸Ģå®ļ ç¨ĭåº¦çļĦ
ç»¼åĲĪ åĪĨæŀĲ
çĻ½å¸¦ æľī
å®Ŀå®Ŀ åľ¨
ä¹ĭåĲİ çļĦ
è¡¥åħħ èĽĭçĻ½è´¨
å¹¿æ³Ľ åºĶçĶ¨
ä½ĵèĤ² æ´»åĬ¨
è°· çī©
ä¸į æŃ£ç¡®
æŀ ĩ
åĨħ èĢ³
å°± è¦ģæ³¨æĦı
å¾Īå¤ļ å¥³æĢ§æľĭåıĭ
å·¦ å¿ĥæĪ¿
é½¿ çº¿
æĹ¢ æľī
ç§ĳåŃ¦ å®¶
æĺĵæ¶ĪåĮĸ çļĦ
éĤ»è¿ĳ çļĦ
æĺ¯ åħ³éĶ®
å¯¹ çĶ·æĢ§
çĸ¾çĹħ åıĳçĶŁ
èĦĳ çĤİçļĦ
æµģ é¼»æ¶ķ
å¼º è¡Į
éĿŀå¸¸ å¥½
æŀĦ éĢł
ç¡®å®ļ çļĦ
ä¸įè¦ģåĲĥ è¾Ľè¾£åĪºæ¿ĢçļĦé£Łçī©
ä¸Ģä¾§ æĪĸåıĮä¾§
å¾Īæľī å¸®åĬ©
æĹ¶ è¦ģæ³¨æĦı
åĴĮ åĮĸçĸĹ
åıĺ ç²Ĺ
åĬĽ åº¦
ä½Ĩ è¿Ļ
çĹħåĽł æľī
ä¿Ŀè¯ģ çĿ¡çľł
åĮĸåŃ¦ æ²»çĸĹ
æľĢä¸º å¸¸è§ģçļĦ
éĩįçĹĩ èĤĮæĹłåĬĽ
æį£ çĥĤ
åİŁ æĿ¥çļĦ
èĤĮ çĶµåĽ¾
å¼Ĥ ä¸Ļ
èĤ¾ çĤİçļĦ
çľ¼ èĬ±
é¼» çĶ²
èĤĽéĹ¨ çļĦ
å¤§ä¾¿ å¹²ç»ĵ
åĲ¸æĶ¶ çļĦ
èĤ¡ åĽĽ
åĬ¨çī© æĢ§
æ¸©åº¦ åįĩé«ĺ
è§£åĨ³ éĹ®é¢ĺ
èģĶåĲĪ æ²»çĸĹ
è¦ģå¤ļ åĬł
åĮĸèĦĵæĢ§ æĦŁæŁĵ
èĤĽèĤł çĸ¾çĹħ
åīĳ çªģ
é¢ĪåĨħ åĬ¨èĦī
è¦ģ ä»İ
åľ¨ å¹³å¸¸
æĸ¹ èĥ½
æĢ¥ äºİ
çĿ¾ä¸¸ èĤ¿èĥĢ
ä¹ĻèĤĿ ä¸¤å¯¹åįĬ
èĭ¥ å¹²
å¸®åĬ© æ¶ĪåĮĸ
å¤ĸä¼¤ æĢ§
è¤ ª
æĪĸ èħ¹æ³»
æĦŁæŁĵ ä¹ĻèĤĿçĹħæ¯Ĵ
ç»Ĩèĥŀ å¢ŀæ®ĸ
éĻį è¡Ģåİĭ
åıĳèĤ² è¿Łæ»ŀ
å²ģ åĦ¿ç«¥
å¤§éĩı é¥®æ°´
å¢ŀå¼º æĬµæĬĹåĬĽ
å°¿è·¯ æĦŁæŁĵçļĦ
å®¶æĹı éģĹä¼ł
é£İæ¹¿ æĢ§åħ³èĬĤçĤİ
ä¸įæĺİ åİŁåĽł
èĭ± æĸĩ
èĢħ åįł
å¦Ĥ ç³ĸå°¿çĹħ
å¼ķ èĩ´
è¾ĥ åİļ
æ£ĢæŁ¥ åı¯è§ģ
åŀĭ éĵ¶å±ĳçĹħ
å¼º å¼±
éĴĪ å¯¹äºİ
éĴĻ çĽĲ
æľ« æľŁ
æ¶ĪçĤİ æ²»çĸĹ
ä¸Ńåº¦ èĦĤèĤªèĤĿ
ä¸ŃåĲ«æľī å¤§éĩıçļĦ
éĹ´æİ¥ èĥĨçº¢ç´ł
åĸīè¿Ķ ç¥ŀç»ı
ç²¾ æµĨ
æ´Ĺ è¡£
è¿Ļä¸ª çĸ¾çĹħçļĦ
æĸĩ çģ«
é»ıèĨľä¸ĭ èĤĮçĺ¤
ä¸į åİ»
ä¸Ģ éĺµ
è¾ĥ æĺĵ
åŃĲå®« å¢ŀå¤§
çĸı å¿½
ä»ĭå¯¼ çļĦ
èĥĥ æ³Įç´ł
æĸŃ å±Ĥ
å¿ĥçĲĨ çĸ¾çĹħ
äººå·¥ æİĪç²¾
å¹²åĩĢ çļĦ
es t
å¿ĥæĪ¿ é¢¤åĬ¨
çļĦ åıĳçĹħåİŁåĽł
çĹħ æľº
ä½Ĩ åį´
ç¡® ç«ĭ
è¢ ĸ
ï½ Ľ
ç½® åħ¥
æī¶ æŃ£
çĹħ çĹĽ
ä»¥ æİĴéĻ¤
ä¸ĢèĪ¬ åıĳçĶŁåľ¨
å±Ģéĥ¨ çĤİçĹĩ
åī¯ åıįåºĶ
å°ĳè§ģ çļĦ
æ¯ĴæĢ§ åıįåºĶ
æĶ¿ çŃĸ
å·¨ç»Ĩèĥŀ çĹħæ¯Ĵ
9 8
æľī çĶ¨
ä¸Ĭ æ®µ
çĹĩçĬ¶ ä¸įæĺİæĺ¾
èĢĮ å¢ŀåĬł
éľĢè¦ģ ç»ĵåĲĪ
å¾Ĺ å¤ª
åİ» å½ĵåľ°
åĴ½ é¼ĵ
çī¹å¾ģ æĢ§çļĦ
æĻº é½¿
èķ ¨
æľįèį¯ åĲİ
å®ŀéĻħä¸Ĭ æĺ¯
èĪĴå¼ł åİĭ
æº¶éħ¶ ä½ĵ
ä¸į åĩĢ
å¤ļ å±ŀ
åĴĮ åĩºè¡Ģ
åıĬ åĲĦç§į
ä¸Ĭ èħĶéĿĻèĦī
è¿Ļ éĥ½æĺ¯
ç»ĵ å±Ģ
æ¯Ķ éĩį
åĲĦ ä¸įçĽ¸åĲĮ
å±Ģéĥ¨ æľī
èĢĹ æ°§
çļĦåīį åħĨ
é¥®é£Łè°ĥçĲĨ ä¸Ĭ
PR L
çŃī åħ¶ä»ĸ
çĸ¼çĹĽ åĬłéĩį
è¿Ļç§į çĹħçĹĩ
åĿĩ èĥ½
éĤ£ä¹Ī åľ¨
æ³¡ æ°´
äºĶ èĦı
äººæµģ æľ¯åĲİ
ä½Ŀåģ» çĹħ
æľ ±
åı¯ åĲĳ
æīĭæľ¯ çļĦæĸ¹æ³ķ
çĸ¼ åĲĹ
è¯Ŀ è¯´
èĢģ å¸Ī
é¦ĸ ä¹Į
ä¹³èħº çĤİ
æ©¡ çļ®
çļĦ åĲİæŀľ
å¤ļ è¿Ľé£Ł
å¦Ĥæŀľ èĥ½
èĤ¿çĺ¤ åĴĮ
éļ¾ é¢ĺ
æķĪæŀľ ä¼ļ
åĮ»çĸĹ åį«çĶŁ
è´¯ ç©¿
æĬĹç»Ħèĥº èį¯
åĲ² åĵļ
ä½ĵ çĻ£
åĪĨ åİĭ
ä¸»è¦ģ ä¾ĿéĿł
æĢ¥æĢ§ ä¼łæŁĵçĹħ
ä¾ĭ åģĩ
çĻ½å¸¦ å¸¸è§Ħæ£ĢæŁ¥
å£° åĺ¶
æĸ°é²ľ èĶ¬èıľåĴĮæ°´æŀľ
å¼ķæµģ ç®¡
åĨįçĶŁ éļľç¢įæĢ§è´«è¡Ģ
ä¸Ģ åĲĮ
åıª ä¼ļ
çĶ²çĬ¶èħºæ¿Ģç´ł æ°´å¹³
é¦Ļ çĥŁ
äº² äºº
ç»§ç»Ń åıĳå±ķ
æĽ´å¹´æľŁ ç»¼åĲĪçĹĩ
æĭĶ çīĻ
èĥ³ èĨĬ
ç»¿èĦĵ æĿĨèıĮ
èĬ ¯
é¥® åĵģ
çĽ¸ å·®
äºĮ çĶ²
äºĨè§£ åĪ°
èĤĿçĹħ æĤ£èĢħ
è¿Ļç±» çĸ¾çĹħ
èħ°èĨĿ éħ¸è½¯
æĢ§ æģ¯èĤī
æĢ§ åħ³ç³»
æľī è¶³å¤ŁçļĦ
æĪĸ æĽ´
æĪĸ ç§°
è¿Ļ åı¯èĥ½æĺ¯
èĲ ¸
åľ° é«ĺ
èĲ¥åħ» ç¼ºä¹ı
åĿĩ åı¯å¯¼èĩ´
åįģåĪĨ æ¸ħæ¥ļ
çļĦå¥½ ä¹łæĥ¯
X åħī
ä¸į éģĤ
ç»ĨèıĮ æ»ĭçĶŁ
æĻļæľŁ çļĦ
æĪĴ æİī
éľĢè¦ģæ³¨æĦı çļĦ
é«ĺèĽĭçĻ½ çļĦé£Łçī©
ä¸¤ åĪ°
æįŁä¼¤ æĪĸ
æł¸ åŀĭ
åĮħæĭ¬ äºĨ
ä¾ĭ å¤ĸ
åıĳèĤ² çļĦ
æľĢå¥½ éĢīæĭ©
ç»ĵèĤł çĤİçļĦ
è¡Įä¸º æ²»çĸĹ
è¿Ľä¸ĢæŃ¥ çļĦæ£ĢæŁ¥
çĸĳ éĹ®
åĮĸéªĮ æ£ĢæŁ¥
çīĻé¾Ī åĩºè¡Ģ
æŀ¸ æ©
æŁ¥æĺİ çĹħåĽł
æĪĲ éª¨
çĶ² åŀĭ
éĺ´ åĽĬèĤ¿
çĶŁéķ¿ åĴĮ
è½¬ç§» çļĦ
åıįå¤į æĦŁæŁĵ
çłĶç©¶ ä¸Ń
æ¯ĴæĢ§ ä½ľçĶ¨
å¤§æ¦Ĥ åľ¨
0 1
æ¯Ķè¾ĥ æĺİæĺ¾çļĦ
åľ° ä¸Ĭ
è½¬ å¯¼
æıĲ æĹ©
èħ° èĥĮçĹĽ
æĢĢåŃķ æĹ©æľŁ
æĢİä¹Ī å¼ķèµ·çļĦ
æ·± æµħ
è¡¥åħħ è¶³å¤ŁçļĦ
çĦ¦èĻĳ æĥħç»ª
ä¸¤ç§į æĥħåĨµ
æ°Ķæ»ŀ è¡ĢçĺĢ
çļĦ çĶŁçī©
åı¯ åıĳå±ķä¸º
åģļ åĽĽç»´å½©è¶ħ
èĤ¾ çĹħçļĦ
çĽ®åīį å°ļæľª
æµ· é©¬
åıĳçĥŃ åĴĮ
çĸĳ ä¼¼
an t
Ig E
æľĢå¸¸è§ģ çļĦçĹĩçĬ¶
çĩĥ çĥ§
ãĢĤ" ãĢĬ
çĶŁ é£Ł
èħ ¾
ä¸İ åįµåŃĲ
ä½į åįĥ
èī² æ°¨éħ¸
æŃ£å¸¸ åĲĹ
ç¤ ¼
ç´« ç»Ģ
è½¦ åīį
è¿½ è¸ª
ä½İèĦĤ é¥®é£Ł
çļĦ äº§å¦ĩ
æĢ§ çĹĩçĬ¶
æĢ§ ä¸įåŃķ
èº« ä¸ĬçļĦ
éĥ½ åħ·æľī
èĤĮ éĺµæĮĽ
å°Ħ ç²¾ç®¡
éĢĢ ç¼©
åĸĿ èĮ¶
åĬłéĩį äºĨ
è¶Ĭ å°ı
è½¬ç§» çģ¶
åľ¨æĹ¥å¸¸ æĬ¤çĲĨä¸Ĭ
ä½İçĽĲ é¥®é£Ł
a v
åı¯ åĪĨ
è¦ģ ä»¥
åľ¨ æĦı
åīĤ æĪĸ
æ¤İ æĿ¿
èĥ¸ åı£
å¤ª æĭħå¿ĥ
ç«ĭ åħĭ
å°½åı¯èĥ½ çļĦ
æļ´éľ² äºİ
åĮħçļ®çİ¯ åĪĩæľ¯
æĺ¯ éĿŀ
çī Į
æł Ģ
æĿ¥ æİ§åĪ¶
è§£ æĶ¾
çļ®èĤ¤ åıĬ
ä¸Ķ æĹł
åĻ ľ
æĺ¯ä¸Ģç§į ä»¥
çĽ² èĤł
å¯ĴåĨ· åĪºæ¿Ģ
ç²¾åŃĲåĴĮ åįµåŃĲ
æŀĩ æĿ·
æ²» çĹħ
åĴĮ åĲİ
çĶ¨ æīĭæĮĩ
æĤ£èĢħ çĶ±äºİ
é¢Ħéĺ² çļĦ
éª¤ çĦ¶
e b
çľŁ å®ŀ
æ¾ ³
ç»ĨèıĮæĢ§ éĺ´éģĵçĤİ
æľī è½»
æĹ¶ åı¯æľī
ä¹Ł è¢«
ç³ĸ èĢĲéĩı
é¥®é£Ł æ²»çĸĹ
çľĭ ä¸įåĪ°
ä¸įèī¯ åĲİæŀľ
ç»¼åĲĪ æĢ§
åħ¨èº« æ²»çĸĹ
èĥĨæ±ģ åıįæµģ
ä½ľæģ¯ è§Ħå¾ĭ
çĿ« çĬ¶ä½ĵ
u p
åı¯ä»¥ èĩªè¡Į
çĸ¼çĹĽ ä¸įéĢĤ
ä¸´ è¿ĳ
åĮ»éĻ¢ æ£ĢæŁ¥
èĦ¸ é¢Ĭ
çĽ¸å¯¹ è¾ĥé«ĺ
å¸¸å¸¸ æĺ¯
æ°¨åŁº è½¬ç§»éħ¶
èĤĽç®¡ çĽ´èĤł
èĢ»éª¨ èģĶåĲĪ
ä¸ŃæľĢå¸¸è§ģçļĦ ä¸Ģç§į
çļĦ çī¹æ®Ĭ
ä¸Ģ ç»ı
åıĳ äº®
åĪĨ åı¶
é«ĺ ä»£è°¢
åīį ç«¯
çĸ¼çĹĽ åĬłåī§
å±Ģéĥ¨ çĥŃæķ·
å²ģ åīį
çĸ¾çĹħçļĦ ä¸Ģç§į
åı¦å¤ĸ è¿ĺæľī
ä¹Łåı¯ä»¥ åľ¨
æ·ĭå·´ç»ĵ æ¸ħæī«
åŃĲå®«é¢Ī çĤİ
èİ² èĹķ
å¸¸ äºİ
ä¸º æĤ£èĢħ
å¯¹ åĲĦç§į
æĤ£èĢħ åĽł
åı¯ä»¥ éħįåĲĪ
æĺĵ åĩºè¡Ģ
æĹ© è¯ĬæĸŃ
å£ ħ
åħ³èĬĤ åĨħ
æµ´ çĽĨ
æ¦Ĥ æĭ¬
æĺ¯æ¯Ķè¾ĥ å¥½çļĦ
æĺ¯æ¯Ķè¾ĥ å¤ļçļĦ
åĿĩè¡¡ é¥®é£Ł
åı¯ åı£æľį
æĹł åĳ³
éĽ ħ
é¢Ħéĺ² æĸ¹æ³ķ
æ¤İ éĹ´éļĻ
åħĭ éĽ·
éĩĩåıĸ æīĭæľ¯æ²»çĸĹ
P O
èıĮ æĦŁæŁĵ
ä¹ĭ æ¯Ķ
åŀĭ ç³ĸå°¿çĹħçļĦ
æŃ¤ ä¸º
èĮ ħ
æł¹æį® ä¸įåĲĮçļĦ
éķ¿æľŁ é¥®éħĴ
è¿Ļæł· å¯¹
å°±ä¼ļ å½±åĵį
ä¸įéĢĤ å®ľ
é«ĺè¡Ģåİĭ åĴĮ
æ³Ľ éħ¸
ãĢĭ ï¼Į
åĮ»çĸĹ åĻ¨æ¢°
èĥ°å²Ľç´ł åĪĨæ³Į
ç¥Ľ æ¹¿
åħ¨éĿ¢ çļĦæ£ĢæŁ¥
å¯¹ç§° åĪĨå¸ĥ
æ°´å¹³çļĦ æıĲé«ĺ
èį¯çī©æĢ§ èĤĿæįŁä¼¤
å¼Ĥ æĢ§
çĽ´ è§Ĥ
è¡¥ èĦ¾
çĻ½å¸¦ çļĦ
åĽº ä½ĵ
ç»¼åĲĪå¾ģ çļĦ
åı£èħĶ åĨħ
çļĦèį¯çī© è¿Ľè¡Įæ²»çĸĹ
åħ¨éĿ¢ æ£ĢæŁ¥
ä¼´éļı æľī
èĴĤ æīŃè½¬
éĢ¼ å°¿
5 1
è¯ ĳ
å½ĵ å¥³æĢ§
æİĴ éª¨
ä»ħ éĻĲäºİ
é±¼ æ±¤
çĽ´æİ¥ èĥĨçº¢ç´ł
æ¢ħæ¯Ĵ çĸ¹
å¤§ä¾¿ æ¬¡æķ°
æ£Ģæµĭ ç»ĵæŀľ
éĽĨ åĲĪ
æ¡ĥ åŃĲ
æ³Įå°¿ ç§ĳ
éĢłå½± æ£ĢæŁ¥
æĺ¯ä¸Ģ ç±»
çĹħçĲĨæĢ§ éª¨æĬĺ
ä¸Ģä¼ļ åĦ¿
M S
ç¥ŀç»ı åĨħåĪĨæ³Į
ä¼ĳ éĹ²
åĽĬèĤ¿ çļĦ
æķ£ åħī
å¸¦æĿ¥ çļĦåį±å®³
æĹ¢ çĦ¶
O H
æľī å¿ħè¦ģçļĦ
åºĶ åĬłå¼º
æħ¢æĢ§ æ·ĭå·´ç»Ĩèĥŀ
éĻį çģ«
éĢļè¿ĩ èĥİçĽĺ
åĨį åº¦
ç¼ĵè§£ æľŁ
å¤ª å°ĳ
é©¬ é½¿
åĢĴ æµģ
ä¼´éļı çĹĩçĬ¶
æ»´èĻ« æĢ§
èĥ¶è´¨ çĺ¤
å® ł
å¯¹ å¤ĸçķĮ
æľ¯ è¯Ń
æŃ£ æĺ¯
èĥĥ åĴĮ
åĽłæŃ¤ å¯¹äºİ
åį±å®³ å¾Īå¤§
æ·ĭå·´ç»ĵ çļĦ
çķ¥ æľī
åĨ³å®ļ çļĦ
è¾ĵå°¿ç®¡ ç»ĵçŁ³
æ³¨æĦıé¥®é£Ł åį«çĶŁ
åĩ¡ æĺ¯
çĮ© çº¢çĥŃ
ä» ĳ
ä¸į çĨ¬å¤ľ
æĹ¶ åĬłéĩį
å¯¹ æŁĲäºĽ
æĸŃ éĿ¢
ä¿ĥ åıĳ
èħ° åĽ´
ä»İèĢĮ å½¢æĪĲ
èĤĿèĦı åĬŁèĥ½
çļĦæĸ¹æ³ķ æľī
èĥļ å±Ĥ
åħ³éĶ® æĺ¯
ä½İæ°§ è¡ĢçĹĩ
åĴĮ å¥³æĢ§
éĺ ľ
è¡Ģæ¶² åĽŀæµģ
æľ¯åĲİ æģ¢å¤į
çĤİæĢ§ ä¸ĺçĸ¹
ç©¿åĪº æ´»æ£Ģ
é¥®æ°´ éĩı
åĪĢ åı£
ä¸Ģåĳ¨ åĨħ
ä¸įæ³¨æĦı ä¸ªäººåį«çĶŁ
çĶŁ èĳ±
å®«é¢Ī åĪ®çīĩ
äº§å¦ĩ çļĦ
èº¯ä½ĵ çĹĩçĬ¶
çļĦ ä¸įæĸŃ
èĬ ¡
ä½Ĩ è¦ģ
æĪĸèĢħ åħ¶ä»ĸ
éħĴ çŃī
ä¹Łä¼ļ äº§çĶŁ
èĽĭçĻ½è´¨ åĲ«éĩı
æ³Ľ åıĳæĢ§
ä¼Ĺ æīĢ
èĤĮå¼łåĬĽ å¢ŀé«ĺ
æĬĹæ°§åĮĸ åīĤ
s h
s t
å°±è¯Ĭ æĹ¶
èĤ¥èĥĸ èĢħ
èĦ¸ä¸Ĭ éķ¿
èģĮä¸ļ çĹħ
å°ĺ èŀ¨
åºĶ åİ»åĮ»éĻ¢å°±è¯Ĭ
æĸ¹ ä½į
ä¸įè¦ģ åĽłä¸º
ç¡¬ æĿ¿
ç²ĺ éĻĦ
è¿Ļæł· èĥ½å¤Ł
éĴĪ å°ĸ
èĨĢèĥ± çĻĮçļĦ
äººä»¬ çļĦçĶŁæ´»
çļ®ä¸ĭ èĦĤèĤª
f f
ä¸į å¯¹
åĴĮ æģ¶æĢ§
å¥½ åĲĹ
è± ļ
èĽĭ ç³ķ
è¿ĻäºĽ çī©è´¨
ç¨ĭåº¦ åĴĮ
æīįèĥ½ è¾¾åĪ°
åĢį ä»¥ä¸Ĭ
å¥³æĢ§æľĭåıĭ çļĦ
me th
è§Ĩçī© æ¨¡ç³Ĭ
åĴ½é¼ĵ ç®¡
åıĳ åŀĭ
çĶ¨ ä»¥
éķ¿ æĺ¥
å¤± æİ§
æº ª
èĤī æ¡Ĥ
ä¸Ģå®ļ éĩıçļĦ
éģ¿åħį äºĨ
åıĳçĹħ åĪĿæľŁ
è¶³ èĥĮ
å°ıæĹ¶ å·¦åı³
å®ļæľŁ åģļ
åľ¨æ²»çĸĹ çļĦæĹ¶åĢĻ
åĪĨåŃĲ çĶŁçī©åŃ¦
åĪ» æĿ¿
hy dro
åĹĵ åŃĲ
åľ°é«ĺ è¾Ľ
n er
o v
æĪĸ æĮģç»Ń
èĥĥ éĥ¨çļĦ
é¥®é£Ł çĸĹæ³ķ
åİ» æ£ĢæŁ¥
çĶļèĩ³ å¼ķèµ·
åıĪ ä¼ļ
å¼± ç²¾åŃĲçĹĩ
éĥ½æĺ¯ æľī
éļĲ èĶ½
éĢĤéĩı è¿ĲåĬ¨
èĤĺ éĥ¨
åĲ¹ é£İ
1 40
ä» ²
æĦŁæŁĵ çİĩ
èħ¹ ä¸Ń
ä¸ĢèĪ¬ éĥ½ä¼ļ
åĪ« çļĦ
æīĢä»¥ å¥³æĢ§
éĿĻèĦī è¾ĵæ¶²
æķĪæŀľ ä¸įä½³
æµĬ éŁ³
çļĦ è¡¨éĿ¢
åı¯ é«ĺè¾¾
åľ¨ æĤ£æľī
æľĢ å°ĳ
å¾Ĺ çĹħ
å¾Īå¤ļ çĶ·æĢ§
å¢ŀåĬł èħ¹åİĭ
æľįçĶ¨ æľ¬åĵģ
çĶŁåĳ½ å®īåħ¨
æĢ§è´¨ åĴĮ
çĶ³ è¯·
çļĦ æľºåĪ¶
æĹ¶ åı¯ä»¥
æ°´ éĩı
å¹³ èºº
å®«é¢Ī ç²ĺæ¶²
åħįçĸ« è°ĥèĬĤ
éĢĲæ¸Ĳ æģ¢å¤į
æĬĹä½ĵ çļĦ
åĸī å¤´
æľīåĬ©äºİ è¯ĬæĸŃ
æ·ĭå·´ç»Ĩèĥŀ æµ¸æ¶¦
çŃī åĻ¨å®ĺ
æĹ© éĨĴ
åĽłç´ł å¦Ĥ
æĢ¥æĢ§ éĺĳå°¾çĤİ
ä¸Ģå®ļè¦ģ éĢīæĭ©
ä»£è°¢ æĢ§çĸ¾çĹħ
é£ŁçĶ¨ ä¸ĢäºĽ
çİĭ æµĨ
ä¸Ģæ¦Ĥ èĢĮè®º
çļĦ ç²¾åŃĲ
å°¿ å°ĳ
æ¯Ĵ åĬĽ
æīĭæľ¯ æĺ¯
é£Łçī© ä¸ŃçļĦ
èĤ¾ ç§»æ¤į
ä½¿çĶ¨ èį¯çī©æ²»çĸĹ
å¯Į æľī
å¤ļç§į çĹħåĽł
éª¤ åģľ
æĿĥ åĪ©
åİŁä½į çĻĮ
ä¸į çĲĨæĥ³
å¤ļ åı¯
æĤ£èĢħ åĩºçİ°äºĨ
çĶ² ä½İ
ä»ĸ äººçļĦ
çĽ´ çº¿
å®¹æĺĵ ä½¿
éĺ´éģĵ é»ıèĨľ
åĲĮæĹ¶ éħįåĲĪ
åįķ çĶ¨
åĶ Ĺ
ä¸ĭéĿ¢ æĪĳä»¬å°±
æ¼« éķ¿
æľīæ¯Ĵ çī©è´¨
ä¸ĭéĿ¢ä¸ºå¤§å®¶ä»ĭç»į ä¸ĭ
çļĦ åİĭè¿«
çĶŁ åľ°
åĴĮ æĶ¹åĸĦ
å¸¸ åıĳçĶŁ
ä¼ļ æĦŁè§ī
çĹĩçĬ¶ ä¸İ
çļ® åĨħ
å°± è¯´æĺİ
æŃ£ æ°Ķ
èĥĥ é£Łç®¡åıįæµģ
åıĹ è¯ķ
éĢĤ æĹ¶
åį³ åľ¨
è§ī éĨĴ
å¼± çĤ¹
çĶµ æ³³
å·¥ä½ľ èĢħ
æĭī åĶĳ
ä¹Łä¸į çĶ¨
åįģäºĮæĮĩèĤł çĲĥ
æ·Ģç²ī éħ¶
tr ans
äº²åĴĮ åĬĽ
åľ° ä¸Ń
éº ¸
æĿ¡ çĬ¶
ç¡®å®ļ æĺ¯
è¿ĺä¼ļ éĢłæĪĲ
æ½ľ è¡Ģ
çļĦ èī¯å¥½
åºĶ åį§åºĬä¼ĳæģ¯
å¹¶ æľª
åĲĥ çļĦé£Łçī©
åĳ¨ çŁ¥
çĸ¼çĹĽ æĺİæĺ¾
è¿ĻäºĽ æĸ¹æ³ķ
éķ¿æľŁ åĿļæĮģ
æľīæĹ¶ åı¯è§ģ
ä»į æľª
æĺ¯ä¸įä¼ļ ä¼łæŁĵçļĦ
æĺ¯ äººç±»
éª ļ
æīĢ èĥ½
åĮ» èį¯
ä¹ĭ ä»¥
åħĪ åĲİ
åĨį èĢħ
å¹¶ä¸Ķ æľī
CT æĪĸ
ä½İå¯Ĩåº¦ èĦĤèĽĭçĻ½
A l
o ph
åĴĮ é¥®é£Łä¹łæĥ¯
æıĲ åĪ°
éĹ¨ åĨ¬
å§ Ĩ
éĢĲæ¸Ĳ æ¶Īå¤±
æıĲé«ĺ çĶŁæ´»è´¨éĩı
è¡¥åħħ ä¸ĢäºĽ
éĹ´éļĶ æĹ¶éĹ´
HB e
æĪĸ èĤ¿çĺ¤
å®« ä½ĵ
çļ®èĤ¤ ç²Ĺç³Ļ
èī¯ æĢ§çĸ¾çĹħ
ä¾§ åį§
åħ¶ä»ĸ åĻ¨å®ĺ
åħ³èĬĤ æ´»åĬ¨
çĶ²çĬ¶èħºåĬŁèĥ½ æ£ĢæŁ¥
é¢ĦåĲİ å·®
è½´ çªģ
æĺĵäºİ æ¶ĪåĮĸ
æł¸æ¡ĥ ä»ģ
éĻįåİĭ èį¯
çĶŁæ´» åľ¨
éľĢè¦ģ èĢĥèĻĳ
åĲ« éĶĮ
åĪĻ è¦ģ
èĨĢèĥ± å®¹éĩı
å¤§å°ı åĴĮ
åĲĪçĲĨ æĲŃéħį
äººç¾¤ çļĦ
å¿§éĥģ çĹĩ
æµĨèĨľ ä¸ĭ
èĦĳ çĻĮ
ä¸įè¦ģ éķ¿æĹ¶éĹ´
æĢĢåŃķ åīį
åħ¨èº« éº»éĨī
å¤ľ æĻļ
ç¬¬ä¸Ģ å¤©
æ°¢ åĮĸ
å³° åĢ¼
å¥ ĸ
åı¯èĥ½ å¯¹
æ¬¡ åı£æľį
ä»į åı¯
ç¤¾ä¼ļ åĽłç´ł
æĪĴ æĸŃ
çĪ± ç¾İ
çļĦä»ĭç»į ä¸ĭ
Ġs yndrome
åĪ©ç¦ı å¹³
ä»¥ ç»´æĮģ
ä¹ĭ åĬŁæķĪ
ä¸»è¦ģ åİŁåĽłæĺ¯
çĥŃ çĸĹ
æľª éĹŃ
çĶŁçĲĨ åŃ¦
å¸¸è§Ħ çļĦ
ä¿ĿæĮģèī¯å¥½çļĦ å¿ĥæĥħ
çĮ® è¡Ģ
çĹħ æľŁ
åıĺ é»ĳ
åİĭ çĸ®
æĢ¥æĢ§ æ¹¿çĸ¹
ä»¥åıĬ åĲĦç§į
åŃķå¦ĩ åıĬ
æł¼ åĪĹ
æŁĵèī² è´¨
æĺ¯åı¯ä»¥ éĢļè¿ĩ
æĦŁæŁĵçļĦ æľºä¼ļ
æĺ¯æ¯Ķè¾ĥ å¤§çļĦ
éĵľ ç»¿
ä»¥ é¢Ħéĺ²
å°¿ çĹĩ
å°± å¥½äºĨ
è¾ĥ æĢ¥
åĲĮ ä½į
å®«é¢Ī è¡¨éĿ¢
ä¸ī æľŁæ¢ħæ¯Ĵ
å¼º åĬĽ
å·¥ ç¨ĭ
ç»ıå¸¸ ä¼ļåĩºçİ°
éĥ½æĺ¯ éĿŀå¸¸
è¾Ľè¾£ é£Łåĵģ
åıĺåĮĸ çļĦ
åħŃ é¡¹
çĶ²çĬ¶èħºèĤ¿ å¤§çļĦ
èĨ¨ éļĨ
ä¸įçŃī çļĦ
æ¯ıä¸ªäºº éĥ½
å¤§èĤłåŁĥå¸Į èıĮ
a e
çļĦ çĶŁæĪĲ
åıĺ æį¢
èį¯çī© è¿Ľè¡Į
å¯Ĵ æĢ§
çļĦè¯ĬæĸŃ æĸ¹æ³ķ
å¦Ĥæŀľä¸į æ³¨æĦı
åĳ¼åĲ¸éģĵ éĢļçķħ
èĦĸåŃĲ çĹħ
éļıçĿĢæĹ¶éĹ´çļĦ æİ¨ç§»
éļĲéļĲ ä½ľçĹĽ
ä¸į äºĨè§£
åľ¨ æİĴåįµæľŁ
åºĶ åģļ
æĪĲ ç«ĭ
å¼Ģ åĪĢ
ä¸¥éĩįçļĦ ä¼¤å®³
æŃ£å¸¸çļĦ çĶŁçĲĨ
èº«ä½ĵçļĦ åģ¥åº·
åĬ³ç´¯ è¿ĩåº¦
è¿ĩäºİ åĬ³ç´¯
å®«åĨħ æĦŁæŁĵ
æĺ¯ å¾Īå®¹æĺĵ
ç§ ½
ä¸Ĭ äºĨ
æĢĢåŃķ ä¹ĭåĲİ
å·¦ æīĭ
è¡Ģæ¶² æ£ĢæŁ¥
æĬĳåĪ¶ æĢ§
èĭ¦ åıĤ
èµ¤ èĬį
çļĦ åĢ¾åĲĳ
ä¸ĭ åľ°
åºĶ ä»İ
ä¸¥éĩį å½±åĵįåĪ°
åħįçĸ« ç»Ĩèĥŀ
è¯±åıĳ çļĦ
é³ ĸ
æī©å¼ł çļĦ
ä¸ĭéĿ¢ æĿ¥
è¾ĥä¸º å¸¸è§ģçļĦ
æĳĶ åĢĴ
ç«ĭåħĭ æ¬¡
å¤ļ çĶ¨
åĴĮ å°¿
èĦĳ ä¾Ľè¡Ģä¸įè¶³
ç³ĸ ä»£è°¢
ç© Ĺ
åĲĦ æľī
è¿Ļä¸ª æĥħåĨµ
as t
èĩªèº«çļĦ åħįçĸ«åĬĽ
çĶ·å¥³ åıĮæĸ¹
çļĦ éģĹä¼ł
æĺ¯ æŃ£å¸¸
åľ¨ åĪĨå¨©
ç»ı åı£
æĿ¥ äºĨ
å¹¶ ä¿ĿæĮģ
ä½Ĩ æľīæĹ¶
æµģ éĩı
åħ¨ å±Ĥ
çĹħæ¯Ĵ çļĦæĦŁæŁĵ
çĤ¹ çļĦ
åĩıå°ĳ å¯¹
èĥĨ éħ¸
åĩıè½» çĸ¼çĹĽ
ç¢± åŁº
è¶¾ çĶ²
æ¶īåıĬ åĪ°
æĢ§ éļľç¢į
ä¼ļ æ¯Ķ
ä¸ĭ ä¸ĢæŃ¥
çļ®èĤ¤ æĦŁæŁĵ
æħ¢æĢ§ æĶ¯æ°Ķç®¡çĤİ
ç¼ĵ åĨ²
ç²¾ç¥ŀ æĦīå¿«
è¶Ĭ ä¸¥éĩį
ä¸¹ çļ®
ä¸´ æĹ¶
çĶļèĩ³ æŃ»äº¡
çĺĻçĹĴ çļĦçĹĩçĬ¶
é¦ĸåħĪ èĢĥèĻĳ
æİĴå°¿ ä¸įçķħ
å°¾ èļ´
èĽĭçĻ½è´¨åĴĮ ç»´çĶŁç´ł
å¿ħä¸įåı¯ å°ĳçļĦ
åī Į
çĹĩçĬ¶ è½»å¾®
ä¸ī éĩĮ
é¦Ļ èıľ
ç¦ģæŃ¢ åĲĮæĪ¿
äººéĻħ åħ³ç³»
é»ĳå¤´ ç²īåĪº
i z
çļĦ åıĳçĹħæľºåĪ¶
åħ³ çĪ±
èĦĳ æ¡¥
èĤ¾ æĢ§
å®Ŀå®Ŀ åĩºçİ°
ä¹Łåı¯ åĽł
è¿Ļä¸Ģ ç±»
è¾¨ è®¤
æī§ ä¸ļ
çļĦ çĹĽèĭ¦
æīĢ çĶ¨
åħĪ éľ²
çļĦæ²»çĸĹ åĴĮ
åıĳçĹħ èĢħ
åĬ¨èĦī å¯¼ç®¡
åĬ¨èĦī æłĵå¡ŀ
ç¢ĺ ç¼ºä¹ı
å¤ĸä¼¤ åĲİ
èĢĮ æĦŁæŁĵ
å¸¦ åħ¥
çĽ¸ æ··æ·Ĩ
åħ¶å®ŀ å°±æĺ¯
å¼¹ åĵį
èľĤ çİĭæµĨ
æľ¬çĹħçļĦ åıĳçĶŁ
D P
G ra
èĥĥ ç®¡
éĥ½ ä¸İ
ä¸»è¦ģ åıĳçĶŁäºİ
çĸ¼çĹĽ æĺ¯
éģ¿åħį é¥®éħĴ
åĲĮæĹ¶ åľ¨
å¿ĥèĦı çĹħçļĦ
æĻ® æŁ¥
åħ° èĬ±
çķĻä¸ĭ çļĦ
åĲĮä½į ç´ł
ä¸Ĭ çİ¯
åıĺ æµħ
åıĳçĶŁ çĻĮåıĺ
åħį åıĹ
èĤł å¥Ĺåıł
æħ¢æĢ§ æµħè¡¨æĢ§èĥĥçĤİ
åıĳçİ° èĩªå·±çļĦ
éĢīæĭ© ä¸ĢäºĽ
æ·¡ çº¢
æİ¥è§¦ åı²
èĩªå·±çļĦ èº«ä½ĵåģ¥åº·
èĤ²é¾Ħ æľŁ
å§Ķåĳĺ ä¼ļ
u d
ä¸¤ å±Ĥ
èĲ¥åħ» ç¥ŀç»ı
çĸĹæ³ķ æ²»çĸĹ
ç´«å¤ĸçº¿ çħ§å°Ħ
æĢ§ æĹ©çĨŁ
åı¯ åİĭè¿«
æŀľ éħ¸
éĩį èĢħåı¯
çĶ± åĮ»çĶŁ
å¯¼èĩ´ å¥³æĢ§
å¥³ äººçļĦ
åı£ æ°Ķ
ä»¥åıĬ ä¸ĢäºĽ
åŃĲå®«åĨħèĨľ çĻĮçļĦ
è¡Ģç³ĸ æ°´å¹³
åĻ¨å®ĺ ç§»æ¤į
çĸĳ æľī
é¡º æĹ¶éĴĪ
ä¼ļåĬłéĩį çĹħæĥħ
å¸ĮæľĽå¯¹ å¤§å®¶æľīæīĢå¸®åĬ©
h CG
çļĦ æĿ¥æºĲ
åĨħ ä¼¤
è¿Ļ æĸ¹éĿ¢çļĦ
æ³¨æĦı åĪ°
èĪ į
èĤĽ ç¼ĺ
åĲĮæĹ¶ è¦ģæ³¨æĦı
æľ¨ åĥµ
åľ¨æĢĢåŃķ åĪĿæľŁ
çĶŁç²¾ åĬŁèĥ½
æıĲèĤĽ è¿ĲåĬ¨
åĴĮ æĹł
åĴĮ è¾ĵåįµç®¡
çĶ¨ èį¯çī©æ²»çĸĹ
ä¼ļ è¡¨çİ°ä¸º
åĩºè¡Ģ çİ°è±¡
èº«ä½ĵ æ£ĢæŁ¥
èĲ¥åħ» éļľç¢į
èĥ¸ éĶģ
æ´Ĺæ¾¡ æĹ¶
åĪĨåĪ« æĺ¯
ä¼ĹæīĢ åĳ¨çŁ¥
èĥ §
çĹħ èĢħ
æ²» æłĩ
ç»ı çĶ±
åħ¥ èį¯
å¼º å¿ĥ
è¯ĬæĸŃ æĦıä¹ī
ä¹Łæĺ¯ ä¸įåĲĮçļĦ
è¿ĺæľī å¾Īå¤ļ
åĽŀ çº³
èĤĿçĻĮ æĻļæľŁ
å¹´è½» åĮĸ
åĥµ çĽ´
æīĭ çĻ£
è¿ĺ æ²¡
å¸¦ çĿĢ
éĿŀ æĦŁæŁĵæĢ§
ä¸Ģå®ļè¦ģ å¼ķèµ·
éĤ£ä¹Ī æĪĳä»¬
çº¦ åįĬæķ°
æ¸ħæ·¡ çļĦ
å°ļ åı¯
çļĦåıĳçĶŁ ä¸İ
å¾Īå¤§ ç¨ĭåº¦ä¸Ĭ
äººå·¥æµģäº§ åĲİ
HA V
å¿µçıłèıĮæĢ§ éĺ´éģĵçĤİ
å¼ºçĽ´æĢ§ èĦĬæŁ±
ç§į ç±»åŀĭ
ç± į
åıį èĥĥ
æĹ¥ æľŁ
æĺ¯ä¸Ģç§į å¾Ī
æ¬² æľĽ
ä¼¸ åħ¥
è·³ åĬ¨
é»ĳèī²ç´ł ç»Ĩèĥŀ
èĩ´çĻĮ çī©
æ¹ĸ åįĹ
æĮ½ æķĳ
é«ĺ çº§
åıĺ é»Ħ
è° ģ
å®ŀ ä½ĵ
ä¸ĺçĸ¹ æĢ§
ï¼İ ï¼İ
æĿĥ å¨ģ
A ST
ä¸Ģ åıª
ä¼ļ åĽł
ä¸ĢèĪ¬ å»ºè®®
éĥ¨ä½į åıĬ
æ²¹ çŃī
è§Ĵ å½¢
è®¸ åı¯
é© ¶
ç«¹ ç¬ĭ
åı© è¯Ĭ
æĤ£èĢħ åı¯èĥ½
åīį å±Ī
æħ¢æĢ§ æĦŁæŁĵ
å®¹æĺĵ çĸ²åĬ³
åīįåĪĹèħº çĻĮçļĦ
æľ¯åĲİ å¤įåıĳ
å¦Ĥæŀľæĺ¯ åĽłä¸º
èĪĴ çŃĭ
ä¸įåı¯ å¿½è§Ĩ
æĸ ¼
äºĨ å¾Īå¤ļ
æŀģ åĮĸ
éĩįåº¦ å®«é¢Īç³ľçĥĤ
äººä¹³å¤´çĺ¤ çĹħæ¯ĴæĦŁæŁĵ
å¤ļåĲĥæĸ°é²ľ èĶ¬èıľåĴĮæ°´æŀľ
éĥ¨ åıĬ
åºĶ éĢĤå½ĵ
è´¨ ç½ĳ
èĦĳ èĦĵèĤ¿
åģļ Bè¶ħ
è¿Ĳ è½¬
ç¾ ¹
çĿ¾ä¸¸ ç§¯æ¶²
æł¹æį® æĥħåĨµ
æĺ¯æĮĩ å¥³æĢ§
èĥ° å¤´
å¯ĦçĶŁèĻ« çĹħ
æĪª èĤ¢
ä¾µè¢Ń æĢ§
æĳĺéĻ¤ æľ¯
åĴĮ T
æĪĸ æīĭæľ¯
ä¸ĭ ä½ĵ
éĢĤ åº¦çļĦ
åĳ¨ åīį
éĶ ¤
åıĬæĹ¶ è¿Ľè¡Įæ²»çĸĹ
åıĬæĹ¶ è¡¥åħħ
åį³ æĺ¯
æ¯Ľ æ»´èĻ«
ä½ĵåĨħ æľī
æ¶Ĥçīĩ æ£ĢæŁ¥
äºļç¡Ŀ èĥº
v es
åıĳ çĤİçļĦ
ä¸Ĭ ç½ĳ
ä¹Ł è¢«ç§°ä¸º
èħº åĽĬèĤ¿
è¿ĺ åı¯èĥ½åĩºçİ°
èıĮ ä½ĵ
åŃĲå®« ç²ĺè¿ŀ
ä¸¤ èħ¿
ä¸Ģä¸ª å°ı
å±ŀ çļĦæ¤įçī©
ä¾Ľ æ°§
ä¸įåĪ© å½±åĵį
æĽ´å¥½çļĦ é¢Ħéĺ²
æıĲåĩº äºĨ
6 8
çļĦ éª¨
åĴ ±
å¿ĥ è¾ĵåĩº
èıĮ èĲ½
èĤĮ éħ¸
åĽłç´ł å½±åĵį
æĢ¥æĢ§ æĪĸ
åħ¶ä»ĸ å¦Ĥ
èĤĿèĦı æįŁå®³
åıĹåĪ° æĬĳåĪ¶
éĹ´æŃĩ æľŁ
çĻ« çĹħ
æĭį çīĩ
p r
åľ¨ çļ®èĤ¤
åĪĨ çķĮ
ä¸¥éĩį æĦŁæŁĵ
åĬ¨èĦī åĴĮ
é¼» æ¢ģ
ä¸Ĭçļ® çĻĮ
éĺ¿ çīĩ
åĪĢ åī²
ç§¯æŀģçļĦ è¿Ľè¡Įæ²»çĸĹ
èĥİåĦ¿çļĦ åģ¥åº·
è¿ģ ç§»
c on
çļĦ äºĨè§£
çļĦ å¹´é¾Ħ
åıĬ åħ¨èº«
å¹¶ å¯¹
ä½Ĩ è¦ģæ³¨æĦı
ç¨ĭåº¦ ä¸İ
é¼» è¡Ģ
è¯ģ åĢĻ
æ¸Ĺ è¡Ģ
åī¯ äº¤æĦŁç¥ŀç»ı
èĩªçĦ¶ æ¶Īå¤±
æĬĵ ç´§
å¾Īå¥½çļĦ æķĪæŀľ
ä¾Ŀèµĸ äºİ
èĢħ ç¦ģçĶ¨
æ°Ķ åĸĺ
æĹ©æľŁ æ¢ħæ¯Ĵ
æĬĳåĪ¶ èį¯
æıĲé«ĺ èº«ä½ĵçļĦ
åĸī çĤİ
æĮ¤ åĩº
åĨ° åĨ»
ä¸īåĪĨ ä¹ĭä¸Ģ
ä¸ĭ èº«
å¦Ĥæŀľ éķ¿æĹ¶éĹ´
ä¹ĭ çĹĩ
éģ¿åħį éķ¿æľŁ
ç¬ ¼
åĳ¼åĲ¸ æĢ§
ç«ĭ ä½ĵ
æİ¥è§¦ ä¼łæĴŃ
æľīåı¯èĥ½ ä¼ļåĩºçİ°
éĴł çĽĲ
ç¡« ç£º
æĸ°é²ľçļĦ èĶ¬èıľ
æ¡¥æľ¬æ°ı çĹħ
èĤ¾å°ıçĲĥæ»¤è¿ĩ çİĩ
i tis
åı¯ ä¸į
ç¥ŀç»ı çº¤ç»´çĺ¤
çļĦåİŁåĽł æľīåĵªäºĽ
ç²ī ç¢İ
èĸĦ å±Ĥ
éĽĮæ¿Ģç´ł çļĦ
äº§åīį è¯ĬæĸŃ
çİ°å®ŀ çĶŁæ´»ä¸Ń
èħ°éª¶éĥ¨ çĸ¼çĹĽ
éĶ¥ä½ĵ æĿŁ
d er
å¥½ åĥı
çĶ²çĬ¶èħº æ»¤æ³¡
å®ŀ æĹ¶
æ²¹ éħ¸
çº¿ ç´¢
å¾ªçİ¯ ç³»ç»Ł
éĽĮ åŃķæ¿Ģç´ł
æĳĦåħ¥ è¿ĩå¤ļ
çĶ²äº¢ åį±è±¡
æĶ¾å°Ħ èĩ³
æł¸ç³ĸ æł¸éħ¸
åĲİ åıĪ
ä¸Ń åĩºçİ°
ä¸Ĭ å¸Ĥ
èĩ´ çķ¸
çĸ¾çĹħ çļĦæĤ£èĢħ
çĶ² éĨĽ
ç©º èĻļ
æ¸ħæ´ģ åĴĮ
éĢı åħī
ç§¯æŀģçļĦ éħįåĲĪåĮ»çĶŁ
æħĮ å¼ł
èĥ¶åĽĬ æĪĲåĪĨæĪĸå¤Ħæĸ¹
æĹłä»»ä½ķ çĹĩçĬ¶
çĶŁéķ¿äºİ æµ·æĭĶ
åĢĺ èĭ¥
åı¯èĥ½ å°±æĺ¯
æĽ´ ä¸įèĥ½
åıĳçĹħ åĽłç´ł
æĶ¾ å±ģ
åĽĽ èģĶ
äºĶ è°·
èĦĵèĤ¿ å½¢æĪĲ
çĻĮçĹĩ æĤ£èĢħ
éħ¯ éħ¶
åĲ»åĲĪ åı£
ä¸ºä¸»è¦ģè¡¨çİ° çļĦ
5 9
æĪĸ ä½¿çĶ¨
åĽł æŀľ
å¤§ åĿĹ
èĢĮ äº§çĶŁçļĦ
æĢ§çĶŁæ´» åĲİ
å¹²çĩ¥ çļĦ
è®¸å¤ļ æĤ£èĢħ
ä¹ıåĬĽ çŃī
ç»ĨèĥŀçļĦ å¢ŀæ®ĸ
ä¸Ńå¹´ å¥³æĢ§
æ»ĭçĶŁ ç»ĨèıĮ
æĹ©æĻļ åĲĦ
åħįçĸ«æĢ§ ä¸įåŃķ
éģĹå°¿ çĹĩ
è°·ä¸Ļ è½¬æ°¨éħ¶
A M
ä¸Ģ æ°§åĮĸç¢³
åıĳ èĦ¾æ°Ķ
æĹ¶ åĪĻ
åŃĲå®« ç§¯æ¶²
èĤ¾ æ¯ĴæĢ§
éĴĻ ç´ł
ç§¯æŀģ ä¹Ĳè§Ĥ
å¯Ĵ æ¹¿
åĲ¸çĥŁ èĢħ
ç»ĨèıĮæĦŁæŁĵ å¼ķèµ·çļĦ
éĩĮéĿ¢ æľī
as s
éĶ¥ ä½ĵå¤ĸ
ä¼´åıĳ çļĦ
å¸¸æŁĵèī²ä½ĵ éļĲæĢ§éģĹä¼ł
å¦Ĥ åĲĮ
é«ĺ åİŁ
æĸ¹ åīĤ
éļı å¹´é¾Ħ
æ²¹ æĢ§
èĢĥ è¯ķ
æľ¬åĵģ çļĦ
ç»ĵæŀĦ å¼Ĥå¸¸
åĬ¨çī© èĦĤèĤª
èºģ åĬ¨
åıĹä½ĵ ç»ĵåĲĪ
çĹħåİŁ åŃ¦
æ¸ħå®« æīĭæľ¯
æĢ§ æ´»åĬ¨
æ² ®
è¡Ģ HCG
åĴĮ çĦ¦èĻĳ
æľĢ é«ĺçļĦ
éĥ½ åı¯å¼ķèµ·
æ³Į å°¿éģĵæĦŁæŁĵ
æĢ¥ è¿«
èĮ ¨
å¯¹äºİ æĤ£æľī
èĤĽéĹ¨ åĨħ
æķ· åľ¨
å¤§éĥ¨åĪĨ äºº
è¿ĩäºİ ç´§å¼ł
ä»¥ å¢ŀå¼º
åĪº çĹĴ
ç¥ŀç»ı æºĲæĢ§
å®¶ ç¦½
çĹħæĥħ è¾ĥéĩį
æĹ©æľŁ å¦Ĭå¨ł
å¼± éĺ³æĢ§
20 19
åİļ åĳ³
èħ°æ¤İ çļĦ
éº¦ åĨ¬
ç¼Ŀ çº¿
å©ļ åīį
èĤĿ ç§»æ¤į
äº§ ä¼¤
åħ¨ éº»
ä¹³ ç±»
ç§° ä½ľ
èĥ½å¤Ł åľ¨
ä¹Łåı¯ä»¥ åĩºçİ°
åĩıè½» æĪĸæ¶Īå¤±
è¿· è·¯
Ġ å¯¹æľ¬åĵģè¿ĩæķıèĢħç¦ģçĶ¨
å¤ļ å¤Ħ
ç»Ĩèĥŀ åħįçĸ«
åľ° åŁŁ
é¢Ħéĺ² å¤įåıĳ
ä¹ł æ°Ķ
å¤ª ä¹ħ
å¤§å¤ļæķ° æĺ¯
ä¸Ļ ç§į
åŁºåĽł è¡¨è¾¾
çĻ½ç»Ĩèĥŀ æĢ»æķ°
èĦĬæŁ± çļĦ
æ³¢åĬ¨ æĦŁ
æľĢå¥½çļĦ æĸ¹æ³ķ
åľ°ä¸Ń æµ·
å¯¼ å°¿
ä¸Ģå®ļè¦ģ åıĬæĹ¶æ²»çĸĹ
ä»ĭ äºİ
éª¨æĬĺ çļĦ
é©¬ æĿ¥
æ»ĭåħ» ç»Ĩèĥŀ
æľīå¥½å¤Ħ çļĦ
åĬŀåħ¬ å®¤
çĹĩçĬ¶ å¦Ĥ
å± ĭ
çĸ¾çĹħ æĪĸ
æīį æľī
éĺ´èĮİ æµ·ç»µä½ĵ
æĸ°çĶŁåĦ¿ æľŁ
ro m
å½¼ æŃ¤
çĶĺéľ² éĨĩ
è¦ģ éĢĤå½ĵ
çĬ¶ ç»Ĩèĥŀ
åĨħ éĻ·
èĦĳ ç¼ºè¡Ģ
ä¸¥éĩį æĢ§
åĽłä¸º è¿Ļ
æĢ¥æĢ§ èĥ°èħºçĤİ
æĸ° çĶŁçī©
æĸ° å¦Īå¦Ī
è¿ĲåĬ¨ éĶ»çĤ¼
éĴĻ åīĤ
æĺ¯åĲ¦ éľĢè¦ģ
ä¹Łæľī åĪ©äºİ
æĢ» èĢĮè¨Ģä¹ĭ
æ»ĳ åĽĬ
æīĭè¶³ åı£
ä¸ĭåĪĹ æĥħåĨµ
çĶ²æ°¨ èĿ¶åĳ¤
6 6
åı¯ è¿ħéĢŁ
è¦ģ åħĪ
è´ ¢
åĮħ æ¶µ
åĲ¸ åĩº
ä¸įéĢĤ åºĶ
çļĦäºº å·¥
çĶ²çĬ¶èħºæ¿Ģç´ł çļĦåĲĪæĪĲ
ä¸ĩ åħĥ
ç¥Ľ çĹ°
æŀĦæĪĲ çļĦ
èļĬ èĻ«
åĴĮ ç»Ħç»ĩ
çĶ¨ åįĥ
äºº å£«
èĦĳ åĬ¨èĦīç¡¬åĮĸ
æĬĹ çĦ¦èĻĳ
ç¥ŀç»ı æĶ¯éħį
èĥ° ç®¡
ä¸įåĲĮçļĦ çĸ¾çĹħ
ä¸Ļ éħ®
çĺĺ åı£
-- -
ä¸Ģä¾§ çļĦ
ä¸į èĢĲåıĹ
èĥ½ å¢ŀåĬł
æŀ ³
å¢ŀ èĩ³
éª¨ åĴĮ
æķĪ ä»·
éĩĮ è¾¹
éļĲ æĤ£
åĨ° ç®±
æ¼ı åĩº
çĭĲ èĩŃ
æľī ä¸¥éĩį
åĴĮ èĨĢèĥ±
èį ¸
ä¸İ åĳ¨åĽ´ç»Ħç»ĩ
å¼º åħī
çļĦæ²»çĸĹ è´¹çĶ¨
ä¿ĿæĮģ åľ¨
æĺ¯æľĢ éĩįè¦ģçļĦ
é©¬é½¿ èĭĭ
ä¼ļ è§īå¾Ĺ
æ´ ¾
åĬ¨ çľ¼
å¦Ĥæŀľ ä¸įæĺ¯
ä½Ĩ è¿Ļç§į
ä¸»è¦ģ æĮĩ
æ¯ı å°ıæĹ¶
çłĶ æľ«
ä¹Łåı¯ çĶ±
çĹ° ä¸Ńå¸¦è¡Ģ
ä¸ºä¸»è¦ģ çī¹å¾ģ
Ġ N
äºº éĢł
éģ¿åħį åıĹåĩī
é»Ħ èĬ±
çİ¯ åŃ¢
è¾ĵåįµç®¡ ä¼ŀç«¯
æºĲ æĢ§çļĦ
èĭ¯ äºĮ
ä»Ķç»Ĩ è§Ĥå¯Ł
çĽ´èĤłæĮĩ è¯Ĭ
åľ¨ é¥®é£Łè°ĥçĲĨä¸Ĭ
çŃī çī©è´¨
æ³¨æĦı ä¿ĿæĮģ
å¹² æŀľ
æĶ¾ å¤§
éĵ Ĥ
æ®ĭçķĻ çļĦ
çº¤ç»´ç´ł çļĦé£Łçī©
æľīçĽĬ äºİ
éĻĦçĿĢ åľ¨
å¤©çĦ¶ çļĦ
åĴĮ C
èĢħ åĪĻ
ä¸įè¦ģ åİ»
æģ¢å¤į æĥħåĨµ
åŃĺåľ¨ ä¸Ģå®ļçļĦ
çķ¸ åıĺ
æīĵ ç®Ĺ
èĤĿç»Ĩèĥŀ åĿıæŃ»
ç£·éħ¸ çĽĲ
å¯ĮåĲ«ç»´çĶŁç´ł çļĦ
Ġ O
éĻ ķ
èµ ı
å°ı æ°´çĸ±
è°ĥ æĸĻ
ä¸ī èĢħ
åı£æľį æĬĹçĶŁç´ł
èħ¹æ³» æĪĸ
æİĴå°¿ å¼Ĥå¸¸
åĬłå¼º æĬ¤çĲĨ
å¯ĨåĪĩ çļĦåħ³ç³»
èĤłèĥĥ åĬŁèĥ½
ä¸ĢæĹ¥ ä¸īé¤Ĳ
é¬ ¼
çļĦ åİ»
å¼ Ł
çĥ ĺ
å°ı å®Ŀå®Ŀ
ç²¾ åİŁ
å¸¦ èıĮ
åĳ¨ æĹ¶
æĢ¥ éª¤
æħ¢æĢ§ èĨĢèĥ±çĤİ
éĥ¨ä½į åĴĮ
åĲĳ å·¦
æĮī æıī
åıĮ èĦļ
èĤĮèĤī ç´§å¼ł
å¤ĦçĲĨ çļĦ
åķ ¼
ç¢± æĢ§çļĦ
ä¸įåı¯ æĢķ
æľīåı¯èĥ½ åĩºçİ°
èĥĥèĤłéģĵ çļĦ
åĨ° åĨ·
çĻ¾åĪĨä¹ĭ ä¹Ŀ
çļĦæĬ¤çĲĨ æĺ¯ä»Ģä¹Ī
åĩĨå¦Īå¦Ī ä»¬
ä½İéĴł è¡ĢçĹĩ
A MP
çĬ¶ æł¸
åĨħ æ¯Ĵç´ł
åı¯ä»¥ éĢłæĪĲ
æĹł æĦı
å¤´ éĥ¨çļĦ
çĽ¸ ç»§
ç³» æĮĩ
éĺ´éģĵ éķľ
åį± æľº
ä¹Łä¼ļ ä½¿
æĬĳéĥģ åıĳä½ľ
äºĶ å¹´
ç¾İ æ´²
æĸ°çĶŁ è¡Ģç®¡
ç¤¾ä¼ļ å¿ĥçĲĨ
ä¹³æĪ¿ åıĳèĤ²
æĺ¯æľī ä¸Ģå®ļçļĦ
æĦ¿ æĦı
ä»Ķç»Ĩ æ£ĢæŁ¥
èĺ ¸
åľ¨å®¶ éĩĮ
ä¸į æİĴéĻ¤
çĹĩçĬ¶ æĺ¯ä»Ģä¹Ī
èĢ³ å»ĵ
æĤ£æľī äºĨ
åī§çĥĪ çļĦçĸ¼çĹĽ
å®īåħ¨ å¥Ĺ
å½Ĵ çº³
å¿µçıłèıĮ çĹħ
æ½ľåľ¨ çļĦ
AF P
åĴĮ æīĭæľ¯
èį Ĩ
ä¿ ±
éľĢè¦ģ çĶ¨
ä¸ī æĺ¯
æħ¢æĢ§ åĴ½çĤİ
ä¸Ģä¸ª äººçļĦ
çªģ åħ¥
ä¼ļæľī æĺİæĺ¾çļĦ
èĽĭçĻ½è´¨ åĲĪæĪĲ
é¢ħ åİĭ
çĽĬ æ¯į
ç¬¬ä¸ī ä¸ª
åĸ· éĽ¾
æĹ©åŃķ è¯ķçº¸
ä¸įä¸Ģå®ļ æĺ¯
äº« åıĹ
ä¸ŃåĽ½å¤§éĻĨ çļĦ
i um
ä¼ļ æĦŁè§īåĪ°
ä¸İ å¹´é¾Ħ
æĽ Ŀ
å¥³æĢ§ çĶŁæ®ĸç³»ç»Ł
è¢« å®³
ç±³ çļĦåľ°åĮº
ä½ĵåĨħ æ¿Ģç´łæ°´å¹³
ä»£è°¢ åĴĮ
ç¡¬åĮĸ æĢ§
è¡£ çĿĢ
ç¼ºè¡Ģ æĢ§èĦĳ
èĩĤ ä¸Ľ
çļĦ æĶ¶ç¼©
æĪĸ éķ¿æľŁ
åı¯ä»¥ æļĤæĹ¶
èĩª è´£
éĶ Ĥ
å®Įåħ¨ ä¸§å¤±
éĢĲæ¸Ĳ ä¸ĭéĻį
åĪĨéĴŁ åĨħ
èĦĳèĨľ åĪºæ¿Ģå¾ģ
æ²® ä¸§
åı¯ä»¥ æĬĳåĪ¶
ï¼Ł ï¼Ī
åıĳçĶŁ çļĦåİŁåĽł
ä¹ĻèĤĿ æł¸å¿ĥæĬĹä½ĵ
åģı æĸľ
åĮºåĪ« çļĦ
å± İ
å¾Ĺ çļĦ
èĤ¥å¤§ ç»Ĩèĥŀ
æ°® è´¨
å±ı æ°Ķ
å¿ĺ è®°
è±ĨèħĲæ¸£ æł·
èį¸ èįł
åĴĮ ç»ĨèıĮ
åºĶ å°Ĩ
å¤ĸ æĺ¾
åº¦ è¿ĩ
äº§ äºİ
è¿ĺ æľª
åı£ ä¸Ń
åĪºæ¿Ģ ä½ľçĶ¨
å¼Ĥå¸¸ æĶ¾çĶµ
ç²¾ç¥ŀ æĬĳéĥģ
çłĶç©¶ çļĦ
æ£ī èĬ±
éĩİ çĶŁ
æµ·ç»µ çª¦
çļĦåį±éĻ© åĽłç´ł
åıĳ å£°
ç»Ĩèĥŀ è´¨
æł· çĹħåıĺ
å®¶ ä¸Ń
èĦĤèĤªèĤĿ æĤ£èĢħ
è¡¨æĥħ æ·¡æ¼ł
å¯¹äºİå¥³æĢ§ æĿ¥è¯´
èį¤ ç´ł
éĵľç»¿ åģĩåįķèĥŀèıĮ
æľī ä¿ĥè¿Ľ
æ² ĥ
éĩ ī
å¿ĥ æĲı
èĤ¾ éĿĻèĦī
ä»Ģä¹Ī æł·
åĩºè¡Ģ çĹĩçĬ¶
å¼ł å¼Ģ
çĹħæĥħ è¾ĥè½»
éĵ ĭ
éĩĮ æľī
æīĵ é¼¾
åİ»åĮ»éĻ¢ è¿Ľè¡Įæ²»çĸĹ
äºļ åŁº
æĬĵ çĹķ
åĪĽä¼¤ å°ı
æĹ¶ åºĶæ³¨æĦı
å¤§ æ°Ķ
çľ ¨
å¦Ĥæŀľ æĥħåĨµ
åİŁåĽł å¯¼èĩ´çļĦ
çīĩ çŃī
çº¤ æº¶
çĿ¡çľł ä¸Ń
èħ¹æ³» åĴĮ
ä»¥åħį å¯¼èĩ´
åŁ¹ è®Ń
è¯¦ç»Ĩ ä»ĭç»į
é¾Ļ èĥĨ
åİŁåıĳçĹħ çģ¶
è®¡ç®Ĺ æľº
ä¼ļ åĳĪçİ°
è¿ĺ åı¯æľī
æ³¨æĦı èĲ¥åħ»
æľĢ åŁºæľ¬
éĥ¨ä½į æľī
ç¾İ ä¸½
å½¢æĢģ åŃ¦
åľ¨æĢĢåŃķ æĹ©æľŁ
èī¾æ»ĭçĹħ çĹħæ¯Ĵ
å¼ºçļĦ æĿ¾
çĽĳçĿ£ ç®¡çĲĨ
ä¸į éĢıæ°Ķ
åĴĮ å®«é¢ĪçĻĮ
ä¸ĭ æĪĸ
å¼ķ ç§į
æ´» ç»ľ
æĮĩ åįĹ
åİ» æ¸£
åĪĩéĻ¤ åŃĲå®«
åĳķåĲĲ çŃīçĹĩçĬ¶
åĪĿ çº§
æ¯ıå¤© æĻļä¸Ĭ
æ¶ĪçĤİ æŃ¢çĹĽ
åıĹç²¾åįµ çļĦ
çļĦä¸»è¦ģåİŁåĽł ä¹ĭä¸Ģ
ç»´çĶŁç´łåĴĮ çŁ¿çī©è´¨
1 30
å¦Ĥ æµ·å¸¦
åĩºçİ° é»Ħçĸ¸
éĺ´ éĥ¨çļĦ
éĿ¢ ç²ī
å¹´ éķ¿
çĽ¸ è¿ĳ
æŃ£å¸¸ æ°´å¹³
å®«é¢Ī çĹħåıĺ
æĪĸèĢħ è¯´
åįµå·¢ æģ¶æĢ§èĤ¿çĺ¤
è¿Ļæł· çļĦçĸ¾çĹħ
çº¤ç»´ æĢ§
æĢ§çĶŁæ´» åį«çĶŁ
ä¸Ĭçļ® ç»ĨèĥŀçļĦ
ä½ĵéĩį çļĦ
éģŃåĪ° çł´åĿı
æĲħ æĭĮ
èģļåĲĪ éħ¶
åĩº çīĪ
å¯¹ èº«ä½ĵåģ¥åº·
å¦Ĥæŀľ ç»ıå¸¸
æµģ æ¶ķ
æľº åħ³
å¾Īå¤ļ æľĭåıĭ
çļĦæĥħåĨµ çļĦ
åıĳä½ľ æľŁ
æ³¨å°Ħ ä¹ĻèĤĿçĸ«èĭĹ
èĲ½ åı¶
æ¥Ķ å½¢
å¯¹ ä¸ĢäºĽ
çĹĩçĬ¶ æĪĸ
ä¸İ çļ®èĤ¤
ä¸ĢèĪ¬ æĮģç»Ń
éħ¸ åĮĸ
åħ¶ä»ĸ æ²»çĸĹ
å¾® ç®¡
æĢĢåŃķ æĹ¶
ä¹Łæĺ¯ å¾Ī
çĽ®åīį å·²
æ°¨ èĭĦ
èĥ° æ¶²
çļĦè¯ĬæĸŃ æłĩåĩĨ
åľ¨ éĢīæĭ©
ä¼ļ æĽ´
åıĬ éĺ´éģĵ
æĦŁ æĪĸ
åĬŁ è¡Ģ
éħ¸ çĽĲ
æĸŃ ç«¯
ä¸įè¦ģ ç©¿
çĶµ åĩĿ
çĻĮçļĦ æĹ©æľŁçĹĩçĬ¶
ç»§åıĳæĢ§ ä¸įåŃķ
æĦ ļ
æĪĸ éģµåĮ»åĺ±
ä¾¿ å®ľ
çĥŃ çļĦ
æ²¡æľī å¿ħè¦ģ
åĪ© å¤ļ
å¹³æĹ¶ åºĶ
æ´»åĬ¨ æĪĸ
äººä½ĵ åħįçĸ«åĬĽ
è½¯ é£Ł
çķĻ åľ¨
åī§ çĹĴ
åĨħèĦı åĻ¨å®ĺ
è¿ĳè§Ĩ çľ¼
é«ĺéĴĻ è¡ĢçĹĩ
çļĦ éĢļçķħ
é£Łçī© ä¸ºä¸»
èį¯çī© æľī
éľĢè¦ģ åıĬæĹ¶çļĦ
çĹħæĥħ åıĺåĮĸ
ç»ĵæł¸ åĪĨæŀĿæĿĨèıĮ
é¾Łå¤´ åĴĮ
ç¢ĺ ä¼ı
æĺ¯æ¯Ķè¾ĥ ä¸¥éĩįçļĦ
é»Ħä½ĵ çĶŁæĪĲç´ł
èħ¹èĤ¡æ²Ł åĮº
ä¸Ļç§į çĲĥèĽĭçĻ½
çĹħ ä¾§
åı¯ éĺ²æŃ¢
ä¸Ģ æł¹
å¯¼ åħ¥
è¿ĺ åľ¨
æ£ĢæŁ¥ èĢħ
è¿Ľè¡Į éī´åĪ«
çĶ²çĬ¶èħº çĲĥèĽĭçĻ½
å®ĥ åħ·æľī
æľīæĹ¶ ä¼´æľī
èµ° åĲĳ
ç¥ŀç»ıç³»ç»Ł çļĦ
æĢ§äº¤ çĸ¼çĹĽ
å¤ĸç§ĳ æīĭæľ¯æ²»çĸĹ
å®¶åºŃ çļĦ
åħ±åĲĮ ä½ľçĶ¨
æĴķ èĦ±
éĢĤå®ľ çļĦ
è ª
æľī æĦıè¯Ĩ
ä¸į è¢«
çİ° å·²
å· ¯
å¿ĥ æİĴ
æ¿Ģ ç»¼åĲĪå¾ģ
å¦Ĥæŀľ æĤ£èĢħçļĦ
å¤© æķ°
é»Ħ è¤Ĳ
æĢ¥æĢ§ å¿ĥèĤĮæ¢ĹæŃ»
è¾Ľè¾£ åĴĮ
èĢģå¹´ æĢ§éĺ´éģĵçĤİ
å¤§å¤ļæķ° çļĦ
çĹħä¾ĭ ä¸Ń
èĥĥèĤłéģĵ çĸ¾çĹħ
çļĦä¸Ģ ç±»
éĢĤåºĶ æĢ§
å¿ĥèĦĳè¡Ģç®¡ çĸ¾çĹħ
i al
ä¸į è¡Į
åĴĮ çĹħçĲĨæĢ§
ä¸Ń èĦĳ
åĪ¶ æ³ķ
éĿĻèĦī è¡Ģ
è¿Ļæł· å°±ä¼ļ
æįŁå®³ çļĦ
é»ĳ çľ¼åľĪ
å½»åºķ æ¸ħéĻ¤
å®½ å¤§
é¢¤ æĬĸ
çģŃ èıĮ
è§Ĩç½ĳèĨľ èĦ±ç¦»
Î¼ g
ä¸į ä¼ļå¯¼èĩ´
ä»¥ è¡¥åħħ
æľ¯ èĢħ
å½¢æĪĲ èĦĵèĤ¿
æľ¯åĲİ æĬ¤çĲĨ
éĺ´èĮİ çŁŃå°ı
èºģ éĥģ
ç¬¬ä¸ī ç§į
åĮ»å¸Ī çļĦ
æĹłéľĢ æ²»çĸĹ
çľī æ¯Ľ
åıĤåĬłä¸ĢäºĽ ä½ĵèĤ²éĶ»çĤ¼
P æ³¢
ä¸ĭ æ³¨
è¡¨çİ° å½¢å¼ı
ä¸Ģå®ļ ä¸įèĥ½
èĨĢèĥ± åĪºæ¿ĢçĹĩçĬ¶
ä¹Łåı¯ åľ¨
è¿Ľåħ¥ è¡Ģæ¶²
ç»ĵæł¸ æĢ§èĦĳèĨľçĤİ
èĻ½ æľī
ç¼ĺ æķħ
éĶĻ ä¹±
åĿĲéª¨ æ£ĺ
æ¹ĸ åĮĹ
çļ®è´¨ç±»åĽºéĨĩ æ¿Ģç´ł
èĥ į
æľī åĪĨæ³Įçī©
ä¸º é«ĺ
åħ» æĬ¤
åĪĨæ³Į åĬŁèĥ½
ä¸Ģå®ļè¦ģ åľ¨
å¦Ĭå¨ł åĽĬ
èĤĿç¡¬åĮĸ çļĦ
æİ¨ å¹¿
å¤´çļ® å±ĳ
ç»ĨèıĮæĢ§ éĺ´éģĵ
çªĹ åı£
èĢĮ åħ¥
åĪº ä¼¤
ç¥ŀç»ı ç²¾ç¥ŀ
çĹħæĥħ å¥½è½¬
å·²ç»ı æľī
åĳ¨æľŁ æĢ§çļĦ
æ¶ĪåĮĸéģĵ çĸ¾çĹħ
å®½ åº¦
ar t
âħ £
åĲ¬åĬĽ ä¸ĭéĻį
èĹķ ç²ī
åĲĥä»Ģä¹Īæ°´æŀľ å¥½
éļ¾æ²» æĢ§
å¤±è¡ĢæĢ§ ä¼ĳåħĭ
æ³ £
æ³ Ĭ
è¿ĺ åı¯å¼ķèµ·
åŃĲå®« åıĳèĤ²ä¸įèī¯
çĤİçĹĩ å¼ķèµ·
æĢ¥æĢ§ åıĳä½ľæĹ¶
è¡¥ æķĳ
èĥ½åĬĽ åĴĮ
åĵºä¹³ åĬ¨çī©
åĴ± ä»¬
çļĦ åŃĲå®«åĨħèĨľ
æĪĸ åįĬ
æĹ¶éĹ´ ä¹ħäºĨ
æ¨ Ł
åĨ² æľį
æĮ¯ åĬ¨
èĤļåŃĲ çĹĽ
å¾Īå°ĳ åıĳçĶŁ
ç½ķè§ģ çļĦ
èĴĻ åı¤
åĿĲç«ĭ ä¸įå®ī
ä¸ĭéĿ¢å¸¦å¤§å®¶ äºĨè§£ä¸Ģä¸ĭ
P CO
æĢ§ çĤİçĹĩ
æĢ§ å¯Ĵ
å¤§ éº¦
æĤ£èĢħ éĢļå¸¸
å°¿ æ£Ģ
åģļ æĪĲ
çīĩ ç¦ģå¿ĮçĹĩæĺ¯ä»Ģä¹Ī
è®© åħ¶
å±± åĿ¡
çĹħç¨ĭ è¿ģå»¶
çĤİæĢ§ åıįåºĶ
é¥®é£Łä¸į èĬĤ
ä¸Ĭçļ®åĨħ çĺ¤
èĭŀ çīĩ
5 4
åĩºçİ° äºİ
æŁ¥ åĪ°
éĢļ ä¿Ĺ
äºĮ æ°¢
åķ °
åĿĩåı¯ åıĳçĹħ
ä¸Ģåĳ¨ åĲİ
çĶŁæ®ĸéģĵ æĦŁæŁĵ
ä¸Ģèĩ´ çļĦ
ä¸įæĺ¯å¾Ī ä¸¥éĩį
æĳĨ åĬ¨
æ¯Ķæĸ¹ è¯´
9 6
æľī çĹħ
ä¹ Ķ
éĢĤ ä¸Ń
å¼ķèµ·çļĦ åĩºè¡Ģ
å°¿éģĵ é»ıèĨľ
çİ¯å¢ĥ ä¸ĭ
ä¹Łåı¯ä»¥ ä½¿çĶ¨
çłĶç©¶ è¯ģæĺİ
çĭŃçªĦ çļĦ
å¯ĮåĲ« èĽĭçĻ½è´¨
é£İæ¹¿ çĹħ
å©ļ åĲİ
èĻ¾ çļ®
æ¸©æ°´ åĿĲæµ´
ç¢±æĢ§ é£Łçī©
åľ°æĸ¹æĢ§ çĶ²çĬ¶èħºèĤ¿
l u
çļĦ è¡Ģ
åĴĮ èĦĬé«ĵ
å¦Ĥ é±¼
é«ĺ éĴ¾
å°ı éĩı
è¾ĥ å¸¸è§ģçļĦ
ä¸įåĲĮ çļĦæ²»çĸĹæĸ¹æ³ķ
éĥ¨ä½į ä¸įåĲĮ
åıĮ åĲĳ
å²ģ åĲİ
çĸ¾çĹħçļĦ ä¿¡å¿ĥ
åĨħåĪĨæ³Į èħº
çĹĶçĸ® åĩºè¡Ģ
æ±Ł è¥¿
åľ¨ è¿ĻéĩĮ
æŀľ èĶ¬
èĢĮ è¿ĻäºĽ
éĩı å¤§
åı¯èĥ½ åĴĮ
ä¸»è¦ģ éĩĩçĶ¨
çĶļèĩ³ æ¶Īå¤±
ä»ħ è¡¨çİ°ä¸º
ä¼ļæľī ä¸Ģå®ļçļĦ
è¯ķ åīĤ
åıĳçĹħçİĩ åĴĮæŃ»äº¡çİĩ
åĬ¨çī© èĽĭçĻ½
å¯ĮåĲ« ç»´çĶŁç´łC
çĻ¾ æĹ¥
å¾Īå¥½ çļĦæ²»çĸĹ
T h
çļĦ æ½ľä¼ıæľŁ
åı¯ ç¡®è¯Ĭ
æĤ£èĢħ è¿Ľè¡Į
åĲĮ æºĲ
æľĢ æľīæķĪçļĦæĸ¹æ³ķ
åŃĲå®« åĪĩéĻ¤
åıª ä¸įè¿ĩ
è¾ĵåįµç®¡ éĢļçķħ
åĲĪçĲĨ èĨ³é£Ł
è¿Ł åıĳæĢ§
åĳ¨æľŁæĢ§ åıĺåĮĸ
åıĳ çļĦ
æŁĵ æĸĻ
éģĵ çĲĨ
æĺĵ ä½į
ä¸´ çĿ¡åīį
æ¯Ķè¾ĥ çŁŃ
èĤ¿çĺ¤ åİĭè¿«
éĻį éĴĻç´ł
çĽ´èĤł é»ıèĨľ
èĤĮèĤī æĶ¶ç¼©
å¹¿ åĳĬ
èī²ç´ł çĹ£
çĭ¬ç«ĭ çļĦçĸ¾çĹħ
åºĶ ä½ľ
èħº çĹħæ¯Ĵ
æ°´ æº¶æĢ§
éª º
æĦŁæŁĵ éĢĶå¾Ħ
ç»Ħç»ĩ åŃ¦æ£ĢæŁ¥
éĢļè¿ĩ ä»¥ä¸Ĭ
èĦĵ èĥ¸
å¹´é¾Ħ ä¸º
ç»Ŀ æľĽ
æ¤įçī© æĢ§
æ¤įçī© èĽĭçĻ½
æ¸¸ç¦» T
ä¸į æĪĲçĨŁ
è¦ģ åŃ¦ä¼ļ
åĴĮ åĩıå°ĳ
æīĢ éĢłæĪĲ
è´¨ åŃĲ
ä½Ĩ ä¸İ
é£Łçī© æ®ĭæ¸£
æŃ£å¸¸ ç»Ħç»ĩ
çĹħäºº åı¯
æ¯Ķè¾ĥ å¤ļçļĦ
çļĦæĹ¶åĢĻ å°±
åĳ¼åĲ¸ çªĺè¿«
æ±¤ åĬłåĩı
äººä»¬ åľ¨
åĢĴ åħ¥
çģĮ æľ¨
èµĦæĸĻ è¡¨æĺİ
èĢ į
å¯¹ çĶŁæ´»
ç»Ĩ æľ«
åĲĮ æĢ§
æľĢ ä¸¥éĩįçļĦ
æł· çĸ¼çĹĽ
èĤ¾ å®ŀè´¨
åį³ æĪĲ
çĶµ çĶŁçĲĨ
å¹¶ä¸į æĺİæĺ¾
è¡£åİŁä½ĵ æĦŁæŁĵ
éľįå¥ĩéĩĳ æ·ĭå·´çĺ¤
æĪĲçº¤ç»´ ç»Ĩèĥŀ
éĢ¼å°¿ èĤĮ
éĻķ è¥¿
ä¸į éĢļçķħ
åľ¨ çŁŃæĹ¶éĹ´åĨħ
åħ¶ æ²»çĸĹ
çĻĮ çĺ¤
æĺĵ ä¸İ
åŃĲå®« ç©¿åŃĶ
æ¹¿ éĤª
ä¸Ģä¸ª éĩįè¦ģ
ç¬ ¨
å±Ģéĥ¨ åĪºæ¿Ģ
çĨ Ĭ
æľĢå¥½ çĶ¨
èĤĿèĦı èĤ¿å¤§
èĩªçĦ¶ çļĦ
æĦıè¯Ĩ åĪ°
æĺ¯ä»Ģä¹ĪåİŁåĽł åĳ¢
è®¾ æĸ½
é¥±åĴĮ åº¦
èįł èıľ
èĽ² èĻ«
å±ŀä¸ĭçļĦä¸Ģä¸ª ç§į
åĪĨ äº«
èħº æł·
æŃ£ å¼ı
æľį é£Ł
éªĮ åŃķ
ç»ĵåĲĪ çļĦ
åĮºåŁŁ çļĦ
ä¿Ŀå®Īæ²»çĸĹ æĹłæķĪ
æ³Įå°¿ç³»ç»Ł çĸ¾çĹħ
é¹ ĳ
çĽ²çĽ® çĶ¨èį¯
åĴĮ æİ§åĪ¶
åĲĥ å¥¶
å½ĵ æľī
ç¥ŀç»ı åĨħç§ĳ
çļĦæĤ£èĢħ æľī
å®ľ çĶ¨
å¤ĸéĺ´ éĺ´éģĵ
ç¨³å®ļ çļĦ
èĭĶ é»Ħ
åĲ µ
çİ Ħ
å¤§ ç½ĳèĨľ
åīį åĢ¾
ä½Ĩ ä¸įæĺ¯
ä½Ĩ èĭ¥
èĦĤ æº¶æĢ§
å®«é¢Ī æī©å¼ł
åħ³èĬĤ èĦ±ä½į
çĽĨèħĶ èħ¹èĨľ
è¿Ļä¸ª éĺ¶æ®µ
è¿ĺæľī äºĽ
æ¯ıå¤© çĶ¨
ç¨Ģ åıĳ
åĨ° åĩī
å¤ļåıĳæĢ§ ç¡¬åĮĸ
it y
åĽłäººèĢĮå¼Ĥ çļĦ
ä¼ĺçĤ¹ æĺ¯
çļĦ åĮ»çĶŁ
çĹ ±
æĺ¯ çļ®èĤ¤
ä¸į ç»ı
åĩº çĸ¹
åı¯ä»¥ çľĭåĩº
å¹¶ åıĬæĹ¶
å¾Īå¤ļ çĸ¾çĹħ
åĬ© äº§
è¾ĵåįµç®¡ æĺ¯åĲ¦
åįĬ ä¸ªå°ıæĹ¶
é¦ĸåħĪ åºĶ
æľ¬åĵģ å¯¹
åįł æį®
æĬĹåİŁ çļĦ
æ¾ Ħ
å¦¥ åĸĦ
æĴŃæķ£ æĢ§
æĺ¯ çĶŁæ´»ä¸Ń
åľ¨ åĨħçļĦ
å¤§ çĹħ
å°ı çĸĻçĺ©
çĻ½ èĨľ
ç¥ Ŀ
ä½Ĩ æ²¡æľī
éª¨ å¹²
çļĦçĹĩçĬ¶ çļĦ
åı³ æĹĭ
æľīæķĪ é¢Ħéĺ²
éĢĤå½ĵ éĶ»çĤ¼
è¿ĩåº¦ å¢ŀçĶŁ
ä¿¡ ä»»
èİ ´
æŃ£è§Ħ çļĦæ²»çĸĹ
æĿ¡ä»¶ åıįå°Ħ
æħ¢æĢ§çĤİçĹĩ æĢ§çļ®èĤ¤çĹħ
çĶŁå®Į åŃ©åŃĲ
äºº ä¸Ń
èĥĥ æ°Ķ
èĤ¿çĺ¤ æĢ§
çĶ· äººçļĦ
çĸ¾çĹħçļĦ æģ¢å¤į
çģ« éĶħ
çł´è£Ĥ åĲİ
åįģåĪĨ çļĦ
åģļå¥½é¢Ħéĺ² å·¥ä½ľ
æĺ¯ ä¸Ģæł·çļĦ
åľ¨ æīĭæľ¯åĲİ
å¯¹ åŃ©åŃĲçļĦ
äºĨ ä¸ĢäºĽ
æĭ ¢
æĺ¾ çİ°
å¤ļåĲĥ æ°´æŀľåĴĮèĶ¬èıľ
éª¨è´¨ çł´åĿı
å»¶éķ¿ çĶŁåŃĺæľŁ
åıĹä½ĵ éĺ»æĸŃ
çħ® æĪĲ
ç§ĭ åĨ¬
èĥ¶åĽĬ çļĦçĶ¨æ³ķçĶ¨éĩı
èµ¤ å°ıè±Ĩ
æľªåĪĨåĮĸ çĻĮ
a y
æĺ¯ ä¸ĢäºĽ
åĴĮ éĩĬæĶ¾
ä¸ĭ éĻ·
è¿Ļ åľ¨
æ£ĢæŁ¥ çļĦç»ĵæŀľ
èĥĥ åĬ¨åĬĽ
è¿ĳ äº²
èħ¹éĥ¨ åĮħåĿĹ
èĤłéģĵ èıĮç¾¤
æ¯ıå¤© éĥ½
ç»ıæľŁ åį«çĶŁ
èĩªè¡Į æ¶ĪéĢĢ
æĹ¢ èĥ½
åĮ»æĤ£ æ²ŁéĢļ
åĴĮ æĢ§
ï¼Ł ãĢĲ
æĺĵ åıįå¤įåıĳä½ľ
æ¹¿ æĢ§
åĪ© çĽĬ
çļĦæĹ¶åĢĻ åı¯ä»¥
æĳĦ æ°ı
æľīæķĪçļĦ é¢Ħéĺ²
èĦĬæŁ± è£Ĥ
çĥŃæ°´ åĿĲæµ´
åľ¨æĹ¥å¸¸ çļĦçĶŁæ´»ä¸Ń
AC E
% ,
4 50
R PR
o id
çļĦ æĬĢæľ¯
çļĦ çĹħåı²
çŃī ä¸ĢäºĽ
åºĶ ä¸º
å°ı çģ«
å¹´ å·¦åı³
çĸ¼çĹĽ éĥ¨ä½į
æĢ¥æĢ§ åīįåĪĹèħºçĤİ
åĲĳ åĳ¨åĽ´
è¿ĩæķı çĹĩçĬ¶
åıĳä½ľ åĲİ
éļıçĿĢ å¹´é¾Ħå¢ŀéķ¿
çļĦéĩįè¦ģ æĢ§
çĮª è¹Ħ
ä¿Ŀåģ¥ åĵģ
è¶ĭ åĮĸ
å¿ĥå¢ĥ ä½İèĲ½
ç¡¬æĿ¿ åºĬ
çļĦ æĬ¥éģĵ
ä¸į åį«çĶŁ
çĹĽ æĪĸ
æ£ĢæŁ¥ çŃī
ä¸ĢèĪ¬ éĢļè¿ĩ
åĪĻ åľ¨
ä¸įè¦ģ é£ŁçĶ¨
è¶³ ä¸īéĩĮ
äºĭ ä¸ļ
åĩī æ°´
å¼¥ è¡¥
æ°¯ ä¸Ļ
çĽ´å¾Ħ çº¦
æĸ°é²ľçļĦ èĶ¬èıľåĴĮæ°´æŀľ
é¹ Į
æĬķ åħ¥
è¾ĵåįµç®¡éĢļ æ¶²
ä¼ Ļ
ä¹Ł åħ·æľī
å®ŀ çĶ¨
å§ Ĳ
æľīæķĪ çİĩ
ç³ĸå°¿çĹħ çĹħäºº
æ´ģ éĿ¢
åĨħåĪĨæ³Į ç§ĳ
ä¹³å¤´ æ°´èĤ¿
èĩªçĦ¶ åĪĨå¨©
è®² è§£
çļĤ èĭ·
çĲ ¥
éķ¿ å¾Ĺ
éĢĤ äºİ
ä¸´åºĬ å®ŀè·µ
åıĬæĹ¶ å°±è¯Ĭ
æ°§ æ°Łæ²ĻæĺŁ
èĤĿèĦı è´Łæĭħ
ä¹Łä¼ļ å½±åĵįåĪ°
çĶ²çĬ¶èħºåĬŁèĥ½ åĩıä½İ
æ£ī çŃ¾
èĨĿåħ³èĬĤ çļĦ
æ°¢ æ°§åĮĸ
éĺĪ åĢ¼
T RH
å¸¸ çĶ±äºİ
çĶ¨ ä½ľ
çĿ¾ä¸¸ æįŁä¼¤
åĽĽ åŃ£
åģı çĽ²
åĮ»åŃ¦ çķĮ
ä¼¸ èĤĮ
åĽºå®ļ äºİ
è¿ĩæķıæĢ§ ä¼ĳåħĭ
åŃ¤çĭ¬ çĹĩ
ä¿¯ åį§
X å°Ħçº¿
åį ĵ
åĲİ æł¹
èĩ´ çĹħçļĦ
èĦĳ éĥ¨çļĦ
ç³ĸ æŀľ
æĮĩ ç¤º
æĽ´ éĩįè¦ģçļĦæĺ¯
ä¸¤ é¡¹
ç²¾ç¥ŀ åıĳèĤ²è¿Łæ»ŀ
æ´»åĬ¨ åĬĽ
åıĳå±ķ èĩ³
å¿ĥèĦı æī©å¤§
ä»»ä½ķ ä¸Ģä¸ª
ä¸Ģä¾§ æĪĸä¸¤ä¾§
çħİ æ°´
éĢıæĺİ çļĦ
çļĦæīĭæľ¯ æĸ¹å¼ı
ä¸įè®º æĺ¯
é©¾ é©¶
V P
åıĬ åħ¶å®ĥ
éħ £
å¦Ĥæŀľ å¹³æĹ¶
éĢłæĪĲ å¾Īå¤§çļĦ
å¹³æĹ¶ åı¯ä»¥
åĲį åŃĹ
æĺŁ å½¢
CS F
é¹Į é¹ĳ
æľī æĦŁæŁĵ
è¿ĩ å¼º
è¿ĩ çŁŃ
ä¸Ģç§į æĪĸ
èĥİ è®°
å¼ķèµ·çļĦ çĸ¾çĹħ
é¼» ç²ĺèĨľ
åģľ é¡¿
æ´ģ èº«
åĩıè½» ä½ĵéĩį
æ²¹èħ» æĢ§
éŁ§å¸¦ æĿ¾å¼Ľ
æ³Ħ æ³»
ti ve
åıĹæįŁ çļĦ
âĳ ¤
çĽ¸ä¼¼ çļĦ
ä»¥å¤ĸ çļĦ
ç»· å¸¦
èįļ èĨľ
åį ¸
å¤ĸ éľ²
è§ģ è¡¨
æ¯Ķè¾ĥ èĻļå¼±
æģ¯ æģ¯
ç»Ļ ä½ł
çĶŁæ®ĸ åģ¥åº·
é³ Ŀ
æī©å¼ł è¡Ģç®¡
æ¡Ĥ æŀĿ
å½©èī²å¤ļæĻ®åĭĴ è¶ħå£°
T G
åĬ Ŀ
å¤± æ´»
éĶ Ī
çļĦæ²»çĸĹ ä¸Ń
åīįåĪĹèħº çĤİçĹĩ
çĿ¡ å§¿
å¾® å¼±
ç»ĨèıĮ çļĦæĦŁæŁĵ
ä¼ĳæģ¯ æĹ¶
ç»ıå¸¸ åľ¨
çĽ®åīį ä¸ºæŃ¢
æĬĺ è¿Ķ
çĦ¶åĲİ æł¹æį®
ç¢ĺ åĮĸ
éĻĦçĿ¾ çĤİçļĦ
åģ¥åº·çļĦ èº«ä½ĵ
çļĦä¸´åºĬè¡¨çİ° æĺ¯ä»Ģä¹Ī
å¾Īæľī åı¯èĥ½ä¼ļ
æĪĸ æºĥçĸ¡
è¿ĩ çĶľ
çĹĩçĬ¶ æĢ§
åĪ© æĻ®
éĿŀå¸¸ å¤įæĿĤ
å¹³æĹ¶ å¤ļæ³¨æĦı
éĥ½æĺ¯ çĶ±
éĢĲæ¸Ĳ æī©å¤§
èĪĮ æ·¡
æĿ¡ä»¶ çļĦ
é¢Į ä¸ĭ
ä¿¡åı· è½¬å¯¼
æ§ Ł
6 4
e x
çŃī åĲ«
ä¸» ä¹ī
èī² çļĦ
ä¸įè¦ģ è¿ĩåº¦åĬ³ç´¯
åĿĩ æĹł
çĹħçĲĨ åŃ¦æ£ĢæŁ¥
èĢ³ èľĹ
çĽ´æİ¥ æĪĸéĹ´æİ¥
çļĦä¸»è¦ģ æĪĲåĪĨ
çĹĬæĦĪ çļĦ
çĶ·æĢ§æľĭåıĭ ä»¬
Y P
ä¸į åĥı
åı¯ åĲĮæĹ¶
åľ¨ åĨħ
é¢ §
æŀľ æľŁ
å¹¶ éĢļè¿ĩ
æº º
çļĦçĹĩçĬ¶ åĴĮ
éĥ¨ä½į æĺ¯
ç»ıå¸¸ æĢ§
èĤĮèĤī æĿ¾å¼Ľ
çĬ¶æĢģ çļĦ
è¡ĢæĢ§ åĪĨæ³Įçī©
èĤºåĬ¨èĦī çĵ£
M O
åĪĨ æĮ½
å¦Ĥæŀľ èĥ½å¤Ł
éĥ½ åĲ«æľī
å½¢ ä½ĵ
èĤĮ èĲ¥åħ»ä¸įèī¯
çĶ²çĬ¶èħº èħºçĺ¤
ç´§ ç¼©
åı¦å¤ĸ å°±æĺ¯
å¤§ä¾¿ æ¬¡æķ°å¢ŀå¤ļ
å¿ĥèĦı çļĦ
çĹĶçĸ® çļĦ
èģĶåĲĪ çĶ¨èį¯
æ³ª èħº
å¤ªéĺ³ ç©´
éĶĻè¿ĩ äºĨ
åı¯ æº¶æĢ§
åıĳ å¸ĥ
æĦŁ åĴĮ
åı¯ä»¥ ç»ĻäºĪ
èį¯çī© å¯¹
ä¸¥éĩį çĹħä¾ĭ
å»ºè®® ä½¿çĶ¨
ä½ĵåĨħ æ¯Ĵç´ł
çĸĹæ³ķ çŃī
æİĴå°¿ ä¸įéĢĤ
è¿ľ ä¾§
äººä»¬ å¯¹
å¤§éĥ¨åĪĨ æĤ£èĢħ
äºĴ çĶŁ
é¢Ħç¤º çĿĢ
åºĨ å¤§
( âĢĶ)
å¦Ĥ èĤ¿çĺ¤
åĬĽ æ°Ķ
å¦Ĥæŀľ æ²»çĸĹä¸įåıĬæĹ¶
æ³¨æĦı çļ®èĤ¤
æ¯Ķ çİĩ
ä¾¿ æºı
æİĴ æ°´
ä¸ī é«ĺ
éģ¿åħį åī§çĥĪè¿ĲåĬ¨
æµĭ éªĮ
çīĩ èį¯çī©çĽ¸ä½ľçĶ¨
è¿ĺæľī åı¯èĥ½æĺ¯
ç©¿ è¡£
ç²Ĺ æļ´
ä¸¥æł¼ æİ§åĪ¶
åįķåıĳ ç»ĵèĬĤ
æłĹ åŃĲ
è¡Ģ éĴł
è¿Ľè¡Į ä¸Ģæ¬¡
è¯¥ å¤Ħ
æĺİæĺ¾ æĶ¹åĸĦ
æīį ä¼ļåĩºçİ°
ä½ĵåĨħ æ¿Ģç´ł
åĪ°åĮ»éĻ¢ å¤įæŁ¥
æľĢå¸¸è§ģçļĦ ä¸Ģç§į
çģ¼ ä¼¤
éĩĬæĶ¾ åĩº
åıĬåħ¶ åĳ¨åĽ´
ic al
æľĪç»ıéĩı å¢ŀå¤ļ
åĿĲæľĪåŃĲ æľŁéĹ´
å¤§çĸ± æĢ§
æ´ģèº« èĩª
: :
æĿ¥ ç¡®è¯Ĭ
ä½İ åº¦
æľ¬ æĸ¹
å±Ģéĥ¨ èĤ¿èĥĢ
æİ§åĪ¶ çĹĩçĬ¶
ä¹Łåı¯ ä¸º
èħ¹çĹĽ åıĬ
çłĶç©¶ è¯ģå®ŀ
æ°ı çĹħ
çĹħæ¯ĴæĢ§ èĦĳèĨľçĤİ
è¿ĩäºİ é¢ĳç¹ģ
åİĭçĹĽ æĺİæĺ¾
èķ Ī
å±ĢéĻĲ åľ¨
èĤºçĻĮ æĻļæľŁ
èĭĶ èĸĦ
æĬ½è¡Ģ åĮĸéªĮ
å¼ĵå½¢ èĻ«
ç¾Ĭè§Ĵ é£İ
ä¼ļ å¾Ī
ä¸Ĭ å°¿è·¯æĦŁæŁĵ
è°ĥ åĴĮ
èº«ä½ĵ ä¸ĬçļĦ
åĲ¸ èĻ«
ç¾ Ķ
è¿ĺæľī åħ¶ä»ĸ
çĽ¸å¯¹ åºĶ
èħĲ çĥĤ
çļĦä¸Ģ é¡¹
é¥®çĶ¨ æ°´
é«ĺèĦĤèĤª é£Łçī©
éĻįåİĭ ä½ľçĶ¨
æĬ½è¡Ģ æ£ĢæŁ¥
éħ ¿
ç« ĸ
æĺİæĺ¾ çĹĩçĬ¶
æīį ä¼ļæľī
çĶµ æŀģ
èĤĽéĹ¨ çĸ¼çĹĽ
ä¸įåŃķ çĹĩçļĦ
æ¦ Ķ
é¼ĵ å®¤
èĥ¡ ä¹±
æł¹æľ¬ åİŁåĽł
ç»ĵæīİ æľ¯
è¾ Ī
å¯¹ åħ¶ä»ĸ
åĲĥ å¤ªå¤ļ
éĺ² é£İ
åĨį åģļ
äº¤ è°Ī
æĬĳéĥģ æĥħç»ª
èµ° è¡Į
åİ»åĮ»éĻ¢æ£ĢæŁ¥ ä¸Ģä¸ĭ
æĭ¥ æĮ¤
éĿ¶åĲĳ æ²»çĸĹ
çľ¼å¤ĸ èĤĮ
è¡¥ä¸Ń çĽĬæ°Ķ
Ġ ?
æĪĸ ç¨į
ä½¿ çĹħæĥħ
èĦĳ å±ıéļľ
éľĢè¦ģ å¤ļå°ĳéĴ±
å®¹æĺĵ åıįå¤įåıĳä½ľ
åīįåĪĹèħº æĮīæĳ©
åĨį å°Ĩ
å§ ¨
èĬ± åĨł
åĬ³ç´¯ åĲİ
å¼ºè¿« çĹĩçļĦ
è´Łåİĭ åĲ¸å¼ķ
Ġ an
æľī éĴĪå¯¹æĢ§çļĦ
ä»¥ æĶ¹åĸĦ
éľĢè¦ģ æ£ĢæŁ¥
æĽ´ åºĶè¯¥
è¿Ĳ ä½ľ
æ¡ Ĩ
åħ¨èº« æĢ§çļĦ
ç»§ èĢĮåĩºçİ°
èĤĮèĤī éħ¸çĹĽ
çĽĲ åĪĨ
å¾Ģå¾Ģ ä¸İ
èĩªèº«åħįçĸ« åıįåºĶ
çĽĬæ¯į èįī
æĹ¶ ä¸į
è¿Ļ å°±éľĢè¦ģ
çĥŃ éĩıçļĦ
å°±æĺ¯ ä¸Ģä¸ª
æĬ¬ å¤´
æ²¹èĦĤ åĪĨæ³Į
TN F
åīĶ éĻ¤
. ãĢĬ
æĢ§ å¿ĥåĬ¨è¿ĩéĢŁ
ä¼ļ å¸¦æĿ¥
è¾ĥ ä¸¥éĩįçļĦ
åĪºæ¿Ģ åĪ°
è¾¾ é«ĺå³°
éĢĢ è¡Į
å®¤ ä¸Ĭ
éļĶ æĹ¥
æĺ¾ç¤º åĩº
ä¼¤åı£ çļĦæĦĪåĲĪ
é»Ħèī² çļĦ
æ¸Ĺåĩº æĢ§
ar d
èĥĨç®¡ çĤİ
èİ« åĲį
ä¹Ļéħ° æ°¨åŁº
èĢģå¹´çĹ´åĳĨ çĹĩ
èĤĿæ°Ķ éĥģç»ĵ
è½®çĬ¶ çĹħæ¯Ĵ
å¨ĩ å«©
ãĢĤ <
åı¯ é¢Ħéĺ²
ä»¥ èĩ³äºİ
è¦ģ åħ»æĪĲ
æĤ£èĢħ åºĶæ³¨æĦı
èĥĥ æİĴç©º
åıĸ å¾ĹäºĨ
è¿ĩç¨ĭ çļĦ
çłĶç©¶ ç»ĵæŀľ
å¤§ä¾¿ åĲİ
æī©æķ£ èĩ³
è¤Ĳèī² æĪĸ
å»ºç«ĭ ä¿¡å¿ĥ
èĦĳèĦĬæ¶² æ£ĢæŁ¥
ä¸įå¾Ĺ ä¸į
Ġp ro
åľ¨æŃ£å¸¸ èĮĥåĽ´
èĤ ´
æľĢ æĺİæĺ¾çļĦ
åĬŁèĥ½ æįŁå®³
ä¸Ģå®ļ æĺ¯
æ²¹ æĢ§çļ®èĤ¤
çīĻ åĳ¨çĤİ
æĦĪåĲĪ åĲİ
å¯ĦçĶŁ äºİ
äººç±»ä¹³å¤´çĺ¤ çĹħæ¯Ĵ
çļĦ å±Ģéĥ¨
åľ¨ ä¸Ģå®ļ
éĺ´ åĩī
é£Łçī© åľ¨
éģ¿åħį åĲĦç§į
åı³ ä¸ĭèħ¹
åħ¨èº« ä¸Ńæ¯ĴçĹĩçĬ¶
æĦŁè§ī åĩıéĢĢ
ä¾¿ç§ĺ åĴĮ
ç¬¬ä¸Ģ èĬĤ
å¤§çº¦ åľ¨
åĪĨä¸ºæĢ¥æĢ§ åĴĮæħ¢æĢ§
æĤ£èĢħ å¸¸å¸¸
åĲĥ å¤ļäºĨ
èĦĳ åŃĲ
åħ» é¢ľ
å®«é¢Ī æ´»æ£Ģ
åĳ¼åĲ¸ éŁ³
åı¶ åŃĲ
è¯· éĹ®
åħ¶ä¸Ń åĮħæĭ¬
å°¿æĢ¥ åĴĮ
æ»¥çĶ¨ èį¯çī©
èĸı èĭ¡ä»ģ
ä¸īåıī ç¥ŀç»ıçĹĽ
èĥĥåºķ éĿĻèĦīæĽ²å¼ł
åħ¬ç«ĭ åĮ»éĻ¢
éĺ²èħĲ åīĤ
è¦ģ é«ĺ
ä½ĵ çİ°åľ¨
åĽłä¸º è¿Ļç§į
æĤ£èĢħçļĦ çĶŁæ´»
åĹ ¦
åºķ çī©
èĩªèº« æĥħåĨµ
çīĽ é»Ħ
å¤±çľł çŃī
å¤§èĦĳ çļĦ
åĨł å¿ĥ
çĶ²èĤĿ çĹħæ¯Ĵ
éģ® çĽĸ
æľĢ æľīæķĪ
ä¸ĢèĪ¬ åı¯ä»¥
ä¹³ éħª
å°±æĺ¯ çĶ±äºİ
åĲĦ åŀĭ
æ¤İ å¼ĵ
éĢīæĭ© åĲĪéĢĤçļĦ
é«ĵ æł·çĻĮ
CT åĴĮ
æ²ĻéĹ¨ èıĮ
åĴĮ æĤ£èĢħ
æĪĸ éĹŃç»ı
å°¿ åŁ¹åħ»
æĦŁæŁĵ çĹħæ¯Ĵ
æ¯Ķè¾ĥ æħ¢
ä¾§ åį§ä½į
éĩĩ è¡Ģ
ä»ħ ä¾ĽåıĤèĢĥ
çĦ¶åĲİ è¿Ľè¡Į
å¤´çĹĽ çŃī
åĿļ å®ŀ
åŀĤä½ĵ çĺ¤
è¾ĥä¸º ä¸¥éĩį
æĺ¯æľī ä¸Ģå®ļ
éĿ©åħ° éĺ³æĢ§
éĢļéĢıæĢ§ å¢ŀåĬł
èĬ¡ å®ŀ
åľ¨ çĶ·æĢ§
èĥ½ æıĲé«ĺ
åıĺ åĬ¨
éª¨ ç»Ħç»ĩ
æĺ¾ çĦ¶
çĥŃ æ¯Ľå·¾
æľĪç»ı åīįåĲİ
äº§çĶŁ æĬĹä½ĵ
æ¸© è¡¥
åį«çĶŁ çº¸
ç¡®å®ļ è¯ĬæĸŃ
åĨ²æ´Ĺ éĺ´éģĵ
é£ŁçĸĹ æĸ¹
åĻª éŁ³
å®ł çī©
C E
æĹ¶ åıĳçİ°
å¤ļ ä½Ļ
æ²»çĸĹ çĽ®çļĦ
èĩª å¾ĭ
æĽ´ ä½³
é¢Ħéĺ² å·¥ä½ľ
èĤĿèĦı æįŁä¼¤
çĽ¸åħ³ çĸ¾çĹħ
å¦ĩå¥³ åľ¨
èĤ¾çĽ ı
çļĦå¤§å°ı åĴĮ
5 7
å¦Ĥæŀľ çĶ·æĢ§
éª¨ å¯Ĩåº¦
çĿ¾ä¸¸ ä¸ĭåŀĤ
å²ģ ä¹ĭåīį
å±Ĥ æ¬¡
è¡£ è£¤
åĮ»åŃ¦ çļĦ
ä¸ĢçĤ¹ çĤ¹
ä¸įæĺĵ æ¶ĪåĮĸçļĦé£Łçī©
æ² Ľ
èµ ĭ
è¿Ļ é¡¹
è¿Ľ è¡¥
ç³ĸ æµĨ
ä¸´åºĬ è§Ĥå¯Ł
æ¯Ķè¾ĥ é«ĺçļĦ
ä¸įåĲĮ ç±»åŀĭ
åĳ¼åĲ¸ åĴĮ
è¡¥åħħ èº«ä½ĵ
èĥĮ éĿ¢
æ£Ģæµĭ åĩº
éĩįè§Ĩ èµ·æĿ¥
çĶĺ èĵĿ
æ½ľä¼ı æ¢ħæ¯Ĵ
èĥĨåĽĬ ç»ĵçŁ³
åľ¨åĮ»çĶŁçļĦæĮĩå¯¼ä¸ĭ è¿Ľè¡Į
çļĦ ä¸Ĭ
çļĦ æ¿Ģç´ł
çļĦ èĤ¿åĿĹ
å¯¹ åĽł
é«ĺ æ¶¨
æ¶² çļĦ
ä½Ĩ å½ĵ
æ¯ı é¤Ĳ
æľīæķĪ æİ§åĪ¶
çĺĻçĹĴ çĹĩ
æĮģç»Ń çļĦæĹ¶éĹ´
ä¸ĭéĿ¢ ä¸ºå¤§å®¶è¯¦ç»Ĩ
å°±è¦ģ èĢĥèĻĳ
èŀįåĲĪæĪĲ çīĩ
åĸ¹ è¯ºéħ®
æŀ¸æ© ¼éħ¸
çļĦ åħ¨
äºĨ ä¹ĭåĲİ
è® ³
è¿ĺ ä¸įèĥ½
çŁ ¾
çĹħäºº ä¼ļåĩºçİ°
åĿĩ åı¯ä½¿
ä¸ĭéĻį åĪ°
æ±Ĺ åĩº
éī´ äºİ
ä¹Łåı¯ éĢļè¿ĩ
è°ĥèĬĤ åĨħåĪĨæ³Į
èĤ¾èĦı çĹħ
æ½®æ¹¿ çļĦ
æ²¿ éĺ´éģĵ
åħ¼ æ²»
åĻª å£°
å®«é¢ĪæŁ±çĬ¶ä¸Ĭçļ® å¼Ĥä½į
çļĦ æ´»æĢ§
åľ¨ èº«ä½ĵ
ä¼ļ åĩıå°ĳ
æĤ£èĢħ æľ¯åĲİ
ä½Ĩ å¦Ĥ
éĥ½ éĿŀå¸¸
åģļ äºĭ
æĪĳ çļĦ
å¼º å¤§çļĦ
åįķ èĥº
åĮ»çĶŁ è¿Ľè¡Į
çĶŁçī© ç¢±
è´«è¡Ģ çŃī
ç¬¬äºĮ èĬĤ
çļĦéĥ¨ä½į åĴĮ
ä¸Ńåº¦ åĴĮéĩįåº¦
èĦĳè¡Ģç®¡ æĦıå¤ĸ
å·© èĨľçĤİ
çķı åħī
åĴĮ èĤĿ
ä¸º çī¹çĤ¹
èĢħ ç§°
å¯¹ æľ¬çĹħ
é«ĺ é£İéĻ©
çĸ¾çĹħ å¦Ĥ
èĦĳ è¡Ģæłĵ
ä¸įåĲĮ çĹħåĽł
åĪ© çļĦ
ç²¾ç¥ŀ åĪĽä¼¤
ä¸Ģå®ļè¦ģ ä¿ĿæĮģ
éªĮ è¯ģ
å¥¶ ç±»
æ£ī çĲĥ
çĽ´å¾Ħ å¤§äºİ
ç¢İ çŁ³
Ġ and
æĪĸ è¢«
æŀ ª
å¯¹ æĪĳä»¬
å¾Ī åı¯èĥ½ä¼ļ
åħ¥ è¡Ģ
è¯¥ æĸ¹æ³ķ
æĿ¾ è½¯
ç±³ èĩ³
æķ£ å¤§
è¿« ä½¿
æ²»çĸĹçļĦ åħ³éĶ®åľ¨äºİ
èĪĴ ç¼©
æİ¥åıĹ æ£ĢæŁ¥
èķ ¾
è§£åīĸ ç»ĵæŀĦ
ä¸ĢèĪ¬éĥ½æĺ¯ çĶ±äºİ
å¯¹èº«ä½ĵçļĦ ä¼¤å®³
æŁı æ²¹
éĶ¥ä½ĵå¤ĸ ç³»
èĥ½ æĶ¹åĸĦ
åºĶ å®ļæľŁ
å¼ķèµ· çĤİçĹĩ
åıĹ åĬĽ
åħ» åĪĨ
æł¹ å°ĸ
çĤİçĹĩ æĢ§çĸ¾çĹħ
ç«ĭ ä½į
ä¸Ŀ åĪĨè£Ĥ
æĬµæĬĹåĬĽ éĻįä½İ
æľīæķĪçļĦ ç¼ĵè§£
åįķä¾§ æĪĸåıĮä¾§
èĤĿåĮº ä¸įéĢĤ
çĨı èĴ¸
çļĦ ç¡®
çļĦ åĪ¤æĸŃ
æĢ§ çĶŁæ´»ä¸Ń
ä»¥ å¸®åĬ©
åĴĮ è¡Ģæ¸ħ
å¦Ĥæŀľ åĩºè¡Ģéĩı
ä¸İ ä¹ĭ
æľ¬ åŀĭ
æŃ£å¸¸ ä½įç½®
æºĥçĸ¡ éĿ¢
æľĢå¥½ èĥ½
æ·± å¤Ħ
é£ŁçĶ¨ çļĦ
æĿĤ è´¨
çĿ¡è§ī çļĦæĹ¶åĢĻ
çĥŃæ°´ æ¾¡
ä¹Į æ¢ħ
èĤłç³»èĨľ ä¸Ĭ
âī ¥
æĹ¶ è½»æĹ¶éĩį
ä¸º åĩĨ
æĤ£èĢħ å¿ħé¡»
åı¯ä»¥ åıĳçĶŁ
æĥħ æĻ¯
åĳ¼ åĻľ
è®© ä»ĸ
ç©º èħĶ
èģĶ æĥ³
å°ĳåĲĥ æĪĸä¸įåĲĥ
æ²»çĸĹæĸ¹æ³ķ æľī
ä¿® é¥°
éº¦ è§Ĵ
æ§Ł æ¦Ķ
A N
çļĦ ä¸»
æĺ¯ åĦ¿ç«¥
ä¸º éģ¿åħį
çŃī ä½į
è¿ĩ éħ¸
æĤ£èĢħ å¤ļ
çī¹ æľī
ç²¾ç¥ŀ è¿ĩåº¦ç´§å¼ł
å¹³æĹ¶ è¦ģå¤ļ
å±ŀ æŃ£å¸¸
è¥¿ æ´ĭ
ä¸įè¦ģåĲĥ çĶŁåĨ·
èĹ ¿
çĹħåİŁä½ĵ çļĦ
éĢĢè¡ĮæĢ§ çĹħåıĺ
åĪ©å¤ļ åį¡åĽł
k in
ä¸Ģ æĿ¥
åľ¨ åıĳçİ°
åĴĮ çĤİçĹĩ
ç¼ ¸
ä¾§ æĸ¹
çļĦæ²»çĸĹ åĬŀæ³ķ
å¯¹äºİ éĤ£äºĽ
è¡Ģç®¡ éĺ»åĬĽ
è§¦ åĪ°
çļĦäºº ä»¬
æĹ¥å¸¸ çļĦ
è·Ł çĿĢ
æŀķ éª¨
åĪ©å°¿ ä½ľçĶ¨
æ¿ĢåĬ¨ åīĤ
è®¤çŁ¥ éļľç¢į
h åĨħ
è¿ Ī
ä¼ļ éģĹä¼ł
æĤ£èĢħ åıĬ
éģ¿åħį æļ´é¥®æļ´é£Ł
èĤº èĦĵèĤ¿
è§¦ è§ī
åįģ å¤©
ä¼ĳæģ¯ æĹ¶éĹ´
å®¤ å¤ĸ
åĲį ä¸º
éĵ¾ éľīç´ł
åºĶå½ĵ æ³¨æĦı
èĦĳèĨľ çĤİçļĦ
æ¶ĤæĬ¹ åľ¨
èĿ¶ éŀį
é²¤ é±¼
å¼ķç§į æł½åŁ¹
r on
ä¸į èĢĲ
é£Ł ä¹ĭ
ä¸Ĭ åºĬ
èĤĮ å£ģ
åģļ äºĽ
ç»ĩ åĵģ
å¼Ģ å¿ĥ
å¯Į æľīèĲ¥åħ»
èĤ¾èĦı çļĦ
ç»§ç»Ń å¦Ĭå¨ł
æ·ĭçĹħ åıĮçĲĥèıĮ
éª¨é«ĵ æĬĳåĪ¶
æľīæľº éħ¸
èĬĭ å¤´
çļĦ æīĭæľ¯æ²»çĸĹ
åĪĨ éļĶ
åıĺ æħ¢
çĻĮ çģ¶
é¥®é£Ł è§Ħå¾ĭ
åģ¥åº· æķĻèĤ²
æ´»åĬ¨ èĥ½åĬĽ
åı³ å®¤
ç§¯æŀģ é¢Ħéĺ²
èĤĮèĤī çĺ¤
æĬĳéĥģ éļľç¢į
éļıçĿĢ çĹħæĥħçļĦåıĳå±ķ
åĮħçļ® åı£
åħĪå¤© æĢ§çĸ¾çĹħ
èĤ¥èĥĸ çĹĩ
è¾ĥéĩį çļĦ
åįĬèº« ä¸įéģĤ
å¿ ¡
ä¸Ń ä»¥
åĪĨ éħį
æĺĵ çĸ²åĬ³
å¸¦ å®Ŀå®Ŀ
éĢļè¿ĩ ä½¿çĶ¨
è¡¥ èĻļ
éĢļå¸¸ æĺ¯çĶ±
å¤§éĩı é¥®éħĴ
é¦Ļ åĳ³
é¢ħ èĦĳæįŁä¼¤
ç¢ĺ æ²¹
åĮĸçĸĹ åĴĮ
å¹¶ä¸į å°ĳè§ģ
çķ¥ å¸¦
åĩĨç¡® çİĩ
éĿ©åħ°æ°ı éĺ´æĢ§
æĺ¯ äºº
å¼ķèµ· èĢħ
æĿ¥ ä¿ĥè¿Ľ
å¦Ĥæŀľ æĥ³
ç±» åĮĸåĲĪçī©
å¼Ģ é¢ħ
å¯¹äºİ è¿Ļç§įæĥħåĨµ
èĢĮä¸Ķ æľī
é¼» é¥²
ä¼¤åı£ æĦŁæŁĵ
æł¹æ²» æľ¯
çĹĩçĬ¶çļĦ åĩºçİ°
çİ© èĢį
ä¸ŃåĴĮ èĥĥéħ¸
å¼ĤçĥŁ èĤ¼
åĮħæ¶µ ä½ĵ
çĹħ åīį
åı¯ å¼ķåıĳ
åŃ µ
å°± åºĶ
å¤ĸ æĹĭ
æĹ© å°Ħ
çĽ® çľ©
ä¸»è¦ģæĺ¯ åľ¨
éĺ²æŃ¢ åĩºçİ°
æįŁå®³ ä¸º
æĬĹä½ĵ æ»´åº¦
èį¯çī©æ²»çĸĹ æĹłæķĪ
æļ´ åıĳæĢ§
æ¸©åĴĮ çļĦ
æ¯ĽåĽĬçļ®èĦĤèħº å¯¼ç®¡
y p
çļĦ è¿¹è±¡
æĤ£èĢħ ä¸įèĥ½
åīį è§Ĵ
å½±åĵį ä¸įå¤§
èĤ¿çĺ¤ æĪĸ
ä¹Ļ èĥº
åıĹåĪ° çł´åĿı
çĶ²çĬ¶èħºæ¿Ģç´ł é«ĺ
æ°ı èıĮ
èĤłèĥĥ çļĦ
ä¸ĬéĿ¢ çļĦ
hpv æĦŁæŁĵ
æĺ¾å¾® éķľæ£ĢæŁ¥
å»¶è¯¯ æ²»çĸĹ
é»Ħè¤Ĳ æĸĳ
çĻ¾æĹ¥ åĴ³
a z
è¦ģ å°½éĩı
çŃī ç»Ħç»ĩ
æĿ ī
çº º
å¾Ī çŁŃ
æľĢ æľīæķĪçļĦ
åĪĨæ³Į æ¶²
å°Ħ è¡Ģ
èģ ª
æĺ¯æĮĩ åıĳçĶŁåľ¨
cm çļĦ
æĹ¶æľŁ çļĦ
å°¿éĩı åĩıå°ĳ
è¡Ģç®¡åĨħ åĩĿè¡Ģ
å°¸ ä½ĵ
a min
ä¹Ł å¸¸
èĤł éķľ
æĮĩ åħ³èĬĤ
æĢİä¹Ī æ£ĢæŁ¥
æķĪæŀľ ä¸įå¥½
å¤§å®¶ åºĶè¯¥
æŁ± çĬ¶
ï¼ħ ï½ŀ
æĢ§æ¬² ä½İä¸ĭ
èº«æĿĲ çŁ®å°ı
åºĨå¤§ éľīç´ł
è¦ģ å°Ĩ
çĲ ¼
èĪ ¹
åıª æĺ¯ä¸Ģç§į
åįµå·¢ è½´
æĢĢåŃķ ä»¥åĲİ
èĶ¬èıľ çŃī
ç¼ºä¹ı çī¹å¼ĤæĢ§
çļĦæ²»çĸĹæĸ¹æ³ķ æĺ¯
åĲ¬ éŁ³ä¹Ĳ
å¿ĥèĤĮ æĶ¶ç¼©åĬĽ
ç¡« åĮĸ
ro s
éĺ»æ»ŀ èį¯
è¶ĭ åĲĳ
åīįåĪĹèħºéĴĻåĮĸ çģ¶
ä¿ĿæĬ¤æĢ§ æĬĹä½ĵ
èĤī è´¨
åŃ¦ å®¶
éģ¿åħį æĲĶæĬĵ
ä¸įèĥ½ è¢«
è¿ĻäºĽ éĹ®é¢ĺ
ä»¥ä¸Ĭ çĹĩçĬ¶
çĶµ ç¦»
æ·± åľ¨
çłĶç©¶ è®¤ä¸º
çģ¼ çĥ§
ç¿» è½¬
æĥħæĦŁ éļľç¢į
æĢ¥æĢ§åıĳä½ľ æľŁ
çĭĤèºģ çĹĩ
LI SA
X X
åıĳ è¡¨
æ³ ®
åĴĮ ä¿ĥè¿Ľ
å¦Ĥæŀľ èº«ä½ĵ
æµģ é¼»è¡Ģ
åĪĻ ç§°ä¸º
ç¼ĵ åĴĮ
è¢« èĨľ
åįµå·¢ åĮħåĿĹ
èĢĮä¸Ķ æĺ¯
è¾¾åĪ° é«ĺå³°
éĩĩåıĸ çĽ¸åºĶ
æ°¨åŁº ç³ĸ
ro p
èħ¥ åĳ³
ä¸įå¿ħ æĭħå¿ĥ
è·Į æīĵ
EB çĹħæ¯Ĵ
åı¯ æľįçĶ¨
çĬ¶ èĬ±åºı
ä¸º éĺ²æŃ¢
æĿ¥ ä¸´
æŃ¤ èį¯
åĩºè¡Ģ çļĦçİ°è±¡
åŃĲå®«åĨħèĨľ åİļåº¦
çĸ¾çĹħçļĦ åıĳå±ķ
èħ¹éĥ¨ èĤ¿åĿĹ
ä»ĭ ç´ł
çĽ´æİ¥ çļĦ
èĦ¾ åĬŁèĥ½äº¢è¿Ľ
å¤§å¤ļæķ° æĥħåĨµä¸ĭ
æĬĵ ä½ı
æĶ¾çĸĹ åĲİ
éľĩ èį¡
è½¯ç»Ħç»ĩ æįŁä¼¤
æ¯Ķè¾ĥä¸¥éĩį çļĦè¯Ŀ
æľīçĽĬ çļĦ
èĭ¯å¦¥èĭ± éĴł
S LE
ä¸į æ»¡æĦı
åıĳ éĻħ
åľ¨ éĿĴæĺ¥æľŁ
çĶ¨ ä»Ģä¹Ī
è¾ ĳ
æĿ¥ é¢Ħéĺ²
ä¹ĭ åĬŁ
ä¸¥éĩį çĸ¾çĹħ
ä¸įè¦ģ æĭħå¿ĥ
ç»Ħç»ĩ æĪĸ
çļĦçĹĩçĬ¶ ä¸º
å®¹æĺĵ åıĹåĪ°
éĢļè¿ĩ æ£ĢæŁ¥
è¢« æ±¡æŁĵ
è¿Ļä¸ª æĹ¶éĹ´
èħ¹çĹĽ çŃī
ä¸Ļ æ°¨éħ¸
ç²¾ç´¢ åĨħ
èĦ¾èĥĥ èĻļå¯Ĵ
å¤§å¤§ éĻįä½İ
èµ¶ ç´§
åıįæµģæĢ§ é£Łç®¡çĤİ
ä¸į å¹¸
çī© ç§į
æ£ĢæŁ¥ ä¸Ń
ä¹ĭ ä¹ħ
æĺĵ äº§çĶŁ
æ¸ħ åĩī
å°Ĩ å¯¼èĩ´
èĨĢèĥ± çļĦ
ç´§å¼ł çĬ¶æĢģ
è¿Ľåħ¥ ä½ĵåĨħ
å¿ĥèĤĮ ç»Ĩèĥŀ
éĺ¶æ®µ çļĦ
å±Ī èĨĿ
ç±»ä¼¼ çļĦ
åį³ä½¿ åľ¨
èĥİçĽĺ æĹ©
or m
å¹» åĲ¬
èħ°éª¶éĥ¨ éħ¸çĹĽ
éĿĻèĦīåĽŀæµģ åıĹéĺ»
åıĳ èĬ½
åı¯ä»¥ åºĶçĶ¨
è¿Ľè¡Į æ¸ħæ´Ĺ
èĦĳ è½¬ç§»
åĩıå°ĳ å¤įåıĳ
éĢļå¸¸ ä¸İ
æĢ§çĶŁæ´» æĹ¶
çĶ²çĬ¶èħºæ¿Ģç´ł åģıé«ĺ
åħ¶ä¸Ń ä¸Ģç§į
æģ¶å¿ĥ åĴĮåĳķåĲĲ
å¾Īå®¹æĺĵ åıĳçĶŁ
çĪ¶ äº²
çº¢ç³ĸ æ°´
èºģçĭĤ çĹĩ
æ±½ è½¦
æĺĤ è´µ
Ġ ch
æĢ§ æĶ¹åıĺ
åĳ ĥ
æĦŁ çŃī
åı¯ä»¥ æľīæķĪåľ°
çĶ± äººå·¥
æīĭæľ¯ çļĦæĸ¹å¼ı
çĶ±äºİ éķ¿æľŁ
èĤ¿çĺ¤ çĶŁéķ¿
çīĩ åĪ»
æĻļ éĹ´
å®ī åº·
æ¯ıå¤© éĥ½è¦ģ
æ»ĳ åĬ¨
ä¸įè¶³ ä»¥
å»¶éķ¿ çĶŁåĳ½
çģ° çĻ½
è¾¨è¯ģ æĸ½æ²»
é¸Ń èĤī
å°¿ç´ł æ°®
å¤ľå°¿ å¢ŀå¤ļ
åľ¨ ä¸ŃåĮ»
åŃĲ æĪ¿
ä½Ĩ ä¸ĢèĪ¬
æĬĹ å¿ĥå¾ĭå¤±å¸¸
æ¯ı ç§į
æ²¡æľī éĹ®é¢ĺ
åħ³èĬĤ èħĶ
çľĭ ä¸Ĭåİ»
ç»ĵåĲĪ èĥĨçº¢ç´ł
éĺ³æĢ§ èĢħ
æĭī ä¼¸
ç½ĳ èĨľçĤİ
æĥĬ åĲĵ
æĶ¾çĸĹ åĴĮåĮĸçĸĹ
ç»ĵç¼Ķç»Ħç»ĩ çĤİ
åİŁåıĳ çģ¶
æľīè§Ħå¾ĭ çļĦ
å¼Ģåı£ äºİ
ç²ĺèĨľä¸ĭ èĤĮçĺ¤
å®«é¢ĪéĶ¥ åĪĩ
G n
å¤ļ åıĺ
åĲİ è¿Ľè¡Į
åĨħ æĪĸ
èĤĮ ç´§å¼ł
è°ĥ ç»ı
ç³» æķ°
é¥®é£Ł æİ§åĪ¶
æľ¬ äººçļĦ
è¯´ æĿ¥
éĺ´éģĵ æľī
ä½Ĩæĺ¯ åį´
çĶµ åĪĩ
éĢı è§Ĩ
æ»ĳ æ¶²
åħĪå¤© çķ¸å½¢
èĦĬé«ĵ åŀĭé¢Īæ¤İçĹħ
åįİ æ³ķ
æ´Ľ èĬ¬
M T
åĴĮ åĽ½
ä¸Ń ä½į
çĹĽ çļĦ
é«ĺ æµĵåº¦
å°ĳ æ¸£
å¦Ĥæŀľ åĩºè¡Ģ
æĹł æķħ
æīĭæľ¯ èĢħ
çĶŁæ´» ä¸įè§Ħå¾ĭ
åĽłä¸º è¿ĻäºĽé£Łçī©
çĿ¾ä¸¸ çĤİçļĦ
èĥ¸ æ°´
éĻįä½İ è¡Ģåİĭ
å¤§ä¾¿ ä¹łæĥ¯
å®«èħĶ éķľä¸ĭ
å°¿çĹĽ çŃī
è¸ ı
at h
è¾£æ¤Ĵ çŃī
æ¯ĽåŃĶ åłµå¡ŀ
ä¹Łæĺ¯éĿŀå¸¸ éĩįè¦ģçļĦ
å¤§ èĢĮ
åı¯ä»¥ è¯´æĺ¯
ä¸İ é¥®é£Ł
èĤł ç²ĺèĨľ
ä¸¤ å°ıæĹ¶
æĳĦ é£Ł
æİ¥åıĹ çİ°å®ŀ
åĬ¡ éĻ¢
ç»Ŀå¯¹ çļĦ
åģ¶çĦ¶ åıĳçİ°
X æŁĵèī²ä½ĵ
çĹ ŀ
ä¸į å¼ķèµ·
åĴĮ åħ¨èº«
åīį ç¼ĺ
å¦Ĥæŀľ è¶ħè¿ĩ
åı£æľį æĪĸ
å°¼ é¾Ļ
ä¸Ĭèħ¹ ä¸įéĢĤ
æ±Ł èĭı
çº³æ°ı åĽĬèĤ¿
çļĦ ä¸ĭéĻį
å¤§ éĥ¨
åĲĪ åīĤ
åı£ åĴ½
ä¸ĢäºĽ å¥³æĢ§
åľ° çĲĨ
ä¹Łä¼ļ åıĳçĶŁ
æķħ åıĪç§°
è¯· å¯¹
åįĥ åħĥ
æľºä½ĵ åħįçĸ«åĬŁèĥ½
çļĦå¥³æĢ§ æĿ¥è¯´
çº¢ç»Ĩèĥŀ å¢ŀå¤ļçĹĩ
åĸĤ é£Ł
åĨ° æķ·
è§Ĩç¥ŀç»ı èĲİç¼©
çº¤ç»´ç»Ħç»ĩ å¢ŀçĶŁ
åĴĮ å¯¹
èį £
éķ °
äºĨ æĢİä¹ĪåĬŀ
æīĭæľ¯ çŃī
æīĭæľ¯ è¿ĩç¨ĭä¸Ń
éĻ¤ æľī
éħ¸ åĳ³
éĺ´éģĵ åĨħçļĦ
è°ĥèĬĤ åĬŁèĥ½
åĳĨ æ»ŀ
æĺ¯ å½±åĵį
ä¸į çĸ¼
å¤§ éĥ½
ä¸Ń æļĳ
çĹĩçĬ¶ ä¼ļ
å½¢ ä¼¼
æķ° éĩıçļĦ
åħħ æ°Ķ
è¿ŀ ç¿ĺ
è½¯ èħŃ
é±¼ èĤĿ
è¿ĩå¤ļ æĪĸ
èĩªè¡Į ç¼ĵè§£
æĺıè¿· çŃī
åĩĨç¡® åľ°
çİ°å®ŀ çĶŁæ´»ä¸ŃçļĦ
é«ĺå°¿éħ¸ è¡ĢçĹĩ
c y
çļĦ ä¸įèī¯åıįåºĶ
æĤ£èĢħ ä¸Ģå®ļè¦ģæ³¨æĦı
åīį ä½ĵ
åĲĮ èĥŀ
ä¸»è¦ģ ä¾Ŀæį®
æŃ¤ å¤Ħ
æģ¢å¤į æĹ¶éĹ´
æ¶ĪåĮĸ éħ¶
è®© èĩªå·±çļĦ
èĤĮèĤī åĴĮ
çļĦæĸ¹æ³ķ è¿Ľè¡Į
æ¯ıæĹ¥ åīĤ
çĺĢ çĤ¹
èī¾ åı¶
ä¿ĥçĶ²çĬ¶èħºæ¿Ģç´ł æ°´å¹³
å°ıåŃ© çļĦ
å¼ķæµģ ä¸įçķħ
å®¤åĨħ ç©ºæ°Ķ
å¸¦æľī è¡Ģä¸Ŀ
äººæ°ĳ æĶ¿åºľ
çĿ« çĬ¶
ç«ĭåħĭæ¬¡ ä½ĵ
æĪĸ çĸ¼çĹĽ
åĩºçİ° åĲİ
å¦Ĥæŀľ æ£ĢæŁ¥
å¥³ åŃ©åŃĲ
æĺİ äºĨ
æŃ¤ åĲİ
çĹħäºº ç¾¤
å© Ĩ
çĽ®åīį çļĦ
åıĹåĪ° åİĭè¿«
å¤§å¤ļæķ° ä¸º
åĬłå¼º å¯¹
èī¯æĢ§ åīįåĪĹèħºå¢ŀçĶŁ
ç»§åıĳ ç»ĨèıĮæĦŁæŁĵ
çļĤ çĶĻ
èĬĤèĤ² çİ¯
ä¹³å¤´çĬ¶çĺ¤ çĹħæ¯Ĵ
åĲ¬è¯´ è¿ĩ
æĺ¯ ä¸ºäºĨ
å¸ Ń
å¤ļ èĥ½
æĪĸ æŃ£å¸¸
æĪĸ ä¼´
ä¹Ł ä¸įå®ľ
æĹł çī¹æ®Ĭ
åĪĩ ç¢İ
çĶļèĩ³ åľ¨
ä¹Łæĺ¯ å¼ķèµ·
åĪĩéĻ¤ çļĦ
éģĹä¼ł åŁºåĽł
èĸĦ çļĦ
å¤ĸçķĮ çİ¯å¢ĥ
ä¹ĭéĹ´çļĦ åħ³ç³»
æ®ĭçķĻ çī©
å®Įæķ´ æĢ§
æĺĵæĦŁ äººç¾¤
éĽĮæ¿Ģç´łåĴĮ åŃķæ¿Ģç´ł
æĢ§ åŃĲå®«åĩºè¡Ģ
èĢĮ å½ĵ
å¹¶ éĢĲæ¸Ĳ
çĻĮ ç»Ħç»ĩ
å®¹æĺĵ å½¢æĪĲ
çľ¼ è§Ĵ
éĿĻ åħ»
ç³ĸå°¿çĹħ æĢ§
ç¾Ĭ ç¾Ķ
åİŁåıĳ æĢ§çļĦ
çĶŁåĮĸ æ£ĢæŁ¥
æµģè¡ĮçĹħåŃ¦ è°ĥæŁ¥
æĹħ æ¸¸
V L
çļ®èĤ¤ çĤİçĹĩ
æĻ ĵ
èĦī ç®¡
çº¢ çļ®çĹħ
ä»İ å°ı
æľĪç»ı è¡Ģ
çļĦæĸ¹æ³ķ æ²»çĸĹ
æµ´ æ±ł
éķĩ åĴ³
èĤºçĤİ éĵ¾çĲĥèıĮ
æľīåı¯èĥ½æĺ¯ åĽłä¸º
å¤ļåıĳ çļĦ
åµĮ åħ¥
æľĪç»ıå¹²åĩĢ åĲİ
èī° éļ¾
åķ° éŁ³
åı¯ä»¥ æģ¢å¤į
èĢĮ åıĺåĮĸ
å°¿ çº¿
æĮĩ éĹ´
ä¸´ äº§
æľĪç»ı åĪĿæ½®
æĸ¹éĿ¢ çļĦéĹ®é¢ĺ
ç¦» å¿ĥ
æķ´ çĲĨ
æĬĺ æĸŃ
éļıçĿĢ ç¤¾ä¼ļ
èĦ±èĲ½ ç»Ĩèĥŀ
å°¾ éª¨
åĬ¨ä½ľ çĶµä½į
ar c
ä¸įè§ĦåĪĻ éĺ´éģĵæµģè¡Ģ
èŃ ¬
èħ¹èĤ¡æ²Ł ç®¡
çļĦèĲ¥åħ» çī©è´¨
å°Ĭ éĩį
åħ Ħ
åĴĮ å¤ļ
å¯¹ åįĥ
è¿Ļ åĩłç§į
åı¯ä»¥ ä¸įçĶ¨
èĪ Ł
çĿĢ èī²
æľ¨ é¦Ļ
å¹¶ä¸į åĽ°éļ¾
ä¸ģ é¦Ļ
æļĤæĹ¶ çļĦ
æİ¢ ç´¢
å¿ħä¸įåı¯ å°ĳ
çĭĤçĬ¬ çĹħ
åĪ©æĻ® åĪĢ
çļĦ éī´åĪ«
è¦ģ ç§¯æŀģæ²»çĸĹ
æĹ¶ ä¸º
åħ¨ éº¦
ä»Ģä¹Ī åĳ¢
æĢ¥æĢ§ èµ·çĹħ
æ´Ĺ èĦļ
å¾ªçİ¯ è¡°ç«Ń
å·²ç»ı æĪĲä¸º
äº§åĲİ åĩºè¡Ģ
éħ¸æĢ§ é£Łçī©
éķ¿çŁŃ ä¸įä¸Ģ
6 2
åĪ ĳ
ä¸į åĸľæ¬¢
åľ¨ æĦŁæŁĵ
æ²»çĸĹ çļĦæĹ¶åĢĻ
å¾Ī ç®Ģåįķ
æľĢ å¸¸è§ģäºİ
çļ®èĤ¤ çº¢èĤ¿
æħ¢æĢ§ èħ¹æ³»
ä¸Ģä¸ª èī¯å¥½çļĦ
å¯¹äºİ çĶ·æĢ§
éº Ŀ
çĿ¡ çĿĢ
è´«è¡Ģ åĴĮ
åĽĽèĤ¢ æĹłåĬĽ
æ°®è´¨ è¡ĢçĹĩ
èĥİçĽĺæĹ© åī¥
çļĦ å¤ĸ
è¦ģ éĺ²æŃ¢
èĥŀ èĥİ
æ°Ķ åĬŁ
èĦī æ²ī
è¿Ļç§į æīĭæľ¯
çĶļ æĪĸ
åĮº åĴĮ
åĨħåĪĨæ³Į å¼Ĥå¸¸
åģı æī§
éĩĳ æłĩåĩĨ
ä¹ĭéĹ´ æľī
åħ¬ å¼ı
åĹľ éĵ¬
èį¯çī©æµģäº§ åĲİ
ä¸įæ´ģ çļĦæĢ§çĶŁæ´»
ç²¾åŃĲçļĦ è´¨éĩı
åıĳçİ°èĩªå·± æľī
éħ· ä¼¼
èħĵ èĤł
ï¼ Ŀ
çļĦ æĸ¹åĲĳ
è¦ģ çķĻæĦı
å¤ļ éĶ»çĤ¼èº«ä½ĵ
åºĶ èŃ¦æĥķ
èĤł å¤ĸ
å¯¼èĩ´ åĩºçİ°
èĽ Ģ
æ¯ı ä½į
çĤİçĹĩ æĹ¶
éĺ´éģĵ ç²ĺèĨľ
å±Ģéĥ¨ çº¢èĤ¿
æł¸ æĺĶéħ¸
æ·¡ åĮĸ
å¾Ģå¾Ģ èĥ½
æľīæĹ¶ åľ¨
æ²»çĸĹçļĦ æĸ¹å¼ı
è´Ł åıįé¦Ī
æļĤæĹ¶ æĢ§çļĦ
åĢ¾åĲĳ äºİ
ä¸Ńå¤® åŀĭ
åı¤ ä»£
é£ŀ æ²«
åģļåĩº è¯ĬæĸŃ
æľī éĩįè¦ģ
ä¼ļ åİĮ
éĥ¨ çĸ¼çĹĽ
çĶŁæ´» èµ·å±ħ
æĹ¶éĹ´ åĨħ
æĤ£èĢħçļĦ å¹´é¾Ħ
çļĦåİŁåĽł ä¸»è¦ģæľī
éĢĤå½ĵ è¡¥åħħ
æĤ Ħ
éļĲ å½¢
è½»åº¦ åįĩé«ĺ
åħĥ æ°Ķ
æĢĴ å¼ł
éĻª ä¼´
e ase
çļĦ çĽ´æİ¥
åĴĮ åĬłéĩį
åºĶ æħİçĶ¨
çĶ²çĬ¶èħº å¼¥æ¼«æĢ§
å®¹ åĻ¨
ä¾§ çļĦ
åīįåĪĹèħº åħħè¡Ģ
çĹħåıĺ æĹ¶
çĶļèĩ³ éĹŃç»ı
éĴĪ åĪĢ
ä»£è°¢ çī©
éĵģ èĽĭçĻ½
åıįå°Ħ æ¶Īå¤±
èģĶåĲĪ ä½¿çĶ¨
ä¸ĵå®¶ è¡¨ç¤º
çĻ¾åĪĨä¹ĭ äºĮåįģ
å¿ĥè·³ åĬłå¿«
çĹ §
æĺ¯ å°ıåĦ¿
åĴĮ åģ¥åº·
åı¯èĥ½ ä¼´æľī
ç¥ŀ çĸ²
èĤł çĲĥèıĮ
èį¯çī© å¦Ĥ
åĳ¨ çļĦ
åıª åľ¨
çĶļèĩ³ ä¼ļå¯¼èĩ´
âĢĿ âĢľ
è¿Ļæł· ä¼ļ
èĥ¸ èĥĮéĥ¨
æŀĦ éŁ³
æĽ² å°ıç®¡
çĽĬ å¤Ħ
èļ ĵ
åĨ³å®ļ äºĨ
åħħåĪĨ ä¼ĳæģ¯
åĳµ æĬ¤
çĶ±äººå·¥ å¼ķç§įæł½åŁ¹
6 1
ä¸į åıĳçĶŁ
ä¸Ģ é¢Ĺ
æĪĸ åĲİ
åĨħ éħ°èĥº
ä¹Ł åĮħæĭ¬
å¾Ī å¤įæĿĤ
æ³ķ è§Ħ
çĻĮ çŃī
åıį å¸¸
èĤ¾ ç»ĵæł¸
åĩºè¡Ģ æĹ¶
æ¯Ķè¾ĥ çļĦ
çĦ¦èĻĳ çĹĩçļĦ
ä»į ä¸įèĥ½
ç»Ŀç»ı åīį
ä»ħä»ħ æĺ¯
å¤¸ å¤§
ä¸į å±ŀäºİ
è¦ģ å®ļæľŁ
åľ¨ åģļå®Į
è¿ĩ çĮĽ
äºĨ ä»¥åĲİ
æĭ ĺ
å¦Ĥæŀľ ä½łçļĦ
åĪĨæ³Į çļĦä¸Ģç§į
é»Ħ éħĴ
ç¡¬ çļ®çĹħ
åħī çħ§
çĶµ ç£ģ
äºĶ å¤©
éĽĮæ¿Ģç´ł åĪĨæ³Į
çĹ° æ¹¿
ä¸įè¦ģåĲĥ è¾Ľè¾£åĪºæ¿ĢæĢ§çļĦé£Łçī©
åģľæŃ¢ æ²»çĸĹ
éĹ´æİ¥ æİ¥è§¦
æĦŁæŁĵæĢ§ ä¼ĳåħĭ
çľ¶ åĨħ
åīĬ å¼±
äºĶåĳ³ åŃĲ
( -
æĺ¯ å¾Īå¤ļ
ä¸į æħİ
åľ¨ åŃ©åŃĲ
åĩº åħ¥
åĪĨ æ¬¡
ä¸ĭ è¿°
åı¯ä»¥ å¯¹
çĲĨ çĶ±
åı£ çļĦ
åįµå·¢ ç»Ħç»ĩ
åĨį åĬł
è¡Ģæ¶² ç³»ç»Ł
åŃĺåľ¨ æľī
èĦĬ ç¥ŀç»ıæł¹
ä¸įè¶³ æĪĸ
æľĢå¸¸è§ģçļĦ åİŁåĽłæĺ¯
å¤ļåĸĿ çĤ¹
éĽĦ æĢ§
is t
åĵŃ æ³£
åĩ¶ éĻ©
éĢĥ éģ¿
Ġth e
x çº¿
ä»¥ ç¡®ä¿Ŀ
çĹĩçĬ¶ åĮħæĭ¬
èĤł çĹħ
èĤī æ±¤
èĤ¿çĺ¤ ä¹ĭä¸Ģ
çľĭ æĿ¥
ä¹Łåı¯ è¡¨çİ°ä¸º
å¤§ä¾¿ ä¸į
èħ¹èĥĢ çŃī
ä¸Ń åı¯
åĲĪ æł¼
å¦Ĥæŀľ åĽĬèĤ¿
åıĳèĤ² çķ¸å½¢
åįĬ èĥ±æ°¨éħ¸
æµ·é²ľ çŃī
åĳĭ åĸĥ
æ£ĢæŁ¥ ä¸Ģæ¬¡
èıĮ æĸĳ
çĶŁæ´» è¦ģæľīè§Ħå¾ĭ
è¿Ļç§į æ²»çĸĹæĸ¹æ³ķ
æĶ¹ æİī
æľº åĮĸ
æĥħç»ª ä¸įç¨³
åħŃ åįģ
ä¸įåĪ© çļĦå½±åĵį
å»¶ç¼ĵ è¡°èĢģ
å·¦æĹĭ å¤ļå·´
æĦŁæŁĵ åĪ°
æĭ ¼
è¿Ľè¡Į èį¯çī©æ²»çĸĹ
åİ» çľĭåĮ»çĶŁ
è¯ĬæĸŃ ä¸İ
æĶ¹ èī¯
è¡Ģç®¡ çĹīæĮĽ
å±Ģéĥ¨ åĩºçİ°
æİ§åĪ¶ è¡Ģåİĭ
è¥¿ åħ°èĬ±
åĽŀ å¤į
åıĹåĪ° ä¼¤å®³
è¿Ľåħ¥ éĺ´éģĵ
èĩªéĹŃ çĹĩçļĦ
çľ¨ çľ¼
9 2
çļĦ æĹ¶åĪĨ
æľŁ æľĽ
å®¶ äººçļĦ
éĢłæĪĲ ä¸Ģå®ļçļĦ
åħħ æ²Ľ
åĽłæŃ¤ å¯¹
æł¹æį® ä¸´åºĬ
ç»ĵèĤł çĻĮçļĦ
æĢĿ ç´¢
ä»¥ä¸Ĭå°±æĺ¯ éĴĪå¯¹
çļĦé«ĺ ä½İ
çļĦ äºĨ
çļĦ èĦĤèĤª
èµ· ä¼ı
ä¸» å¹²
æĺĵ è¯±åıĳ
ç²¾ç¥ŀ å¼Ĥå¸¸
åĽ´ çĶŁ
åħĭ åĪ¶
è§¦ ç¢°
æĬ½ é£İ
ä»¥ä¸º æĺ¯
AI DS
çļĦ æµĭå®ļ
æĹ¶ ä¼ļåĩºçİ°
å¸¸ çĶ¨éĩı
æĤ£ è¿ĩ
åĨħ çİ¯å¢ĥ
èĤł ç©¿åŃĶ
èĦĳ çļĦ
å½ĵ ä»Ĭ
åįķ çľ¼
æ´»åĬ¨ ä¸Ń
åħī æķı
æİĴåįµ è¯ķçº¸
ä¸Ĭåįĩ è¶ĭåĬ¿
è¿ĩéĩı é¥®éħĴ
èĬ±çĶŁ ç±³
çļĦ ä»·æł¼
æĢ§ æ¹¿çĸ¹
åºĶ ç§¯æŀģæ²»çĸĹ
æĪĲ çīĩ
åı¯ä»¥ å°Ŀè¯ķ
ç® Ń
å®«é¢Ī çĸ¾çĹħ
æ¶ĪåĮĸ åĨħç§ĳ
çĶ·æĢ§ å¤ļäºİå¥³æĢ§
æĮ¯ åħ´
éĢĤåºĶ èĩªçĦ¶
çºµ åĲĳ
HC O
E LISA
æĢ§ éľĩé¢¤
åı¯ ä¿ĥä½¿
æ²»çĸĹ èį¯çī©
èį¯ éĩı
èµ· èĩª
è¿Ľè¡Į æ¶Īæ¯Ĵ
æŃ¤ çĹĩ
çĽ¸ çŃī
çĹħåıĺ ç»Ħç»ĩ
è¡Ģæ¶² æĪĸ
å¤§ä¾¿ éĢļçķħ
éļ¾ä»¥ æİ§åĪ¶
R F
Ġ 11
åĨħ å±Ĥ
æīĭ æĮĩçĶ²
æľĢ éĢĤåĲĪ
æ¸ħ çĪ½
åŃĲå®« å¤§å°ı
éĿŀå¸¸ æĺİæĺ¾
èĢĮä¸Ķ è¿ĺæľī
åĨ· åį´
æĺ¯åĲ¦ æĢĢåŃķ
ä»¥åħį åĬłéĩįçĹħæĥħ
æĭī ä¸ģ
éħ® ä½ĵ
æ¸ħæ¥ļ åľ°
è¾ĥå¤§ æĹ¶
åĢį ä½ĵ
çĹħåİŁä½ĵ ä¾µåħ¥
åıĺæĢ§ åĿıæŃ»
æľīä¸Ģ å±Ĥ
åıĳå±ķä¸º èĤĿç¡¬åĮĸ
æĬĹçĶ²çĬ¶èħº èį¯çī©
æĺ¯ çĽ¸å½ĵ
è¦ģ åŃ©åŃĲ
åĴĮ æĻļæľŁ
å¤§ èĤĮ
çĿ ģ
æ¯Ĵ åĵģ
æĦŁæŁĵ æĺ¯
ä¸¤ éĿ¢
éĺ´éģĵ åīįå£ģ
æ¶Ĥ æĵ¦
èĤ¾åĬŁèĥ½ åĩıéĢĢ
é¢ħåĨħ é«ĺåİĭ
å¤§å¤ļ åľ¨
è¿Ľå±ķ ä¸º
åĪĴ çĹķ
æ´¥ æ¶²
çļĦ æĢ¥æĢ§
æ¯ ħ
æĥħ å¢ĥ
å½±åĵį çĿ¡çľł
è½» çļĦ
æķĪæŀľ æĽ´å¥½
å°¿éģĵ ç»ĵçŁ³
å¤ª çĥŃ
ä¸ŃåĮ» ä¸Ńèį¯æ²»çĸĹ
ä¹¦ åĨĻ
æĳ©æĵ¦ åĴĮ
èĿ ´
ç£º éħ¸
å¤¹ å±Ĥ
å¤§å¤§ å¢ŀåĬł
æ»´çľ¼ æ¶²
æľī è¾ĥå¥½çļĦ
åŃ Ł
æĪĸ æµģäº§
æĤ£èĢħ åıĳçĶŁ
åŃĲ çĹ«
å¾Ĺ è¿ĩ
åºĶè¯¥ éĢīæĭ©
æĺ¯ä»Ģä¹Ī æł·
ä¸Ģå®ļè¦ģ éģ¿åħį
å»ºè®® æľĢå¥½
åħ·æľī ä¸Ģå®ļ
åĪĨä¸º ä¸¤ç§į
æ°´å¹³ å¢ŀé«ĺ
åı£æľį èį¯çī©æ²»çĸĹ
å±ŀäºİ æŃ£å¸¸
å°¿é¢ĳ å°¿çĹĽ
è°ĥçĲĨ å¥½
åĲį è¯į
åĪĨåŃĲ å¼ı
è¾ĥé«ĺ çļĦé£Łçī©
åĮĸèĦĵæĢ§ çĤİçĹĩ
èĥ¶åĽĬ é¡»æ³¨æĦıçļĦäºĭé¡¹
æ³¡æ²« çĬ¶
æĪĲæ´» çİĩ
æłĢ åŃĲ
æ²» å®ľ
éģ ı
æľĢ å¤ļçļĦ
çĹħæ¯Ĵ å¼ķèµ·
åºĶè¯¥ å¤ļ
éļ¾ äºİ
æĸĳ ç§ĥ
ä¿ĥè¿Ľ æĸ°éĻĪä»£è°¢
å°¤åħ¶æĺ¯ å¯¹äºİ
ä¸ĢæĹ¦ æĤ£ä¸Ĭ
ä¼ļéĺ´ éĥ¨çļĦ
éĻĲåĪ¶ èĦĤèĤª
è½¬åĮĸ æĪĲ
ãĢĭï¼ļ âĢľ
N P
çļĦ åħ¸åŀĭçĹĩçĬ¶
ä¸į ä¸İ
æĪĸ éĺ´éģĵ
å¯¹ æĪĳä»¬çļĦ
åºĶ å°½éĩıéģ¿åħį
åįµ çĬ¶
é¥®é£Ł ä¸ºä¸»
èĤ¿çĺ¤ ç»ĨèĥŀçļĦ
æį® æĬ¥éģĵ
è¶ħ éĩį
èĬ± æ¤°
è¿Ļä¸ª çĹĩçĬ¶
èĦĬ ç¥ŀç»ı
æĹ¶éĹ´éķ¿ çŁŃ
éħĴç²¾æĢ§ èĤĿçĹħ
çģµæķı åº¦
éĶ¯ é½¿
å® ¾
åľ¨ çĶŁçĲĨ
æĪĸ è¾ĵåįµç®¡
æĪĸ è½»åº¦
æŃ£å¸¸ ç»Ĩèĥŀ
éģ¿åħį åĽł
ä¸įèī¯ çļĦé¥®é£Łä¹łæĥ¯
ç²¾åŃĲ çĶŁæĪĲ
ç»´æĮģ æ²»çĸĹ
çºµ è¡Į
åıĳæĮ¥ ä¸ªäºº
åľ¨ å®Ŀå®Ŀ
èĥ½ äº§çĶŁ
å¸¸ äºº
çŃī æĪĲåĪĨ
å¤ĸ éĤª
ä¸įèĥ½ è¿Ľé£Ł
èĤº èĦı
éĤ£ éĩĮ
æ¤İ èĬĤ
æ¡ £
æĬĹä½ĵ åĴĮ
æĬĺ åıł
ç³ľçĥĤ æĢ§
å¤§ä¾¿ å¸¦è¡Ģ
é¢ħ ç¥ŀç»ı
éĺ´åĽĬ çļĦ
ä¼ı æ¡Ī
æĦıè¯Ĩ æ¨¡ç³Ĭ
åıªèĥ½ éĢļè¿ĩ
æĬĹèıĮ æ´»æĢ§
æ²īç§¯ äºİ
å¾Īå¥½ çļĦæ²»çĸĹæķĪæŀľ
åĶĲæ°ı çŃĽæŁ¥
çļĦ è¦ģæ±Ĥ
ä½Ĩ æľīäºĽ
åĬŁèĥ½ å¤±å¸¸
èĭ £
å¸¸è§ģ æľī
åħįçĸ« æĢ§çĸ¾çĹħ
éĢļå¸¸ ä¼´æľī
å²ģ å®Ŀå®Ŀ
ç¢ĺ åħĥç´ł
çļĦä¸Ģç§į æĸ¹æ³ķ
èĩªçĦ¶ çķĮ
éĢĤå½ĵçļĦ éĶ»çĤ¼
æľ¬èº« å°±
æħ¢æħ¢ åľ°
èħ°éĥ¨ èĤĮèĤī
æĺŁ çĬ¶
æ¨ª çªģ
ä¸ºä»Ģä¹Ī ä¼ļ
äº§åīį æ£ĢæŁ¥
-------- --------
çİ°å®ŀçĶŁæ´»ä¸ŃçļĦ æĮ«æĬĺ
ä¼ļ ä¸¥éĩįå½±åĵį
éĩı è¡¨
æį Ĳ
éľĢ çĶ¨
å¤´ é¡¶
åŃĲå®« æľī
çĸ¼çĹĽ çŃīçĹĩçĬ¶
æīĢä»¥ æ²»çĸĹ
åıĳçĹħ ä¾ĭ
æīį åĩºçİ°
ä»ħ åįł
è±Ĩ æ¸£
åıĤ çħ§
çĿ¡çľł åħħè¶³
åı² èĢħ
çļĦæĸ¹æ³ķ æĿ¥ç¼ĵè§£çĹħæĥħ
çĽ¸å¯¹ æ¯Ķè¾ĥ
ç»ıè¿ĩ ä¸Ģæ®µæĹ¶éĹ´
å°½å¿« æ²»çĸĹ
çŃīåĿĩ åı¯å¼ķèµ·
è¶ħå£°æ³¢ æ£ĢæŁ¥
èĭ¯ä¸Ļ æ°¨éħ¸
çļĦåīįæıĲ ä¸ĭ
æŃ£ç¡®å¯¹å¾ħ çİ°å®ŀçĶŁæ´»ä¸ŃçļĦæĮ«æĬĺ
ç¤¾ä¼ļå¿ĥçĲĨ æĶ¯æĮģ
æŃ£ç¡®å¯¹å¾ħçİ°å®ŀçĶŁæ´»ä¸ŃçļĦæĮ«æĬĺ åĴĮçĸ¾çĹħ
7 8
Ġ æľ¬çĹħ
çļĦ åº·å¤į
æĢ§ æīĭæľ¯
èĢħ åı¯çĶ¨
å¦Ĥ åıĳçĥŃ
éľĢ è¡Į
èĤĮ å¼ºçĽ´
é¼» æģ¯èĤī
é¢ĳ æķ°
æ¯ıå¤© åĲĥ
æĤ£èĢħåľ¨ æĹ¥å¸¸çĶŁæ´»ä¸Ń
æķĻ åŃ¦
"" ï¼Į
åĨħå¤ĸ åĽłç´łå¼ķèµ·çļĦ
æģ°å½ĵ çļĦ
ç¥ŀå¿Ĺ ä¸įæ¸ħ
èĥ¸éĶģ ä¹³çªģ
æĪĸ æĢ¥æĢ§
éľĢè¦ģ è¿Ľä¸ĢæŃ¥
äºĮ èĥİ
åŃ©åŃĲ æľī
éĢĤå½ĵ å¯»æ±Ĥ
éĩĩåıĸ éģ¿åŃķæİªæĸ½
æµĵåº¦ åįĩé«ĺ
en ce
èĬ½ èĥŀ
å®ĥä»¬ çļĦ
æľīæľº ç£·
èĬ¥ èıľ
è¾¨è¯ģ è®ºæ²»
âĢ¦ âĢ¦
åıĳæĮ¥ä¸ªäºº ä¼ĺåĬ¿
æĺ¯ æĹł
è¦ģ å¤ļåĲĥä¸ĢäºĽ
åĴĮ æĥħç»ª
ä¸Ń ä¹Ł
æĤ£èĢħ ç¦ģçĶ¨
åħ» å¿ĥ
ä»ĸ æ±Ģ
æĹ¶éĹ´ ä¸º
åĨį åĲĥ
è¡¥ åģ¿
åĳ¼åĲ¸ ä¸Ńæŀ¢
çļĦæĸ¹æ³ķ æĿ¥è¿Ľè¡Į
ä¾Ŀ æ³ķ
å¦Īå¦Ī çļĦ
ç²¾æ¶² çļĦ
åĨ° è¢ĭ
äºı æįŁ
å¯»æ±Ĥ ç¤¾ä¼ļå¿ĥçĲĨæĶ¯æĮģ
åīįé©± çĹĩçĬ¶
æ²» åĲĹ
æĪĸ åĩıè½»
è¿ĩ å¤§çļĦ
æĭ ¨
ç±» å¤©çĸ±çĸ®
åı£ çĸ®
æŃ£å¸¸ é¥®é£Ł
è¶³ ä»¥
æ´Ĺ èĥĥ
è¶ħ è¶Ĭ
ç»ıå¸¸ æ¸ħæ´Ĺ
åķ ¦
er g
ç¬¬äºĮ ä½į
å¹¶ä¸įæĺ¯ è¯´
æ´»è·ĥ çļĦ
çĶ¨æ¸©æ°´ æ¸ħæ´Ĺ
åħĭæľį äººæł¼
éĻįç³ĸ èį¯
èĳµ èĬ±
äºļç¡Ŀéħ¸ çĽĲ
Gra ves
æ²»çĸĹçļĦåħ³éĶ®åľ¨äºİ å»ºç«ĭä¿¡å¿ĥ
çļĦ éķ¿æľŁåĪºæ¿Ģ
åı¯ åºĶçĶ¨
åľ¨ ä¸Ģ
åĴĮ B
å¯¹ åīįåĪĹèħº
ä¹Ł æĹłæ³ķ
è´ º
å¹¶ ä»¥
åı¯èĥ½ å½±åĵį
è¿ĺ åı¯èĥ½ä¼ļ
æĤ£èĢħçļĦ åģ¥åº·
åĭ ĩ
æ¢ħæ¯Ĵ æ»´åº¦
çĦ¦ æ²¹
æ¸Ĺ åħ¥
ä¸ľ åįĹ
ä¸įè¦ģåĲĥ è¾Ľè¾£åĪºæ¿ĢæĢ§é£Łçī©
çļĦæĹ¶éĹ´ åĨħ
èĦĵæĢ§ çĻ½å¸¦
åŀĤä½ĵ åīįåı¶
çļ®èĦĤ æº¢åĩº
ç¨į å¤§
èĵ ī
èĭĶ çĻ½
æĪĺèĥľ çĸ¾çĹħçļĦä¿¡å¿ĥ
èĳĽ æł¹
æĮ¯åħ´ ç²¾ç¥ŀ
çļĦ éĩĬæĶ¾
çļĦ åĽ°æī°
åıĳ ç¡¬
èĥ½ åĩıå°ĳ
å¤§ åı¶
é£Ł éĩı
å¤ĸ æº¢
åħ¨ åĪĩ
ä¸¥éĩį äºĨ
ä¸¥éĩį è´«è¡Ģ
è½¬ åĲĳ
åıĬæĹ¶ åĪ°åĮ»éĻ¢
æıĲ èµ·
éĥ¨åĪĨ äºº
æĺ¯ä¸Ģç§į æ¯Ķè¾ĥ
åħ·æľī å¾Īå¼ºçļĦ
çĽ®åīį æ²¡æľī
ä¸ĭèĤ¢ çļĦ
åľ°åĮº çļĦ
æŁłæª¬ éħ¸
å¼Ģèħ¹ æīĭæľ¯
ç©¹ éļĨ
ä¸ĭéĿ¢ä¸ºå¤§å®¶è¯¦ç»Ĩ çļĦä»ĭç»įä¸ĭ
ä»¥ äºĨè§£
åıĳ åĩºçļĦ
å¸¸ çĶ¨äºİ
å± ¡
ä½¿ åŃĲå®«åĨħèĨľ
çĹħäºº å¸¸
åĻ ©
çľĭ æ³ķ
çĶµ éķľ
ä¸ªæľĪ æĹ¶
çĶŁçĲĨ åĽłç´ł
æĬ¤çĲĨ ä¸įå½ĵ
æĮĩå¯¼ æĦıè§ģ
om e
æŁ¯èĲ¨å¥ĩ çĹħæ¯Ĵ
è§£æĶ¾ æĸ¹æ³ķ
éĢĤå½ĵå¯»æ±Ĥ è§£æĶ¾æĸ¹æ³ķ
åħĭæľįäººæł¼ å¼±çĤ¹
Ġ åĦ¿ç«¥å¿ħé¡»åľ¨æĪĲäººçĽĳæĬ¤ä¸ĭä½¿çĶ¨
çļĦ éľĢæ±Ĥ
çļĦ é¦ĸéĢī
ä¸Ģ é¡¿
åĬł çıŃ
è¿Ľè¡Į å¯¹çĹĩæ²»çĸĹ
ä¸»è¦ģ ä¸´åºĬè¡¨çİ°ä¸º
åŃĲå®« è¾ĵåįµç®¡éĢłå½±
èĦĤ ç±»
å±Ģéĥ¨ æĦŁæŁĵ
åħĭ æĭī
å¿ĥçĲĨ ä¸ĬçļĦ
æĹ¥å¸¸ çļĦé¥®é£Ł
æ£Ģæµĭ æĸ¹æ³ķ
å¸¦æĿ¥ æŀģå¤§çļĦ
åŀĤä½ĵ æĢ§
åıĮä¾§ æĢ§
å¨ģèĥģ åĪ°
æĦ¿ æľĽ
ç»´æĬ¤ æ³ķå¾ĭ
çĹħ æĪ¿
åı¯ä»¥ ä¸į
è§ģ çº¢
æľĢ å¼º
èį¯çī© çĸĹæ³ķ
å¸¦ èĴĤ
å¥³æĢ§ æĤ£æľī
å» ī
èĤĽ èħº
ç»Ļ ä»ĸ
åĲĦ åĽ½
åĽ½ åĬ¡éĻ¢
åĿĹ éĴ±
çĽ®åīį ä¸´åºĬä¸Ĭ
åĶ ±
å¥¶ éħª
å°¿è·¯ åĪºæ¿ĢçĹĩçĬ¶
ä¸įåħ¨ æµģäº§
æµģæĦŁ åĹľè¡ĢæĿĨèıĮ
ç¢° æĴŀ
çĶ·æĢ§ä¸įèĤ² çĹĩ
çĶŁæ´»åĴĮ åħħè¶³çļĦçĿ¡çľł
å¨±ä¹Ĳ ä¼ĳéĹ²
çĬ¹ å¦Ĥ
é©¬æĭīèī² èıĮ
ç»´æĬ¤æ³ķå¾ĭ çĶŁæ´»åĴĮåħħè¶³çļĦçĿ¡çľł
çļĦ èĥİåĦ¿
è¦ģ èŃ¦æĥķ
æĹ¶ ä¸Ģå®ļè¦ģ
åľ¨ è¿ĻäºĽ
åıĺ èī²
çĸ¾çĹħ ä¸Ń
å¦Ĥæŀľ è¦ģ
å½ĵ äººä½ĵ
æ¸ħ æĸ°
éĢłæĪĲ æįŁä¼¤
ç»Ħç»ĩ æįŁä¼¤
çĹħåıĺ åľ¨
å°±ä¼ļ åıĺå¾Ĺ
å®ľ å¤ļåĲĥ
åı¦å¤ĸ ä¸Ģç§į
åģı èº«
å¹´è½» æĤ£èĢħ
åŃĲå®«åĨħèĨľå¼Ĥä½į åĽĬèĤ¿
åŁºåºķ åĬ¨èĦī
æľīå®³ çļĦ
çļĦ è¾¹ç¼ĺ
æĺ¯ å¾Īå¥½çļĦ
çŃī æ°´æŀľ
èĤ¿çĺ¤ åĿıæŃ»
å¼ķèµ·çļĦ çĸ¼çĹĽ
çĻ½å¸¦ å¼Ĥåĳ³
å¤ª å¿«
è¿ĩåº¦ æ´»åĬ¨
å¤§ä¾¿ å¤±ç¦ģ
è¯¯ è®¤ä¸ºæĺ¯
ä¸ľ åĮĹ
åĮĸçĸĹ åĲİ
åĮĸèĦĵæĢ§ èĦĳèĨľçĤİ
çļĦæŃ£å¸¸ åĢ¼
æµģè¡ĮæĢ§ æĦŁåĨĴ
éĿŀçĶ¾ä½ĵ ç±»
æĢ§ èĤ¾çĤİ
æĢ§ çĹ´åĳĨ
æľī åĬĽ
åĴĮ èĤ¾
ä¸įè¦ģ ä¹±
çĶļ èĢħ
éķ¿æľŁ ä¾¿ç§ĺ
éĢļå¸¸ æīĢè¯´çļĦ
æİ¥è§¦ æĢ§
æĽ² éľī
åıĬæĹ¶çļĦ åİ»
åĮħçļ®åĨħ æĿ¿
åľĨæŁ± å½¢
å¼ºçĽ´æĢ§èĦĬæŁ± çĤİ
å¿ĥæİĴ è¡Ģéĩı
çļĦ éļľç¢į
æĺ¯ åįµå·¢
èĥĥ åĨħå®¹çī©
ç¥ŀç»ı æ¢ħæ¯Ĵ
åĩºè¡Ģ åıĬ
çļĦé£Łçī© ä¸ºä¸»
åįķ æ¬¡
æĢĢåŃķ çļĦåĩłçİĩ
æİ¥è§¦ äºĨ
åĲĪçĲĨ çĶ¨èį¯
èĦĬæŁ± çķ¸å½¢
åıĮä¾§ åįµå·¢
èĭ¯ å·´æ¯Ķå¦¥
è½¯éª¨ çĺ¤
èĳ¡èĲĦç³ĸ éħ¸
çĪ¶æ¯į çļĦ
m L
ä»¥ æĺİç¡®è¯ĬæĸŃ
åĴĮ çİ¯å¢ĥ
æ°´ éĴł
çĻ½ åıĳ
èıĮ è¡ĢçĹĩ
ä¹ĭ ä¸Ĭ
ç»Ĩèĥŀ åĪĨåĮĸ
çļĦæ²»çĸĹ ä¸»è¦ģæĺ¯
è¡Ģç®¡ åĨħçļ®
èĦ± æ¯Ľ
ä¼´æľī åıĳçĥŃ
å»ºè®® åģļ
åħ·æľī æĺİæĺ¾çļĦ
çīĻ æ§½
æīĵ åĳ¼åĻľ
åĮĸåŃ¦ æ¯Ĵçī©
ä¹ī åĬ¡
æŃ£ç¡® çļĦæ²»çĸĹ
åıĹä½ĵ æĭ®æĬĹåīĤ
çŃĽ æ£Ģ
ç¾ĬèĤī çŃī
é¼ĵåĬ± æĤ£èĢħ
èĿ´ èĿ¶
æĢ§ åĩī
åľ¨ è¿Ļä¸ªæĹ¶åĢĻ
åĴĮ æĬĳåĪ¶
åºĶ å°½åı¯èĥ½
éħ Ĭ
èĢĮ æĿ¥çļĦ
èĥĥ çģ«
èĦĳ åĬ¨èĦī
æĺĵ åıĳ
éħ¸ æŀ£
å¥³æĢ§ èº«ä½ĵ
ï½ Ģ
æµĭ åĩº
ä¾ĭ åŃĲ
å£ģ ç»Ĩèĥŀ
è¿Ľåħ¥ æĽ´å¹´æľŁ
ç¡®è¯Ĭ æĺ¯
éĩĳ éĴĪ
æĶ¾å°Ħ åĪ°
åĲ«éĩı é«ĺ
åĽĽèĤ¢ ä¼¸ä¾§
åĿĩè¡¡ èĲ¥åħ»
æī¾åĩº çĹħåĽł
åĲŀåĻ¬ ç»Ĩèĥŀ
k e
åĩ ¤
æĪĸ éĿŀ
å¯¹ æĤ¨
æĤ£èĢħ è¿ĺä¼ļåĩºçİ°
åºĶ æľī
å¿ĥ èº«
æį ŀ
åĩºè¡Ģ çļĦçĹĩçĬ¶
çļĦçĹĩçĬ¶ ä¸İ
èĤĽ æıĲ
åĳĪ æħ¢æĢ§
å°±ä¼ļ å¼ķåıĳ
èĥİåĦ¿ å®«åĨħ
ä»¶ äºĭ
åĨ² ä»»
éĶĻ æŀĦ
æľīä»Ģä¹Ī åį±å®³
å¼ºçĥĪ æĶ¶ç¼©
ç²¾ç¥ŀåİĭåĬĽ è¿ĩå¤§
PT H
çļĦ é¢ĦåĲİ
ä¸į æĦīå¿«
åľ¨ é¥®é£Ł
åĴĮ åĳ¨åĽ´
åĨħ åĲĳ
çº ½
çļ®èĤ¤ ä¸ĬçļĦ
æĹ© æĲı
çī¹åĪ«æĺ¯ å¯¹äºİ
åī§çĥĪ å¤´çĹĽ
éº»éĨī èį¯
éĺµ çĹĽ
æİ¢ è®¨
æ¶ĪèĢĹ æĢ§çĸ¾çĹħ
å¿µçıłèıĮ æĦŁæŁĵ
è´Ŀ æ¯į
å¾· åĽ½
æ¶ĪèĤ¿ æŃ¢çĹĽ
å¤ļç§įå¤ļæł· çļĦ
ä¸įä»ħä»ħ æĺ¯
æĶ¶ç¼©æľŁ æĿĤéŁ³
ï¼ ¼
åľ¨ æĪĲäºº
å¤ļ æĸ¹éĿ¢çļĦ
ç»ı èĦī
éģ¿åħį çĿĢåĩī
åİ» è§Ĵè´¨
æ¶ĪåĮĸ é£Łçī©
è¡¡ éĩı
æ·· æĿĤ
ç»´æĮģ åľ¨
çĹħç¨ĭ çŁŃ
å±Ī èĤĮ
è¿Ľå±ķ ç¼ĵæħ¢
åı¯ä»¥ä½¿çĶ¨ ä¸ĢäºĽ
æ¸ħæĻ° çļĦ
å·©åĽº æ²»çĸĹ
çļĦ å½¢çĬ¶
æĢ ¨
æĢ§ çĹ¤çĸ®
èĥ½ æ´»
æĤ£èĢħ éľĢ
ä¸»è¦ģ ä¾µçĬ¯
æŃ¤ æĸ¹æ³ķ
å¤© çĶŁ
åĲ¸ å®«
ç»Ħç»ĩ ç»ĵæŀĦ
èĮ µ
äººä½ĵ å¯¹
ç´§ éĹŃ
è¾Ľè¾£ çļĦ
åĨħåĪĨæ³Į åĻ¨å®ĺ
åħ·ä½ĵ çļĦæĥħåĨµ
é£Łæ¬² å·®
å¤ĸä¼¤ æĪĸ
æĺ¾èĳĹ å¢ŀåĬł
æĬĹèıĮ èį¯
ç¢İ å±ĳ
å¥ĩ å¼Ĥ
æĩĤ å¾Ĺ
èª ī
äº ķ
åľ¨ ç»ıæľŁ
çİ° å¦Ĥä»Ĭ
èĢĮ ä¸įçķħ
çĸ¾çĹħ æĺ¯
åĨį è¡Į
å¿« çļĦ
è¿Ļæł· å¯¹äºİ
å¤ļæķ° çĹħä¾ĭ
å¿ĥçĲĨ åģ¥åº·
æľīçļĦ çĶļèĩ³
åĨ° çīĩ
çĽ´å¾Ħ ä¸º
ç±»é£İæ¹¿ åĽłåŃĲ
ST æ®µ
æľī çĸ¼çĹĽ
æľī éĩįè¦ģæĦıä¹ī
ä¸Ģ æīĭ
åľ¨ çĽĨèħĶ
ä¸ĭ åįĬèº«
å°ı èħ¹çĹĽ
å¹¶ å½¢æĪĲ
åĽĬ æ³¡
é¥®é£Ł åĽłç´ł
èĤ¿çĺ¤ ä¾µçĬ¯
ä»İ åı£
åĬ© æ¶ĪåĮĸ
åħ·æľī éĩįè¦ģæĦıä¹ī
å¿ĥçĲĨ éĹ®é¢ĺ
åĨħåĪĨæ³Į æ¿Ģç´ł
çķ¸å½¢ ç²¾åŃĲ
æ§ Ĳ
ä¹Ļéħ°æ°¨åŁº éħļ
çļĦ æĬĹ
æĪĸ ä»¥
æĤ£èĢħ èº«ä½ĵ
æľĢ åħĪ
ç¥ŀç»ı ç®¡
ç»´ A
æĸ¹æ³ķ ä¹ĭä¸Ģ
éĢłæĪĲ æĦŁæŁĵ
çīĩ ä¸Ĭ
ä»¥ä¸ĭ æĺ¯
å¼Ģå§ĭ ä¸º
å¾Īå¿« å°±ä¼ļ
å°ıèĦĳ æĢ§åħ±æµİå¤±è°ĥ
æĶ¾å°ĦæĢ§ çĸ¼çĹĽ
Ġc ell
çļĦ ä¿ĿæĬ¤
èĥ½ è¾¾åĪ°
çŃī ä¹Ł
ç±» åĪ«
åŀĭ åıĬ
æĽ´ æĺĵåıĳçĶŁ
åıĳçĹħ ä¸İ
æĶ¾ çº¿
å»º è®¾
å°¿éģĵ çļĦ
å¤ļæķ° æĥħåĨµä¸ĭ
ä¹ħ è¹²
åħ¨èº« æĦŁæŁĵ
çĶµ åİĭ
å¤ĦçĲĨ æĸ¹æ³ķ
æī©å¼ł åĴĮ
çĻ½ç»Ĩèĥŀ æķ°
çīµ æ¶ī
ç»ĨèıĮæĢ§ æĦŁæŁĵ
åĺ´ è§Ĵ
æ©ĺ çļ®
æ¼Ķ åıĺä¸º
èµ·åºĬ åĲİ
å¢ĥçķĮ æ¸ħæ¥ļ
éŀ£ éħ¸
çĲ¥ çıĢ
C YP
i v
åľ¨ çļ®èĤ¤ä¸Ĭ
æĿ °
åºĶ å¤ļ
ä¹Ł å¤ļ
éª¨ èµĺ
éĿĻèĦī ç»Ļèį¯
ç»ıå¸¸ çĶ¨
çİ°åľ¨ å¾Īå¤ļ
å®«é¢ĪçĻĮ åīįçĹħåıĺ
å¾Īå¤ļäºº éĥ½ä¼ļ
çļĦçĬ¶æĢģ ä¸ĭ
å¡« åħħ
éĹ´æĸŃ æĢ§
çĶŁæ®ĸç»Ĩèĥŀ èĤ¿çĺ¤
ç» Ľ
å¤ļ æĹ¶
è¡Ģ çº¢ç´ł
åĨħ è´¨ç½ĳ
åı¯ä»¥ å®Įåħ¨
åĽĬ çĬ¶
å¤± åħ»
ä¸ĢäºĽ å°ı
æ²¡æľī åĩºçİ°
ä¼łæŁĵ çĹħçļĦ
è¿ĳ æĿ¥
èĢĥèĻĳ æīĭæľ¯æ²»çĸĹ
ä¸įå¥½çļĦ äºº
HE V
æ°¢åĮĸ åı¯çļĦæĿ¾
Ġ ä¸º
çĹħ è¯ģ
ä¸Ģ åĳ³
åı¯ä»¥ éĢīçĶ¨
æĦı æĦ¿
